// Exported from TinyDetector7Layer
// Shape: (256,), Bits: 16
@00000000 FFBF
@00000001 01EE
@00000002 011B
@00000003 0151
@00000004 0065
@00000005 01CA
@00000006 0194
@00000007 0257
@00000008 FFB6
@00000009 01E0
@0000000A 00A3
@0000000B 00CC
@0000000C FFCF
@0000000D 002E
@0000000E 00C9
@0000000F 0094
@00000010 0009
@00000011 00C5
@00000012 00BF
@00000013 00E0
@00000014 0129
@00000015 0059
@00000016 0085
@00000017 FFDE
@00000018 FF66
@00000019 0097
@0000001A 00D0
@0000001B 00EE
@0000001C FF26
@0000001D 0155
@0000001E 01CE
@0000001F 00FD
@00000020 0176
@00000021 003A
@00000022 008D
@00000023 00B2
@00000024 01A4
@00000025 FF64
@00000026 0031
@00000027 00AB
@00000028 007B
@00000029 FFC9
@0000002A FF8C
@0000002B 00FD
@0000002C 0277
@0000002D 000B
@0000002E 006F
@0000002F FF88
@00000030 FFF3
@00000031 FEF7
@00000032 FF66
@00000033 0077
@00000034 00E2
@00000035 0119
@00000036 01F4
@00000037 FF2A
@00000038 00B0
@00000039 02E3
@0000003A 03A1
@0000003B FEFE
@0000003C 0150
@0000003D 00B6
@0000003E 012A
@0000003F FFF6
@00000040 00F1
@00000041 009D
@00000042 0140
@00000043 009C
@00000044 00BE
@00000045 011A
@00000046 013C
@00000047 0068
@00000048 FEC2
@00000049 FF4D
@0000004A FF24
@0000004B 0145
@0000004C 0020
@0000004D 008E
@0000004E FFDC
@0000004F 014E
@00000050 002B
@00000051 0078
@00000052 0110
@00000053 0033
@00000054 009C
@00000055 FEE4
@00000056 FFCD
@00000057 0033
@00000058 FF96
@00000059 011B
@0000005A 016B
@0000005B FFE6
@0000005C 0020
@0000005D 00F3
@0000005E 0037
@0000005F 0011
@00000060 00AB
@00000061 FFCD
@00000062 FFBD
@00000063 0030
@00000064 FFBF
@00000065 0149
@00000066 0001
@00000067 FFD9
@00000068 FFF3
@00000069 00F8
@0000006A 0083
@0000006B 0261
@0000006C FFDE
@0000006D 0097
@0000006E FF9D
@0000006F 00F8
@00000070 00E6
@00000071 0023
@00000072 FFB5
@00000073 0014
@00000074 008E
@00000075 0135
@00000076 0097
@00000077 0081
@00000078 00B8
@00000079 FF62
@0000007A FF35
@0000007B 00CE
@0000007C FFDE
@0000007D 026C
@0000007E 0109
@0000007F 000D
@00000080 007F
@00000081 0041
@00000082 FFF6
@00000083 008D
@00000084 00D6
@00000085 016F
@00000086 00F8
@00000087 0195
@00000088 0051
@00000089 030D
@0000008A 00A6
@0000008B FF77
@0000008C 009F
@0000008D 0058
@0000008E 0114
@0000008F 00CC
@00000090 0138
@00000091 0045
@00000092 0154
@00000093 0160
@00000094 FF5B
@00000095 0100
@00000096 02DB
@00000097 0059
@00000098 01D0
@00000099 011F
@0000009A 0086
@0000009B 0106
@0000009C 00A2
@0000009D FF38
@0000009E 00C0
@0000009F 013C
@000000A0 FF6C
@000000A1 00F5
@000000A2 016C
@000000A3 FFDB
@000000A4 FF3F
@000000A5 00B3
@000000A6 00EA
@000000A7 FFFF
@000000A8 FFFB
@000000A9 0050
@000000AA 002E
@000000AB 01FB
@000000AC 004D
@000000AD 004A
@000000AE 00CE
@000000AF 00DD
@000000B0 00A7
@000000B1 0178
@000000B2 0052
@000000B3 FF7D
@000000B4 0111
@000000B5 000C
@000000B6 003D
@000000B7 00A4
@000000B8 FF85
@000000B9 01BD
@000000BA 0128
@000000BB 016F
@000000BC 0064
@000000BD 00B6
@000000BE 01C6
@000000BF 00C9
@000000C0 0077
@000000C1 0273
@000000C2 018C
@000000C3 00CC
@000000C4 01A4
@000000C5 0387
@000000C6 FFD3
@000000C7 00C2
@000000C8 FF30
@000000C9 00B2
@000000CA FFCF
@000000CB 00A0
@000000CC 0196
@000000CD 005F
@000000CE 009B
@000000CF 008D
@000000D0 001E
@000000D1 FF67
@000000D2 01A6
@000000D3 00E4
@000000D4 0066
@000000D5 0190
@000000D6 0062
@000000D7 0122
@000000D8 FF66
@000000D9 00DC
@000000DA 006C
@000000DB 00BA
@000000DC FF13
@000000DD 01E9
@000000DE 010D
@000000DF FF37
@000000E0 0040
@000000E1 01E7
@000000E2 0154
@000000E3 FF3B
@000000E4 020F
@000000E5 010E
@000000E6 FFCE
@000000E7 012D
@000000E8 FFF6
@000000E9 002D
@000000EA 00AF
@000000EB 00BB
@000000EC 00F6
@000000ED FE6C
@000000EE 005A
@000000EF 00B1
@000000F0 FFC2
@000000F1 01B0
@000000F2 001C
@000000F3 0011
@000000F4 0088
@000000F5 005B
@000000F6 0073
@000000F7 0101
@000000F8 01F8
@000000F9 009C
@000000FA 00AA
@000000FB 0124
@000000FC 0144
@000000FD 0080
@000000FE 0010
@000000FF 008A
