; Exported from TinyDetector7Layer
; Shape: (256, 128, 3, 3), Bits: 8
memory_initialization_radix=16;
memory_initialization_vector=
09,
FA,
04,
FF,
F9,
09,
02,
FE,
FB,
F5,
03,
03,
01,
0D,
04,
04,
05,
02,
03,
06,
07,
FB,
00,
02,
F8,
FA,
01,
03,
02,
02,
05,
FA,
02,
05,
FB,
FE,
F9,
04,
01,
FF,
0B,
06,
F3,
FA,
F2,
F9,
FD,
F1,
FB,
00,
07,
06,
06,
08,
FC,
FB,
FF,
00,
02,
02,
09,
07,
FB,
05,
03,
FF,
FE,
04,
08,
01,
FB,
FF,
FB,
01,
08,
02,
FC,
FE,
05,
01,
FB,
F6,
05,
00,
FB,
FF,
FD,
03,
02,
ED,
06,
F4,
FF,
01,
F2,
02,
05,
07,
01,
FE,
09,
FF,
F8,
F6,
FE,
FF,
FB,
07,
FD,
02,
F9,
04,
FA,
F7,
FF,
FD,
06,
FE,
FF,
01,
03,
0A,
FF,
00,
FD,
01,
FE,
02,
F7,
FF,
F9,
02,
03,
F0,
03,
FE,
FC,
FB,
FB,
FC,
02,
05,
01,
03,
FC,
03,
FE,
F8,
F5,
00,
FF,
00,
06,
00,
F4,
FE,
04,
F6,
07,
F6,
01,
FF,
FF,
01,
01,
01,
06,
0A,
FC,
FD,
F7,
FC,
ED,
0C,
02,
F9,
01,
08,
07,
02,
07,
03,
F6,
05,
FF,
01,
FB,
09,
FA,
02,
FE,
0C,
07,
01,
FF,
04,
03,
FB,
FE,
FF,
FD,
FF,
06,
08,
04,
03,
09,
FD,
0D,
FE,
FB,
FD,
04,
00,
01,
FF,
02,
02,
03,
FB,
FE,
0C,
FF,
01,
00,
03,
01,
01,
07,
08,
04,
08,
0F,
04,
06,
FB,
F8,
FF,
FE,
0D,
FE,
F8,
0B,
F2,
FF,
00,
F9,
04,
07,
FE,
F9,
FE,
FF,
FC,
FD,
00,
FB,
F6,
FC,
FC,
FB,
05,
F5,
F5,
00,
FF,
03,
FE,
FB,
01,
00,
FB,
F7,
FE,
04,
F9,
06,
F8,
FC,
01,
FB,
FF,
03,
F4,
0F,
08,
06,
03,
04,
02,
05,
00,
FA,
03,
03,
02,
08,
02,
04,
FC,
02,
F9,
FE,
F9,
01,
0A,
05,
01,
00,
03,
FF,
FD,
06,
FE,
ED,
F1,
FE,
01,
F4,
06,
F9,
03,
01,
F4,
04,
03,
FE,
FB,
F2,
03,
F8,
FE,
F6,
FF,
FE,
01,
F7,
FC,
FE,
0C,
FE,
04,
00,
F9,
02,
F9,
F8,
FD,
08,
08,
0B,
F7,
01,
01,
F8,
F9,
F6,
0B,
01,
F7,
07,
FD,
F5,
FC,
03,
F6,
F9,
05,
F9,
04,
FE,
02,
F9,
00,
07,
F2,
0A,
0B,
F6,
F8,
04,
F6,
05,
FA,
F6,
0A,
FC,
FC,
FB,
06,
FA,
08,
03,
07,
FB,
04,
03,
F5,
F9,
08,
F3,
FB,
FC,
F6,
01,
F5,
FE,
02,
FD,
01,
F7,
08,
F9,
00,
05,
00,
00,
F2,
05,
FE,
00,
02,
FD,
01,
F2,
00,
FB,
F5,
FE,
03,
08,
F1,
FD,
02,
07,
FF,
01,
06,
00,
00,
05,
0D,
02,
03,
0D,
FA,
F9,
03,
FE,
FC,
07,
01,
FE,
0D,
00,
00,
00,
F9,
04,
FB,
12,
01,
02,
F9,
04,
01,
F3,
00,
03,
04,
02,
04,
F5,
02,
FB,
0A,
FF,
07,
FE,
FC,
04,
FC,
01,
04,
03,
04,
07,
FD,
FC,
01,
F9,
02,
FD,
F6,
03,
FD,
00,
FD,
F7,
01,
00,
03,
FE,
FA,
FF,
00,
FE,
F5,
00,
0A,
03,
F9,
09,
F1,
07,
03,
FE,
08,
03,
09,
02,
04,
0D,
05,
02,
15,
F6,
07,
07,
FA,
00,
FD,
FD,
05,
04,
F1,
FA,
00,
F4,
02,
0F,
F3,
04,
FE,
F8,
01,
03,
05,
FE,
FD,
01,
0B,
FF,
FE,
06,
01,
FE,
08,
06,
06,
06,
F2,
03,
02,
FF,
06,
05,
06,
F6,
F6,
05,
FC,
04,
FA,
03,
F1,
05,
03,
FE,
FA,
F7,
01,
FE,
06,
08,
02,
01,
05,
06,
FF,
03,
02,
04,
FA,
00,
F0,
04,
FF,
00,
00,
FD,
0F,
02,
0B,
F7,
0B,
00,
FE,
FF,
01,
01,
01,
03,
09,
04,
08,
F8,
F4,
FF,
FA,
07,
07,
00,
F8,
FD,
06,
0A,
0E,
FE,
05,
FB,
FB,
06,
F6,
F6,
FC,
04,
0A,
FC,
07,
FD,
0C,
07,
F7,
FF,
FB,
FF,
06,
FC,
FB,
FF,
FB,
06,
08,
F9,
07,
FB,
FD,
FF,
FD,
FF,
FC,
01,
09,
0A,
FE,
07,
02,
F6,
F9,
FB,
02,
FA,
03,
05,
03,
04,
07,
02,
00,
FF,
08,
00,
03,
08,
00,
00,
0A,
02,
0A,
06,
00,
FC,
FE,
08,
09,
FD,
03,
03,
04,
04,
02,
05,
03,
06,
01,
08,
F8,
00,
F9,
F8,
FF,
02,
F9,
FC,
04,
02,
FB,
FF,
F6,
FC,
FD,
07,
04,
05,
0C,
FD,
FC,
FA,
01,
FC,
05,
F3,
FE,
F3,
00,
01,
06,
FB,
06,
0A,
04,
01,
0A,
FE,
04,
02,
06,
00,
FE,
04,
F9,
0B,
FA,
09,
02,
FE,
F6,
01,
FE,
FB,
0D,
FF,
02,
FD,
FC,
02,
03,
F8,
00,
02,
0B,
FB,
FD,
01,
03,
04,
FC,
F9,
FF,
F8,
FA,
10,
09,
05,
FA,
09,
FA,
FA,
0D,
FA,
FE,
FB,
07,
01,
F5,
F9,
0B,
FD,
FD,
FB,
FD,
01,
FD,
F8,
F9,
FD,
FD,
07,
FE,
09,
FF,
0F,
01,
FD,
FE,
06,
FA,
01,
02,
F8,
0E,
FE,
F9,
0A,
0B,
07,
02,
FD,
0A,
09,
F9,
00,
01,
02,
F4,
FC,
FF,
0A,
06,
F7,
F7,
0B,
02,
FE,
F3,
FD,
FC,
F6,
FF,
04,
01,
FF,
FA,
04,
FC,
FC,
FE,
FC,
FE,
00,
FA,
00,
FA,
08,
FA,
FC,
08,
FD,
06,
FC,
01,
FA,
09,
FE,
00,
04,
FF,
00,
00,
FF,
FF,
09,
FF,
FD,
01,
01,
FF,
05,
FC,
02,
0B,
FD,
05,
00,
F9,
FD,
FC,
FF,
FC,
F8,
FF,
FB,
06,
0E,
09,
03,
00,
05,
FA,
03,
06,
06,
02,
00,
00,
FC,
FE,
FD,
FE,
FE,
FF,
03,
02,
04,
01,
03,
FC,
FA,
F3,
06,
03,
FC,
FD,
FF,
FD,
02,
F6,
07,
02,
04,
FB,
00,
FF,
FF,
FB,
04,
F6,
00,
00,
FE,
0B,
FF,
FC,
08,
05,
00,
F4,
F6,
01,
04,
03,
06,
04,
F8,
FB,
01,
F1,
03,
08,
15,
01,
F7,
02,
09,
F8,
F6,
FE,
02,
00,
00,
04,
02,
FA,
FC,
F5,
F6,
FD,
0A,
F4,
04,
F8,
FD,
FD,
04,
EE,
06,
01,
03,
00,
06,
03,
FC,
08,
FC,
FD,
00,
01,
04,
FA,
04,
03,
00,
07,
00,
00,
01,
F9,
03,
0D,
F1,
F9,
06,
0D,
02,
10,
FD,
03,
FF,
F8,
03,
06,
F6,
02,
FD,
00,
FC,
06,
FE,
01,
04,
FD,
F4,
F7,
FE,
05,
FE,
02,
F7,
FF,
03,
0A,
09,
FE,
F7,
02,
06,
04,
02,
10,
05,
FC,
FE,
FA,
05,
F1,
01,
0E,
FF,
00,
F7,
02,
F8,
08,
FB,
FE,
06,
FC,
11,
01,
01,
07,
04,
00,
00,
00,
06,
06,
F9,
FF,
05,
09,
00,
02,
03,
02,
FA,
08,
FE,
01,
F4,
FA,
FA,
FE,
02,
03,
FB,
04,
FE,
FA,
03,
01,
FD,
09,
F6,
F7,
F1,
F9,
02,
FD,
FD,
04,
02,
FE,
04,
00,
07,
FF,
F3,
0B,
05,
FA,
F7,
04,
06,
03,
FA,
02,
FA,
02,
04,
05,
FE,
FD,
01,
02,
FB,
FC,
F9,
FF,
02,
FD,
FE,
00,
FD,
08,
01,
03,
07,
00,
04,
FF,
F8,
F6,
04,
FF,
07,
FF,
05,
FF,
0C,
00,
FF,
FF,
FE,
09,
FE,
F8,
01,
FE,
02,
00,
0B,
FF,
09,
0A,
F7,
FE,
FE,
F7,
FF,
F8,
FF,
F9,
09,
04,
06,
00,
04,
F3,
04,
05,
00,
04,
FE,
FC,
FE,
FD,
FA,
09,
FF,
00,
02,
01,
03,
FC,
07,
01,
FD,
F8,
F5,
00,
FF,
00,
FA,
F4,
F8,
0D,
02,
07,
04,
03,
04,
FB,
07,
04,
FE,
04,
FE,
04,
04,
0D,
01,
FE,
F6,
FD,
02,
02,
FB,
02,
03,
0A,
00,
FD,
FD,
05,
F7,
F9,
00,
FB,
03,
00,
FB,
FA,
FE,
FB,
FF,
F5,
FD,
FB,
FA,
FD,
FA,
EF,
F3,
FC,
05,
FE,
FE,
02,
04,
FC,
04,
FE,
FE,
FC,
FC,
FB,
04,
FF,
05,
07,
FF,
03,
01,
FC,
F4,
05,
FC,
FE,
FC,
FA,
07,
00,
07,
FA,
F6,
F5,
01,
03,
FB,
FA,
05,
00,
00,
F3,
02,
F4,
01,
01,
FB,
FF,
00,
07,
00,
FE,
0D,
00,
05,
FF,
FC,
06,
08,
05,
01,
FA,
FA,
FF,
00,
F8,
FA,
FF,
03,
FC,
F6,
F2,
F8,
F6,
F1,
EF,
FF,
04,
00,
03,
02,
04,
02,
05,
F7,
FE,
FF,
FA,
01,
08,
07,
07,
02,
04,
FF,
FB,
F7,
00,
03,
00,
01,
02,
FE,
00,
02,
01,
05,
02,
F4,
06,
0A,
00,
09,
0E,
07,
00,
00,
01,
00,
03,
FA,
00,
F9,
FB,
FC,
F9,
FD,
FD,
05,
06,
08,
00,
FD,
FF,
02,
05,
FF,
FD,
08,
F7,
01,
01,
FD,
F8,
F9,
FF,
FC,
02,
FF,
F7,
02,
FD,
FD,
01,
03,
FE,
08,
FB,
02,
FD,
02,
06,
FE,
FC,
FC,
FB,
04,
04,
FD,
01,
05,
02,
05,
00,
F5,
03,
03,
FF,
FB,
02,
FD,
FD,
FE,
FA,
07,
02,
02,
05,
FC,
08,
FE,
FE,
04,
FA,
FC,
01,
01,
FC,
F7,
02,
04,
00,
03,
04,
FD,
06,
01,
FA,
04,
FF,
01,
08,
08,
FB,
00,
03,
04,
00,
01,
05,
FF,
FD,
FC,
FE,
00,
04,
01,
07,
04,
FF,
FE,
01,
07,
06,
05,
06,
03,
01,
FE,
02,
02,
FF,
FA,
FF,
00,
FF,
FD,
08,
02,
06,
FC,
FE,
02,
02,
F2,
F8,
FF,
08,
05,
FD,
FC,
01,
01,
00,
F6,
01,
01,
01,
FE,
00,
FD,
00,
FF,
FD,
FE,
FD,
FF,
FA,
08,
04,
07,
06,
FC,
FD,
02,
09,
0D,
FE,
FD,
00,
02,
FC,
00,
FD,
F8,
00,
02,
00,
FB,
FE,
FA,
FE,
F8,
05,
09,
06,
FF,
03,
FF,
FF,
06,
04,
00,
FA,
FF,
F9,
FD,
FD,
FA,
FE,
FF,
07,
FB,
03,
F8,
F6,
00,
FC,
F3,
F5,
F7,
04,
02,
05,
00,
F9,
05,
FE,
FC,
FA,
FD,
FF,
FC,
FD,
FE,
02,
F9,
FD,
FC,
FD,
FE,
FC,
FE,
FD,
F6,
01,
FC,
FB,
FF,
F9,
FB,
09,
00,
07,
02,
FC,
F5,
FE,
02,
FE,
0A,
FF,
05,
04,
F2,
FF,
FA,
F3,
F3,
02,
02,
00,
FE,
FB,
FD,
02,
04,
FB,
F6,
05,
FE,
04,
F8,
FC,
00,
00,
FE,
01,
00,
03,
F9,
FA,
01,
02,
FA,
01,
FC,
02,
FE,
FC,
01,
F1,
01,
FD,
FD,
FF,
F9,
F5,
FA,
F9,
F6,
F8,
05,
01,
FE,
05,
F9,
FD,
F9,
00,
04,
03,
FD,
01,
07,
FF,
FC,
02,
FF,
FD,
FC,
00,
F7,
FA,
05,
09,
01,
05,
F6,
F7,
FE,
FF,
FB,
FC,
0A,
06,
F8,
02,
0A,
02,
F9,
00,
04,
FE,
FC,
F7,
05,
FE,
02,
F8,
F6,
00,
FC,
FF,
F7,
01,
02,
06,
02,
FA,
00,
FC,
FF,
02,
F9,
F9,
04,
F4,
F9,
00,
FF,
FA,
00,
FE,
02,
04,
FE,
FE,
FC,
F3,
02,
01,
07,
03,
0A,
05,
0A,
FF,
01,
01,
02,
FD,
04,
FF,
FA,
F8,
F8,
07,
08,
01,
FC,
FE,
FE,
FB,
F8,
FB,
F7,
F6,
00,
02,
FE,
FA,
03,
F9,
01,
F4,
F5,
F8,
00,
03,
02,
02,
FB,
FE,
0C,
FE,
FD,
03,
05,
FE,
06,
02,
FD,
FA,
FD,
FA,
03,
00,
FC,
03,
FE,
FB,
F9,
FF,
FE,
FB,
FC,
04,
FC,
04,
00,
01,
02,
07,
F9,
F8,
FD,
FD,
FE,
FD,
0C,
02,
FB,
FC,
FB,
F6,
F8,
01,
01,
F7,
FD,
FD,
F9,
FC,
F9,
06,
FE,
01,
FB,
03,
FE,
FB,
F7,
02,
FC,
F9,
01,
F6,
FB,
00,
FC,
04,
01,
F8,
02,
03,
FE,
02,
FD,
04,
06,
05,
02,
FF,
07,
00,
01,
00,
FE,
FD,
F9,
FE,
F9,
FB,
FC,
00,
01,
FD,
F7,
F2,
F9,
00,
03,
FF,
FF,
FE,
07,
02,
FD,
04,
FB,
F6,
04,
03,
F6,
03,
FB,
03,
04,
FF,
04,
F6,
01,
02,
04,
01,
FB,
FD,
06,
FB,
FA,
F1,
F8,
F8,
FD,
FD,
F2,
FB,
02,
04,
02,
FC,
FC,
FF,
FF,
F2,
FC,
FE,
00,
02,
FA,
01,
05,
01,
F8,
FF,
07,
F8,
FD,
FB,
02,
00,
01,
06,
06,
08,
FF,
FA,
F4,
FF,
FC,
F6,
FA,
02,
FC,
02,
FE,
FB,
09,
01,
FE,
FC,
FD,
FB,
02,
07,
06,
04,
01,
06,
03,
05,
02,
01,
F9,
FE,
FD,
03,
01,
FC,
04,
02,
09,
FD,
F9,
FA,
F9,
F8,
FB,
F6,
01,
F4,
F8,
01,
FD,
05,
F7,
04,
00,
01,
FD,
FA,
FC,
05,
F6,
F2,
08,
FF,
F5,
FA,
FE,
00,
F8,
FE,
F9,
04,
FF,
FB,
05,
07,
00,
06,
05,
02,
FC,
04,
FD,
09,
01,
04,
06,
FE,
05,
F9,
FA,
FA,
01,
F9,
00,
00,
FA,
F8,
F9,
0B,
FB,
00,
08,
07,
00,
08,
04,
00,
FD,
F6,
FF,
03,
02,
FF,
00,
09,
FE,
FB,
FC,
FE,
F7,
FF,
09,
FF,
03,
02,
05,
FF,
03,
0A,
F8,
02,
FB,
04,
03,
04,
FB,
FD,
05,
02,
05,
05,
0C,
02,
02,
02,
FD,
08,
02,
FC,
02,
00,
06,
06,
01,
07,
06,
FE,
FD,
F6,
FC,
00,
07,
05,
F9,
FB,
FB,
02,
FF,
F9,
F8,
07,
FC,
00,
04,
FB,
09,
07,
00,
03,
06,
FE,
05,
FF,
F9,
04,
07,
F9,
01,
05,
09,
FD,
09,
03,
00,
07,
FE,
F8,
FD,
03,
05,
F7,
00,
09,
07,
08,
05,
09,
04,
FA,
FC,
03,
FE,
F7,
FB,
F7,
F7,
01,
FE,
03,
00,
FD,
FE,
00,
FE,
FC,
01,
06,
FA,
FF,
FF,
FB,
00,
08,
06,
02,
03,
F4,
FB,
FD,
06,
F9,
FF,
06,
F3,
FB,
F5,
FF,
FC,
05,
F9,
FD,
FE,
00,
FB,
04,
FE,
03,
07,
01,
07,
01,
02,
FC,
F4,
F6,
01,
0A,
02,
FC,
03,
FC,
0B,
F9,
FC,
FD,
01,
01,
FE,
FE,
F2,
FA,
05,
FD,
06,
01,
04,
F7,
05,
02,
06,
03,
FE,
03,
FE,
00,
03,
00,
FD,
FA,
03,
02,
FF,
FD,
04,
FC,
00,
01,
FE,
F8,
F7,
F4,
FE,
FE,
FA,
FB,
FC,
FC,
01,
FB,
FE,
08,
02,
FE,
FF,
F5,
00,
FA,
F9,
00,
06,
04,
06,
04,
06,
FA,
00,
06,
FD,
FF,
03,
FC,
FD,
FD,
02,
FF,
00,
FF,
FC,
FB,
04,
08,
FD,
FC,
F9,
09,
01,
FB,
FA,
02,
FE,
FE,
FA,
00,
09,
FE,
00,
02,
FD,
FB,
06,
05,
04,
FF,
00,
02,
F7,
F8,
09,
FF,
FC,
F8,
02,
F9,
FF,
02,
FC,
FF,
02,
07,
04,
02,
FE,
FC,
06,
FD,
08,
02,
FD,
FD,
FB,
05,
FD,
FD,
FF,
FA,
FF,
F3,
02,
FC,
05,
FF,
04,
FD,
F9,
FA,
07,
09,
07,
FF,
00,
03,
FD,
FE,
03,
01,
02,
03,
FE,
FB,
02,
F8,
FF,
00,
02,
FE,
00,
09,
FC,
F8,
06,
F7,
01,
03,
F6,
FF,
F6,
02,
01,
F9,
F8,
F8,
04,
FE,
02,
06,
F8,
FD,
FD,
04,
06,
03,
FB,
FC,
03,
FE,
FF,
F9,
02,
07,
FD,
FF,
03,
04,
FE,
04,
07,
F9,
FE,
08,
FC,
F5,
FF,
FF,
FF,
FF,
03,
09,
01,
FE,
F4,
FF,
01,
04,
01,
FE,
F5,
FB,
F8,
FB,
03,
05,
03,
03,
02,
FF,
F7,
F9,
07,
02,
00,
02,
F8,
F7,
F8,
02,
FB,
F2,
02,
FF,
FB,
08,
04,
05,
FE,
FE,
02,
07,
01,
04,
03,
05,
09,
00,
FD,
FD,
01,
00,
08,
FE,
00,
05,
03,
04,
FC,
FD,
03,
FE,
08,
FD,
0C,
05,
03,
FA,
01,
02,
01,
01,
01,
06,
F6,
FD,
FD,
F7,
FF,
03,
F8,
00,
05,
FD,
FE,
FA,
02,
06,
08,
FB,
F9,
FE,
00,
04,
FD,
04,
F7,
05,
05,
FB,
00,
FE,
FE,
03,
FA,
07,
06,
F6,
FC,
02,
01,
FD,
F7,
FA,
FF,
05,
06,
01,
FF,
08,
02,
F7,
FE,
FE,
04,
FE,
00,
FD,
F4,
FD,
00,
FB,
05,
06,
00,
06,
FC,
09,
02,
FE,
09,
02,
03,
00,
FE,
FD,
FB,
FD,
FE,
EF,
FC,
07,
08,
02,
08,
F7,
FB,
02,
04,
FB,
02,
02,
F6,
FC,
FD,
FE,
FC,
08,
FE,
00,
01,
04,
FF,
05,
FB,
FD,
01,
03,
FF,
FB,
07,
00,
01,
06,
FC,
00,
FD,
02,
06,
0C,
09,
03,
FF,
0A,
04,
FD,
FE,
09,
02,
01,
0B,
FC,
FA,
05,
04,
03,
03,
00,
00,
0A,
01,
F6,
FA,
FD,
01,
F9,
06,
05,
FA,
01,
FC,
01,
04,
03,
04,
00,
FA,
00,
02,
00,
FC,
00,
F9,
05,
09,
FE,
02,
01,
FF,
03,
05,
0B,
FE,
FC,
05,
00,
FA,
FF,
04,
FD,
02,
08,
00,
03,
02,
02,
FE,
04,
FF,
FE,
FC,
FD,
FD,
FE,
03,
04,
01,
00,
04,
01,
01,
02,
04,
01,
FF,
06,
FA,
FA,
04,
00,
07,
05,
FC,
04,
07,
FF,
08,
04,
02,
06,
FE,
06,
03,
05,
FF,
06,
F3,
01,
FF,
08,
07,
01,
03,
04,
06,
FD,
F9,
02,
04,
08,
FD,
0C,
02,
FF,
01,
00,
04,
05,
FC,
09,
FD,
01,
0F,
FD,
FE,
01,
02,
FA,
03,
FD,
FD,
05,
FB,
06,
05,
F5,
F7,
02,
FD,
02,
00,
09,
01,
F7,
FC,
01,
00,
FE,
01,
FF,
03,
FB,
FC,
FE,
FC,
FC,
FE,
FB,
00,
01,
FE,
03,
FD,
00,
0D,
F7,
FF,
0B,
FE,
FA,
01,
11,
05,
05,
FB,
FE,
0C,
F2,
FC,
02,
FF,
FC,
FF,
06,
02,
FE,
04,
07,
00,
02,
03,
00,
05,
FA,
F9,
04,
FC,
00,
F5,
0A,
01,
0C,
03,
FD,
F7,
F7,
F9,
08,
FE,
07,
03,
02,
04,
04,
03,
FA,
05,
FE,
FD,
05,
F8,
06,
04,
07,
03,
F6,
FB,
02,
08,
02,
F9,
01,
05,
04,
05,
05,
FB,
FD,
01,
05,
F8,
FD,
F6,
FF,
01,
05,
03,
F9,
04,
FE,
04,
FF,
02,
08,
FD,
08,
FE,
FC,
01,
FC,
0B,
03,
FC,
00,
FA,
FA,
06,
FF,
03,
04,
01,
07,
01,
06,
05,
01,
01,
FC,
FC,
FF,
FB,
F7,
00,
FE,
02,
0B,
FA,
08,
FA,
FA,
06,
00,
FF,
0B,
00,
02,
00,
07,
FB,
F9,
FB,
F6,
FE,
FF,
00,
04,
04,
02,
03,
F3,
07,
05,
F3,
04,
F7,
FC,
F7,
01,
01,
00,
02,
FB,
02,
FB,
05,
03,
FD,
01,
FA,
04,
FB,
06,
FC,
02,
FA,
F2,
08,
FF,
F9,
FC,
FB,
F6,
04,
FA,
FF,
03,
01,
00,
FE,
FB,
03,
07,
02,
FB,
FF,
FA,
04,
FF,
01,
04,
01,
FD,
03,
02,
06,
05,
FD,
03,
03,
08,
03,
FF,
0C,
FA,
05,
01,
00,
01,
FC,
02,
05,
FF,
01,
FD,
09,
03,
00,
03,
0B,
FD,
06,
F9,
FB,
FB,
FD,
FD,
02,
00,
FE,
FF,
02,
07,
FF,
FC,
FF,
FC,
FD,
FF,
01,
F8,
FC,
02,
FC,
06,
09,
07,
FD,
01,
01,
02,
FE,
F8,
FE,
FB,
01,
08,
FA,
01,
FE,
00,
F7,
01,
FA,
08,
F6,
FF,
FD,
03,
F7,
FD,
FE,
F6,
FC,
01,
00,
FE,
F6,
03,
FD,
FC,
01,
0D,
FB,
03,
01,
FC,
05,
06,
FF,
01,
05,
00,
03,
02,
FF,
03,
01,
02,
07,
06,
06,
05,
03,
FB,
F9,
FA,
F7,
04,
00,
08,
FD,
07,
04,
01,
08,
FE,
FC,
FC,
02,
01,
02,
02,
08,
FE,
06,
FF,
02,
00,
05,
FE,
01,
F8,
FE,
00,
02,
FC,
09,
F7,
F8,
07,
FE,
FB,
FE,
FF,
09,
01,
03,
FA,
05,
09,
01,
01,
FA,
FC,
06,
05,
01,
04,
FE,
03,
F8,
05,
07,
FC,
FA,
05,
FE,
FF,
FF,
FD,
02,
FF,
FF,
F9,
FE,
02,
05,
F7,
03,
FC,
FE,
04,
F2,
FE,
08,
00,
03,
03,
FF,
00,
FE,
01,
05,
FE,
00,
F6,
FA,
FD,
02,
FE,
06,
FC,
04,
05,
00,
03,
FD,
02,
09,
05,
FF,
03,
FA,
F9,
06,
FF,
FF,
FE,
F3,
F3,
03,
04,
01,
F5,
FE,
F4,
FF,
01,
FA,
FC,
00,
08,
FE,
03,
FF,
FD,
FA,
F0,
01,
F7,
FD,
FF,
03,
02,
FE,
03,
FD,
02,
FF,
FE,
FA,
03,
04,
04,
05,
FD,
FB,
04,
02,
04,
05,
FA,
02,
03,
F3,
00,
F9,
FD,
FF,
00,
07,
01,
09,
FE,
FE,
FC,
FE,
01,
FF,
03,
05,
01,
05,
0B,
05,
07,
F9,
FE,
02,
FA,
00,
FF,
F7,
FB,
FE,
F5,
01,
FD,
FF,
00,
06,
FD,
F6,
FC,
F4,
FA,
FF,
F9,
03,
03,
00,
00,
FC,
02,
03,
FD,
FD,
02,
FF,
FA,
FC,
FF,
FE,
0E,
FC,
F9,
00,
08,
FE,
06,
FF,
02,
FF,
05,
F9,
01,
FD,
02,
03,
FB,
02,
03,
FE,
01,
01,
02,
FC,
03,
00,
05,
FD,
00,
FE,
00,
FF,
06,
FE,
FE,
03,
07,
FB,
00,
07,
00,
F9,
08,
0B,
FE,
0B,
FC,
FB,
0B,
04,
FD,
01,
07,
03,
FB,
FF,
FF,
04,
0D,
05,
FC,
FC,
FF,
FA,
01,
FF,
FE,
F9,
FA,
05,
06,
FD,
F6,
06,
00,
06,
02,
F9,
FF,
01,
02,
FD,
FF,
FE,
02,
F8,
00,
04,
08,
01,
03,
06,
02,
FB,
F6,
FA,
F9,
FF,
FD,
04,
12,
00,
03,
FF,
0A,
FA,
FB,
F8,
0A,
01,
01,
FB,
04,
FC,
FF,
F7,
03,
FF,
07,
FF,
F6,
04,
08,
03,
ED,
03,
02,
03,
FC,
03,
FF,
FE,
05,
FA,
FC,
02,
F8,
F3,
F5,
FF,
05,
FC,
F6,
05,
FD,
03,
FA,
FB,
FC,
01,
04,
06,
F5,
01,
FE,
01,
FE,
FC,
FD,
FF,
FE,
F9,
FF,
FE,
19,
04,
FA,
06,
FD,
03,
F7,
04,
04,
02,
00,
04,
FE,
05,
05,
00,
05,
F5,
FF,
09,
07,
FA,
F6,
06,
F8,
FF,
F1,
03,
03,
F3,
F6,
FE,
0A,
FD,
03,
F6,
FE,
F6,
FF,
06,
04,
02,
07,
F1,
FF,
FC,
FA,
01,
05,
F5,
00,
FF,
F9,
05,
03,
08,
F8,
05,
FB,
0A,
03,
06,
F6,
03,
FD,
FE,
15,
05,
FC,
03,
00,
00,
04,
01,
02,
F7,
FF,
00,
FB,
FE,
00,
02,
02,
F6,
FF,
FE,
F1,
F5,
07,
F6,
06,
07,
FE,
FC,
07,
03,
F9,
FC,
FC,
07,
FD,
07,
0D,
F1,
FC,
FA,
05,
FB,
FE,
FC,
F3,
F7,
FD,
01,
F5,
F7,
F3,
00,
FA,
0D,
08,
FF,
01,
F0,
F7,
13,
03,
01,
FE,
F8,
12,
FD,
EF,
01,
04,
08,
F8,
07,
02,
FD,
0B,
01,
FB,
02,
0B,
F8,
F6,
FE,
09,
00,
FB,
FF,
F7,
FE,
00,
08,
FE,
05,
FE,
00,
03,
0F,
03,
05,
FC,
F6,
08,
FB,
F0,
F8,
06,
01,
FD,
0D,
FB,
00,
02,
00,
FB,
04,
01,
FC,
0F,
02,
FD,
FC,
03,
FD,
FF,
00,
FE,
09,
F4,
08,
00,
FB,
FE,
02,
F9,
FF,
F8,
0C,
0A,
02,
01,
FD,
FF,
FC,
FB,
F8,
01,
FB,
FE,
FE,
F9,
FC,
07,
FF,
FA,
05,
F8,
FD,
04,
FC,
FE,
FD,
F8,
02,
F7,
08,
02,
F5,
01,
04,
08,
FC,
F5,
F6,
00,
F9,
F7,
06,
05,
0B,
FA,
07,
02,
FF,
08,
F7,
06,
03,
FC,
05,
08,
04,
FA,
FD,
06,
04,
F9,
02,
05,
06,
F4,
01,
00,
FE,
FC,
F9,
01,
F4,
F4,
05,
02,
F9,
01,
FA,
02,
04,
FD,
00,
FA,
06,
F7,
F7,
FE,
07,
FB,
05,
09,
07,
04,
FF,
04,
06,
0C,
01,
02,
FC,
02,
04,
FD,
06,
0B,
FF,
00,
02,
05,
ED,
00,
03,
F8,
0C,
08,
06,
FC,
F2,
F2,
04,
05,
08,
04,
0A,
0A,
FC,
F7,
06,
00,
FD,
F7,
FF,
07,
02,
FA,
FE,
FA,
06,
04,
F5,
F8,
09,
03,
FD,
09,
FB,
03,
FC,
FA,
FF,
00,
06,
FA,
FA,
FE,
04,
F6,
06,
00,
01,
06,
FC,
F8,
FF,
06,
F9,
FA,
07,
06,
03,
08,
F6,
F8,
0A,
00,
F6,
0E,
02,
FB,
02,
02,
FE,
05,
00,
FE,
FF,
00,
F6,
03,
02,
F9,
FA,
03,
FC,
02,
FC,
F7,
FD,
00,
06,
01,
FD,
0B,
00,
08,
04,
F9,
02,
08,
02,
F8,
04,
12,
FA,
FA,
FF,
F7,
FB,
05,
FF,
ED,
FF,
06,
02,
05,
FD,
F6,
08,
07,
04,
FC,
03,
FA,
FC,
FE,
FC,
F5,
04,
05,
FB,
FC,
05,
00,
F2,
F8,
FC,
05,
06,
F9,
03,
FF,
01,
F5,
FC,
F9,
F9,
FC,
08,
F9,
FE,
F3,
F7,
06,
F9,
FE,
FA,
04,
FB,
FB,
FD,
F8,
FA,
F4,
01,
FA,
FF,
06,
0C,
03,
09,
F6,
0A,
03,
F0,
FE,
FD,
00,
03,
03,
FB,
05,
FE,
05,
0A,
FD,
06,
FF,
FC,
FC,
FC,
01,
08,
04,
12,
FA,
FB,
F7,
FB,
F8,
F6,
F8,
02,
FA,
0A,
06,
07,
07,
0C,
05,
FC,
00,
07,
00,
F9,
FF,
04,
FE,
08,
06,
02,
02,
05,
05,
02,
FB,
FB,
F6,
00,
06,
FB,
FD,
02,
04,
04,
0D,
FB,
03,
FD,
08,
0B,
FB,
01,
00,
FE,
0B,
FF,
FF,
02,
09,
01,
FD,
F9,
05,
04,
09,
F8,
03,
0C,
05,
0A,
F4,
03,
F9,
F2,
05,
FA,
00,
06,
02,
FF,
FC,
FE,
F5,
02,
FE,
FA,
01,
F7,
00,
FD,
01,
04,
FD,
01,
04,
02,
02,
FF,
0B,
01,
F0,
FE,
02,
F8,
04,
F7,
02,
0C,
F5,
F7,
FC,
0C,
03,
FD,
08,
0A,
0A,
00,
0A,
01,
F9,
0B,
FB,
FF,
F7,
FC,
F9,
FB,
FB,
04,
FD,
EF,
F6,
F8,
11,
FF,
06,
06,
03,
02,
01,
0E,
F7,
04,
FE,
FC,
02,
F5,
02,
00,
FC,
08,
F6,
FE,
0A,
FE,
02,
00,
04,
F7,
0C,
08,
FE,
F9,
FC,
FE,
07,
F8,
06,
F4,
06,
00,
06,
06,
FF,
04,
03,
FA,
FD,
07,
FE,
FE,
02,
FA,
FC,
04,
FE,
FD,
02,
05,
F2,
01,
06,
FC,
02,
10,
F9,
FF,
03,
F1,
06,
FF,
FB,
0A,
02,
F7,
09,
FF,
FA,
0A,
FF,
04,
FD,
F8,
F4,
05,
FD,
02,
02,
FF,
FE,
EB,
F3,
00,
02,
FF,
06,
0B,
FA,
F6,
F8,
03,
FE,
F9,
00,
00,
F4,
01,
00,
F8,
07,
FD,
FC,
F3,
FD,
0B,
07,
FB,
08,
01,
FF,
00,
EF,
FE,
0C,
0B,
05,
FC,
07,
F9,
F9,
FC,
02,
FC,
FB,
FF,
09,
FF,
00,
00,
08,
03,
F8,
FB,
04,
04,
F3,
0C,
05,
F8,
F6,
03,
FE,
01,
F5,
F2,
01,
04,
02,
06,
01,
01,
07,
FC,
11,
F5,
04,
02,
FD,
04,
09,
FC,
05,
FF,
EB,
FC,
05,
F5,
FE,
05,
FF,
FA,
FA,
FF,
FD,
FE,
FB,
FB,
0E,
05,
F9,
02,
FC,
05,
FD,
06,
08,
FD,
00,
FE,
EF,
F3,
02,
07,
FA,
00,
01,
FD,
FA,
09,
00,
FE,
FC,
FC,
00,
F7,
FD,
FD,
06,
F7,
FE,
01,
F9,
00,
FE,
F1,
04,
FD,
01,
FC,
F5,
01,
F4,
FF,
06,
F4,
FF,
FE,
FC,
0B,
00,
06,
FE,
07,
FE,
FF,
F7,
01,
FC,
F7,
01,
02,
FA,
F8,
06,
0A,
01,
F7,
0F,
07,
04,
08,
0A,
01,
11,
04,
00,
02,
FB,
04,
05,
FC,
00,
FC,
03,
F4,
0C,
F9,
03,
0B,
FA,
0A,
00,
06,
07,
F8,
F5,
FE,
F7,
01,
FA,
FE,
F4,
07,
F7,
0C,
09,
06,
06,
04,
00,
08,
00,
04,
F8,
F9,
00,
FD,
F7,
F8,
02,
FB,
FF,
05,
FE,
08,
04,
F7,
FF,
02,
06,
FD,
FA,
F8,
F8,
09,
F6,
04,
01,
FD,
06,
FE,
FD,
FA,
02,
F5,
F7,
FA,
FC,
04,
01,
FA,
04,
FB,
F7,
F9,
00,
FD,
0D,
FB,
FC,
13,
04,
FD,
06,
FF,
F3,
F8,
FD,
06,
09,
01,
F3,
F8,
06,
F8,
F8,
FD,
FF,
04,
FC,
FC,
FF,
01,
FD,
0A,
FB,
04,
02,
00,
00,
F9,
03,
02,
F8,
09,
02,
07,
04,
FA,
08,
01,
02,
FE,
FD,
F6,
00,
00,
FE,
01,
01,
FA,
0D,
00,
FA,
F8,
03,
05,
09,
05,
FF,
02,
F3,
F0,
F7,
FF,
F4,
F6,
FF,
05,
0A,
FA,
01,
FC,
0D,
0A,
FD,
F7,
06,
FF,
FF,
04,
FC,
07,
F6,
FE,
F6,
FF,
0C,
08,
F8,
F6,
09,
01,
FA,
0B,
01,
F4,
03,
F8,
00,
01,
FD,
FB,
04,
F8,
FA,
FB,
F8,
FA,
06,
FF,
FC,
01,
03,
03,
01,
F9,
F9,
06,
F8,
FF,
00,
00,
02,
01,
F8,
FD,
FE,
FC,
00,
FC,
FF,
02,
01,
03,
FF,
04,
F9,
FD,
FA,
00,
01,
00,
07,
01,
FE,
FF,
01,
01,
FA,
0B,
FC,
03,
F8,
FB,
F9,
FD,
04,
03,
FD,
FB,
FF,
FB,
05,
00,
FD,
04,
02,
01,
FB,
F8,
F9,
05,
F8,
03,
F5,
00,
FC,
F6,
05,
FA,
07,
01,
07,
FD,
02,
06,
FA,
03,
F8,
F9,
FE,
FF,
FA,
03,
FA,
F3,
00,
FB,
06,
FF,
03,
09,
00,
F7,
07,
FB,
11,
07,
FF,
00,
FA,
00,
04,
FA,
FD,
04,
FD,
02,
00,
FA,
FC,
00,
FB,
FC,
FD,
FC,
04,
FD,
04,
FC,
FF,
F5,
03,
03,
03,
05,
05,
FD,
0B,
05,
FC,
FA,
F6,
04,
FA,
00,
F8,
FC,
00,
00,
FE,
03,
05,
00,
FB,
FE,
FF,
FC,
F9,
FB,
F8,
06,
03,
02,
0D,
03,
01,
08,
FF,
01,
F9,
F8,
FD,
FF,
00,
FE,
09,
FB,
04,
00,
FF,
00,
03,
03,
FE,
05,
06,
09,
F6,
05,
04,
03,
02,
00,
FE,
03,
FF,
FB,
FE,
FC,
01,
0C,
FD,
02,
06,
02,
F9,
04,
FF,
FA,
FD,
FE,
FA,
F9,
FF,
FE,
07,
01,
02,
04,
04,
00,
04,
06,
01,
FD,
F7,
F8,
FB,
FB,
FA,
00,
03,
FD,
02,
FC,
FD,
08,
00,
02,
07,
02,
FC,
05,
00,
04,
FD,
01,
FE,
06,
FF,
02,
01,
04,
01,
07,
F5,
FE,
06,
01,
FE,
05,
F8,
FB,
FD,
FA,
00,
F8,
05,
0B,
FE,
FF,
F5,
FC,
FE,
FF,
FB,
FD,
FF,
FA,
00,
02,
00,
01,
FD,
F7,
02,
05,
08,
00,
FF,
02,
01,
FC,
02,
FE,
FE,
06,
08,
FD,
00,
FC,
04,
05,
07,
0B,
FB,
03,
00,
FF,
FE,
03,
F9,
07,
00,
F9,
FE,
09,
00,
06,
06,
09,
FC,
FD,
09,
03,
FE,
05,
03,
F3,
01,
FE,
08,
04,
FF,
00,
06,
01,
FA,
04,
FC,
FC,
04,
FE,
05,
01,
FE,
FE,
03,
03,
03,
FF,
FE,
01,
FD,
FD,
FD,
FE,
FE,
07,
00,
02,
05,
00,
05,
04,
04,
05,
02,
00,
04,
01,
FE,
00,
FD,
04,
F9,
FC,
FB,
01,
02,
FB,
FA,
FD,
06,
04,
06,
01,
03,
07,
05,
FD,
FF,
03,
03,
FF,
01,
00,
FD,
FD,
FC,
F9,
01,
00,
00,
00,
04,
02,
FF,
FC,
F9,
00,
04,
F6,
FE,
FE,
FB,
04,
FE,
FA,
FE,
07,
00,
01,
FF,
00,
05,
00,
00,
05,
05,
05,
06,
01,
FA,
FB,
FE,
FB,
FF,
02,
04,
03,
03,
01,
03,
02,
0A,
03,
06,
0A,
04,
05,
02,
FF,
06,
02,
FB,
FC,
FD,
03,
01,
04,
FE,
05,
F6,
06,
04,
FD,
F7,
01,
0C,
03,
04,
F4,
01,
FC,
FD,
07,
03,
05,
02,
06,
0A,
FE,
05,
01,
FA,
FB,
01,
07,
04,
FE,
03,
07,
FE,
02,
FD,
FD,
FB,
FB,
FF,
FB,
02,
F4,
FD,
FB,
FA,
FE,
FD,
05,
F5,
F8,
02,
01,
05,
00,
FD,
F8,
01,
FE,
FE,
FF,
02,
01,
04,
0C,
05,
0E,
06,
FE,
04,
00,
F8,
FC,
FE,
FE,
01,
05,
0A,
07,
F5,
03,
01,
F7,
FF,
FA,
01,
F5,
FC,
FC,
F8,
02,
F8,
FC,
FC,
F7,
00,
FC,
FA,
06,
01,
00,
0B,
00,
01,
F7,
F4,
04,
FA,
FE,
04,
FF,
FE,
FF,
01,
08,
FD,
0B,
01,
03,
01,
FC,
01,
FC,
FF,
08,
0B,
00,
06,
02,
FB,
FF,
00,
F9,
00,
00,
FC,
F7,
00,
F7,
FA,
FC,
06,
02,
FF,
01,
02,
04,
00,
FA,
00,
FE,
05,
0A,
00,
02,
04,
01,
02,
FF,
01,
02,
07,
F7,
F9,
FC,
03,
02,
0B,
FD,
F9,
FA,
FD,
07,
FF,
F4,
00,
00,
07,
04,
03,
00,
FF,
06,
04,
00,
03,
01,
07,
06,
05,
06,
03,
F9,
0A,
FB,
F7,
FC,
FA,
F6,
F9,
00,
F6,
01,
00,
FB,
02,
FC,
FD,
FD,
00,
05,
FE,
02,
FE,
FD,
FD,
F9,
04,
02,
FA,
FA,
02,
FE,
FE,
FB,
F8,
F7,
04,
01,
F5,
FC,
06,
FF,
01,
01,
FC,
FC,
FA,
04,
F8,
00,
FF,
06,
FE,
FE,
F9,
F9,
FA,
00,
FE,
04,
FE,
02,
F8,
FE,
FE,
00,
FA,
00,
01,
05,
F4,
01,
04,
04,
02,
FF,
02,
FE,
FC,
05,
04,
08,
FF,
01,
FF,
02,
FF,
0B,
FD,
03,
01,
F1,
FD,
FB,
FD,
FE,
01,
F6,
FF,
03,
00,
02,
F9,
04,
02,
FC,
02,
06,
01,
F7,
05,
02,
06,
05,
06,
FA,
FD,
F9,
FC,
FB,
01,
FA,
FC,
FF,
F8,
FD,
06,
FC,
03,
02,
01,
FC,
03,
00,
FE,
FF,
00,
01,
00,
03,
02,
FF,
FB,
FC,
FD,
07,
09,
05,
01,
FD,
FF,
01,
00,
FD,
00,
FF,
FB,
FD,
FC,
FC,
FF,
FE,
06,
01,
07,
00,
FD,
01,
00,
05,
FD,
FE,
00,
F9,
FF,
FD,
FF,
FD,
FF,
07,
FE,
FE,
FD,
FC,
FF,
F8,
FC,
F7,
00,
06,
FE,
FA,
01,
00,
05,
04,
02,
06,
FF,
FF,
01,
00,
F9,
F8,
04,
FB,
FB,
FE,
FD,
00,
00,
08,
08,
03,
05,
02,
05,
01,
02,
01,
FF,
05,
FF,
FD,
FC,
FF,
01,
FE,
FB,
02,
04,
0D,
03,
00,
03,
08,
FF,
0A,
FF,
F5,
04,
F7,
F9,
02,
07,
F4,
06,
07,
F9,
02,
FF,
02,
FD,
03,
03,
F7,
F9,
FE,
F7,
F3,
F6,
F8,
FB,
F8,
05,
FE,
FF,
FB,
FB,
F3,
F9,
08,
FC,
00,
FC,
00,
F5,
05,
00,
06,
FC,
FB,
F4,
FC,
02,
06,
FC,
05,
05,
FE,
F9,
03,
07,
00,
00,
05,
04,
05,
00,
06,
00,
FB,
FE,
F9,
FF,
FC,
FE,
07,
00,
03,
01,
00,
00,
FD,
07,
07,
FE,
F9,
FF,
0A,
03,
05,
02,
00,
FA,
FD,
F9,
04,
FE,
FB,
07,
F9,
FD,
FE,
FB,
0A,
F7,
FA,
05,
02,
F9,
FF,
05,
05,
FF,
FD,
02,
02,
FE,
02,
F8,
05,
FB,
F8,
F9,
06,
FC,
08,
02,
03,
06,
07,
01,
06,
01,
FB,
00,
FD,
01,
F7,
FD,
05,
F8,
05,
00,
00,
00,
02,
FD,
02,
FD,
03,
02,
02,
06,
FF,
02,
06,
FC,
07,
FB,
FC,
00,
02,
FF,
FC,
00,
FC,
FF,
05,
07,
03,
FC,
FE,
03,
FF,
F7,
F5,
02,
FF,
00,
FB,
F7,
F9,
03,
F8,
04,
FA,
F8,
FC,
05,
FC,
FE,
06,
FB,
FC,
00,
00,
FD,
F8,
05,
04,
FE,
03,
03,
FD,
02,
03,
03,
01,
01,
09,
FF,
05,
04,
FF,
03,
FB,
FE,
FF,
FE,
FA,
FB,
03,
FF,
FF,
03,
00,
FE,
05,
FF,
FB,
FE,
04,
00,
FC,
01,
00,
03,
00,
00,
FE,
07,
FB,
01,
FE,
05,
04,
03,
04,
FD,
FC,
03,
09,
FC,
FE,
FA,
00,
01,
00,
F5,
FF,
F7,
01,
FF,
03,
FC,
04,
03,
02,
07,
05,
07,
FB,
03,
05,
F9,
01,
FD,
FD,
FF,
FA,
04,
02,
F9,
02,
06,
FE,
FD,
00,
FF,
F9,
FF,
03,
03,
FE,
0B,
03,
FE,
F7,
F9,
F7,
06,
0C,
FE,
FF,
05,
01,
FC,
FC,
FA,
F6,
F7,
02,
F9,
F6,
F9,
EC,
01,
F4,
11,
00,
02,
F7,
00,
06,
FE,
FE,
0B,
01,
08,
FE,
04,
F8,
FB,
04,
03,
05,
02,
FF,
00,
07,
02,
FE,
06,
03,
07,
01,
07,
F9,
FD,
FB,
F6,
01,
F8,
FE,
04,
0B,
F9,
FB,
0A,
02,
FF,
01,
FA,
FA,
FD,
FE,
07,
FA,
02,
05,
F8,
03,
0D,
04,
FF,
FE,
F9,
F6,
FA,
04,
00,
F4,
F6,
09,
00,
FE,
FB,
0C,
01,
02,
EF,
FC,
FB,
FC,
FF,
FB,
F8,
05,
02,
09,
06,
FA,
F8,
01,
FB,
F6,
FA,
FC,
08,
0E,
03,
00,
FB,
FE,
FE,
07,
0A,
00,
F1,
F6,
F8,
00,
FF,
FE,
05,
06,
00,
0C,
F9,
F7,
F9,
F4,
02,
02,
02,
01,
09,
F0,
05,
06,
09,
F7,
00,
F6,
F6,
02,
01,
FB,
00,
03,
05,
F7,
04,
00,
07,
FF,
FC,
FB,
02,
0C,
07,
02,
05,
FC,
06,
01,
F8,
F9,
0C,
03,
04,
F8,
15,
00,
FD,
00,
F4,
0A,
06,
0D,
FC,
F1,
FE,
FF,
FF,
FE,
F7,
FC,
F6,
04,
F6,
00,
FA,
00,
F8,
FD,
F0,
FF,
05,
08,
0A,
04,
F9,
FF,
05,
09,
FD,
F4,
FC,
03,
05,
03,
05,
02,
02,
F9,
F7,
FB,
FD,
07,
FF,
07,
FA,
F6,
FD,
FF,
05,
08,
05,
04,
04,
02,
F7,
00,
03,
00,
F3,
FF,
F8,
02,
FC,
FC,
06,
F7,
FE,
FA,
00,
01,
F5,
F6,
01,
00,
02,
F5,
FF,
FB,
FD,
F6,
FC,
02,
0A,
09,
10,
03,
FC,
03,
FD,
05,
FA,
FE,
05,
FA,
03,
09,
FC,
01,
FF,
00,
FA,
F4,
FF,
02,
F4,
0B,
FF,
FE,
FC,
02,
03,
01,
FC,
07,
0D,
02,
07,
01,
00,
02,
06,
04,
FD,
01,
01,
F5,
04,
05,
FF,
00,
FB,
01,
FF,
F5,
03,
FF,
05,
FF,
0B,
0D,
04,
FC,
FD,
03,
06,
03,
F9,
FA,
07,
07,
FF,
05,
FA,
FD,
FC,
11,
03,
04,
03,
F2,
09,
FD,
02,
03,
06,
FF,
FD,
02,
F8,
FD,
F8,
06,
08,
02,
FE,
0D,
FC,
FB,
FE,
0A,
03,
03,
00,
08,
FC,
05,
EF,
0F,
05,
FF,
FE,
FA,
07,
08,
F3,
F6,
F8,
F9,
05,
01,
FD,
03,
0B,
01,
05,
0B,
F9,
05,
04,
FE,
07,
FE,
FE,
F5,
F9,
01,
FA,
09,
FF,
09,
FE,
04,
02,
00,
0A,
05,
FC,
0A,
FA,
FB,
00,
FD,
FF,
F8,
01,
FA,
00,
00,
FF,
FC,
FD,
02,
03,
FB,
FF,
02,
FD,
F8,
05,
05,
07,
00,
F8,
01,
09,
02,
08,
00,
FD,
0B,
01,
F8,
F9,
00,
01,
02,
08,
04,
FF,
01,
FC,
01,
09,
0B,
0A,
02,
FD,
09,
F9,
F3,
FF,
09,
02,
01,
03,
F7,
09,
F1,
04,
F9,
FD,
FF,
0C,
06,
FB,
03,
0D,
12,
02,
FC,
FB,
FE,
04,
FF,
03,
FD,
0A,
04,
05,
01,
04,
FA,
06,
04,
F1,
FF,
03,
F4,
F8,
05,
01,
01,
F8,
F9,
F5,
F6,
FC,
F9,
03,
06,
02,
05,
FC,
00,
FE,
03,
03,
FB,
FE,
FB,
02,
03,
06,
06,
00,
FD,
02,
F7,
F9,
FC,
06,
F9,
F9,
F8,
06,
08,
FB,
05,
FF,
FA,
F5,
F6,
07,
F9,
01,
00,
F5,
FE,
04,
03,
03,
02,
FF,
06,
01,
FB,
03,
F4,
FE,
F6,
FC,
FD,
FD,
F6,
FF,
FA,
00,
00,
01,
06,
FA,
01,
06,
FD,
04,
03,
02,
05,
09,
FD,
07,
FE,
00,
08,
00,
00,
01,
0A,
FD,
F1,
FC,
09,
03,
01,
FB,
04,
08,
F8,
FE,
01,
F8,
F9,
07,
07,
06,
07,
0E,
02,
FA,
FA,
FE,
01,
05,
07,
FC,
FC,
02,
F4,
FD,
F7,
01,
FD,
FC,
FD,
06,
F2,
01,
04,
0A,
F8,
03,
02,
0C,
01,
F8,
02,
FC,
F7,
09,
FD,
03,
03,
FE,
FC,
00,
F6,
05,
FE,
04,
05,
01,
04,
06,
FE,
F8,
FC,
03,
07,
FB,
04,
04,
07,
00,
01,
FB,
FC,
FC,
FB,
F2,
F8,
05,
09,
FD,
0E,
FC,
F8,
FF,
07,
FF,
FF,
08,
FE,
08,
03,
03,
01,
F7,
F4,
F9,
FF,
FF,
FC,
FE,
FF,
08,
05,
FC,
FA,
FF,
F9,
03,
FD,
FC,
01,
0B,
FD,
02,
05,
FF,
09,
05,
01,
F9,
00,
FC,
05,
FF,
04,
FF,
FF,
05,
FF,
05,
07,
05,
00,
05,
FC,
08,
FD,
09,
FB,
FB,
05,
01,
08,
05,
F3,
F1,
F7,
0C,
FC,
09,
FE,
F5,
F4,
FC,
FB,
02,
FD,
02,
FE,
FE,
02,
FB,
FC,
FE,
F7,
FF,
0A,
FD,
04,
01,
00,
02,
F6,
F8,
F4,
04,
05,
01,
FC,
06,
FF,
FD,
03,
FA,
04,
FD,
FF,
FB,
FE,
07,
FF,
00,
04,
F8,
04,
07,
FD,
F4,
F7,
F8,
FB,
05,
09,
07,
0D,
03,
FB,
FF,
FE,
F5,
05,
FB,
F5,
03,
00,
06,
F9,
FE,
0B,
FF,
00,
F8,
00,
00,
06,
F9,
FC,
FE,
05,
01,
F5,
FE,
FC,
FB,
F5,
02,
FD,
07,
03,
FC,
F7,
FF,
F8,
F5,
FD,
01,
FC,
05,
F5,
FA,
F7,
00,
FA,
FC,
F6,
04,
07,
00,
FC,
FE,
FD,
04,
F9,
EF,
04,
05,
05,
07,
03,
FA,
01,
08,
08,
05,
FF,
09,
01,
00,
0C,
02,
F4,
01,
FC,
03,
F7,
05,
FA,
F9,
0B,
FA,
02,
05,
03,
F8,
FF,
FC,
0E,
00,
0E,
02,
00,
F8,
02,
05,
FB,
01,
01,
00,
09,
FE,
01,
FE,
01,
03,
FD,
F5,
FC,
04,
04,
FF,
FF,
08,
F9,
00,
F8,
F5,
00,
05,
00,
FE,
F6,
FE,
FF,
F9,
05,
FC,
0A,
06,
07,
FC,
FE,
02,
FE,
FE,
FE,
03,
08,
FF,
00,
04,
03,
0A,
06,
FF,
04,
13,
06,
08,
FF,
FE,
05,
FD,
03,
F7,
09,
01,
0C,
FD,
02,
00,
F1,
04,
0A,
06,
00,
03,
06,
0B,
FC,
FB,
FD,
01,
09,
03,
F7,
01,
00,
0E,
04,
08,
FE,
FE,
FC,
FC,
01,
04,
09,
F1,
FD,
FD,
01,
00,
07,
01,
F9,
F7,
F5,
01,
F9,
01,
02,
FF,
FA,
FD,
04,
03,
00,
FF,
FA,
F7,
01,
FD,
00,
FD,
FD,
F7,
FA,
00,
F8,
00,
07,
00,
F8,
0F,
03,
00,
07,
02,
F9,
03,
0C,
F8,
02,
FC,
FC,
08,
FC,
F9,
02,
08,
F9,
05,
05,
01,
03,
06,
00,
02,
01,
F7,
03,
FB,
00,
00,
01,
00,
00,
04,
F7,
0A,
FE,
0E,
EF,
FD,
04,
FD,
FC,
01,
F8,
FF,
00,
FA,
FA,
0A,
F2,
07,
FE,
FD,
FA,
06,
FA,
FF,
01,
07,
00,
F6,
05,
00,
FD,
F5,
FE,
04,
09,
06,
F7,
FB,
F6,
FD,
F9,
FE,
FD,
00,
0A,
FE,
0B,
07,
0D,
07,
04,
FA,
F8,
F1,
F6,
FA,
04,
FD,
04,
07,
05,
01,
FA,
FB,
FC,
FE,
F9,
01,
02,
04,
01,
01,
FE,
F7,
03,
FE,
00,
01,
F9,
06,
FC,
FA,
FA,
00,
04,
01,
01,
FF,
FA,
FC,
FA,
09,
00,
08,
10,
FE,
FF,
06,
03,
FA,
FE,
F9,
04,
FB,
FA,
04,
F8,
01,
06,
FE,
0A,
05,
03,
F8,
07,
FF,
FA,
FD,
FA,
F6,
FE,
09,
FB,
04,
FD,
FD,
01,
FB,
FA,
06,
0E,
FC,
02,
FD,
F7,
07,
0A,
FC,
FD,
00,
09,
FE,
02,
02,
FE,
07,
04,
F6,
08,
03,
F4,
FE,
F4,
F3,
F6,
0A,
0A,
F8,
FB,
F4,
04,
FF,
FC,
09,
01,
07,
02,
03,
0B,
FA,
FF,
04,
FF,
02,
03,
FB,
02,
01,
EE,
F6,
F7,
05,
F9,
03,
FA,
F9,
F9,
F4,
FF,
01,
05,
FB,
03,
F7,
01,
FD,
07,
F6,
F6,
09,
06,
F9,
F5,
01,
0B,
FF,
04,
05,
08,
FE,
FB,
F6,
05,
FC,
0B,
FA,
FC,
FD,
0B,
FD,
FF,
08,
FC,
09,
00,
04,
0D,
00,
03,
FD,
FD,
FD,
00,
ED,
F6,
F8,
F8,
06,
0B,
FD,
05,
02,
04,
09,
FB,
F7,
05,
03,
03,
0E,
07,
FB,
01,
FA,
00,
06,
07,
F7,
07,
07,
FE,
06,
0A,
FB,
F7,
FB,
FA,
07,
05,
F6,
0E,
FF,
09,
FA,
FD,
03,
01,
05,
FE,
FC,
01,
01,
F9,
FC,
F9,
05,
07,
0A,
F6,
FB,
0B,
FF,
0A,
FC,
08,
03,
03,
06,
FE,
04,
01,
F9,
00,
F7,
06,
07,
FE,
F9,
F8,
FD,
F2,
01,
FD,
0A,
02,
F5,
FC,
F8,
00,
0E,
06,
FB,
FD,
01,
F9,
04,
07,
08,
00,
FF,
01,
02,
FA,
FD,
02,
FF,
03,
FE,
05,
FC,
01,
08,
03,
00,
F9,
F9,
06,
F7,
FC,
04,
FA,
FE,
FB,
05,
FA,
02,
FF,
04,
07,
02,
01,
04,
FE,
FC,
04,
FE,
07,
04,
02,
01,
03,
FA,
02,
F7,
04,
FB,
FE,
F8,
FC,
02,
0B,
E7,
FD,
00,
01,
F7,
F6,
02,
09,
03,
FD,
05,
FA,
07,
04,
F9,
04,
00,
01,
FC,
FD,
FF,
01,
01,
03,
04,
04,
05,
FF,
FE,
F5,
03,
05,
01,
05,
0B,
06,
F9,
FA,
F9,
02,
0A,
05,
FD,
FD,
FA,
EE,
F9,
F8,
FB,
FA,
04,
F8,
FB,
F3,
05,
04,
03,
01,
07,
F9,
01,
0A,
F7,
F8,
F9,
FC,
FD,
FE,
FC,
04,
0C,
F8,
01,
01,
07,
08,
F9,
00,
F7,
FB,
FE,
F8,
FF,
F8,
03,
00,
0A,
01,
05,
00,
FA,
06,
01,
FC,
06,
F6,
05,
01,
F4,
FB,
F2,
FE,
00,
01,
02,
FB,
FE,
04,
01,
05,
F5,
01,
FE,
F8,
FA,
08,
FE,
FB,
00,
F3,
FC,
07,
02,
FF,
FB,
FA,
05,
03,
07,
03,
02,
02,
07,
0B,
FD,
01,
F9,
F6,
05,
07,
05,
03,
05,
FA,
F9,
FB,
FF,
00,
F7,
F4,
FD,
FD,
03,
FD,
0B,
FC,
F6,
07,
00,
FA,
02,
02,
11,
03,
04,
07,
FB,
FF,
0E,
FA,
F8,
0A,
07,
FC,
04,
00,
06,
F5,
02,
F9,
FC,
F6,
F8,
F8,
01,
FB,
03,
FB,
F4,
00,
01,
02,
FE,
07,
0A,
FF,
F5,
05,
F2,
FF,
F6,
09,
0C,
0B,
FA,
FA,
FD,
04,
05,
FE,
FB,
FD,
FC,
08,
12,
00,
05,
FC,
02,
FC,
F6,
09,
0E,
06,
FE,
FD,
FA,
FC,
06,
01,
F3,
01,
08,
01,
03,
F8,
F9,
FD,
FD,
02,
FF,
F5,
FC,
FF,
FE,
04,
FC,
FD,
FF,
FB,
F9,
09,
0B,
F8,
F9,
00,
FD,
FA,
02,
01,
FF,
02,
FD,
F8,
07,
08,
04,
01,
07,
F9,
FF,
03,
01,
01,
FF,
FE,
03,
FD,
F8,
0A,
02,
01,
03,
06,
FE,
01,
03,
FA,
FE,
F5,
FC,
06,
FE,
0D,
0D,
00,
FD,
02,
F7,
01,
01,
01,
F9,
0C,
02,
F8,
F6,
04,
FD,
FC,
01,
F9,
07,
02,
F9,
FD,
00,
F5,
FE,
03,
07,
FB,
08,
01,
06,
07,
07,
03,
FF,
09,
07,
FF,
FD,
F9,
FA,
07,
F5,
00,
02,
F6,
F9,
04,
F5,
04,
FB,
F9,
03,
01,
F7,
FD,
00,
0F,
F9,
FA,
07,
FB,
FC,
08,
FB,
F6,
FF,
FF,
FC,
09,
02,
01,
FF,
F9,
F7,
0A,
FA,
F8,
0C,
01,
F9,
01,
FF,
F8,
FC,
FF,
F9,
FC,
F7,
F3,
FC,
F8,
F9,
09,
03,
FC,
00,
01,
02,
FC,
05,
01,
F4,
03,
FE,
F8,
0B,
08,
FF,
01,
04,
0C,
02,
FE,
02,
FA,
01,
FE,
FB,
00,
02,
FC,
FF,
06,
FC,
FF,
01,
09,
EB,
F6,
F5,
F9,
01,
FD,
08,
FE,
07,
FE,
0F,
0B,
F8,
03,
03,
01,
11,
00,
02,
01,
F9,
FA,
F9,
FE,
FE,
04,
F4,
F5,
F7,
03,
07,
07,
0C,
00,
05,
FE,
F7,
F4,
F6,
FB,
FE,
FD,
06,
FE,
00,
FC,
02,
F6,
0A,
FD,
FF,
02,
00,
F6,
00,
03,
FD,
03,
03,
FF,
04,
FE,
FD,
03,
02,
06,
01,
FC,
FE,
FC,
FF,
05,
F8,
0A,
FE,
F8,
F2,
FF,
01,
03,
FC,
01,
00,
FB,
F1,
07,
FC,
F8,
0E,
00,
F5,
FC,
FC,
01,
FB,
00,
FA,
F5,
FE,
F3,
F6,
04,
FC,
00,
FD,
FA,
FB,
ED,
FA,
FB,
03,
0A,
01,
03,
03,
F8,
03,
02,
05,
FA,
FE,
05,
08,
0A,
FF,
00,
07,
0B,
08,
FF,
05,
0C,
FF,
FE,
03,
FA,
02,
09,
FD,
00,
03,
01,
FC,
FE,
FF,
FD,
FA,
05,
05,
FE,
F7,
0B,
FE,
FA,
07,
05,
02,
FF,
FC,
F8,
FB,
FE,
03,
FE,
01,
FF,
04,
F8,
06,
FB,
0A,
FC,
03,
F2,
FC,
01,
01,
F8,
09,
07,
F3,
0E,
04,
00,
02,
08,
03,
04,
FF,
05,
FB,
FE,
0C,
F1,
F7,
05,
FC,
FD,
F9,
FB,
03,
FD,
F4,
07,
06,
FB,
FF,
FE,
F8,
03,
FE,
08,
F7,
FD,
02,
FB,
05,
02,
03,
09,
06,
02,
05,
02,
FA,
07,
06,
F5,
F7,
FF,
07,
FA,
06,
FF,
F9,
F4,
00,
F6,
01,
02,
F8,
06,
01,
FF,
0F,
FF,
F6,
F8,
F1,
FE,
04,
FF,
01,
02,
FF,
F9,
0B,
09,
01,
FE,
07,
FF,
F7,
F6,
02,
03,
05,
05,
00,
FB,
FF,
F7,
FF,
FA,
00,
F8,
01,
FB,
FF,
02,
FE,
02,
0B,
FC,
07,
FE,
02,
00,
07,
04,
FA,
F6,
08,
01,
ED,
F8,
FB,
FD,
04,
FB,
02,
04,
FC,
F2,
F5,
FE,
FB,
F4,
FE,
04,
FF,
05,
08,
00,
03,
FE,
FF,
F9,
F9,
FF,
FD,
04,
09,
0F,
FA,
02,
FB,
08,
01,
FD,
0B,
FC,
01,
04,
F9,
01,
FD,
04,
FE,
FF,
06,
FC,
00,
FF,
02,
F5,
FE,
03,
00,
00,
02,
08,
EF,
EB,
F0,
F4,
FC,
F9,
01,
FE,
0B,
00,
FD,
FB,
0D,
FF,
02,
08,
FE,
07,
FF,
09,
FF,
FF,
FB,
02,
F2,
F9,
0D,
FD,
14,
02,
FE,
F7,
01,
FC,
FF,
FF,
06,
04,
FD,
01,
FE,
05,
05,
00,
01,
00,
07,
01,
F8,
05,
FF,
FA,
03,
06,
F8,
04,
F8,
FF,
05,
0C,
FD,
FA,
FD,
FB,
06,
03,
01,
03,
00,
F5,
01,
07,
FE,
01,
FF,
FB,
00,
05,
01,
06,
FC,
FD,
FA,
04,
07,
01,
00,
06,
03,
FF,
FC,
FB,
07,
01,
03,
08,
F8,
F8,
0C,
01,
07,
FB,
FF,
FC,
FA,
FC,
FE,
F5,
10,
01,
FB,
02,
05,
FD,
F8,
FC,
F6,
FF,
FA,
01,
FD,
F8,
00,
F8,
F8,
FD,
06,
00,
FD,
06,
FF,
01,
FE,
FB,
FE,
FA,
04,
FB,
FA,
01,
FF,
F3,
FF,
07,
00,
01,
03,
FE,
05,
FC,
0A,
03,
02,
01,
03,
04,
0A,
0A,
03,
FE,
07,
01,
FE,
02,
F8,
05,
FF,
FA,
F6,
F9,
F8,
00,
05,
FB,
04,
FF,
00,
01,
01,
F2,
FE,
08,
03,
F8,
01,
01,
07,
FB,
02,
FA,
FB,
04,
08,
04,
F9,
0E,
0A,
06,
F8,
FD,
02,
F2,
FA,
01,
FF,
07,
00,
01,
03,
FE,
07,
FF,
FB,
F6,
00,
02,
FC,
FF,
FF,
04,
01,
0A,
01,
F1,
FA,
00,
03,
03,
FA,
F9,
01,
00,
0A,
F5,
08,
FC,
FA,
FB,
FE,
FB,
01,
01,
FD,
FA,
F3,
FC,
FB,
F9,
FB,
FD,
FF,
00,
F9,
FF,
F8,
05,
06,
FD,
06,
FB,
FE,
08,
02,
0A,
04,
04,
04,
0A,
01,
07,
06,
FD,
00,
F7,
FD,
FE,
05,
09,
05,
02,
FC,
F5,
04,
01,
FA,
04,
FE,
03,
06,
FE,
06,
F9,
F9,
04,
F8,
F9,
05,
01,
02,
FA,
F8,
01,
FD,
00,
F5,
FE,
01,
F3,
FC,
FB,
F8,
F9,
F1,
F2,
F5,
06,
FB,
FE,
0A,
FA,
02,
0A,
02,
02,
05,
F9,
FC,
F9,
01,
FB,
FD,
FA,
06,
F7,
FB,
F7,
10,
0A,
FC,
00,
04,
00,
00,
FB,
04,
FE,
07,
FC,
03,
FC,
F7,
00,
01,
05,
FA,
FF,
0A,
FE,
02,
0B,
F8,
03,
00,
FC,
F9,
F8,
01,
F8,
F7,
02,
F9,
00,
00,
F9,
02,
FF,
04,
FD,
02,
03,
05,
06,
02,
08,
06,
0A,
F9,
FD,
01,
FF,
05,
FF,
01,
0B,
FD,
FF,
F9,
FE,
FD,
FD,
0E,
03,
FF,
07,
FE,
05,
01,
F6,
F8,
F9,
FD,
FF,
F6,
F9,
08,
05,
FB,
FD,
FB,
09,
04,
F4,
08,
0D,
07,
FD,
05,
01,
02,
0A,
05,
05,
F6,
02,
08,
FF,
F7,
FF,
F4,
F1,
04,
F7,
01,
FF,
F7,
F6,
FF,
02,
01,
FF,
FA,
F6,
08,
FD,
FA,
00,
F8,
FE,
FE,
03,
FC,
02,
04,
FA,
FA,
07,
FB,
FF,
FD,
08,
FA,
00,
01,
FD,
0B,
FD,
09,
FE,
FC,
FC,
FA,
FE,
FB,
FD,
04,
01,
00,
FA,
F8,
03,
F5,
05,
05,
FE,
01,
08,
FF,
05,
F7,
F8,
FA,
FD,
F0,
03,
07,
FF,
F8,
07,
FA,
02,
06,
FC,
F7,
FF,
08,
0A,
01,
0A,
06,
02,
06,
08,
FE,
FA,
FA,
FD,
FD,
F9,
FD,
00,
F7,
FC,
00,
03,
07,
FD,
F9,
02,
03,
0B,
05,
07,
07,
FC,
FC,
01,
FE,
08,
09,
04,
FB,
02,
FF,
F5,
02,
FE,
FB,
FC,
03,
01,
F1,
03,
FC,
07,
09,
01,
06,
FD,
FA,
F9,
FD,
02,
01,
FD,
FF,
03,
FA,
FC,
FD,
FB,
FE,
02,
00,
0F,
00,
FC,
FE,
08,
F9,
F9,
FE,
FA,
F9,
02,
F8,
FF,
05,
FB,
02,
FF,
07,
01,
FB,
03,
05,
01,
FA,
F3,
FF,
FE,
EB,
05,
FF,
01,
FF,
F7,
0D,
01,
FB,
08,
03,
01,
FE,
0B,
02,
02,
04,
04,
05,
05,
0C,
01,
01,
F7,
FD,
05,
08,
05,
FE,
00,
03,
F8,
02,
FD,
FA,
FE,
FA,
05,
FA,
00,
00,
FA,
07,
FE,
FC,
05,
0E,
F8,
01,
FE,
F9,
FC,
FA,
F9,
FB,
F9,
08,
07,
FD,
03,
FC,
09,
04,
00,
03,
F4,
F3,
01,
06,
F6,
01,
03,
FF,
0C,
03,
03,
FB,
05,
FD,
FE,
03,
F2,
FB,
06,
FF,
05,
FC,
00,
03,
04,
FC,
02,
05,
F9,
06,
08,
FE,
0A,
04,
F4,
03,
06,
03,
FB,
03,
00,
03,
FB,
F8,
02,
04,
06,
F8,
01,
FD,
FD,
01,
F7,
01,
07,
FB,
04,
04,
FB,
0D,
F9,
04,
03,
FE,
F8,
F9,
FB,
01,
04,
FD,
FE,
0A,
05,
03,
FB,
01,
01,
0B,
0F,
01,
13,
03,
02,
00,
06,
FB,
00,
03,
00,
0A,
04,
0A,
FA,
08,
FB,
F9,
0B,
FA,
F8,
F9,
03,
FA,
01,
08,
02,
00,
05,
FF,
F7,
FF,
06,
F2,
02,
FF,
F6,
02,
02,
09,
03,
FF,
00,
FF,
02,
08,
F6,
06,
02,
FE,
FB,
FE,
01,
02,
FB,
01,
04,
00,
04,
09,
F5,
FB,
04,
00,
FA,
02,
02,
FC,
FC,
04,
F9,
01,
0A,
05,
0B,
FA,
07,
0A,
F1,
04,
0A,
F3,
FC,
FF,
01,
0A,
05,
FC,
FF,
0A,
05,
F6,
04,
FE,
FA,
01,
00,
FB,
FF,
0C,
FF,
FC,
FE,
F8,
02,
ED,
F5,
02,
FA,
F9,
FC,
FD,
F9,
F9,
FE,
F8,
FF,
07,
01,
02,
06,
FA,
F7,
FD,
FE,
FE,
0A,
FD,
05,
0B,
FE,
05,
FA,
06,
FA,
00,
FB,
FA,
FC,
FA,
03,
FD,
02,
06,
FF,
FC,
FB,
FD,
00,
04,
FA,
02,
FD,
02,
01,
09,
00,
04,
F6,
FA,
FD,
02,
05,
05,
07,
FF,
FF,
FB,
07,
FD,
07,
08,
02,
03,
04,
FA,
FC,
F5,
F1,
FF,
FD,
F9,
02,
04,
03,
02,
F8,
0C,
FF,
FA,
02,
06,
FF,
02,
F7,
03,
02,
FD,
00,
FE,
F6,
03,
FE,
FF,
FF,
FA,
09,
FC,
F9,
03,
FB,
02,
FF,
00,
F2,
01,
05,
01,
05,
00,
08,
FC,
FE,
01,
FE,
08,
0C,
02,
00,
F0,
F2,
FB,
F6,
01,
09,
04,
02,
03,
F7,
FD,
01,
01,
FF,
0C,
02,
FC,
FD,
FF,
00,
FA,
F6,
09,
01,
FC,
02,
FF,
F4,
F9,
05,
02,
F9,
0A,
FA,
05,
FC,
FF,
F4,
02,
00,
00,
FE,
FC,
FD,
04,
F9,
04,
04,
FE,
FB,
00,
FF,
05,
04,
06,
FA,
03,
06,
F9,
05,
FD,
03,
02,
FD,
07,
04,
03,
04,
05,
07,
FC,
FD,
FE,
02,
05,
00,
FF,
FF,
FA,
02,
FC,
0B,
F9,
F9,
06,
FC,
FD,
00,
08,
FB,
03,
FB,
FA,
FF,
FA,
03,
02,
00,
FA,
FE,
02,
FE,
0B,
0F,
F3,
03,
12,
FF,
FE,
09,
FF,
05,
FD,
FE,
0E,
FF,
FD,
FF,
FC,
0A,
07,
03,
03,
06,
09,
F3,
F4,
00,
F8,
06,
07,
F7,
08,
0C,
04,
FD,
01,
04,
05,
00,
F3,
FA,
FD,
04,
FD,
FF,
FF,
04,
09,
02,
FA,
04,
FD,
02,
FD,
00,
00,
FD,
05,
FD,
02,
FA,
09,
FB,
05,
FD,
07,
FC,
FE,
07,
03,
08,
03,
F4,
FD,
07,
05,
0C,
06,
FE,
F6,
FB,
01,
FE,
00,
08,
FD,
04,
F1,
F6,
FE,
FD,
F8,
FC,
FA,
F3,
F1,
FF,
F8,
F9,
00,
FF,
F9,
FF,
FF,
F7,
F3,
FB,
FE,
FE,
06,
05,
05,
0C,
06,
02,
01,
02,
03,
03,
00,
05,
F2,
F7,
0C,
FF,
F5,
06,
05,
05,
FC,
F8,
01,
01,
F7,
FB,
FC,
05,
F9,
F8,
00,
0A,
06,
03,
FC,
02,
FC,
FC,
01,
F9,
FC,
F8,
FF,
00,
FD,
01,
03,
02,
03,
FD,
FC,
FC,
FE,
F6,
08,
00,
F3,
FF,
F9,
FF,
0E,
0A,
F8,
03,
02,
00,
FF,
FD,
00,
F9,
FB,
FD,
05,
01,
07,
02,
02,
FE,
FF,
FD,
00,
FE,
00,
F8,
FF,
07,
F9,
05,
FD,
F5,
FE,
FC,
03,
FD,
09,
06,
04,
F9,
0B,
03,
04,
02,
F9,
02,
F6,
FD,
F9,
07,
01,
FF,
F9,
FE,
08,
FB,
FD,
07,
FE,
F8,
FF,
03,
F8,
FF,
02,
0B,
05,
FB,
01,
FF,
FA,
02,
01,
FD,
00,
01,
02,
FB,
FC,
03,
04,
FB,
05,
03,
03,
FD,
FF,
03,
06,
09,
03,
FA,
F7,
FE,
FB,
FF,
04,
06,
0F,
03,
FC,
08,
03,
FA,
FB,
01,
FE,
F7,
01,
06,
FD,
04,
FE,
FF,
FA,
02,
FE,
F8,
04,
03,
05,
0A,
04,
01,
02,
FF,
F3,
FF,
FA,
FC,
0A,
FE,
08,
07,
01,
0A,
FB,
00,
02,
05,
FB,
FF,
F7,
F9,
03,
04,
00,
00,
FF,
04,
00,
FE,
05,
F6,
08,
05,
00,
FF,
03,
0B,
FA,
FB,
FE,
09,
03,
FD,
F7,
F8,
FF,
FE,
02,
03,
03,
F7,
02,
02,
08,
05,
FF,
FF,
FE,
FF,
FF,
09,
F8,
0B,
F9,
FD,
FD,
00,
05,
00,
01,
02,
F6,
00,
04,
F9,
07,
FF,
F8,
03,
FC,
F8,
FE,
FE,
01,
02,
02,
02,
01,
FF,
02,
03,
FF,
F7,
00,
02,
EC,
FB,
F7,
01,
05,
05,
04,
09,
01,
FE,
F8,
00,
F8,
F9,
02,
FD,
FD,
F7,
02,
04,
FF,
FF,
F9,
FF,
01,
08,
F9,
FE,
FB,
FB,
FB,
FE,
06,
FA,
FF,
06,
FE,
FE,
07,
05,
FC,
FD,
FB,
FC,
F5,
FB,
FD,
F3,
FE,
FE,
FC,
07,
FD,
02,
05,
05,
FB,
FD,
FB,
F9,
09,
FD,
F9,
F4,
00,
F8,
F4,
FC,
05,
05,
FD,
FC,
FD,
FE,
01,
FF,
00,
04,
FF,
03,
02,
0B,
FF,
FA,
FF,
00,
FF,
FA,
02,
06,
01,
04,
FE,
FA,
05,
F8,
F8,
05,
05,
FF,
01,
FB,
0A,
09,
F9,
06,
FC,
FF,
F7,
F5,
FB,
FC,
00,
FD,
07,
FF,
FA,
01,
0B,
07,
F3,
FE,
FF,
F6,
08,
FD,
00,
02,
FA,
F6,
FC,
FD,
FF,
01,
FF,
FE,
F6,
01,
03,
03,
FC,
06,
04,
FF,
01,
FA,
09,
FE,
01,
02,
FC,
FA,
02,
00,
FB,
00,
00,
FD,
FB,
00,
FE,
05,
F9,
F3,
00,
03,
F6,
FF,
02,
09,
07,
04,
FA,
FD,
02,
FB,
FB,
FB,
00,
FD,
00,
F9,
FC,
FE,
FD,
01,
04,
FE,
04,
01,
04,
00,
12,
08,
01,
02,
FA,
03,
05,
FC,
FF,
02,
FF,
07,
06,
02,
FC,
06,
04,
FE,
FE,
06,
FC,
FB,
05,
F9,
02,
F8,
06,
FB,
00,
01,
FB,
FE,
04,
FA,
02,
05,
FF,
F9,
02,
0A,
FF,
05,
F7,
F6,
04,
FF,
09,
00,
FF,
FE,
00,
00,
FE,
00,
FD,
F7,
FE,
F6,
FA,
FB,
FA,
FF,
F7,
06,
05,
FF,
FA,
FC,
FC,
00,
02,
FE,
02,
00,
04,
F9,
FB,
04,
F8,
F3,
09,
07,
FC,
05,
02,
FE,
FD,
01,
F7,
02,
02,
00,
06,
02,
FD,
06,
FC,
00,
05,
F9,
01,
01,
F5,
FB,
FC,
FD,
FB,
F5,
FD,
03,
F1,
FA,
FF,
FB,
04,
02,
00,
07,
FC,
FA,
02,
01,
FA,
F7,
01,
FA,
FA,
08,
F3,
FE,
FA,
00,
FB,
FD,
0F,
F9,
FC,
F5,
F5,
03,
FE,
FB,
01,
FD,
00,
00,
05,
06,
FE,
08,
07,
01,
03,
01,
00,
07,
FE,
00,
02,
F8,
F8,
00,
FA,
FB,
00,
FC,
FC,
FD,
FA,
F9,
02,
00,
FD,
FB,
FE,
05,
FE,
FF,
02,
FF,
03,
FF,
FE,
00,
F8,
05,
FC,
FB,
FD,
01,
FB,
FB,
FE,
FF,
FE,
FE,
0A,
F9,
F6,
FB,
F9,
F9,
00,
01,
F9,
FC,
F9,
F8,
F3,
FD,
FE,
05,
02,
04,
05,
F4,
F8,
02,
F9,
FE,
01,
FD,
FB,
01,
F5,
01,
F3,
08,
FF,
00,
FB,
00,
FF,
F5,
01,
FF,
FE,
FE,
FE,
FD,
02,
FE,
01,
02,
FE,
03,
01,
04,
FD,
FF,
FF,
02,
03,
FE,
00,
00,
04,
FF,
FB,
FF,
00,
F6,
00,
F7,
07,
00,
FC,
06,
02,
03,
00,
04,
05,
FA,
01,
06,
02,
0B,
03,
FE,
02,
FD,
FC,
00,
03,
06,
FC,
05,
F9,
00,
04,
F8,
FD,
00,
FB,
05,
FD,
02,
00,
FA,
04,
FD,
02,
FB,
FF,
00,
FC,
FF,
0B,
FE,
06,
04,
FC,
FE,
FE,
02,
02,
01,
FD,
FF,
FB,
FF,
FD,
00,
F9,
FA,
08,
02,
00,
FE,
01,
FD,
FB,
FD,
FB,
FC,
00,
FE,
FF,
FA,
F7,
04,
04,
F4,
FB,
FF,
F5,
00,
FE,
FD,
01,
F4,
01,
FB,
F2,
FD,
03,
0A,
09,
00,
FD,
F3,
FA,
01,
09,
0B,
02,
FF,
02,
FF,
03,
F8,
F9,
F9,
08,
01,
FE,
FD,
FA,
03,
01,
01,
01,
FB,
FC,
F8,
03,
00,
FE,
FE,
08,
00,
FE,
02,
00,
FD,
FD,
F8,
FC,
04,
FE,
FE,
02,
FC,
F8,
F5,
08,
FF,
F9,
00,
06,
F8,
00,
09,
01,
05,
00,
FC,
03,
F8,
F7,
F9,
F9,
04,
06,
F7,
06,
FF,
FA,
FE,
FE,
03,
05,
FD,
FB,
F9,
F8,
00,
F9,
FC,
06,
03,
FD,
FC,
01,
F6,
FD,
FF,
04,
F8,
03,
03,
FE,
0A,
00,
00,
07,
FF,
0C,
06,
FC,
FF,
0B,
03,
FE,
FE,
FC,
FE,
FF,
FE,
F2,
00,
0A,
03,
FF,
F8,
FC,
00,
05,
FC,
FA,
FA,
F7,
F9,
00,
FD,
00,
02,
FE,
07,
02,
02,
F7,
F8,
00,
FD,
F5,
FC,
FF,
FA,
06,
06,
FE,
FB,
F7,
FD,
FF,
FF,
FD,
FC,
F9,
09,
05,
03,
FE,
FC,
0A,
00,
05,
FD,
0A,
00,
03,
02,
07,
02,
FF,
FE,
03,
02,
FF,
FB,
01,
02,
FD,
F9,
04,
02,
FF,
FC,
FB,
FD,
0A,
00,
05,
F9,
FF,
F5,
0D,
FC,
02,
00,
FC,
04,
03,
FE,
FC,
03,
03,
FA,
F7,
FD,
FC,
FB,
F9,
FC,
FE,
00,
01,
01,
FF,
FC,
04,
F5,
FA,
00,
00,
FC,
02,
F4,
00,
00,
04,
03,
02,
FE,
06,
FF,
F7,
F6,
FB,
FB,
F9,
FF,
02,
02,
FA,
FF,
04,
F9,
04,
02,
01,
FF,
01,
FF,
FA,
F9,
01,
FF,
01,
F9,
FD,
03,
01,
00,
FC,
FD,
03,
F7,
05,
F7,
FD,
00,
FE,
08,
03,
FD,
FB,
07,
FB,
FC,
06,
FE,
03,
FE,
01,
FA,
06,
05,
FD,
FF,
FB,
FE,
05,
FF,
03,
FC,
04,
FA,
FD,
F9,
FF,
05,
08,
FF,
FD,
01,
04,
F7,
07,
FD,
00,
FC,
FB,
F4,
03,
01,
F4,
FD,
FC,
00,
01,
FE,
FE,
03,
FA,
02,
02,
01,
00,
FA,
06,
03,
FD,
02,
FF,
03,
01,
00,
FE,
FC,
FE,
FD,
09,
FE,
FB,
FE,
04,
0C,
FE,
09,
FA,
FE,
04,
02,
F8,
12,
FB,
02,
F6,
09,
F7,
FE,
01,
F6,
0C,
04,
04,
FB,
00,
FE,
01,
FD,
FE,
02,
08,
01,
00,
08,
FE,
F7,
01,
07,
0A,
00,
01,
FF,
04,
FF,
FE,
06,
03,
FD,
FE,
04,
FC,
F9,
00,
03,
06,
F1,
FF,
00,
FF,
F8,
FE,
FF,
04,
FE,
F8,
02,
07,
03,
FD,
00,
FF,
F8,
00,
FB,
07,
FE,
02,
FC,
06,
FF,
0C,
03,
FD,
02,
07,
FE,
FD,
08,
05,
02,
FD,
FF,
07,
FF,
FC,
07,
FC,
06,
00,
FD,
01,
FA,
04,
04,
F9,
0A,
F9,
FD,
01,
01,
FC,
FF,
F9,
FD,
04,
FB,
04,
FA,
04,
0B,
FD,
01,
FF,
04,
06,
0D,
FB,
FC,
00,
FB,
09,
03,
03,
FC,
0C,
02,
FE,
F8,
01,
05,
FB,
FE,
06,
FF,
F8,
02,
FF,
04,
FE,
FE,
03,
05,
FA,
09,
03,
0C,
02,
FF,
08,
02,
F4,
F6,
06,
F9,
F8,
02,
FE,
04,
FC,
FF,
01,
00,
FD,
00,
F1,
FF,
0A,
F9,
F2,
FA,
FB,
03,
F8,
FF,
04,
00,
01,
FF,
0C,
00,
FC,
FB,
F9,
F7,
04,
F7,
FE,
02,
FA,
FE,
02,
15,
FC,
FF,
05,
FB,
FC,
06,
0D,
01,
01,
02,
09,
FB,
01,
F7,
06,
FB,
F5,
FF,
02,
FB,
04,
07,
00,
FD,
FE,
FD,
F9,
FC,
FD,
F9,
F7,
03,
F4,
02,
F6,
0D,
05,
F6,
05,
06,
03,
04,
08,
07,
01,
FB,
03,
F8,
F4,
FC,
F1,
FE,
0F,
03,
F9,
0A,
F4,
F8,
FD,
03,
FA,
F6,
06,
07,
06,
04,
FE,
FF,
01,
FB,
06,
02,
FE,
FE,
FB,
FC,
FE,
04,
F9,
01,
05,
02,
03,
02,
05,
0A,
F9,
F3,
FD,
FD,
FD,
FF,
04,
FE,
FD,
02,
F9,
07,
FD,
06,
02,
05,
08,
FE,
0E,
01,
06,
FC,
FC,
FE,
07,
FC,
FE,
01,
FD,
FC,
FC,
FC,
04,
FD,
03,
FA,
FF,
01,
01,
06,
02,
09,
FB,
FF,
06,
F6,
00,
00,
FF,
06,
05,
F2,
02,
02,
FE,
04,
05,
FB,
F9,
03,
FE,
FD,
FA,
00,
03,
F7,
FC,
07,
FD,
06,
FD,
FE,
FD,
02,
F8,
04,
04,
02,
F9,
07,
03,
00,
00,
FC,
FD,
FF,
00,
FB,
F9,
03,
FA,
02,
F8,
01,
03,
EF,
FC,
04,
F5,
FE,
FF,
FE,
FF,
09,
F6,
08,
06,
F9,
04,
0A,
FD,
06,
FE,
FB,
02,
04,
F9,
03,
F7,
F6,
07,
01,
FC,
05,
09,
02,
FC,
FF,
FC,
FB,
03,
F6,
F9,
FB,
FC,
09,
07,
FF,
03,
FD,
FC,
FA,
06,
FF,
00,
07,
05,
03,
FB,
02,
02,
06,
05,
00,
FD,
FF,
02,
00,
03,
FA,
01,
0B,
05,
FF,
03,
00,
FC,
05,
02,
FD,
03,
0A,
FF,
F8,
04,
05,
FC,
FA,
FE,
0E,
04,
01,
FC,
F1,
FD,
04,
FD,
F4,
06,
F9,
00,
09,
01,
FC,
FD,
00,
0C,
09,
FF,
00,
FD,
08,
05,
FD,
05,
02,
02,
0A,
FD,
02,
01,
0C,
01,
FC,
00,
FB,
FC,
0B,
FA,
00,
FA,
03,
FA,
04,
00,
FE,
FD,
00,
02,
F9,
F7,
00,
F9,
04,
FE,
F9,
04,
01,
00,
05,
01,
05,
02,
06,
FF,
0B,
01,
FD,
06,
FD,
FB,
FE,
08,
FB,
08,
09,
01,
03,
02,
F3,
03,
FF,
FE,
FB,
05,
0C,
F1,
01,
0A,
F4,
FA,
07,
07,
03,
01,
01,
FF,
03,
01,
00,
03,
FA,
F5,
06,
01,
F4,
FB,
FF,
02,
06,
FE,
09,
FD,
F6,
FD,
08,
04,
FC,
FB,
09,
FF,
03,
FF,
01,
08,
FD,
FF,
02,
00,
05,
FB,
FE,
F9,
FA,
00,
FE,
02,
02,
F7,
FA,
00,
01,
02,
0C,
00,
FD,
02,
0A,
FE,
00,
F9,
07,
00,
08,
FB,
06,
FD,
02,
FE,
F7,
04,
00,
00,
FF,
FF,
FE,
04,
FB,
07,
FB,
05,
04,
02,
00,
FC,
FB,
02,
FE,
F9,
FF,
02,
FF,
06,
09,
FD,
FC,
06,
04,
00,
04,
03,
04,
FD,
FF,
FB,
F9,
FD,
FE,
05,
00,
FB,
01,
09,
05,
01,
09,
FF,
00,
01,
FE,
09,
FB,
FA,
06,
FE,
04,
FA,
02,
F5,
FB,
FF,
02,
02,
FF,
06,
09,
05,
FA,
04,
02,
FC,
FE,
04,
02,
FF,
07,
03,
FE,
04,
03,
F6,
F8,
09,
01,
FE,
F8,
FD,
09,
F7,
FF,
00,
FA,
FA,
01,
05,
05,
01,
FE,
01,
FD,
01,
00,
01,
00,
07,
06,
08,
03,
08,
05,
03,
09,
05,
01,
05,
02,
FA,
0A,
FB,
FC,
0C,
08,
00,
04,
FF,
F5,
FE,
FB,
05,
FE,
0B,
FB,
FD,
01,
FB,
07,
02,
FE,
06,
04,
FB,
03,
F4,
02,
FD,
FA,
FE,
00,
FE,
FC,
06,
FB,
FB,
08,
07,
FB,
06,
FB,
FA,
FC,
FF,
F6,
07,
FC,
FB,
02,
0B,
03,
F6,
04,
FE,
F9,
05,
F9,
FA,
0B,
F6,
FC,
01,
F8,
F6,
FF,
00,
FD,
FD,
F6,
FA,
05,
05,
FE,
05,
FF,
02,
02,
FC,
FE,
FF,
04,
FD,
FE,
04,
FD,
05,
05,
05,
02,
F5,
FA,
01,
FF,
FA,
FC,
07,
02,
FC,
00,
FF,
06,
FB,
02,
FD,
0C,
FF,
05,
04,
0A,
FB,
0A,
07,
05,
FE,
FC,
03,
00,
01,
09,
01,
01,
FE,
FE,
01,
00,
FE,
03,
06,
FF,
01,
01,
05,
FE,
05,
FB,
FD,
FF,
FE,
01,
05,
03,
FE,
06,
05,
00,
00,
01,
0A,
FE,
01,
00,
F2,
FF,
02,
01,
0B,
FF,
FC,
09,
F8,
03,
0A,
FE,
07,
FF,
02,
F6,
05,
FD,
00,
01,
04,
F8,
FD,
FC,
FF,
04,
FD,
01,
01,
FD,
09,
03,
FD,
FC,
03,
00,
02,
07,
07,
07,
FC,
01,
07,
05,
FF,
02,
02,
FE,
08,
06,
FC,
FD,
0E,
08,
F1,
FD,
0A,
05,
FB,
FF,
05,
F7,
F7,
F9,
F6,
06,
09,
FB,
FC,
03,
00,
03,
FE,
08,
0D,
FF,
FF,
05,
11,
EF,
FE,
FD,
04,
01,
04,
06,
01,
01,
FC,
FE,
05,
00,
06,
FA,
05,
08,
FF,
03,
08,
02,
FD,
01,
08,
03,
01,
F9,
03,
0B,
F7,
FB,
04,
05,
FB,
07,
FC,
00,
01,
FF,
FC,
03,
04,
FE,
FF,
F8,
09,
07,
FC,
FF,
01,
F6,
10,
FB,
05,
09,
F8,
FC,
0A,
00,
00,
FE,
00,
08,
FA,
02,
03,
FF,
09,
02,
FF,
06,
02,
08,
F9,
F8,
04,
01,
09,
F3,
00,
05,
03,
FF,
01,
04,
FE,
01,
FD,
F9,
FC,
05,
05,
FA,
FC,
06,
FD,
07,
0B,
FC,
FE,
04,
FF,
05,
04,
FC,
02,
00,
F7,
02,
06,
FD,
F8,
09,
FA,
FE,
04,
FF,
03,
00,
00,
00,
03,
FF,
FB,
00,
0B,
01,
F8,
FF,
FE,
FD,
FF,
FE,
09,
00,
02,
05,
FC,
FB,
FF,
00,
FD,
04,
07,
04,
F4,
06,
0A,
07,
06,
03,
FE,
00,
0A,
02,
05,
0D,
08,
FC,
09,
FD,
01,
07,
05,
00,
FD,
FE,
07,
00,
02,
FD,
FE,
04,
01,
FD,
05,
FB,
00,
07,
02,
FB,
FE,
07,
02,
05,
0D,
F9,
02,
06,
09,
00,
00,
00,
01,
00,
F6,
FE,
FD,
02,
FD,
FE,
00,
01,
01,
04,
01,
00,
FE,
FF,
00,
02,
F4,
FF,
02,
FE,
FA,
FB,
FC,
FC,
FA,
FB,
01,
FE,
F8,
0B,
02,
07,
FF,
F8,
FC,
F7,
F9,
00,
FD,
FB,
FF,
03,
FB,
05,
00,
00,
0D,
FC,
FC,
02,
04,
00,
07,
02,
FA,
02,
00,
FF,
FD,
FF,
FB,
01,
00,
FD,
FE,
02,
FA,
01,
FB,
05,
08,
02,
F6,
07,
06,
FD,
F8,
06,
07,
FE,
F9,
FC,
01,
FF,
FC,
02,
FE,
03,
FC,
FE,
F8,
00,
FC,
FE,
04,
FC,
F9,
00,
FD,
02,
01,
FE,
06,
FC,
FE,
FA,
F8,
03,
FD,
FF,
08,
FC,
F5,
01,
00,
FD,
01,
02,
F5,
01,
04,
02,
FD,
FB,
08,
FE,
01,
FD,
F8,
FD,
FD,
FB,
FD,
FF,
05,
01,
02,
02,
01,
FD,
FA,
00,
07,
FD,
FF,
03,
01,
F9,
FD,
FC,
F6,
FD,
02,
01,
F6,
02,
00,
EF,
06,
FF,
02,
01,
FC,
FF,
F8,
FA,
FA,
02,
F9,
FF,
00,
FC,
06,
05,
05,
02,
01,
F8,
03,
02,
02,
07,
05,
0C,
04,
FC,
00,
FE,
05,
02,
01,
FE,
02,
07,
09,
FC,
FD,
02,
F9,
FF,
FE,
F7,
FF,
01,
05,
00,
04,
05,
01,
FE,
F8,
FE,
FE,
FD,
FF,
04,
02,
FA,
01,
FD,
F7,
05,
07,
08,
F9,
FE,
FB,
F8,
FB,
00,
0F,
0B,
06,
FF,
06,
02,
FE,
F7,
F5,
05,
FB,
F6,
00,
09,
01,
FB,
05,
02,
FB,
07,
FE,
FD,
FE,
FE,
FF,
F9,
FF,
F8,
04,
01,
00,
08,
FF,
06,
FB,
FC,
02,
00,
FD,
05,
00,
03,
01,
FD,
00,
FF,
FB,
01,
00,
05,
00,
01,
FE,
02,
08,
02,
FE,
02,
FD,
FD,
02,
F6,
FF,
FA,
F6,
F8,
FE,
FD,
FB,
F3,
04,
FF,
03,
03,
04,
02,
06,
08,
07,
02,
01,
02,
FE,
FA,
07,
F5,
F8,
01,
F1,
FC,
FB,
FE,
FF,
0E,
05,
00,
FC,
02,
00,
F8,
F4,
01,
F6,
06,
01,
FE,
F9,
FA,
00,
FD,
01,
01,
FE,
FB,
03,
F5,
02,
05,
03,
06,
FA,
00,
FE,
01,
FF,
02,
06,
01,
FB,
FC,
05,
06,
F6,
06,
02,
FC,
FD,
F3,
F7,
03,
01,
02,
00,
FB,
FC,
02,
F5,
02,
FF,
01,
FD,
FC,
06,
FE,
FC,
01,
00,
03,
07,
02,
FE,
00,
04,
FB,
02,
FD,
05,
05,
FD,
FA,
FA,
FD,
03,
F8,
FF,
04,
FE,
08,
FC,
01,
03,
FE,
02,
04,
03,
FE,
FE,
02,
FD,
00,
00,
FC,
FE,
00,
FF,
00,
00,
03,
00,
FD,
F8,
F7,
03,
00,
FA,
09,
00,
F9,
FA,
FE,
FD,
FB,
F4,
08,
04,
FB,
FF,
05,
03,
FC,
02,
05,
03,
02,
0B,
05,
03,
F9,
F7,
02,
F8,
0C,
02,
FA,
07,
FF,
06,
03,
05,
F7,
01,
04,
00,
04,
FC,
FD,
07,
FC,
00,
03,
FC,
00,
FF,
FC,
F9,
FD,
02,
F9,
FF,
FC,
F7,
FE,
F8,
00,
06,
FC,
F5,
F9,
FC,
02,
03,
03,
05,
07,
08,
01,
FF,
04,
FA,
02,
02,
FC,
01,
FE,
05,
FE,
FD,
FD,
01,
FC,
06,
FB,
04,
01,
FD,
FA,
01,
00,
FB,
01,
02,
01,
04,
FE,
FB,
03,
FE,
F8,
01,
FF,
FF,
02,
06,
FE,
01,
06,
07,
03,
09,
07,
00,
01,
00,
FA,
FC,
08,
03,
08,
FB,
01,
06,
01,
06,
00,
09,
08,
00,
FE,
05,
FE,
05,
02,
00,
FE,
F8,
00,
00,
01,
FA,
FB,
FB,
FD,
F9,
02,
FB,
FC,
FE,
FE,
FD,
F4,
03,
01,
FC,
06,
FE,
0B,
F7,
00,
02,
01,
F9,
02,
02,
FC,
08,
FF,
FF,
FC,
FF,
02,
01,
00,
04,
F7,
00,
FE,
03,
02,
FE,
F8,
01,
01,
05,
05,
FD,
03,
05,
06,
04,
04,
00,
FE,
FF,
FB,
FB,
00,
04,
06,
F6,
FE,
FF,
00,
FA,
FB,
FD,
00,
01,
02,
02,
F8,
06,
F6,
FC,
05,
FE,
FC,
01,
05,
04,
FF,
FE,
FB,
FC,
06,
03,
0D,
00,
05,
FD,
FE,
FA,
FF,
F8,
FA,
06,
FE,
F9,
00,
00,
00,
04,
FF,
FD,
04,
04,
FD,
FA,
01,
00,
01,
03,
FC,
03,
FB,
F6,
01,
FC,
FC,
08,
05,
00,
02,
00,
FB,
02,
00,
00,
02,
FD,
FE,
00,
05,
FB,
FD,
FA,
04,
06,
05,
FB,
07,
0C,
0B,
F9,
01,
06,
05,
01,
FA,
02,
00,
FF,
03,
FB,
FD,
06,
FD,
06,
FC,
05,
03,
01,
01,
01,
06,
03,
01,
05,
01,
03,
FC,
01,
05,
0C,
06,
F8,
05,
FF,
01,
03,
F9,
FC,
FF,
FB,
FD,
03,
F5,
F9,
F8,
FE,
04,
02,
03,
F7,
05,
FE,
F6,
FD,
02,
F0,
05,
FE,
FF,
F9,
02,
03,
FC,
FD,
07,
07,
04,
FF,
FE,
00,
FE,
F7,
05,
FF,
F7,
FE,
FC,
FE,
03,
FC,
FB,
F9,
04,
FB,
FD,
0C,
FB,
FB,
FE,
FB,
07,
FA,
FE,
FD,
F7,
FF,
FB,
05,
00,
F9,
FD,
F3,
FB,
05,
F8,
FF,
03,
FC,
05,
FA,
FC,
00,
07,
FC,
05,
08,
03,
F2,
01,
05,
F7,
F1,
FF,
00,
FB,
00,
02,
01,
04,
00,
FF,
00,
09,
02,
01,
F9,
F5,
01,
FC,
02,
FD,
01,
07,
FF,
F9,
03,
FC,
01,
05,
FC,
07,
00,
07,
F8,
F8,
04,
F8,
FB,
05,
F6,
09,
04,
FA,
0C,
01,
F8,
0A,
FF,
04,
FD,
02,
FF,
FD,
FF,
F9,
FD,
09,
08,
FE,
01,
F8,
00,
0E,
0B,
05,
FD,
FA,
FF,
F3,
07,
FC,
FA,
F7,
FC,
00,
00,
FA,
06,
02,
FC,
03,
07,
05,
03,
0B,
FE,
02,
FB,
06,
07,
FB,
F7,
04,
FF,
07,
00,
FF,
FB,
FB,
00,
03,
0C,
08,
07,
FE,
02,
08,
FF,
F8,
F6,
00,
FF,
FF,
F9,
F6,
F7,
FE,
FF,
F7,
01,
FD,
01,
03,
FE,
FD,
00,
02,
FB,
FF,
01,
07,
02,
00,
FB,
F4,
03,
F8,
FB,
FC,
FF,
FC,
FB,
07,
06,
F9,
F9,
F7,
01,
FC,
03,
FD,
08,
03,
07,
02,
06,
FE,
FF,
00,
F4,
FB,
FE,
09,
FD,
00,
F8,
00,
F8,
01,
00,
FA,
FB,
00,
04,
02,
FF,
FB,
FE,
F5,
F9,
01,
03,
02,
00,
04,
04,
07,
02,
FD,
FF,
FD,
FA,
08,
FC,
FC,
01,
00,
FC,
FC,
FE,
FD,
01,
04,
FB,
05,
01,
FE,
FF,
F9,
FE,
FC,
04,
F5,
F4,
FC,
FE,
03,
01,
FE,
FD,
FE,
F9,
06,
03,
00,
02,
01,
FB,
00,
FD,
FE,
FB,
FE,
FF,
06,
FE,
FC,
03,
FC,
FF,
06,
04,
FD,
07,
03,
02,
F6,
FE,
FC,
05,
FB,
FF,
F9,
00,
07,
04,
FB,
04,
FF,
FD,
FE,
F9,
FF,
FE,
02,
FC,
FB,
03,
F7,
04,
06,
02,
0A,
08,
FF,
07,
01,
F8,
01,
04,
01,
FB,
02,
FB,
0B,
02,
00,
03,
FB,
F7,
05,
FD,
FF,
FD,
F7,
F7,
FD,
06,
FD,
FD,
FF,
01,
F8,
F9,
08,
F7,
00,
0F,
F6,
EF,
00,
04,
01,
06,
04,
FD,
01,
FB,
FF,
FF,
FB,
00,
03,
FC,
FE,
FB,
FF,
02,
08,
08,
FC,
F9,
05,
02,
00,
FA,
FA,
00,
FC,
FD,
01,
01,
FA,
F8,
FF,
F4,
EF,
FC,
FA,
FD,
01,
FB,
FF,
04,
FF,
F5,
01,
FC,
04,
FD,
F9,
07,
FE,
FB,
FC,
07,
09,
01,
03,
01,
FA,
0B,
F5,
07,
FF,
01,
0C,
00,
FB,
07,
03,
FD,
FB,
04,
F9,
FD,
0A,
04,
FA,
01,
FF,
ED,
04,
05,
00,
F8,
FE,
02,
02,
00,
FF,
08,
02,
FF,
F8,
05,
F9,
FC,
FF,
07,
FB,
08,
FC,
07,
06,
05,
07,
01,
FC,
FD,
00,
FC,
FF,
07,
05,
F0,
F8,
F7,
FB,
FA,
FA,
03,
01,
00,
FB,
0D,
00,
03,
02,
04,
00,
F3,
FE,
06,
F8,
FB,
FA,
FB,
F5,
F8,
04,
00,
08,
06,
FF,
FB,
00,
01,
00,
04,
00,
00,
FC,
00,
FF,
FB,
09,
FB,
FB,
10,
FA,
00,
FB,
FF,
02,
FD,
05,
05,
FD,
0B,
02,
09,
F9,
FC,
FF,
0A,
FF,
0D,
F4,
08,
F3,
F6,
F8,
07,
F7,
00,
06,
F5,
01,
03,
06,
FD,
FC,
08,
0A,
07,
07,
FF,
F9,
FE,
04,
FE,
FA,
F5,
FE,
01,
02,
04,
03,
FD,
FB,
F6,
FA,
FE,
FE,
F7,
FD,
07,
06,
05,
F9,
FB,
FE,
01,
00,
FE,
FD,
04,
FD,
FC,
05,
0C,
07,
0A,
0A,
02,
02,
06,
FC,
08,
FE,
04,
FA,
07,
04,
FC,
00,
03,
F9,
FD,
07,
09,
03,
FF,
03,
00,
04,
FC,
F5,
02,
07,
F8,
F7,
FA,
F3,
01,
02,
02,
04,
FB,
FD,
05,
FF,
F7,
00,
F3,
F8,
07,
FE,
04,
FD,
FA,
09,
05,
06,
F7,
FF,
00,
FC,
05,
FA,
01,
FE,
07,
08,
02,
FE,
00,
02,
04,
F6,
00,
04,
FC,
0E,
08,
FA,
F8,
FC,
F9,
FA,
FE,
FD,
F8,
FC,
00,
F4,
FC,
F2,
F5,
00,
F7,
F8,
FF,
06,
08,
04,
01,
F5,
FF,
0C,
F7,
00,
0C,
04,
05,
05,
08,
FE,
08,
02,
08,
04,
FD,
FD,
00,
FB,
01,
FF,
F9,
FA,
FA,
06,
FF,
FB,
05,
01,
F8,
FA,
F9,
F1,
0D,
F5,
04,
08,
F0,
00,
07,
00,
04,
F5,
FB,
00,
02,
FF,
FF,
FB,
FB,
F7,
00,
FF,
03,
01,
02,
F8,
F3,
01,
05,
02,
FE,
05,
11,
FC,
FF,
FA,
00,
F4,
08,
04,
FF,
ED,
F2,
FA,
FC,
03,
FA,
F9,
01,
10,
FF,
00,
09,
F8,
F9,
05,
04,
05,
04,
00,
FF,
0B,
FA,
FF,
04,
08,
08,
09,
00,
03,
0E,
FF,
01,
F6,
00,
FD,
F8,
01,
07,
00,
03,
F5,
03,
FE,
00,
FD,
FF,
FD,
07,
FB,
FF,
F7,
03,
F6,
02,
01,
07,
04,
F8,
F9,
FE,
FA,
F8,
07,
FC,
01,
09,
FA,
02,
FA,
FD,
FA,
F8,
0D,
FB,
FA,
05,
FA,
02,
FF,
FD,
06,
FC,
F8,
FD,
FF,
F7,
FD,
00,
FD,
FF,
FC,
0A,
02,
01,
05,
F8,
06,
FE,
FE,
07,
FC,
05,
08,
03,
EF,
FC,
0E,
FE,
F8,
0B,
FE,
07,
02,
0C,
00,
FD,
FB,
0A,
02,
FD,
FF,
F7,
04,
01,
F6,
F3,
01,
00,
F7,
F8,
08,
01,
02,
02,
0A,
02,
F5,
FD,
0F,
04,
FF,
03,
05,
00,
F6,
00,
FF,
FE,
FF,
FB,
F5,
FF,
F4,
03,
05,
F8,
FD,
FC,
F6,
03,
04,
0A,
00,
03,
05,
08,
FF,
0B,
05,
03,
01,
06,
02,
FD,
FC,
F7,
03,
00,
F4,
02,
04,
0A,
09,
FA,
06,
05,
02,
F9,
00,
08,
F7,
FA,
FF,
F8,
F8,
04,
FA,
FF,
FA,
FF,
FD,
FE,
F9,
09,
FE,
06,
F4,
03,
FD,
F8,
FD,
F4,
0A,
05,
02,
FD,
F8,
01,
FF,
03,
FF,
0A,
08,
00,
FF,
03,
04,
FF,
F7,
01,
FC,
FB,
F8,
FF,
04,
FA,
FE,
03,
FB,
07,
04,
09,
F9,
05,
00,
00,
01,
F3,
03,
02,
06,
0A,
05,
FA,
F2,
05,
03,
FE,
02,
F8,
04,
00,
FA,
02,
0E,
FD,
03,
01,
02,
FC,
F6,
FD,
05,
F3,
FF,
F3,
08,
0A,
02,
06,
FE,
00,
03,
05,
02,
06,
F6,
FF,
03,
F6,
06,
00,
FA,
FF,
F3,
09,
FF,
08,
01,
09,
0F,
06,
03,
F8,
01,
01,
03,
FF,
06,
01,
F5,
FF,
F6,
FE,
01,
01,
FB,
0A,
F7,
00,
0B,
FD,
04,
F7,
F9,
F7,
06,
07,
04,
09,
F8,
F6,
04,
FF,
F6,
FA,
00,
F8,
F9,
F9,
FC,
FE,
05,
EF,
FD,
0A,
FF,
FD,
02,
FC,
F9,
07,
FE,
04,
06,
F3,
FD,
FF,
FF,
FD,
06,
0A,
06,
06,
05,
04,
FC,
FE,
03,
01,
F7,
06,
FC,
FC,
06,
01,
FB,
F8,
FB,
FF,
FB,
FC,
02,
04,
0F,
09,
01,
FE,
FF,
FE,
01,
07,
F4,
00,
04,
F9,
01,
08,
FF,
07,
06,
02,
FF,
01,
04,
F5,
FC,
05,
FC,
05,
08,
FC,
F8,
00,
FE,
F5,
07,
06,
01,
FB,
F4,
03,
FF,
F5,
07,
00,
F0,
F1,
F4,
03,
0D,
12,
F5,
FF,
00,
FF,
FC,
0D,
FF,
05,
FF,
F8,
FD,
FD,
FE,
FA,
FE,
01,
FB,
FC,
FC,
F0,
04,
02,
F5,
05,
F8,
F7,
FF,
FF,
F7,
0B,
FF,
F9,
06,
03,
FB,
05,
00,
F9,
0D,
FB,
F2,
06,
F7,
FD,
02,
FF,
03,
0D,
FA,
F6,
FD,
F8,
04,
05,
F7,
FE,
03,
FB,
FC,
08,
F9,
03,
FD,
F7,
00,
06,
FC,
02,
05,
FF,
FA,
FC,
F7,
FB,
07,
0D,
FF,
06,
FA,
FC,
EE,
05,
FF,
02,
03,
01,
02,
FB,
02,
01,
03,
05,
FD,
05,
0A,
0C,
FF,
FC,
02,
FD,
F4,
01,
F7,
04,
F9,
F9,
FA,
E9,
09,
00,
F8,
F9,
0A,
01,
FC,
05,
04,
08,
FC,
0A,
F8,
F8,
F4,
F9,
F8,
05,
06,
FD,
02,
04,
FD,
FF,
0A,
0E,
06,
07,
03,
01,
FB,
04,
00,
03,
FB,
F9,
09,
04,
02,
06,
FA,
FA,
FA,
F9,
FE,
04,
04,
FE,
01,
01,
00,
FC,
03,
FF,
01,
F9,
FD,
FB,
FF,
01,
FC,
01,
00,
07,
F8,
05,
FD,
FF,
FF,
00,
02,
FC,
02,
01,
00,
01,
03,
06,
00,
00,
FE,
07,
02,
FA,
FA,
FD,
0D,
FD,
02,
FD,
FF,
FC,
09,
09,
EF,
03,
FD,
06,
FF,
F9,
FE,
09,
F7,
FF,
07,
08,
FE,
05,
FF,
FD,
0E,
01,
FC,
01,
05,
05,
03,
00,
06,
03,
F6,
F8,
FB,
05,
0B,
10,
F9,
06,
FF,
00,
F6,
FA,
F5,
FA,
F8,
FF,
FD,
F9,
FD,
01,
00,
FC,
00,
02,
F7,
03,
03,
FE,
FD,
07,
06,
03,
03,
FE,
03,
08,
06,
F8,
F7,
02,
05,
F7,
08,
02,
01,
FC,
FF,
FC,
09,
07,
0F,
00,
07,
F9,
06,
02,
F8,
FA,
05,
F5,
06,
02,
F9,
01,
F4,
F9,
FF,
07,
02,
02,
F6,
FC,
FF,
FC,
F7,
F5,
FA,
06,
06,
FC,
08,
F9,
02,
FD,
F7,
04,
03,
F7,
01,
09,
FA,
01,
07,
F7,
0A,
02,
FB,
00,
0B,
08,
00,
06,
09,
FF,
FF,
FB,
02,
F8,
FE,
03,
03,
FE,
F8,
05,
FB,
F3,
05,
05,
F9,
FF,
06,
FE,
04,
FD,
FC,
F8,
02,
FD,
FF,
FF,
FC,
F9,
00,
F7,
04,
06,
0E,
09,
F0,
02,
04,
FE,
FE,
0D,
08,
FC,
02,
00,
05,
02,
03,
0A,
00,
FB,
FB,
05,
F7,
FF,
04,
FA,
FE,
07,
01,
02,
01,
17,
06,
FA,
08,
01,
01,
FF,
01,
FA,
0E,
FE,
F2,
FB,
F6,
F6,
FE,
FC,
03,
F8,
FF,
03,
F9,
04,
02,
0B,
03,
FF,
FD,
07,
04,
FF,
F4,
FE,
06,
01,
09,
09,
07,
04,
0E,
0C,
03,
FC,
F8,
FD,
FD,
F8,
F9,
F8,
05,
01,
06,
02,
12,
02,
09,
05,
02,
03,
0A,
07,
07,
FF,
00,
06,
08,
FF,
FF,
F9,
FF,
07,
F5,
0A,
FE,
FF,
04,
F7,
04,
05,
FC,
F5,
0D,
0D,
FF,
00,
FD,
01,
02,
03,
F8,
02,
00,
06,
FD,
F8,
06,
F6,
FD,
FD,
06,
06,
FC,
F6,
FA,
FD,
F7,
F9,
FB,
02,
00,
02,
F8,
01,
FE,
00,
FD,
F9,
00,
04,
07,
00,
FD,
FD,
FB,
03,
05,
FA,
FF,
03,
02,
FC,
04,
04,
08,
07,
07,
03,
F7,
FA,
02,
FB,
FE,
07,
FB,
FE,
FA,
0B,
06,
03,
11,
02,
F6,
06,
00,
F7,
FE,
05,
F9,
03,
FA,
0E,
FA,
03,
04,
03,
FD,
06,
F7,
01,
02,
FC,
00,
07,
FB,
04,
FE,
02,
07,
0C,
FE,
02,
FD,
00,
01,
02,
FF,
01,
FB,
02,
08,
07,
02,
09,
04,
FF,
05,
FC,
FE,
F6,
FC,
FD,
FC,
02,
01,
03,
04,
FD,
FD,
02,
06,
FE,
FD,
00,
08,
00,
01,
01,
03,
04,
FB,
04,
04,
02,
F9,
FF,
00,
02,
FD,
F9,
04,
03,
01,
03,
0B,
07,
09,
FF,
07,
08,
06,
03,
0D,
0E,
09,
00,
03,
FE,
F8,
FB,
0C,
07,
FB,
FF,
03,
03,
FC,
02,
03,
FD,
FD,
FA,
FC,
F8,
00,
03,
FF,
FF,
01,
F9,
08,
FD,
FD,
08,
02,
FD,
04,
0A,
02,
08,
05,
FF,
02,
03,
01,
03,
09,
0C,
01,
02,
FC,
0A,
FF,
FB,
F8,
FD,
05,
00,
0A,
FF,
0B,
05,
00,
F7,
FE,
00,
FB,
FC,
F7,
07,
FD,
02,
0C,
F9,
F8,
FB,
03,
FC,
FC,
03,
07,
05,
04,
00,
05,
FD,
04,
06,
FD,
F5,
04,
FC,
00,
04,
FC,
00,
05,
FB,
F9,
FF,
01,
00,
01,
01,
08,
FE,
00,
05,
0D,
05,
02,
06,
00,
00,
05,
03,
FC,
FB,
08,
02,
08,
08,
04,
01,
FC,
FD,
02,
04,
03,
FA,
04,
06,
09,
03,
05,
00,
01,
05,
FC,
03,
09,
04,
FD,
F7,
F9,
02,
0C,
00,
02,
FF,
F6,
FF,
02,
05,
06,
FE,
FA,
01,
05,
0C,
01,
FF,
03,
00,
F5,
00,
FE,
FB,
02,
00,
05,
04,
01,
05,
F7,
08,
01,
FF,
04,
F7,
F8,
01,
01,
FA,
00,
0D,
04,
07,
05,
01,
01,
FF,
FB,
03,
05,
08,
06,
0D,
03,
07,
FF,
FE,
F7,
02,
09,
FA,
FE,
09,
FE,
03,
00,
F8,
F2,
FE,
F7,
F5,
00,
07,
00,
FB,
FD,
00,
03,
FC,
F7,
F2,
02,
00,
FE,
FF,
05,
04,
08,
FB,
07,
08,
00,
0A,
02,
03,
02,
07,
FD,
01,
0B,
FD,
05,
F1,
00,
00,
FC,
03,
FC,
FA,
03,
FF,
05,
03,
FD,
F9,
FD,
01,
00,
F9,
FE,
FE,
0A,
FE,
FE,
F1,
06,
FF,
F4,
06,
02,
02,
07,
FD,
07,
02,
02,
02,
06,
F6,
03,
08,
FD,
FA,
07,
07,
08,
FC,
06,
FD,
FF,
FE,
FC,
F9,
FD,
04,
05,
06,
FD,
03,
09,
07,
04,
08,
02,
FD,
FC,
FB,
FE,
FC,
FE,
08,
09,
01,
0E,
FD,
01,
0C,
FF,
FE,
03,
01,
04,
04,
FF,
F7,
04,
02,
F6,
FD,
01,
02,
FC,
F7,
01,
04,
FD,
F8,
04,
FE,
FF,
FE,
FC,
FF,
FC,
00,
02,
FD,
FD,
06,
07,
FB,
FE,
FB,
01,
02,
FC,
04,
FC,
00,
04,
FF,
09,
02,
FF,
05,
01,
01,
08,
07,
02,
04,
F6,
FA,
FC,
FF,
FC,
FB,
FF,
FA,
FC,
03,
FC,
F3,
06,
FF,
02,
07,
F9,
09,
F7,
FF,
03,
02,
00,
F3,
FB,
0D,
09,
F4,
02,
05,
02,
04,
09,
F9,
FF,
03,
01,
FA,
FE,
04,
04,
06,
FD,
FC,
06,
04,
F9,
03,
01,
04,
04,
06,
0B,
08,
FD,
FA,
FF,
FD,
01,
06,
F7,
F6,
02,
FF,
03,
00,
FE,
03,
FC,
F9,
FA,
03,
FD,
03,
01,
FA,
00,
FE,
03,
F7,
0F,
FD,
FA,
03,
FF,
08,
02,
03,
05,
02,
05,
02,
FB,
08,
05,
FB,
08,
03,
FE,
FE,
05,
FE,
F3,
02,
03,
FA,
01,
FB,
01,
FD,
F8,
01,
03,
FB,
08,
04,
0C,
FE,
08,
FF,
F4,
F2,
FB,
00,
01,
06,
F9,
F8,
07,
FD,
FF,
02,
01,
FE,
FD,
07,
04,
FA,
05,
FD,
FD,
FB,
01,
FF,
FF,
09,
0E,
00,
0A,
0A,
02,
00,
03,
05,
06,
FC,
FD,
0B,
01,
F7,
FC,
06,
FE,
03,
FD,
FF,
04,
02,
01,
F7,
05,
F6,
04,
05,
FD,
FD,
FE,
FB,
02,
FB,
F7,
FA,
05,
FD,
02,
08,
02,
FD,
FA,
F9,
FB,
FE,
FC,
FE,
09,
07,
FE,
09,
FC,
FB,
03,
FB,
FE,
03,
03,
FF,
F9,
10,
04,
FF,
FA,
F7,
F8,
0D,
00,
F9,
06,
FF,
06,
FE,
01,
09,
FB,
04,
01,
06,
03,
FE,
02,
FF,
F7,
F9,
FE,
F8,
FE,
FB,
FE,
03,
0A,
06,
F4,
07,
02,
03,
F9,
FF,
01,
F6,
06,
04,
FA,
FD,
08,
00,
01,
04,
04,
FF,
FF,
05,
FD,
F6,
FC,
FC,
FF,
FC,
05,
F8,
FE,
04,
F7,
01,
09,
02,
FD,
00,
04,
FB,
F8,
FA,
00,
FE,
0A,
FE,
02,
F5,
FA,
FC,
FF,
FA,
F4,
F7,
05,
EE,
03,
F4,
07,
09,
F3,
FB,
02,
04,
FF,
FB,
02,
04,
04,
02,
07,
01,
04,
FC,
F7,
FF,
02,
02,
FA,
F7,
FA,
FD,
04,
FF,
03,
FD,
03,
F7,
04,
FB,
FA,
FB,
FF,
0A,
0C,
FF,
03,
04,
FE,
FC,
0C,
0E,
FF,
FD,
FF,
F9,
02,
05,
08,
FF,
FD,
FB,
0A,
00,
03,
0C,
04,
02,
05,
08,
FF,
03,
01,
F5,
FE,
05,
04,
02,
F5,
FC,
02,
01,
05,
06,
FD,
FF,
03,
FB,
04,
05,
FE,
F9,
07,
07,
06,
01,
FE,
F9,
04,
FE,
F8,
FD,
0A,
03,
FE,
07,
02,
FC,
03,
FF,
FD,
F4,
04,
02,
02,
FF,
F6,
06,
FD,
ED,
00,
FF,
04,
FE,
FE,
FE,
FB,
06,
FE,
0A,
05,
F9,
01,
FA,
F9,
EA,
F4,
F9,
FF,
03,
0B,
06,
05,
02,
02,
04,
01,
06,
01,
04,
07,
F4,
03,
FB,
FF,
FD,
03,
03,
F9,
07,
03,
00,
F8,
03,
FC,
03,
05,
08,
0C,
FA,
09,
FF,
F5,
02,
03,
F9,
06,
FE,
FF,
FF,
F9,
F9,
03,
03,
06,
0B,
FF,
FE,
05,
FE,
F5,
0B,
FE,
F4,
00,
FD,
02,
07,
F7,
F5,
04,
00,
0C,
FA,
04,
0C,
FE,
FB,
01,
F3,
F8,
FF,
F6,
07,
05,
FB,
FD,
0F,
FC,
02,
0A,
F6,
FF,
05,
FC,
FD,
F0,
FB,
06,
03,
FE,
05,
FC,
07,
FE,
FE,
F4,
06,
FE,
FB,
02,
03,
00,
05,
F5,
04,
FF,
04,
00,
06,
FF,
F3,
F5,
01,
F7,
00,
FE,
04,
06,
00,
F8,
FC,
F6,
EE,
01,
FF,
FC,
FD,
0C,
0B,
02,
04,
FD,
FE,
F8,
F7,
00,
F8,
00,
08,
F6,
F7,
05,
FE,
08,
03,
00,
FC,
FA,
FD,
FC,
FA,
FF,
03,
FB,
03,
FB,
04,
05,
03,
FF,
03,
FF,
04,
00,
F6,
F7,
F6,
02,
FD,
02,
F8,
FD,
00,
07,
00,
F8,
03,
F2,
F2,
FE,
10,
FD,
F0,
FE,
FB,
EC,
03,
01,
00,
05,
F9,
FF,
01,
09,
FF,
F8,
00,
F5,
0D,
09,
03,
FD,
02,
F4,
01,
00,
FD,
04,
11,
FE,
F0,
0C,
FF,
FC,
FC,
FE,
06,
FB,
05,
07,
FB,
04,
FF,
FA,
FE,
FE,
FA,
FA,
FA,
04,
F2,
04,
01,
FC,
FD,
0A,
00,
03,
FE,
FB,
04,
0C,
05,
05,
02,
FF,
05,
FA,
F1,
FE,
EC,
FF,
0D,
F3,
06,
05,
E7,
F9,
06,
FD,
02,
FF,
05,
02,
01,
FF,
F8,
08,
0B,
02,
F9,
12,
09,
FE,
FD,
FE,
09,
FA,
03,
04,
02,
00,
05,
04,
FD,
FF,
04,
FD,
14,
01,
09,
FE,
F3,
07,
00,
04,
FE,
FD,
F8,
F6,
FC,
00,
00,
FC,
00,
FC,
03,
03,
00,
FE,
01,
FF,
04,
02,
FB,
06,
08,
03,
FD,
F9,
00,
FE,
FA,
FB,
FF,
03,
FF,
05,
FE,
F8,
02,
FF,
00,
F9,
06,
02,
F7,
02,
F5,
FF,
F8,
FE,
F6,
07,
06,
FD,
FA,
F9,
FF,
0B,
03,
02,
06,
FF,
03,
FD,
FD,
FD,
F4,
FC,
F9,
FC,
03,
FD,
FC,
0B,
04,
FA,
06,
01,
00,
02,
FE,
F1,
F9,
FE,
F0,
05,
00,
03,
03,
00,
0E,
FD,
FC,
04,
F1,
00,
02,
FC,
FD,
FF,
FE,
F2,
FB,
FF,
00,
00,
02,
FC,
FB,
06,
08,
FE,
FB,
01,
F2,
FD,
02,
F1,
F5,
09,
0D,
F3,
04,
FF,
02,
FE,
F9,
FD,
FC,
F1,
FE,
00,
12,
F9,
02,
08,
FB,
0A,
00,
F8,
F5,
02,
FA,
F9,
F5,
F2,
00,
01,
FF,
03,
F4,
02,
00,
FE,
FD,
03,
02,
02,
00,
13,
04,
F5,
F8,
F8,
FC,
F5,
FC,
01,
07,
FA,
03,
FC,
04,
01,
FD,
FC,
F3,
0F,
FE,
FB,
02,
F1,
01,
F6,
FB,
FA,
FD,
FC,
FC,
02,
04,
FD,
02,
FA,
F8,
04,
06,
FF,
04,
03,
00,
F2,
FC,
04,
FA,
FA,
FF,
07,
F6,
02,
F7,
FE,
05,
FF,
F6,
07,
00,
F7,
FF,
01,
FE,
0A,
00,
06,
00,
FF,
FF,
FD,
0A,
04,
F4,
F6,
FD,
09,
00,
F4,
00,
09,
02,
F7,
F8,
FF,
08,
02,
FC,
FF,
0F,
02,
03,
FF,
0A,
F8,
F8,
06,
01,
00,
05,
FE,
00,
FD,
FD,
00,
F6,
F6,
07,
F7,
F7,
FC,
00,
04,
03,
FA,
F5,
FE,
F8,
FE,
FB,
FF,
FF,
F8,
F7,
01,
05,
FF,
03,
FF,
01,
09,
F7,
03,
05,
FF,
06,
FA,
04,
F1,
07,
01,
05,
F7,
0A,
07,
FF,
09,
FC,
FB,
0A,
09,
FF,
00,
FC,
05,
00,
08,
0B,
FB,
F7,
FB,
FE,
FB,
08,
04,
09,
FD,
F9,
FD,
FC,
05,
FC,
03,
04,
09,
06,
01,
F9,
0A,
FF,
FA,
02,
00,
FC,
FB,
F7,
FB,
01,
F8,
05,
F6,
FD,
F4,
F9,
F6,
00,
FB,
FB,
00,
FF,
02,
FD,
FF,
F7,
00,
04,
06,
FE,
F4,
06,
06,
F7,
F8,
04,
02,
F4,
FD,
09,
09,
04,
FD,
FC,
01,
FB,
FD,
FC,
00,
05,
F9,
06,
00,
F1,
10,
01,
FD,
02,
07,
F9,
01,
FF,
05,
04,
05,
0B,
FC,
05,
FA,
04,
01,
03,
FC,
FE,
FA,
FF,
FA,
01,
F7,
04,
F0,
05,
FB,
FF,
01,
FC,
07,
FF,
F0,
05,
FF,
F9,
00,
F4,
00,
07,
FE,
FB,
FA,
0E,
04,
02,
04,
03,
03,
07,
0D,
F5,
FA,
07,
FC,
04,
F9,
01,
FC,
FB,
04,
00,
01,
04,
04,
FB,
FE,
FE,
02,
00,
04,
FA,
FC,
02,
03,
05,
FA,
F8,
0A,
01,
FA,
0A,
FF,
00,
0D,
0A,
FC,
00,
04,
FE,
03,
FC,
09,
FC,
02,
FA,
F9,
0A,
F5,
F9,
07,
00,
00,
02,
FA,
F6,
00,
F0,
03,
FE,
07,
FC,
02,
01,
ED,
04,
FF,
E8,
01,
00,
02,
07,
08,
FE,
03,
FD,
FC,
F8,
06,
FE,
06,
00,
F1,
F6,
F4,
07,
FC,
FB,
FB,
08,
FC,
04,
FF,
04,
FF,
01,
00,
FE,
09,
FF,
01,
03,
F7,
04,
02,
F4,
FF,
03,
F9,
03,
F8,
05,
08,
08,
02,
00,
F9,
FA,
FC,
F9,
F8,
F9,
04,
F5,
03,
FB,
01,
F7,
FE,
F6,
FE,
03,
F0,
09,
FA,
F3,
FC,
03,
F5,
FE,
FE,
03,
04,
04,
FA,
06,
00,
FF,
FE,
01,
FD,
05,
FE,
07,
FB,
08,
00,
FF,
FE,
05,
F4,
FD,
F7,
F5,
08,
F5,
FE,
FC,
0A,
07,
05,
FF,
FD,
09,
FA,
F6,
0B,
FB,
02,
09,
F9,
FA,
04,
01,
FF,
02,
01,
05,
01,
0A,
FA,
03,
F2,
F7,
03,
FA,
F6,
FC,
00,
FD,
F3,
00,
05,
04,
FF,
03,
05,
03,
FC,
F6,
FD,
FD,
F0,
FA,
F8,
06,
02,
F1,
FE,
05,
02,
FE,
E8,
09,
FF,
FC,
05,
04,
09,
02,
FF,
FA,
00,
01,
FC,
F9,
F7,
FD,
FF,
02,
FC,
00,
FC,
02,
F6,
04,
03,
FF,
08,
04,
F5,
F8,
0E,
03,
00,
F7,
FF,
FF,
03,
FD,
05,
FD,
07,
0B,
FE,
FA,
FD,
07,
02,
08,
05,
07,
06,
F9,
FE,
FA,
FC,
04,
0E,
06,
FB,
FA,
FC,
FE,
F9,
00,
0B,
FE,
03,
FD,
01,
02,
FF,
F7,
04,
F4,
F9,
F8,
FD,
0D,
FB,
02,
FE,
EB,
03,
FB,
04,
0B,
0B,
07,
FC,
08,
03,
05,
FA,
FF,
00,
F1,
EE,
01,
FD,
FE,
01,
FE,
F5,
FD,
01,
01,
01,
FB,
FE,
FE,
06,
FA,
00,
06,
01,
F7,
00,
05,
0D,
FF,
FC,
FE,
08,
F4,
FE,
04,
05,
07,
FF,
F6,
FE,
07,
FE,
01,
00,
F9,
FD,
08,
F6,
02,
00,
FD,
01,
03,
FD,
0C,
0B,
FE,
FC,
FC,
05,
F8,
02,
07,
FF,
06,
FB,
FC,
FA,
07,
01,
FB,
F4,
01,
FA,
07,
05,
FB,
F7,
FE,
F8,
08,
F5,
FD,
FC,
01,
03,
FB,
01,
00,
FB,
08,
04,
FE,
07,
FD,
F4,
03,
02,
03,
00,
FB,
FB,
05,
03,
FC,
FB,
00,
FC,
07,
FF,
FE,
04,
0C,
F0,
0A,
0E,
00,
FA,
FF,
04,
0E,
F3,
EE,
05,
06,
0C,
03,
09,
03,
02,
F7,
F4,
F8,
03,
03,
FE,
FD,
FE,
04,
01,
F7,
FB,
01,
FD,
F8,
0A,
04,
FF,
02,
06,
06,
02,
FF,
00,
FD,
FB,
FF,
FD,
FB,
02,
04,
FF,
05,
FC,
FF,
06,
09,
00,
00,
F3,
FC,
FB,
FC,
FC,
04,
FB,
05,
FC,
FF,
03,
03,
FD,
02,
FE,
FB,
04,
07,
03,
FF,
01,
03,
FE,
02,
02,
FB,
05,
07,
00,
FE,
FA,
04,
FC,
0C,
FD,
00,
F8,
FB,
FE,
01,
FA,
05,
FA,
08,
FF,
FC,
03,
F9,
FE,
FE,
00,
FF,
FA,
FE,
FF,
FB,
FB,
00,
F8,
00,
FD,
FB,
00,
05,
06,
FF,
FE,
05,
FE,
04,
FE,
FF,
FC,
FF,
FA,
03,
FF,
00,
FF,
02,
F3,
01,
F4,
F6,
FB,
02,
03,
FD,
FA,
FE,
FE,
00,
06,
02,
FF,
02,
08,
08,
08,
04,
FA,
06,
FD,
04,
FB,
FF,
F9,
09,
04,
FF,
FC,
04,
F7,
03,
07,
FE,
08,
F4,
FB,
00,
FE,
02,
FE,
FD,
FD,
01,
FE,
04,
08,
FF,
FF,
00,
06,
05,
FF,
0B,
0A,
05,
01,
FC,
01,
FE,
FA,
FB,
01,
FD,
01,
06,
04,
FB,
01,
FF,
05,
FB,
F9,
FD,
FA,
FD,
FC,
F6,
01,
01,
F9,
FE,
01,
FD,
04,
08,
FC,
F9,
FE,
FF,
FF,
F7,
00,
05,
02,
02,
FF,
FC,
FD,
FB,
01,
03,
00,
FC,
FC,
FD,
FF,
FD,
04,
00,
03,
00,
FC,
FE,
F8,
FD,
F7,
06,
03,
FD,
F9,
FE,
03,
04,
FE,
FF,
FB,
FB,
01,
FF,
00,
05,
02,
04,
06,
03,
FE,
00,
FD,
05,
F7,
04,
05,
06,
FF,
FE,
FF,
F7,
FA,
00,
FC,
FE,
FF,
F3,
FD,
FE,
FD,
04,
FC,
00,
FC,
04,
F5,
06,
07,
00,
FB,
04,
04,
FE,
FB,
FF,
FD,
00,
FE,
FE,
FC,
FC,
FD,
02,
03,
FB,
04,
03,
FC,
07,
FF,
F6,
02,
FD,
FD,
FB,
FD,
F5,
02,
FA,
FE,
04,
00,
FE,
00,
08,
FC,
FB,
02,
03,
03,
FA,
02,
03,
FB,
FC,
07,
FA,
06,
FC,
0A,
05,
F8,
FB,
03,
FD,
FE,
FA,
00,
00,
FF,
03,
08,
03,
FF,
01,
FD,
FB,
03,
FA,
05,
06,
FB,
F4,
00,
01,
06,
FE,
03,
04,
06,
FD,
01,
07,
06,
03,
FE,
08,
02,
FA,
FC,
FD,
FB,
02,
02,
F7,
FE,
01,
03,
FE,
02,
FF,
04,
03,
08,
09,
FF,
FC,
FB,
00,
FC,
01,
FD,
FB,
FE,
01,
FF,
08,
FC,
FB,
FE,
00,
01,
00,
01,
04,
06,
04,
FE,
04,
FC,
FC,
00,
02,
05,
FF,
FE,
FC,
00,
FE,
02,
FE,
02,
FA,
02,
FD,
01,
FF,
FC,
03,
07,
02,
06,
FF,
FF,
FB,
04,
01,
08,
03,
00,
03,
FD,
F7,
01,
02,
03,
FD,
FD,
0A,
00,
FF,
FD,
05,
0A,
06,
F9,
F9,
FF,
07,
FF,
F9,
FD,
04,
04,
02,
04,
00,
00,
01,
FA,
00,
06,
FC,
09,
07,
00,
02,
08,
06,
FF,
04,
FC,
FC,
FC,
FF,
06,
F7,
07,
FE,
07,
05,
00,
00,
03,
06,
03,
F8,
FB,
FE,
FE,
FC,
F8,
03,
F9,
01,
01,
FE,
04,
00,
05,
FB,
04,
FE,
F5,
03,
FB,
05,
FF,
04,
FD,
08,
08,
01,
04,
01,
06,
FF,
FE,
00,
05,
FE,
03,
08,
FA,
02,
FD,
FE,
FE,
00,
F9,
06,
F9,
FA,
FF,
FB,
FE,
FC,
03,
FA,
00,
F8,
05,
06,
05,
F3,
FB,
FA,
FF,
05,
02,
03,
FE,
02,
02,
FF,
07,
07,
06,
FF,
07,
FC,
00,
FD,
04,
05,
0C,
FE,
03,
FF,
FF,
05,
F6,
FA,
FF,
00,
01,
03,
00,
05,
FC,
FB,
03,
FC,
FB,
06,
04,
FB,
05,
FA,
01,
03,
06,
00,
05,
07,
F7,
03,
03,
04,
03,
FA,
FC,
F7,
F6,
04,
0C,
0B,
07,
00,
03,
03,
07,
FF,
FE,
FE,
02,
FE,
00,
04,
F8,
FA,
F6,
FE,
01,
05,
FD,
F7,
02,
0A,
FB,
0A,
FC,
FA,
01,
05,
FD,
FB,
F7,
F8,
05,
FE,
04,
FF,
02,
FF,
01,
05,
F9,
01,
01,
FF,
02,
FA,
00,
03,
FB,
00,
FE,
FF,
01,
03,
F8,
07,
FF,
FD,
FF,
FF,
00,
00,
03,
03,
F9,
0C,
04,
00,
00,
00,
FB,
FE,
FA,
00,
FC,
00,
F4,
FB,
06,
05,
04,
00,
FC,
FF,
00,
FD,
01,
02,
00,
01,
02,
FE,
F9,
F7,
F7,
F9,
01,
02,
FE,
FC,
01,
07,
03,
07,
F7,
02,
03,
01,
FC,
01,
02,
01,
04,
06,
F6,
05,
FE,
FD,
FA,
05,
02,
F9,
F6,
F7,
FE,
FA,
F6,
07,
07,
FF,
08,
FC,
00,
02,
0B,
FC,
F8,
FC,
FB,
03,
0A,
FA,
05,
FF,
04,
06,
03,
FC,
02,
FE,
00,
FE,
F9,
01,
F8,
05,
02,
02,
04,
00,
03,
04,
03,
01,
00,
00,
01,
F9,
FC,
00,
01,
FF,
FE,
FD,
FB,
01,
06,
04,
08,
08,
FD,
03,
01,
04,
03,
FF,
07,
FE,
02,
02,
04,
FC,
F9,
03,
FC,
03,
FE,
06,
FA,
FB,
06,
FE,
07,
02,
FE,
0F,
FB,
FD,
07,
0A,
FF,
05,
03,
03,
FD,
FB,
02,
04,
02,
03,
04,
FC,
FF,
01,
01,
FA,
F9,
F5,
FB,
01,
F6,
00,
FC,
FC,
F6,
F7,
00,
02,
FD,
00,
FD,
FD,
06,
03,
FB,
09,
06,
00,
FF,
FE,
07,
FF,
01,
02,
00,
FE,
F8,
FE,
0A,
FC,
F6,
FB,
02,
F8,
04,
FB,
F8,
FE,
FC,
00,
03,
05,
05,
04,
03,
FD,
FA,
09,
FC,
EF,
00,
FC,
00,
FA,
01,
01,
03,
03,
F7,
F4,
04,
03,
FB,
04,
F4,
05,
05,
FF,
00,
01,
FF,
00,
01,
FB,
FE,
F9,
01,
FA,
FD,
FB,
00,
FC,
02,
FF,
FF,
F9,
05,
08,
FB,
01,
01,
FD,
04,
FA,
01,
02,
F5,
0D,
FF,
F8,
FC,
F9,
04,
05,
FF,
05,
03,
FD,
FE,
FE,
01,
FC,
F6,
06,
04,
FD,
05,
FF,
FF,
02,
FD,
03,
00,
07,
FD,
01,
09,
03,
05,
04,
02,
04,
F5,
02,
FF,
F7,
FA,
F7,
02,
04,
05,
FF,
03,
F9,
0A,
01,
FF,
FF,
FA,
FD,
05,
FD,
00,
02,
02,
07,
04,
FE,
02,
FE,
F9,
03,
04,
05,
01,
00,
00,
FC,
F6,
00,
00,
04,
02,
04,
FD,
01,
FE,
FF,
04,
FE,
FC,
F7,
06,
00,
EE,
F9,
FF,
05,
FC,
00,
FB,
02,
02,
00,
01,
07,
06,
05,
06,
FE,
FD,
01,
09,
03,
F8,
05,
06,
FF,
FF,
09,
04,
00,
F4,
05,
F5,
F5,
02,
FF,
F8,
07,
FB,
F9,
03,
07,
FD,
05,
02,
00,
FD,
FF,
FC,
04,
04,
FA,
06,
FF,
07,
04,
FA,
06,
02,
02,
07,
00,
FA,
04,
05,
FD,
FF,
01,
03,
02,
05,
FF,
03,
FF,
03,
FE,
00,
03,
FA,
FC,
00,
03,
01,
FD,
FF,
F7,
F5,
F8,
F9,
FC,
FD,
00,
F8,
FF,
F8,
FD,
FB,
FC,
FE,
FC,
FE,
FD,
03,
00,
F7,
FD,
03,
FC,
02,
FA,
00,
FB,
FC,
03,
06,
F7,
FB,
01,
01,
00,
06,
FC,
FB,
F7,
01,
FE,
FA,
FF,
FF,
09,
09,
FE,
00,
07,
FE,
02,
F9,
FE,
00,
F9,
F5,
01,
F2,
FD,
F3,
06,
FF,
09,
03,
FB,
03,
02,
FD,
02,
F6,
F8,
02,
02,
FF,
FF,
F7,
01,
FF,
05,
04,
FD,
00,
FB,
01,
0E,
03,
FE,
02,
FA,
03,
00,
04,
01,
04,
02,
F9,
06,
FE,
07,
FA,
FA,
04,
FD,
FC,
02,
FB,
FE,
05,
00,
01,
FD,
00,
05,
06,
0B,
04,
01,
0C,
F5,
06,
06,
09,
03,
04,
FE,
05,
FB,
FF,
FF,
05,
04,
07,
06,
01,
03,
F4,
07,
FA,
05,
F5,
00,
09,
FD,
FC,
FE,
03,
F1,
FB,
01,
F8,
FC,
06,
F6,
00,
00,
00,
F1,
01,
FE,
FE,
FF,
00,
FE,
F5,
FF,
FE,
01,
03,
02,
01,
FD,
00,
05,
03,
F6,
02,
FF,
00,
00,
01,
F2,
FA,
F9,
F9,
F8,
05,
F5,
EE,
03,
FE,
F4,
FF,
FF,
02,
0A,
05,
08,
03,
02,
FF,
03,
FA,
09,
FE,
07,
01,
02,
FD,
F8,
FF,
0B,
02,
02,
FA,
04,
03,
F5,
F7,
FC,
02,
FA,
FB,
F8,
02,
FA,
F3,
FF,
FE,
F1,
FA,
FE,
FF,
FB,
02,
04,
F8,
04,
F6,
F9,
FE,
FF,
02,
00,
FC,
FD,
0A,
FB,
00,
FD,
FD,
02,
06,
0F,
02,
FF,
FD,
FE,
01,
ED,
F8,
FF,
F5,
FD,
00,
FD,
F5,
05,
FE,
03,
EC,
FB,
F6,
06,
08,
02,
0D,
05,
08,
04,
FD,
FF,
01,
07,
01,
03,
02,
FD,
06,
08,
FD,
FD,
07,
01,
03,
03,
F5,
02,
06,
F9,
FC,
FD,
F4,
FB,
FF,
FA,
00,
07,
04,
00,
FE,
08,
F9,
02,
F7,
00,
07,
FD,
00,
FE,
FC,
09,
02,
03,
02,
00,
FC,
02,
00,
02,
01,
FC,
F8,
07,
F8,
FA,
F9,
FC,
F8,
FD,
FA,
FC,
01,
03,
00,
04,
06,
FE,
F7,
01,
06,
00,
F6,
01,
F5,
FF,
04,
FE,
09,
02,
01,
0A,
FD,
01,
02,
FD,
01,
09,
02,
06,
FD,
FA,
04,
FD,
FF,
04,
02,
FC,
03,
05,
FF,
FF,
FF,
07,
05,
FA,
02,
FC,
FC,
06,
00,
01,
04,
09,
07,
07,
F9,
05,
04,
F8,
01,
FC,
FD,
02,
FB,
0A,
FE,
FE,
FD,
07,
03,
07,
FA,
07,
05,
00,
FD,
00,
05,
FB,
00,
02,
FC,
06,
03,
04,
F8,
04,
FE,
01,
00,
FB,
FD,
FD,
FD,
06,
02,
0D,
FC,
FF,
01,
00,
04,
08,
FF,
FA,
07,
01,
00,
01,
05,
06,
01,
04,
02,
FD,
01,
02,
FD,
FF,
FF,
FF,
02,
06,
05,
07,
03,
02,
00,
0A,
02,
01,
08,
06,
08,
0B,
02,
08,
02,
F7,
FB,
FB,
00,
06,
02,
05,
FC,
00,
04,
FE,
FD,
FF,
FF,
F8,
F7,
03,
FF,
FF,
FA,
06,
FA,
03,
FA,
01,
09,
FA,
FA,
F3,
F5,
03,
FA,
FE,
00,
06,
02,
FD,
FF,
F9,
F8,
01,
FE,
00,
02,
FB,
09,
00,
0A,
00,
09,
04,
0D,
FE,
05,
00,
01,
FD,
0B,
FE,
05,
F8,
F8,
FD,
04,
FD,
00,
FF,
F9,
05,
FF,
04,
02,
F6,
04,
06,
F8,
FF,
00,
02,
06,
FD,
F9,
00,
FC,
FF,
09,
FE,
F8,
0C,
FF,
08,
FD,
FB,
FC,
01,
04,
F8,
07,
02,
06,
F5,
FB,
03,
02,
00,
00,
04,
05,
FF,
04,
FD,
01,
01,
FE,
F3,
02,
FB,
00,
02,
FF,
0A,
01,
FE,
03,
05,
09,
06,
02,
02,
FF,
01,
01,
FA,
06,
06,
FF,
05,
05,
FE,
03,
05,
FF,
03,
05,
FF,
0A,
FD,
FD,
02,
FD,
00,
FB,
F4,
03,
FC,
FE,
06,
07,
02,
FC,
FB,
05,
00,
F7,
FB,
05,
FE,
10,
09,
01,
00,
02,
FA,
F6,
F7,
01,
03,
0A,
0A,
FD,
02,
02,
FE,
FD,
00,
FA,
00,
00,
04,
FB,
03,
04,
05,
00,
04,
FB,
00,
F9,
F3,
FE,
00,
FA,
FA,
09,
04,
FE,
01,
F9,
FF,
06,
02,
03,
02,
01,
03,
07,
FD,
FE,
01,
09,
08,
FB,
F2,
06,
FC,
03,
02,
00,
0C,
02,
05,
F7,
00,
0C,
03,
03,
02,
04,
03,
F8,
FA,
05,
F8,
FA,
06,
FA,
01,
02,
F8,
03,
F7,
FD,
FD,
FA,
01,
06,
09,
07,
F2,
EF,
F7,
01,
FD,
FD,
01,
F6,
00,
FA,
00,
02,
FD,
F9,
02,
FD,
FF,
F8,
EB,
07,
FC,
FE,
FD,
07,
FD,
02,
08,
04,
FD,
02,
FD,
FA,
FB,
FF,
FD,
00,
01,
07,
00,
F8,
03,
F9,
08,
FE,
FC,
04,
04,
F2,
02,
FD,
00,
08,
04,
03,
F9,
F8,
FF,
08,
FF,
0C,
0E,
0B,
02,
08,
02,
FF,
02,
00,
FE,
03,
01,
F7,
F9,
00,
05,
FF,
04,
04,
03,
FD,
02,
0A,
07,
04,
F9,
05,
FC,
08,
00,
06,
F9,
05,
F6,
00,
FB,
FC,
F6,
FD,
04,
04,
04,
0C,
01,
FB,
04,
03,
F5,
06,
00,
04,
08,
03,
01,
03,
03,
01,
FE,
03,
05,
00,
05,
01,
F9,
06,
07,
F9,
07,
02,
0C,
08,
07,
F3,
04,
05,
01,
F6,
00,
09,
01,
04,
01,
F9,
02,
00,
FF,
00,
05,
09,
FE,
03,
05,
FB,
FD,
04,
01,
05,
FA,
03,
04,
04,
FF,
FD,
02,
05,
01,
F9,
FA,
09,
F8,
06,
FF,
05,
03,
0A,
09,
08,
04,
FF,
04,
02,
FC,
01,
03,
00,
02,
FF,
04,
04,
F7,
08,
05,
F8,
00,
02,
08,
00,
0D,
03,
FE,
FA,
05,
FC,
05,
01,
FD,
FB,
F6,
01,
FB,
04,
08,
FC,
06,
04,
0B,
FB,
08,
FA,
05,
FC,
04,
00,
00,
F9,
FD,
02,
F8,
05,
FB,
F6,
FA,
FB,
F0,
FE,
FD,
00,
04,
07,
07,
03,
03,
05,
00,
08,
05,
FB,
FD,
FF,
FB,
FE,
01,
FB,
F9,
09,
0B,
02,
F9,
FD,
06,
FE,
06,
FB,
FC,
FB,
FE,
FD,
FF,
0C,
FD,
01,
00,
FE,
FD,
FF,
FD,
08,
06,
06,
05,
FC,
05,
0A,
01,
FF,
08,
10,
FE,
09,
FD,
F9,
FB,
03,
00,
06,
13,
06,
F8,
FD,
01,
0A,
FC,
FE,
00,
02,
FD,
02,
FF,
03,
05,
00,
FF,
01,
06,
03,
F7,
08,
FB,
02,
F9,
FE,
F9,
F8,
FC,
06,
03,
03,
0B,
FE,
07,
06,
FE,
FE,
F9,
01,
FC,
FD,
FC,
00,
08,
02,
01,
FE,
FE,
F9,
FC,
FD,
F6,
FF,
FC,
FB,
F7,
0C,
0C,
01,
07,
F9,
00,
FF,
FC,
FD,
01,
06,
04,
FF,
04,
07,
00,
FC,
FD,
FF,
00,
FF,
06,
02,
04,
07,
F8,
FF,
04,
FB,
FD,
FD,
FC,
0A,
03,
04,
FE,
04,
00,
FE,
FB,
F6,
FC,
02,
07,
06,
F4,
02,
01,
05,
FE,
03,
01,
F6,
0A,
06,
03,
FC,
06,
01,
00,
FE,
FA,
09,
03,
FF,
00,
FB,
F9,
04,
FB,
F6,
0A,
FC,
05,
FC,
05,
FC,
00,
FB,
FB,
FE,
03,
FD,
05,
06,
FA,
05,
02,
01,
01,
01,
F9,
05,
05,
F8,
03,
05,
00,
FF,
03,
05,
02,
00,
FA,
01,
FF,
FF,
FC,
F9,
02,
02,
03,
04,
02,
05,
06,
08,
02,
FB,
FD,
FF,
F9,
01,
03,
FD,
FD,
FC,
02,
F8,
02,
07,
FD,
FF,
FF,
03,
FA,
02,
FB,
02,
05,
03,
FC,
00,
FE,
07,
03,
03,
03,
07,
00,
02,
FD,
02,
FF,
FE,
01,
FE,
02,
05,
07,
01,
0B,
FE,
00,
00,
03,
FF,
04,
FE,
FA,
FA,
00,
01,
FF,
01,
04,
FE,
01,
FC,
04,
FD,
04,
04,
03,
FB,
02,
08,
02,
05,
FC,
02,
FF,
FA,
FE,
00,
FE,
FB,
04,
F3,
03,
F5,
FA,
FC,
FE,
F4,
01,
FE,
05,
00,
F9,
FB,
FC,
FF,
F5,
F8,
FC,
FC,
FD,
FE,
F1,
FE,
02,
03,
02,
00,
07,
0B,
FF,
05,
03,
07,
0A,
00,
02,
FF,
FB,
00,
FB,
FC,
00,
02,
FC,
05,
01,
FF,
00,
00,
06,
01,
01,
FF,
FB,
FD,
FE,
FC,
05,
FB,
FA,
03,
03,
03,
FB,
FD,
FC,
FF,
07,
09,
05,
07,
FE,
FF,
FE,
02,
FA,
FF,
02,
FA,
FF,
02,
06,
0C,
FA,
F8,
FE,
FE,
FC,
03,
FB,
07,
00,
09,
03,
FF,
0C,
FE,
FE,
01,
FC,
01,
FF,
02,
02,
06,
03,
FB,
02,
02,
01,
04,
00,
01,
03,
02,
00,
FF,
00,
01,
FA,
01,
F3,
FF,
06,
07,
02,
00,
05,
02,
FE,
FF,
02,
01,
FD,
FD,
FD,
FD,
00,
00,
FD,
FC,
09,
FC,
00,
04,
FE,
FD,
FF,
F6,
08,
00,
01,
FF,
0A,
01,
00,
03,
F8,
FB,
05,
FF,
04,
F9,
00,
FC,
F8,
01,
01,
05,
00,
04,
FD,
FC,
01,
03,
FB,
FA,
00,
01,
FF,
FE,
FC,
02,
02,
01,
01,
01,
05,
01,
05,
01,
06,
03,
00,
08,
04,
F9,
00,
FC,
01,
FB,
F7,
FD,
FB,
FD,
FD,
00,
FE,
FC,
FA,
00,
FE,
F5,
03,
FE,
F7,
04,
00,
FF,
FA,
02,
FF,
F8,
0C,
03,
01,
FB,
02,
01,
FE,
05,
03,
07,
00,
03,
09,
FF,
05,
FF,
FC,
F4,
04,
02,
FF,
08,
FD,
FF,
06,
F7,
FF,
02,
FF,
05,
02,
F9,
03,
04,
FE,
05,
FC,
06,
02,
0B,
05,
02,
03,
04,
00,
03,
FC,
02,
FF,
FF,
FF,
FC,
05,
03,
00,
F9,
FF,
01,
FF,
04,
FF,
06,
01,
01,
FD,
FF,
06,
FE,
FC,
00,
FD,
FB,
08,
FF,
00,
01,
FD,
01,
FD,
04,
0B,
FF,
FB,
03,
F9,
FF,
00,
FF,
01,
FE,
FC,
01,
FF,
FE,
FB,
01,
00,
FE,
03,
02,
04,
04,
07,
04,
F9,
FA,
0B,
FA,
F6,
FD,
01,
09,
05,
06,
06,
01,
FB,
FD,
00,
08,
F8,
0A,
04,
F4,
00,
00,
FC,
F9,
FF,
01,
01,
09,
08,
05,
03,
00,
01,
FC,
07,
06,
00,
03,
02,
FE,
FE,
03,
02,
0E,
FC,
F9,
00,
FC,
02,
03,
05,
FE,
FF,
FD,
03,
F9,
06,
04,
FA,
05,
03,
FB,
04,
02,
FA,
0A,
FD,
FC,
FC,
04,
F7,
FF,
FE,
02,
01,
FC,
FE,
00,
08,
04,
FE,
FF,
FD,
04,
05,
03,
05,
04,
FB,
FD,
FC,
FF,
0A,
06,
00,
00,
03,
F7,
08,
02,
F4,
FA,
04,
FB,
00,
01,
F7,
02,
05,
FD,
01,
FF,
FC,
FD,
00,
F7,
FB,
03,
02,
F9,
04,
03,
FE,
FE,
FD,
FF,
00,
FF,
04,
02,
03,
F9,
01,
01,
FB,
08,
FD,
F6,
FE,
FE,
04,
02,
06,
01,
F6,
04,
02,
FC,
FF,
01,
03,
08,
01,
F7,
FC,
FF,
03,
FC,
02,
FD,
FD,
04,
FE,
00,
02,
FB,
02,
02,
02,
FC,
07,
FC,
00,
00,
07,
FD,
01,
00,
FD,
FE,
FA,
00,
FE,
FC,
FF,
02,
01,
FC,
01,
00,
F9,
FE,
03,
FB,
03,
05,
FA,
FC,
FE,
FB,
FF,
09,
F7,
05,
09,
04,
00,
FF,
00,
F9,
FE,
FB,
FC,
03,
03,
01,
FB,
05,
00,
FB,
05,
FD,
FF,
F4,
FD,
FE,
FC,
02,
FE,
00,
01,
00,
00,
01,
FF,
FD,
02,
00,
03,
00,
FA,
02,
09,
FD,
09,
FC,
06,
01,
FE,
FE,
FC,
00,
05,
01,
01,
01,
FD,
03,
00,
05,
01,
02,
FB,
00,
FC,
02,
01,
07,
0A,
03,
F9,
FF,
05,
FE,
04,
FD,
03,
F9,
FF,
02,
01,
01,
FC,
02,
F9,
FF,
FB,
FC,
0A,
FA,
04,
01,
FF,
FE,
03,
FE,
FD,
FA,
04,
FD,
FF,
07,
06,
0A,
0C,
00,
04,
04,
FE,
02,
04,
03,
04,
05,
03,
03,
01,
03,
03,
01,
FD,
FA,
00,
FD,
01,
FF,
0B,
FC,
F6,
01,
06,
0A,
03,
FD,
FE,
04,
05,
01,
02,
FD,
07,
00,
FD,
01,
00,
FD,
F3,
00,
01,
07,
FE,
04,
FE,
FE,
01,
05,
FD,
0A,
FF,
FD,
FC,
FF,
F2,
09,
05,
FE,
FB,
00,
02,
FB,
00,
03,
08,
00,
F5,
F7,
04,
FC,
00,
00,
FA,
03,
F6,
04,
02,
F5,
0A,
05,
F4,
08,
00,
FC,
00,
FE,
FC,
07,
00,
F7,
0A,
FE,
F6,
FF,
05,
04,
FD,
FD,
FF,
FF,
02,
02,
03,
FC,
06,
01,
F7,
FC,
FF,
FC,
00,
FA,
F8,
FB,
F9,
01,
F8,
02,
F6,
FF,
01,
04,
04,
04,
03,
09,
06,
04,
03,
03,
FD,
04,
06,
F6,
04,
02,
FF,
FE,
08,
0C,
FE,
FE,
00,
04,
02,
0B,
02,
0A,
FC,
00,
02,
FB,
08,
FB,
08,
01,
06,
02,
01,
07,
03,
03,
0A,
FC,
F9,
F2,
F8,
FF,
FF,
FD,
F3,
FD,
FE,
00,
06,
02,
06,
00,
F7,
FE,
02,
FB,
03,
EF,
F9,
FB,
F9,
F7,
FA,
08,
02,
03,
FF,
FE,
FA,
FC,
F9,
FB,
06,
FF,
FB,
FE,
FD,
06,
01,
FD,
07,
04,
00,
02,
FF,
01,
FE,
01,
FD,
00,
FC,
08,
F4,
FC,
FF,
05,
FC,
02,
04,
FC,
05,
05,
00,
05,
FD,
F9,
02,
FC,
04,
03,
F8,
04,
06,
FF,
02,
08,
FE,
FB,
04,
FD,
01,
03,
02,
08,
FB,
FC,
FD,
FB,
FA,
FB,
03,
00,
05,
FE,
06,
03,
FC,
00,
07,
09,
0B,
01,
07,
02,
FE,
05,
01,
05,
07,
FC,
01,
F7,
FF,
FC,
FC,
02,
F5,
00,
00,
FC,
02,
01,
FB,
FF,
03,
03,
04,
05,
04,
05,
02,
07,
08,
06,
FD,
FB,
05,
04,
02,
05,
02,
01,
FE,
03,
FF,
04,
FE,
F6,
FC,
FB,
FF,
02,
01,
04,
04,
FF,
FD,
FC,
FF,
00,
F9,
F9,
04,
02,
FE,
02,
06,
01,
00,
FE,
FC,
FD,
01,
FF,
FC,
01,
02,
04,
FF,
0C,
06,
07,
03,
06,
05,
03,
07,
01,
FB,
FB,
06,
FB,
05,
FE,
01,
00,
04,
08,
FD,
01,
FD,
FE,
02,
01,
05,
00,
03,
0C,
05,
00,
FB,
00,
01,
00,
FA,
01,
FF,
02,
F5,
F8,
FE,
FB,
08,
04,
FC,
02,
FB,
F6,
01,
FC,
02,
FE,
01,
02,
05,
FD,
09,
00,
07,
F8,
FF,
FA,
FD,
05,
FB,
05,
03,
FB,
F7,
04,
00,
FE,
01,
F9,
FE,
FF,
01,
FB,
03,
01,
FE,
00,
02,
03,
FF,
FC,
FF,
06,
05,
00,
01,
03,
04,
0B,
09,
FB,
FC,
FC,
FD,
0B,
FC,
F8,
FE,
F8,
09,
06,
04,
03,
FF,
FB,
01,
04,
FC,
05,
06,
F9,
00,
03,
04,
FC,
01,
01,
00,
F8,
FE,
06,
07,
01,
04,
FF,
03,
FC,
FE,
06,
FC,
01,
00,
09,
05,
03,
01,
FF,
FC,
08,
FC,
FD,
00,
FB,
FF,
08,
01,
02,
F8,
04,
F5,
0A,
FE,
F8,
FC,
FC,
00,
00,
02,
FD,
04,
01,
FE,
03,
FC,
FD,
F7,
03,
FB,
FD,
09,
F7,
04,
FE,
02,
05,
FE,
00,
FD,
FD,
F7,
ED,
04,
00,
F8,
03,
00,
07,
0B,
04,
FC,
FE,
04,
F5,
FC,
F8,
F8,
F8,
05,
03,
02,
0A,
03,
FF,
04,
01,
FD,
04,
FD,
03,
03,
FE,
07,
F8,
02,
FD,
F9,
10,
F9,
04,
FC,
00,
09,
04,
FC,
FC,
01,
02,
F9,
0A,
06,
00,
F5,
FA,
01,
04,
F7,
F7,
FA,
FE,
02,
FC,
02,
FD,
00,
F8,
F9,
FE,
03,
0C,
FE,
0A,
FA,
F9,
FA,
03,
04,
01,
02,
03,
01,
01,
04,
03,
FC,
FE,
F8,
04,
01,
FB,
FB,
FF,
08,
00,
06,
01,
02,
07,
FE,
02,
00,
FA,
03,
05,
FC,
FC,
04,
FD,
00,
02,
FF,
FB,
07,
05,
02,
0C,
05,
08,
FC,
04,
02,
00,
02,
06,
03,
FC,
FE,
FC,
03,
05,
02,
0E,
0C,
01,
0B,
FB,
01,
F4,
F9,
F6,
FC,
03,
08,
FA,
FC,
06,
06,
03,
FE,
03,
FB,
FB,
FF,
04,
03,
01,
09,
04,
FB,
F9,
FD,
FA,
F7,
FB,
FD,
F8,
04,
FA,
01,
05,
FA,
06,
05,
00,
06,
00,
01,
F6,
FF,
03,
FE,
01,
FB,
06,
06,
03,
06,
00,
0B,
03,
01,
FC,
01,
FA,
02,
04,
FE,
FB,
00,
04,
F7,
F7,
FF,
01,
0B,
F9,
FF,
03,
FC,
05,
06,
0C,
FD,
F2,
FA,
F9,
00,
FE,
FD,
04,
FF,
05,
F9,
00,
0C,
FC,
F6,
FF,
04,
FD,
FC,
FC,
FE,
F8,
05,
02,
06,
FF,
FD,
07,
0B,
0C,
FD,
01,
FD,
02,
FD,
02,
FF,
0C,
FE,
02,
FF,
F8,
09,
09,
04,
F3,
FF,
02,
FC,
03,
09,
FF,
00,
03,
FF,
FB,
0B,
0E,
FF,
00,
01,
00,
FE,
FC,
00,
08,
12,
00,
F8,
0C,
01,
FC,
00,
FD,
F4,
FD,
FF,
01,
FA,
00,
0A,
04,
FF,
FD,
06,
FD,
FE,
06,
00,
03,
FE,
09,
FC,
02,
FD,
05,
04,
00,
00,
FF,
FD,
FC,
01,
F9,
FC,
04,
06,
00,
FC,
03,
02,
FD,
0C,
00,
FF,
07,
00,
05,
FF,
05,
02,
05,
04,
FD,
00,
FF,
02,
02,
00,
04,
07,
FE,
FD,
00,
01,
FE,
F7,
01,
00,
FC,
02,
FB,
FD,
FF,
FD,
F8,
FC,
FA,
05,
01,
00,
F9,
F9,
02,
FC,
00,
06,
FC,
F9,
FA,
F8,
01,
FE,
FA,
01,
06,
FE,
06,
0C,
01,
01,
FE,
04,
02,
FD,
06,
FE,
0D,
FA,
FC,
01,
04,
FB,
FE,
0B,
FB,
07,
FF,
07,
FE,
07,
03,
01,
FC,
FF,
FF,
F7,
07,
01,
10,
07,
FE,
03,
03,
01,
03,
F9,
FC,
02,
FC,
03,
03,
04,
01,
02,
04,
FC,
01,
05,
FE,
07,
02,
01,
02,
06,
FE,
00,
02,
F7,
08,
FF,
FA,
FF,
FB,
01,
02,
03,
06,
FF,
05,
FD,
02,
FA,
F5,
02,
F9,
00,
02,
FD,
05,
02,
07,
FF,
0B,
0B,
FE,
FC,
02,
FA,
01,
F7,
02,
FC,
F9,
FB,
04,
00,
02,
04,
FF,
FF,
F5,
FE,
01,
03,
05,
FB,
FE,
FD,
00,
FC,
06,
FA,
FB,
09,
FD,
04,
FB,
FE,
FC,
FC,
FD,
01,
FF,
F9,
07,
FB,
05,
02,
02,
03,
05,
FE,
02,
F7,
FD,
FE,
FF,
FF,
F2,
04,
FF,
04,
FA,
09,
F9,
07,
01,
FF,
02,
01,
FC,
FE,
00,
04,
FD,
FF,
00,
FA,
FD,
01,
0C,
00,
04,
07,
02,
04,
01,
03,
FC,
FE,
FC,
02,
02,
FD,
FE,
FD,
FF,
07,
0D,
03,
FC,
FD,
FB,
01,
FC,
FD,
06,
03,
FE,
F8,
FD,
02,
FB,
FF,
07,
FF,
FB,
FF,
FC,
02,
FC,
FD,
F6,
00,
FC,
F3,
FB,
FF,
F5,
FD,
FF,
04,
F7,
02,
02,
FA,
F9,
F9,
04,
FE,
03,
00,
FE,
02,
FB,
FE,
FD,
FD,
FE,
FB,
08,
0C,
01,
FC,
FE,
06,
FD,
FA,
FD,
FF,
FE,
05,
06,
FA,
02,
04,
00,
F8,
FB,
F9,
04,
FC,
FA,
FE,
FF,
FD,
F6,
07,
01,
FC,
FC,
06,
07,
FC,
02,
FB,
00,
0A,
03,
09,
05,
03,
00,
FA,
01,
00,
07,
02,
04,
02,
00,
FF,
F9,
FD,
02,
02,
03,
F8,
0C,
02,
03,
00,
01,
06,
F3,
FC,
06,
00,
02,
FF,
F9,
01,
FB,
F7,
FC,
02,
06,
FD,
FA,
FB,
FF,
00,
FE,
08,
05,
04,
02,
03,
FE,
03,
FA,
FD,
0B,
FC,
FF,
FB,
01,
F9,
F1,
F9,
FB,
F9,
04,
08,
FD,
03,
07,
07,
08,
04,
FD,
05,
FF,
04,
01,
01,
04,
FF,
0A,
FF,
03,
F9,
F8,
FF,
01,
00,
01,
03,
FF,
FD,
FE,
02,
FF,
06,
F9,
03,
F8,
02,
F9,
03,
0B,
F7,
0E,
FB,
01,
00,
F8,
FB,
03,
FE,
09,
FA,
FD,
03,
08,
FC,
FB,
0E,
F8,
FD,
06,
FD,
03,
03,
FF,
F9,
02,
04,
FD,
01,
F8,
09,
07,
FB,
01,
F9,
FA,
FF,
FC,
02,
FE,
F9,
0A,
04,
04,
03,
FD,
02,
FD,
03,
07,
FE,
01,
02,
02,
02,
FD,
09,
02,
04,
FC,
FE,
FC,
FA,
FE,
F0,
FC,
F3,
F5,
F9,
06,
FA,
FE,
FF,
FD,
FD,
02,
08,
FD,
03,
02,
FB,
00,
FF,
FD,
02,
FE,
FC,
FD,
F9,
FC,
FE,
07,
07,
FE,
FE,
00,
FC,
03,
06,
00,
04,
F9,
08,
FD,
F9,
FD,
03,
FC,
F9,
FA,
F8,
02,
05,
04,
FC,
F2,
FE,
05,
04,
FD,
01,
00,
09,
02,
F8,
F6,
FA,
05,
0A,
03,
03,
FE,
FC,
01,
FB,
FE,
F7,
FB,
02,
01,
00,
F7,
02,
F7,
01,
FE,
FF,
04,
0A,
07,
FA,
02,
FA,
F4,
FB,
FB,
08,
03,
03,
FE,
08,
FD,
FD,
07,
01,
FD,
FC,
FD,
01,
FA,
FA,
FB,
F2,
EB,
FE,
FE,
FE,
F9,
FF,
04,
F6,
FD,
FD,
FD,
04,
05,
FE,
01,
00,
05,
05,
02,
02,
FD,
07,
00,
F9,
FB,
02,
F6,
05,
02,
FC,
FC,
02,
FB,
FF,
07,
FC,
02,
01,
05,
04,
02,
0C,
FE,
03,
01,
01,
FD,
04,
FC,
F4,
05,
FE,
F6,
05,
F6,
08,
F9,
FC,
05,
02,
FA,
FD,
06,
01,
F8,
05,
0A,
03,
F8,
03,
FD,
0E,
01,
04,
FA,
01,
00,
FF,
FD,
FE,
F2,
FB,
FB,
F6,
00,
04,
05,
05,
01,
FD,
04,
02,
06,
03,
09,
FD,
FB,
04,
04,
00,
04,
0E,
08,
F5,
03,
02,
FE,
FE,
FE,
00,
FB,
00,
08,
FD,
02,
FD,
06,
0A,
02,
0D,
08,
02,
FE,
03,
07,
0A,
03,
04,
FE,
02,
04,
09,
04,
09,
FB,
00,
FD,
08,
FD,
FE,
FE,
0F,
F9,
02,
0D,
FB,
0E,
FB,
02,
F9,
FD,
02,
00,
F7,
FF,
FE,
03,
03,
01,
F8,
01,
F7,
FF,
FE,
07,
00,
02,
02,
FE,
FE,
F4,
02,
01,
F8,
FE,
01,
05,
FA,
F1,
F9,
FD,
0A,
04,
05,
FE,
FE,
03,
04,
08,
04,
F5,
FC,
F7,
03,
FC,
03,
F9,
FF,
F9,
FB,
07,
FA,
03,
01,
FE,
FD,
02,
00,
02,
FD,
F9,
FE,
FF,
01,
FD,
01,
F5,
FD,
FF,
05,
FC,
FE,
FC,
FB,
F9,
02,
04,
09,
02,
FB,
F6,
F3,
FD,
F5,
F8,
05,
06,
05,
04,
FE,
00,
09,
01,
F8,
03,
03,
00,
F9,
FF,
FB,
FD,
04,
03,
01,
00,
02,
F9,
FF,
FB,
03,
02,
FE,
FE,
00,
FF,
05,
FE,
FD,
FF,
03,
FD,
FE,
07,
FE,
F8,
FD,
02,
F7,
03,
07,
02,
F9,
FD,
F9,
08,
FC,
0D,
01,
FB,
01,
0C,
FB,
07,
02,
FF,
03,
02,
F6,
00,
FF,
07,
00,
FE,
05,
F7,
F7,
FE,
00,
0F,
FB,
10,
01,
FE,
F7,
F9,
F9,
09,
FE,
03,
03,
02,
FB,
08,
0B,
00,
02,
00,
FC,
06,
01,
FF,
F3,
F2,
FC,
01,
FE,
03,
05,
FC,
F9,
FC,
F5,
01,
FE,
08,
0A,
03,
02,
FE,
09,
0C,
04,
F9,
02,
00,
FD,
FE,
F9,
FF,
00,
07,
F4,
FB,
01,
06,
09,
00,
F8,
FF,
FF,
FC,
00,
08,
01,
09,
F7,
FC,
04,
03,
0B,
FB,
03,
00,
FB,
F6,
FE,
F9,
FA,
0A,
FE,
06,
06,
F7,
F8,
05,
04,
FA,
0D,
FE,
05,
09,
F5,
FF,
00,
FB,
F6,
05,
05,
0C,
06,
F8,
FB,
01,
04,
01,
F9,
04,
0B,
00,
FF,
0E,
08,
F4,
02,
02,
01,
02,
FC,
01,
FD,
00,
07,
02,
00,
FF,
FD,
FB,
FE,
00,
F8,
01,
F7,
05,
FF,
FC,
FF,
07,
0B,
FB,
03,
F3,
F3,
07,
00,
05,
FC,
FE,
FB,
00,
F4,
04,
F6,
FA,
06,
00,
FA,
06,
04,
FC,
FC,
05,
FA,
01,
FE,
01,
FD,
FA,
03,
F5,
FF,
0E,
FF,
03,
04,
FA,
06,
F9,
FE,
02,
00,
01,
F6,
00,
04,
03,
03,
FC,
FA,
05,
05,
02,
03,
07,
06,
06,
FD,
F9,
00,
F2,
FA,
03,
F5,
FB,
F5,
F5,
FA,
09,
00,
07,
FB,
F7,
01,
02,
01,
04,
07,
FC,
FA,
04,
03,
FF,
05,
FD,
FA,
FD,
02,
FF,
FE,
FE,
01,
F2,
03,
FD,
FC,
0A,
00,
F9,
00,
FC,
FA,
01,
01,
03,
01,
FD,
F8,
FE,
FE,
FB,
00,
FF,
F8,
08,
FA,
FF,
FD,
FC,
02,
FD,
00,
F7,
FC,
04,
03,
FE,
FB,
FA,
F5,
01,
FB,
00,
FC,
06,
03,
F8,
FB,
00,
F7,
01,
F6,
04,
FE,
FE,
03,
F4,
09,
04,
04,
07,
00,
03,
05,
04,
FD,
FC,
04,
00,
04,
FA,
FC,
00,
04,
0C,
05,
FD,
FD,
F2,
EC,
F5,
07,
F7,
08,
FA,
02,
F8,
FB,
FD,
FB,
FF,
FA,
03,
00,
07,
0E,
FE,
08,
02,
F6,
04,
06,
02,
F9,
FC,
FB,
FF,
FF,
FE,
FC,
FB,
01,
05,
00,
F8,
06,
0C,
F5,
06,
07,
01,
00,
00,
FA,
F8,
F9,
FF,
F9,
09,
00,
FD,
FA,
00,
F3,
0B,
02,
00,
06,
0B,
FF,
FF,
03,
FB,
00,
07,
FE,
FD,
01,
FB,
FC,
F9,
00,
F8,
03,
FE,
F8,
04,
FC,
02,
FE,
FC,
01,
04,
FE,
09,
04,
04,
03,
F3,
03,
FE,
0A,
00,
01,
04,
00,
0A,
FC,
00,
F3,
FE,
02,
F6,
08,
FE,
FE,
F6,
F2,
FB,
FD,
02,
0C,
FB,
FE,
00,
FD,
02,
FE,
FB,
07,
FF,
02,
00,
03,
00,
F2,
01,
F9,
F8,
F5,
FD,
F8,
01,
08,
F8,
F7,
01,
00,
F7,
08,
F9,
FD,
FC,
FB,
04,
FF,
02,
02,
F7,
04,
04,
FD,
01,
F5,
FE,
FF,
FF,
FE,
04,
0D,
F7,
01,
FA,
00,
04,
02,
F8,
FF,
07,
02,
FA,
05,
02,
FB,
01,
02,
02,
09,
05,
FA,
00,
F6,
06,
F4,
F7,
00,
00,
08,
FF,
11,
FD,
01,
03,
04,
FB,
02,
0A,
FD,
09,
01,
FE,
00,
FB,
FE,
01,
F7,
00,
03,
01,
05,
F8,
04,
07,
FA,
FE,
FE,
09,
FE,
F9,
00,
F9,
F8,
FD,
FC,
01,
F6,
F9,
FB,
F6,
02,
08,
00,
08,
F4,
F2,
02,
00,
09,
07,
FB,
0D,
FA,
01,
05,
01,
06,
02,
03,
05,
09,
02,
0D,
FF,
F8,
FA,
02,
FC,
FE,
F7,
FF,
01,
FA,
02,
04,
FB,
06,
01,
FC,
FC,
F2,
04,
00,
FA,
FC,
08,
00,
03,
04,
FD,
02,
00,
00,
04,
F3,
01,
FB,
F8,
06,
03,
FA,
FE,
FF,
0F,
04,
03,
06,
03,
00,
FB,
FB,
06,
03,
00,
FE,
02,
04,
FD,
03,
F7,
FB,
0A,
0D,
03,
FE,
F8,
03,
ED,
FB,
02,
F6,
09,
03,
00,
02,
07,
09,
05,
FF,
FC,
01,
FA,
F5,
FB,
06,
FC,
FB,
FE,
00,
F6,
03,
F5,
FE,
FA,
F9,
03,
FD,
01,
F9,
04,
03,
01,
FB,
FD,
F9,
FB,
02,
FA,
F8,
05,
08,
F1,
FE,
07,
FF,
05,
00,
09,
04,
F6,
FE,
FE,
FD,
FC,
FB,
F9,
F2,
FB,
07,
FE,
03,
06,
FE,
F9,
FF,
FB,
04,
05,
FB,
0D,
06,
00,
FF,
FE,
03,
FB,
FD,
00,
F8,
FF,
FA,
04,
00,
FF,
FF,
FD,
F6,
F9,
02,
FF,
07,
FA,
07,
FE,
07,
03,
01,
F9,
07,
F8,
04,
FB,
01,
FD,
F3,
FB,
F9,
FF,
0B,
02,
01,
05,
F8,
07,
06,
03,
06,
04,
0B,
0C,
06,
F6,
F6,
07,
01,
FC,
04,
0A,
05,
09,
02,
03,
0C,
02,
06,
05,
04,
08,
01,
02,
00,
FE,
FC,
0D,
FC,
FF,
FC,
01,
00,
FB,
FE,
04,
F6,
FD,
F8,
FF,
00,
01,
FB,
F8,
F0,
04,
01,
04,
FC,
04,
01,
FE,
FA,
F6,
F9,
06,
01,
00,
FD,
FB,
00,
03,
03,
04,
02,
FD,
04,
FF,
FD,
FA,
04,
04,
FB,
03,
F4,
F9,
00,
FF,
0C,
EF,
00,
07,
FE,
07,
F5,
FF,
F8,
FE,
04,
07,
04,
03,
0B,
FE,
F6,
FE,
02,
05,
01,
FA,
FE,
0A,
01,
FA,
F7,
F9,
02,
FB,
F9,
F7,
F9,
04,
02,
F2,
F8,
F9,
EF,
04,
F9,
00,
01,
FD,
F8,
FD,
FF,
FE,
FF,
03,
05,
00,
FD,
05,
FC,
FF,
FE,
FB,
0F,
00,
09,
FA,
FA,
F8,
01,
00,
FB,
F7,
05,
02,
04,
01,
09,
00,
03,
0C,
00,
04,
FA,
05,
0C,
FB,
F9,
01,
FD,
00,
08,
04,
F6,
F7,
04,
FA,
01,
F6,
F8,
06,
FF,
0C,
01,
FE,
02,
FA,
FB,
FE,
FB,
F9,
FC,
F9,
FF,
FA,
04,
06,
FD,
F4,
FA,
07,
FA,
F8,
05,
02,
FC,
03,
FC,
03,
FA,
F6,
FA,
FC,
F6,
F9,
FC,
02,
FF,
01,
FB,
01,
00,
FF,
02,
F9,
FE,
0E,
00,
FF,
F6,
04,
01,
FC,
05,
08,
0C,
FC,
04,
FF,
03,
FB,
FB,
00,
06,
FB,
F9,
03,
04,
FE,
03,
08,
FD,
03,
05,
00,
00,
01,
00,
F6,
FD,
F7,
F3,
F3,
FE,
09,
04,
F5,
F9,
04,
03,
06,
FE,
03,
FC,
03,
04,
02,
03,
05,
0E,
0A,
02,
F6,
05,
FF,
FB,
FE,
07,
03,
01,
03,
FF,
FC,
FF,
02,
02,
01,
05,
02,
FE,
FD,
0B,
05,
02,
FD,
FE,
FC,
F8,
05,
00,
02,
F8,
00,
FA,
FD,
04,
01,
FF,
00,
F7,
03,
08,
02,
01,
00,
01,
09,
01,
05,
FD,
FC,
00,
FE,
00,
08,
F9,
F9,
04,
05,
0A,
FB,
03,
00,
FE,
F8,
00,
FF,
F8,
05,
FE,
07,
FE,
FC,
05,
FA,
02,
FE,
07,
01,
02,
0B,
09,
06,
F7,
0C,
FE,
FA,
00,
FF,
03,
F9,
07,
F9,
02,
05,
01,
05,
FE,
FB,
F9,
F8,
03,
00,
04,
FC,
06,
03,
F8,
FD,
FA,
0B,
F5,
FA,
04,
03,
06,
0A,
06,
FE,
05,
FF,
03,
02,
01,
FB,
02,
0B,
F9,
02,
FA,
FF,
FF,
F9,
04,
06,
FA,
FE,
01,
05,
02,
F0,
04,
08,
FD,
FA,
FE,
FB,
F7,
01,
F9,
F8,
06,
09,
03,
08,
06,
00,
01,
FC,
01,
F7,
08,
01,
FD,
FE,
F8,
FE,
06,
07,
07,
08,
08,
FB,
05,
05,
01,
06,
FE,
02,
03,
FF,
0A,
05,
08,
FF,
00,
FE,
03,
07,
FD,
00,
F4,
01,
FB,
F6,
00,
FD,
0A,
09,
06,
01,
05,
FE,
02,
02,
F5,
01,
0C,
06,
01,
F7,
00,
01,
FE,
01,
FC,
FB,
02,
FA,
01,
FE,
02,
FF,
01,
06,
06,
08,
F5,
FB,
02,
05,
00,
04,
08,
07,
02,
06,
00,
02,
03,
01,
08,
0B,
FF,
00,
04,
0A,
06,
F9,
00,
F9,
0A,
F9,
FF,
01,
0F,
08,
05,
FF,
F8,
F9,
FF,
05,
03,
08,
08,
FB,
F4,
FE,
0A,
FF,
FE,
00,
02,
FA,
F9,
07,
F9,
FF,
FB,
FE,
F3,
F9,
FD,
F6,
F6,
0A,
04,
FE,
01,
FD,
FB,
FA,
F7,
FD,
03,
07,
03,
F6,
0B,
FB,
01,
06,
01,
05,
03,
06,
07,
FB,
F8,
08,
07,
05,
F9,
04,
0A,
FD,
FD,
FF,
01,
07,
FC,
07,
08,
FC,
FD,
FF,
01,
FD,
01,
04,
00,
06,
04,
07,
05,
FE,
FF,
01,
FC,
03,
FF,
F9,
F8,
04,
F8,
FB,
05,
FD,
02,
FD,
04,
FC,
FF,
FD,
01,
FF,
FF,
03,
09,
05,
FC,
F5,
F6,
F9,
FD,
04,
04,
04,
02,
F7,
06,
04,
00,
02,
05,
06,
00,
07,
F7,
08,
FE,
F8,
04,
FB,
04,
02,
00,
00,
FE,
00,
01,
F9,
00,
00,
05,
FD,
FD,
FB,
04,
05,
F6,
F7,
FF,
FD,
FF,
03,
FB,
FA,
FD,
FB,
07,
FC,
0D,
FC,
FE,
06,
F8,
00,
0B,
0E,
01,
FD,
05,
09,
10,
FF,
F8,
FE,
0D,
F1,
FF,
FC,
F9,
02,
05,
05,
02,
00,
FE,
FD,
05,
05,
02,
FB,
03,
FF,
FB,
FE,
F9,
FC,
FE,
FE,
FE,
FD,
05,
F9,
04,
06,
05,
06,
0B,
01,
FF,
07,
00,
07,
06,
FF,
FF,
0B,
02,
FC,
FE,
03,
FD,
04,
FC,
04,
FF,
00,
FB,
FB,
04,
FF,
01,
FE,
FB,
F8,
FA,
06,
FF,
FC,
12,
01,
06,
F5,
F3,
04,
FC,
FF,
03,
03,
F9,
F5,
FA,
FA,
FE,
FF,
FD,
FF,
09,
03,
FE,
F7,
01,
FF,
FE,
01,
FE,
03,
09,
07,
FA,
FF,
00,
FE,
F7,
03,
FB,
FB,
08,
0A,
FC,
FE,
FE,
02,
FE,
F9,
02,
04,
09,
0C,
F5,
F3,
FC,
FA,
09,
03,
08,
FD,
FD,
0D,
F6,
FE,
0C,
0C,
08,
0A,
F3,
FE,
08,
F8,
02,
09,
0A,
08,
03,
05,
F9,
FA,
FE,
FA,
02,
09,
05,
FF,
F5,
07,
FB,
01,
02,
FB,
01,
04,
FD,
02,
09,
06,
FB,
FF,
06,
05,
FF,
FD,
FD,
FD,
04,
FD,
00,
09,
FE,
06,
04,
0D,
FA,
01,
04,
00,
FC,
FF,
FF,
01,
07,
FD,
00,
03,
FF,
04,
00,
06,
FD,
02,
FC,
F7,
FC,
07,
03,
04,
0A,
FF,
FF,
FF,
00,
06,
04,
FC,
07,
03,
00,
F1,
05,
05,
00,
F9,
02,
FC,
01,
F4,
07,
02,
02,
08,
02,
00,
00,
02,
FA,
FE,
FA,
FF,
FE,
FB,
01,
FF,
FD,
03,
FD,
F7,
FC,
FB,
00,
F3,
07,
02,
04,
03,
01,
08,
03,
05,
07,
FE,
04,
08,
01,
FB,
07,
05,
05,
05,
F4,
08,
0B,
FE,
FE,
FB,
01,
F1,
07,
FC,
F5,
F9,
FB,
06,
06,
FE,
01,
09,
08,
0B,
11,
03,
02,
01,
05,
FC,
00,
02,
04,
05,
FD,
FB,
01,
FE,
FA,
FF,
FF,
FF,
06,
0F,
FE,
03,
03,
07,
FF,
F5,
02,
FC,
01,
F7,
00,
FD,
F6,
F5,
03,
FC,
FA,
0A,
04,
00,
FB,
00,
FA,
07,
0A,
F8,
02,
F0,
04,
FB,
FB,
FD,
FB,
FF,
0A,
0B,
06,
00,
09,
FB,
FC,
FA,
FD,
09,
02,
FC,
07,
FF,
07,
04,
02,
06,
00,
FC,
F7,
00,
04,
F9,
FA,
03,
FD,
F7,
01,
00,
FD,
02,
FD,
05,
03,
05,
04,
F9,
0B,
FC,
FC,
05,
01,
01,
05,
01,
FF,
FE,
F5,
01,
F9,
FB,
FB,
09,
02,
F7,
06,
FF,
F6,
06,
01,
04,
FF,
03,
F6,
0C,
F5,
F1,
FF,
FC,
FD,
FC,
06,
FB,
FA,
0E,
01,
07,
06,
FD,
FB,
06,
FC,
0A,
F5,
FB,
01,
FD,
FB,
FF,
FF,
09,
09,
FE,
04,
04,
01,
FF,
F3,
FE,
03,
FA,
00,
F2,
F5,
F9,
0B,
FD,
F9,
02,
03,
F9,
FA,
FF,
FE,
08,
01,
01,
04,
FF,
0B,
07,
FD,
FE,
FD,
04,
05,
01,
F7,
FE,
01,
FC,
F8,
FF,
00,
07,
07,
FD,
08,
FB,
02,
F9,
04,
0C,
FC,
07,
F9,
05,
F8,
F6,
FA,
02,
02,
FF,
FD,
00,
FD,
FE,
01,
F9,
00,
01,
FE,
F7,
05,
FB,
F4,
F3,
F3,
FD,
01,
0C,
FC,
F0,
09,
03,
FE,
FF,
02,
00,
00,
00,
03,
04,
FD,
FC,
03,
0A,
FF,
FE,
01,
FA,
09,
04,
F6,
05,
FD,
03,
08,
FE,
01,
FB,
06,
07,
FF,
05,
04,
07,
04,
01,
03,
00,
05,
0B,
05,
F8,
FD,
02,
02,
00,
10,
03,
FB,
FF,
00,
FE,
FA,
F9,
EF,
00,
0B,
03,
09,
0E,
0C,
01,
FF,
FF,
00,
FA,
02,
02,
03,
FD,
FD,
00,
FC,
02,
FA,
F6,
00,
FF,
08,
01,
FF,
FD,
FC,
04,
FC,
00,
04,
04,
F8,
FE,
FF,
07,
02,
FA,
FE,
06,
01,
FF,
0C,
09,
F7,
03,
0E,
00,
FC,
F8,
01,
06,
FE,
FF,
00,
03,
FA,
FE,
F8,
08,
02,
08,
FC,
FA,
05,
00,
FF,
F5,
FF,
FE,
08,
01,
02,
04,
01,
FA,
F7,
F6,
FD,
FE,
FF,
F2,
04,
09,
06,
03,
03,
FC,
FF,
04,
FE,
F6,
03,
06,
07,
01,
06,
02,
FB,
09,
FA,
FF,
FC,
FF,
F7,
08,
07,
01,
00,
01,
FF,
FB,
00,
FE,
01,
FE,
FF,
0A,
04,
F9,
0B,
FE,
06,
FA,
07,
01,
F5,
F7,
FF,
FF,
FD,
FF,
FF,
FE,
03,
05,
02,
09,
FB,
05,
02,
FA,
00,
FD,
F3,
F6,
F0,
01,
FC,
02,
07,
FF,
FF,
0A,
03,
F8,
03,
FE,
FA,
FE,
02,
0D,
0C,
01,
F9,
00,
FB,
FB,
03,
06,
00,
FE,
F9,
03,
00,
FF,
00,
01,
06,
FF,
04,
05,
05,
0B,
03,
FE,
00,
FF,
FD,
01,
07,
FC,
FC,
07,
02,
05,
FA,
02,
01,
00,
FB,
FB,
F8,
01,
F9,
F8,
08,
03,
FB,
FC,
FF,
02,
03,
01,
FE,
FA,
03,
F9,
05,
02,
05,
F7,
FC,
01,
03,
02,
03,
F7,
03,
06,
05,
00,
00,
05,
FF,
FA,
FC,
01,
FA,
04,
03,
FB,
07,
F9,
F5,
F9,
FC,
05,
08,
04,
05,
05,
03,
14,
0C,
01,
04,
F7,
FA,
0A,
FF,
FA,
FA,
FA,
F6,
F8,
0B,
F9,
FB,
03,
FA,
FA,
FA,
02,
00,
0B,
04,
F4,
FE,
F7,
FE,
06,
FE,
F9,
09,
00,
FD,
0C,
04,
01,
00,
06,
0C,
01,
FF,
F9,
FB,
09,
FF,
FE,
04,
FC,
00,
FF,
FF,
FD,
05,
02,
FC,
02,
FB,
FC,
FB,
FB,
0A,
0A,
FE,
FC,
FB,
F8,
FA,
00,
09,
07,
06,
FF,
02,
FF,
F2,
FB,
02,
0A,
F4,
FD,
FB,
02,
F5,
F4,
F6,
FA,
FF,
03,
F9,
01,
02,
F9,
F8,
00,
FA,
01,
03,
01,
02,
FF,
FE,
FA,
FC,
04,
05,
F7,
F8,
F4,
01,
FC,
F9,
01,
FB,
F7,
FA,
08,
06,
06,
02,
07,
02,
01,
01,
02,
FC,
F7,
04,
05,
05,
FD,
FF,
FA,
F8,
03,
00,
F9,
FB,
02,
02,
0B,
05,
FB,
FE,
FE,
F6,
FA,
FD,
03,
03,
00,
01,
03,
F6,
01,
F9,
FF,
FD,
FE,
FD,
FF,
04,
03,
05,
0A,
0A,
FE,
FF,
FC,
F3,
00,
FC,
06,
06,
07,
05,
02,
F8,
03,
FD,
0A,
F9,
01,
F5,
FF,
06,
02,
FC,
09,
07,
FC,
07,
F7,
FD,
04,
FE,
FD,
00,
00,
00,
03,
FD,
01,
06,
FE,
F7,
FE,
FA,
FC,
FA,
FD,
09,
FF,
FF,
F8,
FC,
09,
FD,
FD,
04,
07,
FD,
03,
F8,
FD,
FE,
F9,
F2,
00,
02,
FF,
F4,
F0,
F0,
FB,
00,
04,
FD,
F9,
F8,
FE,
05,
FD,
FF,
F8,
03,
00,
03,
06,
FE,
FC,
FF,
0C,
FC,
FA,
FA,
F9,
01,
01,
F9,
FE,
FC,
FC,
06,
F7,
00,
05,
FF,
F7,
03,
06,
FE,
FE,
F4,
00,
03,
F8,
04,
01,
FC,
FD,
04,
04,
FE,
00,
07,
FF,
04,
02,
05,
FD,
02,
F9,
09,
FE,
FA,
06,
0D,
FF,
0A,
0B,
F4,
FC,
F9,
F9,
00,
04,
05,
03,
FF,
06,
FF,
02,
08,
F3,
02,
F5,
08,
FE,
FB,
F3,
00,
FB,
FC,
FC,
FE,
FC,
07,
FE,
06,
08,
F5,
00,
03,
FE,
F6,
02,
0A,
00,
07,
02,
FF,
07,
FF,
FF,
04,
FE,
00,
02,
07,
F3,
F4,
01,
01,
FE,
03,
FF,
05,
02,
01,
FA,
F8,
01,
09,
FF,
FB,
04,
02,
00,
02,
00,
F6,
00,
F9,
F8,
FC,
F8,
F8,
01,
07,
F7,
04,
07,
04,
FC,
FD,
01,
06,
FD,
00,
F6,
F9,
F9,
FA,
00,
FD,
05,
FD,
07,
02,
FF,
02,
03,
FD,
02,
FE,
00,
FC,
F7,
09,
01,
02,
00,
04,
02,
FA,
01,
00,
F8,
FB,
F8,
05,
03,
FE,
FB,
08,
FF,
F6,
00,
FE,
00,
05,
F5,
06,
FC,
FC,
01,
02,
F8,
00,
F7,
FC,
03,
FF,
00,
09,
01,
FB,
00,
08,
F8,
F9,
FD,
F1,
04,
01,
FE,
06,
FE,
0B,
FD,
FD,
0C,
08,
02,
F9,
FC,
FA,
FF,
03,
FE,
F4,
07,
03,
05,
F9,
F7,
F6,
06,
05,
05,
06,
F9,
04,
01,
03,
04,
07,
02,
00,
FE,
F7,
FB,
07,
FB,
00,
FC,
F7,
FD,
F5,
04,
FB,
00,
00,
FD,
00,
FF,
F8,
06,
03,
08,
F7,
FB,
02,
F7,
F8,
F9,
FE,
FA,
FB,
04,
02,
FC,
06,
02,
09,
FC,
FD,
FF,
07,
FD,
FF,
03,
05,
09,
04,
03,
FF,
FB,
FD,
04,
FE,
00,
03,
FD,
08,
F9,
01,
08,
FE,
07,
F6,
FB,
05,
FD,
00,
06,
01,
00,
F9,
06,
FE,
FA,
FE,
FA,
FE,
03,
FA,
FE,
00,
FD,
FC,
0C,
FC,
F1,
01,
01,
F9,
FA,
FE,
FE,
06,
FF,
00,
F7,
F2,
03,
02,
FC,
0B,
FA,
F2,
FF,
00,
06,
FD,
00,
02,
F6,
FC,
F8,
F4,
02,
06,
02,
F8,
FA,
06,
FF,
03,
05,
FB,
09,
02,
05,
05,
FE,
0A,
07,
FA,
01,
FF,
F9,
FF,
FC,
0B,
FC,
09,
FA,
F0,
FF,
FC,
01,
04,
02,
FD,
06,
F5,
FF,
01,
02,
03,
03,
09,
F8,
FF,
FB,
F6,
FC,
FB,
07,
F8,
01,
FA,
04,
04,
02,
00,
FC,
FF,
FE,
FF,
08,
FC,
FB,
01,
02,
02,
09,
F6,
FF,
FC,
01,
FF,
F7,
07,
06,
F9,
05,
F7,
02,
FD,
00,
FB,
FB,
FE,
FA,
FC,
FA,
FC,
F9,
03,
FF,
00,
04,
FC,
05,
FD,
05,
07,
FB,
FE,
FE,
F7,
06,
02,
0D,
F8,
FB,
FE,
FF,
01,
F6,
F4,
FB,
02,
03,
F4,
F4,
FD,
FC,
FD,
05,
03,
FF,
03,
FD,
F4,
02,
FD,
06,
FF,
FD,
03,
04,
01,
FF,
01,
FF,
F8,
F8,
FA,
05,
03,
FB,
FD,
01,
09,
01,
00,
00,
01,
FE,
FD,
05,
09,
F9,
03,
00,
F9,
FF,
03,
00,
FA,
FC,
F2,
FC,
00,
02,
07,
04,
FF,
04,
02,
FF,
05,
F9,
00,
FD,
01,
FC,
F9,
F5,
FC,
FC,
F6,
FE,
00,
02,
06,
FE,
00,
FD,
00,
02,
FF,
05,
FE,
FB,
03,
04,
FF,
FE,
03,
F9,
FF,
03,
FD,
03,
02,
02,
F3,
02,
FD,
F9,
F5,
02,
04,
FC,
F8,
FB,
0A,
F5,
FA,
F5,
F8,
00,
FD,
04,
FB,
F5,
FF,
03,
05,
09,
FD,
FB,
03,
F9,
01,
FA,
F9,
04,
02,
F5,
FF,
04,
0C,
07,
0A,
05,
FD,
00,
10,
FD,
07,
04,
00,
FC,
FE,
02,
09,
FF,
03,
08,
FC,
FF,
FA,
F9,
01,
F8,
F3,
03,
08,
01,
FC,
07,
FC,
07,
F9,
FF,
00,
09,
03,
0F,
05,
07,
0B,
06,
06,
F8,
FF,
F7,
F4,
FA,
10,
0A,
00,
FD,
0E,
01,
FE,
FF,
00,
FB,
F8,
01,
00,
FB,
FC,
FE,
FD,
FE,
00,
04,
05,
01,
FE,
02,
FC,
FC,
FD,
02,
07,
01,
FC,
00,
08,
07,
F9,
04,
FB,
FA,
FD,
FB,
FB,
FC,
07,
01,
07,
02,
02,
FE,
04,
00,
0C,
08,
FD,
06,
FA,
F5,
FB,
FC,
FA,
FA,
00,
F1,
F4,
FC,
FB,
FE,
09,
03,
F1,
0B,
03,
05,
07,
FA,
FC,
00,
FB,
00,
FC,
04,
02,
FA,
F5,
FF,
05,
07,
08,
03,
FB,
FD,
04,
00,
FF,
05,
01,
04,
04,
FB,
F7,
FE,
FB,
FE,
FA,
FD,
05,
FB,
04,
04,
04,
02,
02,
FF,
FF,
02,
06,
04,
05,
03,
02,
05,
FC,
01,
FB,
01,
FF,
FF,
04,
FF,
01,
07,
FD,
04,
FE,
F9,
FB,
08,
08,
01,
05,
04,
FD,
02,
08,
06,
0A,
01,
FF,
03,
F9,
04,
01,
F8,
02,
FE,
03,
00,
FA,
07,
FF,
05,
FD,
02,
00,
04,
01,
04,
02,
01,
FF,
01,
03,
05,
07,
07,
07,
FD,
00,
09,
03,
04,
03,
03,
FD,
FA,
09,
0D,
04,
04,
F8,
FD,
00,
FD,
FC,
09,
F9,
04,
FF,
04,
08,
05,
08,
03,
FB,
04,
FE,
0B,
06,
04,
FF,
08,
F9,
F9,
FD,
FD,
01,
00,
F6,
FA,
03,
F9,
01,
FA,
06,
09,
00,
03,
03,
04,
FF,
06,
05,
FE,
F1,
FB,
01,
FE,
FF,
01,
FF,
02,
05,
09,
04,
01,
FB,
07,
FF,
05,
0A,
06,
07,
00,
06,
09,
FD,
03,
00,
FC,
06,
FB,
F4,
F4,
FD,
F8,
06,
04,
FC,
F4,
FE,
06,
09,
F5,
08,
00,
FB,
08,
02,
FA,
06,
04,
04,
FE,
06,
0A,
00,
02,
05,
04,
04,
02,
FC,
07,
01,
FA,
03,
FF,
FF,
FD,
08,
01,
03,
04,
F5,
FF,
F2,
F6,
02,
FF,
04,
01,
06,
06,
04,
02,
02,
0B,
05,
F8,
FC,
F9,
FB,
FF,
00,
FF,
00,
F7,
FD,
FF,
FB,
FB,
04,
F9,
F9,
FD,
F7,
F4,
05,
02,
F7,
F0,
F5,
FB,
02,
FC,
00,
01,
06,
00,
01,
FF,
01,
FC,
FA,
08,
01,
FD,
05,
FD,
04,
F7,
02,
FC,
FD,
02,
04,
0A,
04,
02,
F7,
03,
07,
FF,
0A,
06,
FE,
09,
04,
FE,
01,
05,
FF,
03,
FF,
06,
01,
FB,
00,
F9,
FB,
FF,
FD,
06,
FF,
02,
07,
02,
FB,
FC,
04,
02,
FC,
FB,
FA,
12,
06,
00,
FD,
FE,
03,
02,
07,
F9,
FF,
03,
FD,
06,
FF,
03,
05,
FF,
01,
00,
06,
FF,
02,
04,
FF,
04,
FC,
FC,
FA,
05,
04,
08,
FD,
FF,
0A,
FE,
FF,
FB,
FB,
01,
FE,
FF,
04,
09,
01,
04,
02,
F9,
FC,
FF,
02,
FB,
F6,
FE,
FC,
02,
04,
FC,
F9,
00,
FD,
F8,
FE,
00,
FD,
03,
F4,
09,
FB,
FE,
FC,
F5,
F2,
00,
FA,
F3,
F7,
FA,
00,
01,
FC,
00,
02,
FE,
FA,
01,
09,
FF,
07,
05,
01,
09,
02,
0B,
00,
FB,
FC,
05,
04,
FF,
FF,
02,
F9,
FE,
04,
03,
03,
04,
05,
01,
07,
05,
FA,
03,
05,
FF,
FA,
07,
03,
FE,
00,
01,
07,
03,
01,
00,
01,
03,
FC,
03,
06,
00,
01,
00,
FF,
00,
FC,
04,
FA,
05,
02,
FE,
02,
06,
FE,
06,
02,
00,
05,
FB,
FE,
FC,
FC,
03,
08,
FD,
05,
FF,
01,
FC,
F7,
FC,
F7,
FD,
07,
0B,
06,
FD,
02,
00,
01,
02,
FC,
06,
FB,
F8,
07,
00,
04,
07,
08,
02,
05,
00,
FD,
FF,
0D,
04,
FD,
F7,
03,
FD,
00,
07,
FA,
05,
08,
03,
03,
02,
05,
00,
FF,
FD,
00,
04,
07,
01,
FF,
FE,
FF,
01,
02,
FF,
FE,
FF,
04,
03,
FA,
FF,
FC,
FB,
F9,
05,
05,
FD,
FC,
F9,
F9,
00,
00,
F5,
FD,
01,
01,
FA,
02,
FE,
05,
FD,
0A,
02,
FD,
FC,
02,
02,
06,
00,
03,
00,
FF,
02,
03,
03,
01,
04,
03,
01,
0A,
05,
00,
04,
00,
FB,
09,
01,
07,
01,
00,
07,
FC,
FE,
FD,
01,
04,
0B,
00,
00,
04,
FF,
05,
01,
F9,
01,
00,
FB,
03,
FA,
09,
FF,
F9,
FF,
01,
FE,
02,
00,
01,
F6,
01,
F4,
F6,
FD,
00,
04,
03,
03,
F9,
FD,
05,
FE,
08,
04,
03,
04,
FE,
FF,
F8,
03,
FC,
FB,
FC,
05,
FE,
00,
F8,
FE,
06,
06,
FE,
00,
FE,
FE,
FE,
FE,
06,
03,
FE,
03,
01,
02,
00,
FE,
FF,
09,
01,
F6,
00,
FE,
FE,
FC,
FF,
00,
F7,
FA,
02,
FE,
01,
01,
00,
02,
04,
F9,
06,
0E,
03,
00,
01,
03,
FA,
FC,
F9,
FA,
F7,
02,
F6,
01,
FC,
FC,
04,
FC,
FF,
04,
02,
03,
FE,
03,
FF,
02,
FE,
01,
F5,
F4,
FC,
01,
00,
FC,
FD,
F4,
01,
07,
FB,
FE,
FE,
FE,
F8,
FA,
F9,
FC,
FA,
FC,
FB,
FA,
FD,
FC,
02,
02,
FD,
00,
01,
00,
04,
06,
01,
FF,
01,
03,
FB,
F8,
03,
FC,
FA,
F7,
FE,
FB,
00,
FD,
FA,
05,
FD,
FC,
06,
05,
FD,
FB,
F9,
03,
F9,
FF,
04,
FF,
FC,
FE,
00,
FA,
01,
04,
FC,
FC,
FF,
FA,
01,
FE,
05,
07,
FA,
FD,
00,
02,
FD,
FE,
FF,
FD,
