; Exported from TinyDetector7Layer
; Shape: (32, 3, 4, 4), Bits: 8
memory_initialization_radix=16;
memory_initialization_vector=
03,
F6,
E7,
20,
00,
FA,
DF,
0F,
E4,
DC,
0C,
02,
D8,
C2,
E2,
C7,
23,
0F,
EC,
2C,
38,
0B,
0C,
04,
01,
12,
2B,
29,
24,
24,
FF,
FC,
20,
F7,
E7,
19,
20,
EF,
ED,
E2,
4B,
E6,
F8,
F4,
2C,
0B,
DB,
B5,
0B,
18,
E5,
F5,
21,
33,
04,
F4,
1E,
38,
06,
CB,
FA,
21,
E1,
EF,
22,
2C,
0F,
EE,
17,
12,
15,
F9,
07,
12,
EA,
C3,
01,
EB,
C3,
D7,
0D,
2E,
FB,
E7,
F6,
16,
F4,
CE,
13,
10,
D6,
F1,
2D,
04,
D8,
D6,
1D,
EC,
ED,
E6,
F4,
ED,
EF,
E2,
FE,
0E,
05,
F9,
F4,
08,
FC,
02,
00,
22,
FE,
F3,
00,
DA,
15,
04,
00,
26,
F6,
EE,
EE,
00,
10,
FD,
15,
0E,
31,
01,
12,
0C,
06,
17,
08,
11,
24,
0E,
EE,
0A,
FF,
0D,
FC,
00,
E9,
F0,
F5,
EB,
D1,
E4,
FF,
F7,
DC,
EB,
FF,
F5,
E9,
05,
F7,
F4,
F5,
00,
FD,
FD,
F4,
F2,
01,
08,
EF,
FD,
FD,
03,
FE,
09,
0F,
10,
0C,
08,
02,
09,
06,
08,
15,
10,
FF,
FD,
0E,
0F,
07,
08,
D9,
DD,
07,
F1,
F2,
FC,
07,
F1,
E9,
F6,
F8,
F0,
F7,
0C,
FA,
F3,
ED,
F2,
1C,
E8,
F3,
28,
1D,
15,
E1,
FD,
03,
12,
E9,
14,
F8,
FE,
E2,
FC,
0C,
05,
F4,
0A,
39,
1A,
F3,
27,
33,
2B,
06,
14,
03,
0F,
DD,
FA,
00,
07,
FF,
2A,
D3,
0A,
18,
29,
DB,
C2,
EE,
01,
F0,
FE,
05,
E9,
EA,
CA,
F5,
0F,
E3,
E1,
F7,
E3,
21,
C7,
09,
38,
21,
BC,
2C,
05,
1C,
2F,
0F,
22,
F0,
F0,
25,
2B,
19,
11,
1C,
22,
10,
C2,
03,
04,
F1,
0B,
01,
1D,
02,
0F,
04,
FA,
23,
0B,
04,
21,
13,
10,
EC,
F7,
F1,
13,
05,
FF,
13,
D9,
0C,
05,
FB,
FC,
0E,
02,
14,
FB,
FB,
04,
EF,
FF,
EF,
02,
E6,
03,
F5,
F9,
10,
00,
EC,
2B,
09,
1A,
25,
F0,
FC,
1C,
12,
E9,
07,
0D,
08,
E7,
E7,
FE,
F0,
BC,
E1,
F1,
31,
08,
FC,
FD,
1A,
F6,
11,
2E,
1D,
E9,
F3,
0A,
04,
D3,
FF,
FD,
37,
FD,
07,
EF,
0E,
DD,
F2,
1A,
09,
DC,
F3,
01,
F8,
D2,
EB,
E2,
C7,
F2,
0B,
22,
05,
C3,
02,
30,
FA,
DC,
13,
3D,
DA,
EF,
2E,
39,
15,
ED,
FC,
1C,
E8,
E3,
18,
2C,
DF,
D6,
F5,
22,
F5,
C3,
03,
1A,
10,
DA,
01,
13,
EF,
E3,
E4,
2D,
F0,
D4,
F9,
26,
E0,
F6,
13,
36,
0C,
FC,
DD,
D5,
02,
F9,
F6,
DD,
24,
0B,
0A,
E1,
0C,
F0,
F8,
E0,
1C,
D9,
2A,
F0,
12,
FA,
FD,
01,
46,
3B,
0A,
0A,
25,
26,
3F,
E5,
EE,
F6,
F0,
FB,
17,
00,
FE,
ED,
0F,
01,
F0,
DF,
F8,
04,
09,
EF,
F2,
EB,
1C,
0F,
03,
EA,
EF,
E7,
0E,
FD,
11,
21,
09,
0E,
49,
11,
1B,
DA,
FA,
E1,
1C,
FF,
F4,
FA,
27,
E9,
E7,
DD,
18,
2B,
F0,
0C,
19,
F5,
E5,
DC,
26,
FC,
E3,
D4,
20,
0B,
FD,
D8,
0F,
0A,
10,
01,
F5,
18,
02,
C0,
FA,
1C,
C9,
E2,
91,
01,
E5,
C5,
EF,
05,
FF,
09,
EC,
23,
4E,
2F,
F4,
2C,
01,
33,
46,
EF,
F4,
F6,
25,
2B,
1C,
29,
F8,
20,
E7,
DD,
CB,
0E,
E2,
D1,
FB,
F7,
01,
E9,
11,
2A,
0D,
DE,
3B,
1B,
F5,
DB,
34,
03,
FA,
D2,
1E,
4C,
DF,
F5,
34,
34,
D6,
F1,
03,
18,
CB,
FF,
12,
0C,
C2,
E9,
14,
D9,
CE,
DC,
04,
02,
DC,
F7,
24,
FA,
E6,
DF,
1F,
1B,
C3,
EB,
1C,
1C,
F1,
F1,
17,
22,
FE,
FB,
03,
13,
31,
06,
EC,
26,
1C,
2A,
E4,
E0,
F7,
07,
E1,
DD,
F0,
EA,
FB,
13,
35,
0B,
DE,
1E,
27,
3A,
C4,
EF,
0D,
EE,
D1,
C9,
FD,
FF,
F4,
27,
2F,
04,
F2,
15,
1C,
26,
E4,
D2,
15,
08,
C6,
CA,
FA,
FC,
FF,
04,
04,
13,
EF,
F0,
F4,
12,
FC,
D6,
F2,
0E,
FF,
F2,
F8,
09,
F9,
F2,
FC,
0A,
F1,
EC,
EF,
FC,
02,
D5,
EB,
F9,
0A,
F6,
F2,
02,
FC,
FE,
0C,
19,
06,
FA,
03,
05,
F4,
E3,
FD,
11,
09,
F9,
09,
FC,
EA,
E0,
26,
22,
E7,
EF,
1D,
21,
FA,
0D,
16,
15,
EB,
F5,
1E,
32,
0A,
ED,
13,
1F,
EC,
F9,
08,
1B,
D5,
D7,
09,
09,
00,
13,
0A,
0E,
D0,
EB,
1C,
1C,
FC,
ED,
0B,
00,
DF,
EA,
FA,
23,
EE,
E7,
06,
00,
D6,
F1,
35,
00,
E2,
08,
47,
1E,
D7,
2A,
38,
2B,
F8,
0A,
1E,
F8,
C4,
AF,
0D,
EF,
C4,
F1,
F9,
0A,
E0,
E3,
31,
06,
CF,
DA,
F1,
D6,
E2,
D2,
24,
1A,
D2,
14,
2D,
02,
FA,
23,
38,
09,
12,
08,
15,
FB,
DF,
16,
E7,
D0,
F5,
E5,
F9,
C9,
EE,
18,
E3,
0B,
DF,
E4,
14,
D0,
17,
08,
FD,
D5,
F8,
F3,
0B,
19,
2F,
29,
41,
2B,
FB,
12,
F6,
F0,
D4,
02,
0A,
F9,
F3,
19,
F6,
F2,
17,
0F,
F1,
04,
21,
20,
37,
19,
DD,
D4,
4E,
71,
18,
1B,
CE,
8A,
D9,
E7,
1D,
E9,
00,
D7,
30,
4C,
18,
F8,
B0,
81,
09,
3C,
28,
48,
E5,
E4,
E8,
22,
D2,
45,
1B,
CC,
CD,
C3,
2F,
D9,
8F,
AF,
40,
27,
05,
49,
25,
D8,
3D,
1F,
FF,
39,
05,
F0,
E9,
FC,
F7,
E8,
13,
F4,
F5,
E4,
EE,
00,
E8,
D1,
E6,
ED,
E7,
FB,
07,
0D,
02,
01,
17,
1C,
03,
EA,
FD,
23,
DE,
E8,
F7,
FE,
EB,
04,
F9,
2A,
03,
05,
45,
51,
03,
0C,
1B,
2F,
06,
E8,
01,
20,
F5,
E9,
F5,
F4,
10,
FC,
01,
F0,
FA,
E7,
F3,
DD,
F1,
E0,
E1,
DA,
1B,
11,
16,
FE,
10,
1A,
04,
E4,
F2,
18,
E8,
E6,
02,
F2,
F0,
EB,
1E,
2B,
13,
F3,
05,
22,
0F,
1B,
0F,
0D,
1A,
0E,
0C,
2A,
0D,
02,
01,
F5,
DC,
C1,
DF,
CE,
EF,
FF,
EC,
07,
17,
15,
0B,
1C,
40,
41,
F2,
DF,
01,
E3,
D0,
D4,
04,
02,
E0,
07,
1D,
04,
0C,
0F,
31,
2C,
13,
FF,
E8,
D4,
EB,
D9,
DD,
03,
F3,
FB,
18,
1B,
F1,
2A,
43,
0B,
F3,
E5,
BF,
E6,
02,
22,
02,
C6,
1D,
39,
09,
E0,
09,
1A,
32,
0E,
EC,
D1,
CA,
C9,
09,
0B,
F2,
D4,
1C,
1B,
F8,
F0,
03,
11,
0B,
0E,
EF,
D6,
EE,
DE,
1B,
27,
15,
F1,
1D,
25,
21,
EF,
07,
14,
0D,
0B,
E9,
1D,
1E,
09,
FA,
1A,
2D,
09,
01,
2C,
36,
05,
FD,
14,
22,
0E,
F3,
11,
FF,
FF,
FD,
EB,
0C,
EA,
FB,
E8,
03,
02,
01,
04,
FD,
F8,
0C,
F7,
FB,
E2,
E9,
F8,
C6,
E7,
D6,
ED,
EA,
E2,
03,
F3,
F0,
EC,
0E,
1A,
0F,
13,
1E,
12,
EB,
ED,
13,
FE,
E7,
D6,
03,
E9,
DA,
EC,
13,
21,
14,
0D,
1A,
0C,
FD,
FF,
22,
ED,
F6,
DD,
0D,
06,
E8,
FF,
14,
17,
20,
17,
0B,
0F,
FC,
05,
11,
F9,
FA,
FC,
05,
E9,
EC,
01,
13,
FF,
F4,
06,
04,
1E,
0B,
07,
FA,
1D,
09,
DF,
F4,
E1,
15,
0F,
F9,
F5,
15,
02,
DB,
D8,
FB,
20,
FE,
1F,
CB,
FF,
0F,
E6,
03,
C4,
17,
F9,
11,
0B,
2A,
09,
2D,
F4,
ED,
06,
26,
17,
0E,
27,
22,
E7,
00,
F0,
F3,
F2,
2F,
05,
D1,
D8,
38,
EC,
BD,
E8,
26,
E4,
E4,
D6,
11,
07,
F9,
F0,
25,
15,
EF,
E4,
3A,
34,
E6,
F3,
1E,
09,
C4,
E0,
F0,
07,
F2,
0E,
22,
06,
05,
19,
25,
13,
EC,
F4,
1F,
0A,
E7,
04,
0B,
11,
1A,
0E,
F8,
EA,
00,
F9,
36,
C3,
F8,
0D,
FD,
1B,
46,
D7,
6E,
37,
32,
E5,
D7,
E2,
51,
F2,
FB,
D7,
F3,
1D,
FC,
E3,
C6,
1F,
D5,
2E,
2C,
F3,
0C,
00,
0E,
D6,
C6,
E6,
B6,
0C,
D6,
06,
01,
E8,
11,
34,
0A,
D2,
F6,
23,
24,
D0,
EE,
19,
31,
CD,
E8,
28,
47,
F4,
23,
18,
11,
B3,
EF,
22,
20,
B7,
B5,
0F,
29,
C1,
EB,
24,
36,
E4,
01,
12,
02,
E7,
FB,
06,
1C,
D4,
DE,
F9,
02,
BC,
E8,
2C,
30,
E5,
F3,
E6,
E1,
F1,
EC,
03,
EE,
ED,
EC,
F7,
FA,
FC,
EF,
05,
02,
03,
FA,
FD,
F9,
E8,
05,
19,
02,
F9,
F5,
23,
FC,
F4,
09,
2D,
19,
1D,
01,
00,
13,
EE,
08,
11,
06,
F3,
13,
21,
0C,
F0,
19,
2E,
1B,
13,
19,
2B,
07,
F4,
39,
3D,
41,
16,
12,
FB,
F8,
F2,
F2,
E1,
C7,
E1,
08,
12,
DB,
C5,
20,
FC,
31,
2F,
02,
D8,
F1,
0C,
CD,
C2,
C6,
F8,
1E,
03,
F6,
EB,
15,
26,
3E,
20,
F5,
02,
14,
05,
ED,
DC,
DB,
EC,
06,
F4,
CB,
FE,
0F,
E6,
DA,
01,
0C,
16,
08,
FA,
15,
0F,
08,
E4,
D6,
F3,
DF,
FF,
F3,
ED,
01,
18,
EF,
03,
0F,
F7,
1F,
09,
F0,
F9,
FD,
07,
E2,
F9,
FE,
00,
F2,
00,
2E,
41,
15,
16,
30,
26,
2C,
F9;
