; Exported from TinyDetector7Layer
; Shape: (256, 256, 3, 3), Bits: 8
memory_initialization_radix=16;
memory_initialization_vector=
FB,
FA,
02,
FC,
05,
00,
00,
01,
02,
01,
01,
FF,
06,
0B,
FE,
F8,
FE,
FC,
03,
FB,
01,
03,
06,
01,
00,
FC,
06,
FE,
00,
FA,
01,
FB,
02,
F5,
04,
01,
03,
01,
05,
FD,
00,
05,
FB,
03,
F9,
F5,
02,
0A,
FF,
F8,
F3,
FF,
FE,
FF,
FF,
F5,
FD,
FC,
FC,
FF,
FE,
06,
02,
FE,
FB,
00,
FE,
04,
05,
07,
FC,
02,
00,
FE,
FF,
04,
FE,
F9,
FF,
02,
FE,
00,
02,
F8,
FD,
04,
00,
01,
02,
00,
FD,
04,
FB,
00,
FC,
05,
01,
FE,
00,
02,
06,
07,
F9,
06,
03,
FF,
FD,
02,
02,
0A,
FB,
FC,
F8,
F7,
F8,
0A,
FE,
08,
00,
01,
01,
FF,
FF,
FE,
05,
FD,
00,
0C,
02,
F6,
08,
05,
03,
FF,
00,
FB,
00,
FC,
04,
03,
FF,
FF,
06,
06,
03,
05,
FF,
FD,
FF,
00,
04,
02,
FB,
FD,
FE,
04,
F9,
03,
02,
F8,
01,
03,
F4,
03,
05,
FD,
FC,
00,
FF,
0B,
FE,
FF,
08,
05,
FE,
F7,
FE,
02,
00,
FA,
02,
FB,
FC,
03,
FF,
0D,
01,
FD,
FB,
01,
FE,
06,
04,
02,
03,
00,
05,
FD,
00,
00,
FA,
FD,
F9,
FE,
07,
FD,
FE,
FE,
05,
FB,
00,
06,
F9,
02,
00,
FB,
01,
FC,
02,
02,
08,
00,
01,
00,
04,
FB,
09,
03,
FF,
FB,
02,
FF,
FF,
04,
FC,
03,
FD,
02,
04,
FD,
00,
01,
FD,
FE,
03,
FD,
FF,
07,
05,
F7,
03,
FF,
00,
FF,
FE,
05,
FF,
FE,
03,
05,
04,
07,
FB,
0B,
FD,
F6,
FC,
FD,
05,
F8,
F9,
04,
FF,
FF,
FE,
06,
00,
04,
02,
FD,
00,
02,
FD,
F7,
FA,
F9,
FB,
04,
F0,
F9,
F6,
FC,
FB,
03,
00,
F2,
FC,
02,
FB,
08,
00,
05,
FD,
F8,
05,
00,
00,
F9,
01,
00,
FF,
07,
FF,
04,
FA,
04,
08,
08,
FB,
FD,
07,
FD,
00,
00,
FE,
FA,
01,
03,
08,
04,
05,
FF,
F9,
FF,
FD,
07,
03,
FF,
05,
FE,
FC,
07,
F9,
FF,
FD,
FC,
FF,
FC,
02,
04,
F8,
F8,
FC,
FC,
FE,
FE,
00,
01,
FD,
03,
F6,
00,
0A,
FF,
07,
FE,
FF,
00,
FE,
03,
00,
01,
FE,
FC,
06,
FD,
FE,
F8,
FD,
FE,
FB,
FE,
02,
01,
FF,
02,
02,
F9,
FD,
03,
02,
03,
06,
01,
FB,
FC,
F8,
FC,
04,
05,
05,
07,
FE,
FB,
FB,
02,
02,
02,
01,
06,
FC,
01,
F8,
FC,
F6,
FD,
00,
F6,
07,
05,
00,
FB,
05,
02,
03,
05,
03,
06,
06,
07,
01,
02,
04,
03,
00,
01,
FB,
01,
FD,
FB,
01,
FF,
FE,
FD,
03,
00,
01,
01,
F9,
FA,
02,
FD,
06,
FC,
F9,
FC,
07,
01,
F9,
09,
FD,
02,
02,
FF,
FE,
FE,
FE,
FC,
00,
FE,
FD,
FE,
0A,
01,
02,
FC,
01,
F6,
03,
01,
00,
00,
03,
FD,
00,
06,
05,
03,
01,
FF,
05,
06,
FE,
02,
06,
05,
03,
FC,
F7,
00,
FE,
03,
05,
02,
00,
FB,
01,
0D,
06,
FC,
01,
FF,
02,
FE,
FD,
06,
FE,
03,
01,
FE,
05,
FC,
06,
03,
03,
06,
FF,
00,
07,
04,
01,
05,
01,
FC,
02,
03,
FA,
FD,
FF,
00,
04,
02,
03,
06,
05,
FC,
FB,
05,
FC,
FF,
04,
01,
08,
04,
05,
FE,
00,
01,
04,
06,
FF,
05,
00,
FE,
FE,
FD,
0B,
05,
FE,
05,
09,
FB,
03,
FC,
04,
04,
FE,
FD,
FF,
FD,
00,
04,
F7,
FB,
11,
02,
FA,
07,
03,
F9,
03,
01,
FC,
0D,
F5,
12,
FB,
FF,
FF,
FE,
03,
05,
09,
FF,
FA,
01,
FB,
FE,
00,
FB,
FF,
04,
FD,
FD,
07,
F6,
FB,
FD,
FB,
04,
00,
FC,
FD,
02,
FF,
FF,
02,
06,
FD,
03,
FE,
03,
05,
01,
04,
06,
02,
FD,
01,
FE,
FD,
01,
01,
03,
07,
FE,
08,
04,
02,
FF,
FC,
05,
F9,
02,
04,
FF,
F4,
02,
FF,
FC,
06,
FE,
FE,
FE,
FE,
01,
FF,
F8,
F9,
FD,
00,
01,
02,
00,
04,
05,
07,
02,
02,
02,
02,
05,
06,
FF,
01,
FE,
04,
02,
00,
FA,
06,
F9,
F6,
FE,
FE,
08,
FF,
FB,
F4,
04,
FF,
01,
F8,
03,
FF,
08,
F9,
FD,
00,
F3,
F9,
FC,
FC,
0B,
05,
00,
02,
FD,
F4,
FD,
01,
03,
FD,
FF,
FB,
F9,
FD,
F9,
FF,
01,
01,
08,
00,
FD,
FC,
FF,
05,
05,
FB,
03,
00,
07,
00,
FC,
02,
0C,
02,
FD,
FD,
06,
06,
FD,
02,
02,
F9,
04,
FA,
FB,
00,
F9,
01,
00,
04,
09,
01,
05,
07,
FD,
01,
FE,
FE,
FE,
FD,
00,
03,
03,
04,
FB,
08,
FB,
F9,
FF,
FD,
FB,
01,
FD,
04,
F7,
05,
07,
F7,
03,
03,
0A,
0B,
F8,
0A,
09,
01,
07,
05,
F7,
FE,
06,
FA,
01,
05,
01,
02,
FD,
FD,
08,
00,
FD,
FC,
04,
F9,
F6,
07,
FD,
FF,
00,
06,
FE,
FF,
FF,
05,
FE,
FE,
01,
F6,
FD,
01,
F9,
07,
FA,
FD,
FD,
FE,
03,
06,
FD,
01,
00,
FC,
0C,
00,
F8,
00,
F1,
FB,
F9,
F8,
FB,
01,
FB,
FD,
F3,
06,
FC,
FE,
00,
03,
00,
F9,
F9,
FD,
FD,
FD,
FD,
FA,
03,
01,
FA,
FE,
02,
FD,
01,
FF,
FB,
04,
00,
FF,
02,
FE,
03,
07,
02,
00,
FD,
F7,
02,
03,
FD,
06,
02,
02,
03,
02,
FF,
09,
FF,
00,
09,
00,
02,
FB,
04,
FF,
FF,
FB,
05,
04,
F9,
02,
00,
03,
FF,
FE,
FF,
0B,
FF,
FA,
F9,
F5,
FF,
FE,
00,
FE,
FC,
06,
FC,
03,
00,
F7,
F9,
F8,
FA,
FF,
01,
02,
05,
07,
FA,
FF,
FE,
09,
01,
00,
04,
F8,
F3,
FB,
FC,
03,
FE,
04,
04,
09,
0A,
00,
04,
01,
FC,
01,
FB,
FE,
01,
01,
03,
02,
FE,
03,
02,
04,
01,
02,
FA,
FA,
02,
01,
FC,
06,
FE,
09,
06,
03,
F9,
FF,
02,
FB,
0B,
FF,
F8,
FD,
03,
FA,
01,
FA,
F5,
00,
02,
F9,
FE,
06,
04,
02,
01,
02,
05,
01,
FF,
00,
00,
F8,
FB,
FA,
08,
FA,
F9,
02,
05,
01,
05,
08,
F2,
FD,
00,
04,
01,
00,
F8,
FE,
09,
0E,
00,
01,
01,
06,
02,
00,
FD,
01,
00,
06,
FD,
04,
FD,
05,
FE,
01,
02,
FC,
05,
FC,
F6,
F0,
00,
FF,
FA,
02,
01,
01,
06,
00,
04,
03,
FD,
FF,
05,
FC,
03,
07,
02,
FD,
01,
04,
00,
00,
F3,
FC,
F8,
01,
05,
06,
03,
FA,
FE,
00,
09,
03,
0F,
08,
01,
03,
F8,
F9,
FB,
F8,
FF,
06,
FA,
04,
FB,
FC,
02,
07,
FA,
00,
F9,
00,
FE,
FF,
02,
05,
04,
FD,
07,
05,
FE,
01,
01,
FA,
06,
05,
05,
02,
FE,
00,
05,
FE,
06,
08,
FF,
09,
01,
FD,
FB,
07,
FE,
05,
03,
05,
02,
01,
F6,
03,
07,
FB,
FD,
F9,
F9,
FF,
00,
07,
01,
FE,
04,
F7,
FD,
FF,
FA,
FA,
03,
FE,
01,
FC,
01,
FA,
01,
FC,
08,
05,
05,
FD,
07,
FD,
F6,
05,
08,
09,
FE,
FF,
FA,
FF,
00,
01,
01,
FA,
00,
00,
FC,
03,
00,
04,
03,
02,
FA,
FF,
FC,
FB,
F4,
F7,
05,
FE,
F9,
07,
FF,
01,
04,
01,
FF,
F7,
03,
FC,
00,
FD,
FF,
FD,
05,
05,
FF,
FB,
FD,
FF,
FF,
FC,
FC,
F7,
00,
0A,
02,
05,
FF,
FF,
FD,
04,
07,
FF,
00,
06,
06,
FA,
07,
FD,
FD,
FB,
00,
FD,
05,
04,
04,
01,
05,
FE,
FF,
FF,
FE,
09,
00,
FA,
FD,
08,
FA,
FF,
F6,
F9,
00,
FE,
04,
09,
FE,
FD,
FF,
FF,
06,
08,
FE,
F9,
FF,
F7,
02,
02,
00,
08,
00,
00,
03,
F8,
01,
04,
F7,
FE,
06,
07,
FA,
FB,
FD,
F6,
04,
00,
03,
03,
03,
02,
FB,
09,
0E,
FF,
FA,
07,
08,
02,
06,
FE,
FA,
FA,
F9,
01,
FD,
03,
01,
02,
FC,
FA,
04,
FD,
F4,
FC,
05,
FE,
FA,
04,
FC,
00,
02,
01,
FD,
04,
FA,
07,
04,
04,
FB,
09,
02,
03,
F9,
01,
FD,
03,
00,
01,
07,
FD,
0A,
FC,
FC,
FF,
08,
F8,
02,
05,
00,
FF,
FB,
04,
00,
FF,
03,
02,
04,
03,
00,
FD,
FF,
F9,
FA,
FA,
FE,
00,
0F,
00,
FE,
00,
03,
FF,
03,
F8,
00,
01,
01,
00,
06,
FD,
FE,
02,
01,
F9,
FD,
FE,
FE,
FC,
02,
FA,
02,
02,
FE,
FE,
FB,
FA,
FF,
FE,
04,
F8,
FA,
03,
03,
06,
FD,
05,
00,
07,
01,
FB,
FE,
03,
04,
FD,
08,
FD,
01,
02,
FD,
07,
FA,
09,
FF,
03,
04,
FA,
01,
FF,
FA,
FD,
FE,
FE,
02,
00,
05,
08,
02,
01,
FC,
05,
F9,
F8,
FB,
F8,
00,
FB,
FE,
FB,
FE,
0B,
FB,
FB,
FB,
04,
03,
00,
02,
09,
FE,
00,
01,
FF,
FA,
04,
03,
02,
06,
04,
06,
FE,
01,
FD,
05,
00,
04,
05,
FF,
FA,
FC,
FC,
01,
04,
04,
FE,
09,
03,
04,
03,
00,
FC,
01,
00,
03,
09,
01,
FE,
FC,
04,
F9,
F5,
FF,
FF,
01,
01,
FA,
F4,
FC,
06,
00,
06,
03,
F8,
01,
02,
FB,
03,
FE,
06,
05,
00,
02,
04,
02,
FA,
04,
09,
FE,
02,
06,
06,
01,
FF,
FE,
0A,
05,
00,
0E,
02,
FF,
FA,
04,
03,
09,
02,
FA,
FE,
FB,
FA,
05,
FF,
FF,
01,
FE,
01,
FD,
FD,
F9,
02,
FD,
FC,
07,
FC,
00,
FF,
02,
04,
FA,
05,
FD,
FE,
00,
FE,
05,
04,
02,
FF,
FD,
08,
FC,
03,
00,
05,
06,
04,
08,
0A,
FE,
01,
06,
06,
F6,
02,
FD,
06,
03,
FA,
FC,
FC,
07,
0B,
0A,
04,
02,
F8,
FF,
FE,
03,
FA,
04,
F9,
00,
02,
01,
07,
FD,
02,
FA,
03,
0B,
FD,
03,
06,
08,
FF,
02,
03,
00,
01,
04,
01,
04,
01,
07,
06,
04,
F8,
FB,
06,
01,
FA,
07,
F7,
FE,
FD,
04,
FC,
FD,
04,
01,
FF,
FE,
04,
FF,
F8,
07,
FD,
01,
07,
01,
03,
03,
07,
FC,
08,
FF,
FE,
08,
06,
03,
00,
FD,
FA,
00,
FD,
FF,
FD,
04,
FA,
FE,
FA,
FC,
00,
07,
06,
03,
02,
01,
00,
01,
02,
00,
FE,
02,
FF,
04,
FE,
01,
06,
FB,
FD,
01,
03,
01,
04,
08,
06,
00,
FF,
FB,
08,
06,
FA,
01,
FE,
FF,
07,
03,
02,
05,
FD,
03,
FD,
FF,
FE,
02,
FF,
FE,
FD,
03,
02,
07,
FF,
04,
04,
09,
08,
01,
FF,
02,
FD,
F5,
FA,
FD,
FA,
00,
F9,
08,
02,
00,
FE,
02,
06,
FF,
FC,
FF,
FF,
FE,
00,
04,
05,
FE,
0B,
04,
09,
01,
00,
08,
05,
02,
FD,
F7,
FE,
FC,
FB,
01,
FE,
06,
FF,
FF,
01,
01,
F5,
FF,
FD,
FD,
03,
FF,
FE,
05,
01,
FB,
07,
FD,
01,
07,
FD,
02,
FD,
FD,
F6,
FE,
03,
FD,
0A,
FA,
02,
FF,
00,
FF,
04,
FB,
01,
FA,
FE,
06,
F4,
F3,
FF,
F9,
FE,
FA,
00,
07,
04,
FF,
FC,
02,
FD,
02,
F9,
00,
03,
03,
02,
04,
FF,
01,
FB,
00,
02,
00,
04,
FF,
04,
03,
FB,
FE,
04,
F9,
F2,
FF,
02,
03,
04,
04,
03,
F8,
01,
02,
01,
04,
FC,
05,
07,
FF,
06,
FE,
00,
FC,
09,
FF,
00,
05,
07,
0D,
09,
01,
02,
02,
07,
00,
FF,
03,
FC,
F8,
FC,
FB,
0C,
04,
05,
FE,
FF,
00,
FD,
07,
FB,
02,
03,
04,
00,
FE,
05,
FB,
02,
0D,
01,
FD,
06,
02,
08,
04,
05,
F8,
00,
07,
00,
FF,
01,
03,
FD,
04,
05,
F6,
09,
FB,
07,
00,
04,
F9,
FD,
FF,
FD,
06,
02,
02,
FE,
F8,
FC,
05,
05,
03,
09,
0A,
02,
FD,
FF,
00,
02,
03,
FF,
04,
02,
01,
FE,
08,
06,
00,
FD,
01,
FF,
FF,
FC,
FE,
02,
FA,
FD,
00,
05,
00,
FE,
F8,
01,
FC,
05,
01,
FE,
00,
07,
03,
FD,
02,
0A,
01,
FD,
04,
00,
FE,
04,
FF,
01,
FC,
FF,
FA,
FD,
03,
02,
FA,
01,
FE,
FD,
FD,
01,
04,
FA,
01,
06,
FF,
00,
00,
FC,
01,
00,
01,
01,
05,
03,
0B,
01,
FF,
01,
04,
01,
06,
04,
00,
02,
F9,
00,
FC,
03,
00,
0B,
07,
08,
04,
FF,
04,
04,
FC,
FA,
06,
03,
01,
F8,
FB,
02,
04,
F9,
F9,
FE,
04,
FD,
FF,
01,
01,
04,
FD,
01,
10,
02,
05,
FE,
01,
06,
02,
F8,
03,
FD,
04,
03,
FC,
02,
0A,
FA,
04,
01,
02,
03,
02,
FD,
00,
02,
FA,
FE,
F2,
FF,
02,
FD,
FF,
03,
07,
FC,
03,
FF,
06,
01,
00,
FA,
FB,
FE,
FC,
F8,
01,
05,
05,
06,
01,
FF,
FD,
F9,
03,
08,
08,
FF,
FC,
05,
07,
FE,
04,
F9,
F8,
FE,
FB,
FD,
01,
F6,
FB,
FB,
FA,
0A,
F7,
FF,
FF,
FB,
FF,
03,
F6,
0B,
F9,
FD,
0A,
FB,
FE,
04,
F6,
04,
00,
06,
00,
04,
FB,
FF,
05,
04,
01,
05,
03,
03,
FE,
02,
07,
02,
05,
01,
05,
FF,
01,
01,
FE,
03,
FF,
FE,
03,
FF,
02,
07,
01,
01,
03,
FF,
00,
01,
02,
00,
FE,
FF,
FB,
FE,
00,
FE,
FD,
F8,
00,
03,
F9,
F5,
00,
FF,
FC,
FF,
02,
FF,
05,
FF,
02,
FB,
FD,
00,
F9,
FB,
FA,
F8,
F6,
02,
02,
08,
00,
06,
FB,
07,
00,
FF,
0A,
FE,
FC,
08,
FD,
FD,
FF,
FB,
FD,
03,
FE,
06,
00,
FD,
FA,
FB,
FF,
F4,
06,
03,
01,
F0,
00,
00,
FF,
FF,
00,
FD,
FE,
02,
F9,
F6,
01,
08,
01,
FA,
01,
FE,
06,
02,
FD,
0B,
07,
FF,
03,
07,
07,
FA,
08,
06,
F9,
0B,
F8,
07,
06,
FA,
FA,
02,
02,
03,
08,
F9,
06,
09,
FB,
FA,
F9,
04,
00,
FB,
01,
03,
FE,
FE,
0A,
00,
05,
01,
FF,
03,
FF,
04,
FE,
F9,
F6,
02,
02,
FD,
02,
F9,
01,
09,
00,
08,
02,
01,
02,
FE,
FD,
00,
FB,
04,
FE,
FA,
05,
FE,
FD,
F8,
06,
FC,
FE,
FB,
04,
07,
02,
0C,
07,
00,
06,
08,
09,
FC,
FA,
FC,
04,
FF,
00,
00,
0B,
00,
01,
02,
FE,
F6,
FF,
00,
FD,
F8,
FD,
FE,
00,
02,
FD,
00,
FF,
0A,
FC,
03,
F8,
F8,
FF,
01,
FB,
FD,
01,
FF,
FE,
F9,
03,
F9,
08,
03,
FD,
F5,
E9,
FC,
04,
F8,
F5,
03,
FD,
01,
F2,
00,
FB,
00,
FC,
FD,
02,
01,
08,
F9,
FB,
07,
07,
FD,
01,
01,
04,
02,
05,
FC,
FA,
F9,
F5,
FC,
FD,
F3,
FB,
08,
FE,
02,
F9,
FD,
0B,
F9,
F8,
01,
0D,
04,
07,
FB,
07,
FF,
00,
FA,
00,
FB,
00,
FD,
F5,
05,
00,
F9,
FA,
FD,
02,
08,
03,
FD,
0E,
06,
FA,
02,
FD,
FF,
09,
FD,
F8,
04,
FC,
00,
01,
02,
00,
00,
08,
03,
FF,
F6,
00,
03,
00,
F8,
FE,
FD,
F7,
F5,
FB,
FA,
FB,
FE,
FA,
03,
FE,
04,
FC,
FB,
02,
FF,
FB,
F3,
00,
F8,
F8,
00,
F9,
FD,
FD,
02,
FD,
FE,
FB,
00,
FA,
01,
05,
02,
06,
0A,
FD,
09,
06,
03,
00,
03,
01,
FA,
01,
0A,
FB,
00,
02,
03,
01,
02,
01,
FB,
F4,
10,
FC,
04,
FE,
07,
FB,
04,
01,
FF,
00,
06,
FE,
02,
07,
00,
FC,
00,
02,
01,
FB,
F7,
05,
03,
05,
F8,
02,
01,
FE,
03,
01,
FB,
FD,
06,
03,
02,
01,
FF,
FA,
FF,
07,
F8,
04,
00,
F2,
FE,
F4,
02,
00,
FF,
04,
07,
06,
FE,
F9,
F9,
F8,
FD,
FC,
FD,
00,
07,
10,
F7,
FA,
05,
03,
04,
F8,
FE,
FE,
05,
ED,
F7,
04,
06,
F2,
FB,
03,
F4,
FD,
F9,
FE,
FF,
04,
FF,
FC,
04,
02,
FC,
F8,
FC,
FE,
04,
0B,
FA,
04,
01,
F6,
F9,
05,
FB,
01,
02,
08,
00,
04,
04,
FE,
FC,
07,
FF,
07,
FC,
04,
F8,
02,
00,
F5,
02,
FD,
F9,
01,
06,
00,
02,
F7,
00,
FC,
03,
02,
01,
FA,
FC,
FC,
01,
02,
00,
FE,
FE,
01,
FB,
05,
FD,
00,
06,
05,
01,
FF,
03,
0B,
03,
02,
FA,
00,
04,
FB,
FD,
FD,
F9,
F1,
FB,
05,
EF,
FD,
F8,
FE,
F7,
05,
00,
FA,
00,
0A,
02,
05,
03,
FC,
FD,
02,
05,
0B,
03,
00,
08,
02,
FC,
00,
00,
F2,
FA,
01,
02,
02,
FC,
02,
07,
03,
F8,
03,
03,
FF,
FE,
05,
00,
FE,
F3,
F7,
F7,
F8,
FE,
FD,
04,
02,
08,
02,
01,
01,
03,
0A,
02,
03,
02,
03,
04,
01,
FE,
FB,
09,
02,
FF,
06,
F7,
01,
FD,
FF,
F1,
05,
FD,
F9,
FE,
01,
FE,
FF,
08,
03,
05,
08,
FC,
08,
01,
FE,
FB,
EE,
FB,
F1,
FF,
01,
01,
05,
FE,
FC,
02,
03,
05,
02,
F8,
FF,
01,
03,
04,
06,
00,
09,
FD,
02,
FD,
06,
FE,
FE,
01,
FC,
03,
0A,
FF,
FF,
05,
0B,
07,
02,
FE,
FC,
F6,
F8,
09,
FC,
01,
04,
02,
FB,
03,
FD,
FB,
FB,
FB,
00,
FA,
07,
00,
04,
0E,
08,
00,
EF,
F9,
03,
F8,
03,
04,
03,
F6,
09,
00,
05,
F9,
F5,
03,
FC,
FC,
08,
FD,
FB,
00,
FD,
FE,
FB,
FE,
FE,
07,
06,
00,
02,
F6,
F7,
02,
FD,
03,
FE,
01,
FB,
FD,
00,
FB,
01,
04,
FF,
FD,
04,
00,
05,
FC,
00,
F9,
01,
FA,
00,
00,
FE,
F9,
00,
03,
03,
07,
FE,
FB,
F9,
F9,
FB,
04,
FE,
F9,
F7,
03,
FD,
05,
00,
FF,
01,
00,
FE,
0B,
08,
FC,
FC,
01,
F3,
F8,
02,
F7,
0C,
00,
F8,
FE,
F9,
00,
01,
F6,
FF,
00,
02,
00,
01,
04,
FF,
F6,
FD,
F6,
FC,
F9,
FF,
FB,
04,
00,
00,
F8,
03,
00,
F9,
03,
05,
01,
03,
FF,
02,
F4,
FE,
F8,
FC,
06,
00,
01,
00,
07,
00,
FB,
00,
FD,
00,
FA,
FA,
00,
FD,
07,
FE,
FE,
FD,
04,
FD,
FB,
FB,
F7,
F6,
03,
01,
0B,
03,
FD,
0B,
02,
FC,
01,
FF,
01,
09,
00,
FF,
00,
FE,
0A,
FC,
04,
FE,
FC,
00,
F6,
00,
F5,
FD,
01,
04,
FD,
FD,
F6,
F7,
00,
02,
FD,
FC,
05,
F7,
02,
0B,
F8,
05,
FC,
01,
FE,
FC,
FE,
FE,
07,
06,
0F,
01,
FD,
FE,
FE,
09,
02,
F4,
F6,
02,
04,
FB,
FE,
FE,
07,
FE,
00,
FC,
FF,
F9,
FB,
F8,
F9,
FB,
FC,
FD,
00,
04,
00,
FD,
FD,
06,
F7,
F3,
FB,
06,
F6,
FE,
03,
FF,
03,
FF,
00,
F5,
05,
00,
FD,
F9,
08,
00,
03,
F9,
FA,
06,
F9,
05,
04,
FB,
FF,
01,
FE,
FF,
02,
F7,
FB,
FD,
FA,
FD,
01,
FE,
07,
F9,
05,
06,
F9,
F7,
06,
FC,
FF,
05,
00,
FF,
09,
FF,
06,
FC,
06,
FC,
01,
0C,
F9,
FB,
00,
FE,
02,
03,
FF,
00,
00,
03,
01,
00,
01,
FE,
00,
06,
F9,
02,
0A,
FC,
F9,
06,
01,
00,
FA,
F4,
00,
F6,
04,
FE,
01,
FE,
11,
0A,
00,
FF,
01,
FB,
EC,
F5,
02,
00,
FF,
FB,
05,
01,
FF,
EF,
F9,
FE,
00,
01,
03,
04,
FD,
08,
FB,
FA,
03,
02,
FB,
FE,
05,
0C,
04,
01,
F2,
FF,
09,
FD,
09,
FF,
FF,
F5,
F6,
FC,
03,
08,
05,
FB,
FC,
FA,
00,
03,
FE,
10,
06,
02,
04,
F2,
00,
FF,
FB,
FA,
FF,
FB,
FE,
F6,
FA,
06,
F5,
0C,
F8,
00,
FB,
04,
00,
FF,
01,
05,
00,
FD,
07,
05,
FD,
FE,
0B,
0F,
FF,
FE,
05,
06,
FD,
FE,
05,
F9,
FC,
04,
F6,
FB,
01,
F9,
F7,
06,
01,
F7,
02,
FA,
00,
FA,
FE,
02,
02,
05,
07,
FD,
F8,
F9,
0F,
05,
FD,
09,
00,
FE,
03,
FD,
F9,
FD,
09,
FD,
00,
EE,
FC,
FD,
01,
00,
05,
0A,
02,
04,
FF,
05,
03,
04,
F8,
FA,
FD,
FC,
04,
00,
01,
F8,
FA,
FF,
02,
FA,
F6,
03,
00,
06,
FB,
03,
FD,
03,
FE,
FE,
05,
00,
FE,
FA,
03,
FF,
FD,
FA,
FD,
FB,
05,
FE,
F8,
FC,
FD,
F6,
FD,
05,
FD,
FB,
04,
01,
08,
FD,
F1,
04,
0B,
F2,
06,
04,
FB,
04,
04,
08,
03,
0D,
02,
06,
07,
02,
FF,
03,
05,
FC,
05,
01,
FE,
03,
06,
FE,
01,
08,
FA,
FE,
0B,
05,
08,
FB,
03,
04,
01,
FC,
02,
03,
09,
03,
0A,
01,
03,
03,
FA,
F6,
F8,
F6,
F8,
FA,
09,
0B,
FB,
F4,
FB,
FE,
FF,
FD,
08,
04,
FA,
F9,
07,
07,
06,
FE,
05,
F6,
F9,
01,
02,
03,
09,
01,
01,
05,
FC,
FC,
F8,
01,
FA,
04,
02,
F5,
05,
0B,
FE,
F7,
FD,
F9,
FC,
F5,
03,
FC,
02,
00,
0D,
00,
00,
F7,
F7,
01,
FD,
04,
02,
03,
FA,
FF,
FB,
02,
FA,
0C,
F9,
FC,
FB,
FE,
00,
03,
02,
03,
03,
FE,
FF,
FE,
F8,
FF,
F7,
F2,
03,
07,
07,
01,
06,
FA,
05,
00,
07,
01,
07,
FE,
FA,
01,
0B,
FE,
08,
FF,
F9,
FD,
05,
F4,
FD,
F1,
01,
01,
FD,
03,
01,
01,
04,
F5,
F5,
02,
FD,
01,
01,
00,
FC,
FC,
0F,
FD,
03,
FA,
FC,
FB,
FB,
00,
F9,
05,
F7,
F7,
F7,
FF,
FF,
FF,
02,
FC,
FD,
FC,
FA,
FC,
F7,
FF,
FD,
03,
F4,
01,
F6,
01,
FD,
FF,
04,
01,
03,
02,
06,
00,
FB,
09,
00,
FE,
FC,
FD,
06,
FD,
06,
07,
0A,
04,
0A,
08,
F6,
F9,
F8,
09,
04,
09,
02,
F5,
04,
06,
FF,
F9,
FC,
05,
F7,
00,
F8,
FC,
03,
06,
01,
04,
00,
02,
09,
05,
FF,
FD,
FB,
FA,
00,
02,
FD,
F8,
FB,
F8,
02,
FF,
F9,
FF,
FE,
F1,
05,
02,
F5,
02,
05,
03,
01,
FA,
FF,
04,
FE,
FE,
07,
03,
FD,
F7,
F8,
07,
FC,
FC,
03,
FA,
FB,
03,
F4,
FE,
F6,
FD,
04,
01,
0C,
03,
03,
02,
FE,
01,
FD,
F9,
FD,
04,
02,
02,
FF,
0A,
00,
03,
FE,
FA,
FA,
00,
04,
FC,
02,
03,
06,
02,
04,
FE,
0A,
FE,
01,
F6,
F8,
07,
07,
02,
00,
03,
03,
01,
FF,
F8,
FF,
03,
04,
07,
06,
FE,
06,
07,
F9,
05,
00,
F8,
01,
05,
03,
FF,
04,
05,
01,
FD,
03,
09,
04,
F4,
01,
06,
FD,
04,
03,
05,
00,
01,
00,
01,
00,
FF,
01,
FB,
06,
0F,
FC,
FF,
FF,
FE,
F9,
07,
01,
05,
04,
FD,
05,
FE,
01,
02,
00,
FC,
06,
FF,
03,
09,
FC,
05,
02,
FB,
04,
F8,
0B,
FF,
05,
FF,
00,
FD,
04,
03,
01,
FC,
F8,
FE,
FD,
0A,
06,
01,
F7,
02,
F8,
FE,
08,
00,
FE,
06,
07,
0C,
FE,
FE,
F6,
06,
F9,
F8,
F4,
00,
FF,
03,
00,
02,
02,
05,
FB,
FC,
FA,
FC,
F8,
FC,
FD,
00,
02,
01,
01,
09,
0A,
F6,
FB,
FC,
F5,
FF,
FB,
FD,
06,
FF,
02,
03,
04,
05,
07,
F4,
FC,
07,
FD,
FF,
FF,
05,
FF,
FF,
03,
03,
02,
09,
04,
FF,
08,
03,
FD,
FA,
FE,
FE,
F8,
FD,
07,
FE,
06,
00,
08,
F6,
FE,
00,
F2,
FE,
FC,
01,
FD,
07,
02,
00,
FA,
FD,
08,
F9,
06,
01,
01,
04,
F9,
0E,
FA,
F4,
F3,
F2,
FF,
01,
FE,
07,
01,
F9,
01,
FD,
F2,
FA,
01,
02,
0A,
FD,
F7,
FD,
01,
F5,
F3,
06,
00,
FC,
08,
05,
08,
07,
FD,
F9,
FA,
F4,
F7,
04,
FE,
03,
0A,
01,
0E,
04,
06,
02,
FF,
FD,
FB,
F6,
03,
F7,
FD,
03,
01,
06,
FD,
FE,
FF,
F9,
09,
FC,
F2,
07,
03,
FC,
FE,
01,
04,
F9,
F9,
F4,
F5,
F9,
05,
FB,
08,
FA,
01,
09,
01,
03,
FC,
F6,
01,
00,
02,
03,
05,
02,
00,
FF,
02,
FF,
00,
01,
F7,
FD,
FF,
02,
FA,
FB,
FB,
0C,
00,
08,
09,
FF,
FA,
F5,
05,
00,
FC,
FF,
F8,
01,
FC,
00,
FF,
06,
FE,
00,
04,
04,
FE,
01,
FD,
00,
FA,
FD,
F6,
FB,
0A,
01,
01,
08,
07,
02,
05,
FC,
FC,
02,
05,
02,
FC,
FD,
02,
F9,
FF,
05,
FD,
03,
FF,
07,
05,
00,
08,
05,
FC,
00,
FF,
FE,
03,
03,
0B,
02,
0A,
07,
FD,
03,
02,
02,
FF,
00,
FF,
09,
00,
03,
FB,
F9,
F4,
FC,
00,
05,
02,
06,
F9,
F3,
FD,
08,
00,
02,
0E,
0D,
04,
0A,
0A,
02,
05,
FA,
FF,
FD,
06,
FE,
05,
F3,
00,
07,
FF,
01,
04,
09,
04,
01,
04,
03,
FE,
02,
F6,
FB,
FC,
F7,
02,
01,
FF,
FB,
FC,
FF,
00,
03,
FA,
FC,
0B,
06,
09,
01,
03,
01,
00,
01,
FD,
04,
04,
F7,
F0,
F9,
F4,
F9,
00,
FD,
FC,
FB,
03,
00,
03,
0A,
FF,
00,
07,
FD,
FB,
04,
05,
00,
08,
0C,
00,
FA,
FD,
05,
FE,
03,
01,
01,
FD,
FF,
06,
03,
00,
07,
F3,
02,
FF,
0D,
01,
FD,
02,
04,
FE,
00,
FC,
FA,
01,
F9,
04,
00,
FA,
F8,
03,
02,
02,
FC,
01,
FB,
07,
F7,
FB,
FB,
01,
07,
FF,
FD,
F4,
01,
FE,
FE,
01,
03,
09,
09,
FD,
F7,
00,
FD,
FF,
02,
00,
04,
02,
FC,
FB,
F9,
0B,
F8,
F7,
09,
F7,
FA,
FE,
FE,
FC,
F5,
FA,
05,
EB,
F8,
0A,
F7,
FD,
FC,
F6,
FF,
FD,
FE,
F9,
FE,
04,
02,
F9,
03,
05,
02,
01,
03,
F7,
FD,
01,
08,
00,
03,
FF,
02,
FD,
FE,
FB,
FC,
FA,
02,
01,
FD,
05,
06,
FB,
F6,
01,
FF,
FD,
01,
FD,
FD,
02,
04,
F6,
F9,
07,
05,
FF,
F9,
FD,
02,
FE,
FD,
09,
0C,
FA,
FD,
0A,
FD,
00,
FE,
07,
F8,
07,
05,
03,
FF,
01,
FD,
02,
F8,
06,
05,
FF,
FD,
FA,
F9,
FB,
FF,
03,
FB,
F5,
FE,
FC,
00,
FB,
03,
FB,
FC,
07,
03,
FE,
02,
F4,
00,
07,
FD,
00,
F9,
08,
03,
F8,
00,
F9,
F9,
0C,
F7,
F6,
FB,
0A,
00,
01,
01,
04,
FF,
FD,
01,
F9,
FF,
FF,
FE,
FA,
00,
FC,
0B,
FD,
FE,
03,
0A,
FC,
06,
07,
FF,
FC,
F7,
00,
01,
03,
03,
FB,
05,
F4,
04,
F9,
FC,
FD,
FE,
03,
00,
01,
11,
FF,
FE,
0A,
0A,
F1,
03,
F9,
07,
FD,
F4,
FD,
F6,
FB,
03,
FA,
F6,
FD,
05,
05,
01,
0C,
05,
02,
F8,
FF,
01,
00,
FC,
F8,
FB,
FB,
06,
06,
01,
02,
0C,
03,
FE,
03,
FD,
F7,
FE,
F8,
03,
FA,
FD,
02,
09,
01,
09,
FA,
F2,
01,
FA,
FD,
03,
01,
02,
02,
FB,
09,
00,
02,
04,
05,
03,
FB,
00,
01,
00,
08,
FD,
FC,
00,
FA,
FF,
02,
FD,
02,
F7,
FD,
00,
FB,
FC,
F4,
FE,
02,
FE,
03,
F9,
FB,
FE,
04,
02,
FF,
FF,
00,
F4,
02,
00,
FF,
FC,
FD,
FC,
FB,
01,
04,
FA,
F8,
FE,
FD,
04,
FE,
00,
FC,
04,
F8,
04,
01,
FC,
FA,
06,
FF,
05,
05,
FC,
0A,
01,
FC,
FE,
0C,
00,
FF,
06,
03,
02,
05,
F5,
FF,
07,
FC,
06,
06,
0B,
FD,
04,
F5,
FF,
09,
00,
06,
01,
02,
01,
F6,
F8,
0A,
03,
07,
04,
FE,
06,
F6,
FD,
FB,
00,
FC,
05,
FD,
0A,
FE,
FC,
04,
02,
FE,
02,
F8,
F4,
00,
01,
F9,
FF,
FF,
04,
02,
F7,
02,
FB,
FA,
FE,
04,
FD,
FF,
00,
08,
FF,
05,
02,
FA,
FD,
03,
05,
00,
FF,
06,
00,
FC,
FF,
02,
02,
FC,
05,
06,
09,
FB,
00,
F6,
F8,
FF,
0A,
F9,
04,
FB,
04,
00,
FE,
FE,
01,
05,
04,
FF,
02,
FA,
00,
04,
07,
F9,
FC,
05,
FB,
FC,
0A,
03,
03,
00,
FD,
FF,
FC,
FB,
F9,
FA,
FD,
FC,
FF,
FF,
01,
05,
FD,
F9,
00,
06,
FE,
04,
02,
0E,
F6,
FA,
01,
07,
08,
04,
FD,
01,
02,
FC,
00,
FF,
FE,
F9,
02,
09,
FC,
00,
01,
02,
FB,
FF,
FD,
F5,
FB,
FD,
FB,
04,
00,
FA,
02,
FF,
FD,
0A,
FD,
FF,
05,
04,
00,
F8,
05,
FB,
06,
03,
00,
FF,
04,
01,
FF,
01,
FE,
0C,
F8,
0B,
FF,
00,
FD,
01,
08,
04,
FE,
04,
00,
03,
06,
03,
FE,
02,
00,
05,
07,
03,
02,
00,
07,
FC,
03,
FE,
FE,
00,
FB,
06,
06,
05,
FA,
02,
FA,
FF,
F7,
0A,
FE,
FE,
03,
FE,
FE,
01,
01,
01,
0A,
03,
03,
FF,
F7,
FA,
04,
04,
FE,
FE,
FC,
FE,
FF,
06,
F9,
00,
01,
F6,
03,
F8,
06,
FF,
FE,
FC,
F4,
10,
03,
FF,
FE,
02,
04,
05,
04,
04,
08,
02,
FB,
FD,
02,
01,
03,
FE,
01,
FB,
01,
F7,
FC,
F4,
08,
08,
04,
0B,
01,
FF,
FE,
FD,
F9,
04,
FF,
EF,
07,
03,
F9,
FD,
FA,
FE,
00,
F7,
FE,
00,
06,
07,
F8,
04,
FD,
07,
FE,
F3,
F9,
0B,
02,
FE,
00,
FF,
FE,
01,
03,
02,
02,
F5,
00,
FD,
FD,
01,
FC,
00,
08,
FA,
0B,
FC,
00,
02,
04,
00,
03,
FF,
08,
FC,
0B,
FB,
01,
04,
FA,
03,
FE,
F8,
FC,
02,
FA,
FE,
01,
FD,
01,
FF,
FD,
09,
05,
FB,
FB,
02,
F7,
F5,
06,
FB,
0A,
01,
05,
05,
04,
00,
05,
01,
F7,
F4,
FF,
01,
FE,
02,
06,
04,
FB,
FA,
02,
FA,
03,
07,
04,
01,
05,
00,
FA,
FE,
03,
02,
00,
FE,
F9,
FF,
FC,
0B,
FE,
FE,
FD,
FD,
FC,
01,
FA,
F6,
FA,
F7,
02,
FD,
03,
01,
0D,
05,
FA,
0D,
FB,
02,
04,
00,
FE,
FF,
FD,
FB,
02,
FD,
FA,
FF,
FB,
07,
FD,
03,
FF,
0B,
FB,
FD,
02,
07,
02,
01,
F8,
04,
00,
05,
00,
04,
FF,
04,
00,
07,
0B,
01,
06,
FA,
F9,
09,
06,
03,
FA,
04,
00,
01,
04,
FC,
0A,
06,
FA,
FF,
F0,
08,
F9,
F8,
FF,
F8,
FB,
FD,
02,
F6,
FD,
FC,
01,
0A,
FC,
01,
08,
FF,
FE,
01,
02,
01,
04,
FC,
03,
01,
06,
04,
01,
00,
F6,
02,
FC,
00,
00,
FD,
FC,
01,
FF,
09,
00,
FE,
05,
07,
08,
04,
06,
01,
02,
02,
02,
F9,
FF,
FB,
FE,
FF,
F9,
06,
00,
00,
07,
02,
06,
02,
FD,
F7,
F9,
03,
02,
03,
05,
F9,
00,
FA,
05,
F9,
01,
01,
FF,
01,
FA,
01,
FF,
FE,
FB,
06,
03,
08,
00,
0E,
FE,
01,
FC,
05,
04,
FA,
02,
FD,
00,
03,
F3,
FD,
FE,
F6,
FF,
06,
FB,
00,
07,
08,
FF,
00,
01,
09,
FC,
FF,
05,
FC,
0D,
F7,
02,
F8,
FF,
FF,
03,
FE,
00,
03,
01,
04,
FE,
FA,
FF,
04,
FF,
01,
02,
FB,
07,
FC,
FA,
02,
FE,
05,
09,
02,
FE,
FD,
F9,
02,
01,
03,
00,
00,
0D,
03,
06,
02,
F9,
05,
FC,
0C,
01,
F8,
FB,
05,
FD,
FB,
FC,
FD,
F6,
FF,
FE,
05,
FD,
00,
06,
07,
FE,
01,
FA,
03,
04,
FE,
03,
03,
FC,
02,
00,
FE,
00,
FC,
FE,
FF,
FC,
07,
FA,
01,
FF,
FE,
03,
01,
02,
08,
FD,
F9,
06,
00,
FB,
FF,
FF,
04,
FD,
FA,
09,
FC,
FA,
00,
01,
FB,
FC,
03,
FF,
FD,
F9,
0A,
02,
06,
04,
FF,
01,
06,
FE,
F3,
05,
02,
0A,
FE,
FA,
FB,
FD,
F6,
FA,
FA,
FA,
FD,
08,
01,
FF,
04,
FD,
01,
FA,
00,
05,
FD,
FF,
05,
FD,
0C,
09,
FB,
FA,
04,
07,
FF,
07,
09,
FD,
04,
09,
06,
F7,
05,
08,
F6,
07,
03,
FD,
02,
03,
04,
FE,
F9,
F8,
FA,
FC,
FD,
FD,
0B,
03,
FD,
01,
03,
FA,
01,
03,
00,
F9,
FA,
FF,
FF,
FD,
01,
03,
FA,
03,
FB,
FB,
FD,
05,
FF,
FF,
01,
FC,
F8,
FE,
05,
F6,
00,
FE,
FF,
03,
02,
02,
02,
F8,
02,
FD,
01,
01,
02,
FD,
00,
FF,
05,
02,
FA,
02,
00,
05,
06,
FD,
00,
F8,
FF,
00,
FB,
04,
FE,
F8,
FF,
00,
F7,
03,
00,
04,
06,
FC,
01,
00,
04,
FB,
FE,
00,
03,
02,
F7,
FD,
FF,
F9,
04,
00,
F9,
04,
04,
08,
0D,
04,
0A,
FD,
FF,
FC,
FC,
FA,
FA,
05,
07,
FF,
FD,
FE,
FB,
FC,
08,
FC,
FB,
00,
04,
08,
00,
FC,
FE,
05,
FA,
01,
01,
05,
08,
05,
02,
FE,
06,
02,
00,
F8,
02,
00,
00,
F9,
03,
F9,
FE,
03,
04,
F4,
01,
FC,
FE,
FF,
F8,
04,
FF,
F8,
05,
03,
F9,
FD,
F8,
FE,
F5,
0A,
FA,
06,
FA,
FE,
FC,
01,
01,
F8,
FF,
0C,
FA,
06,
FB,
05,
0B,
FE,
FD,
F7,
00,
F9,
FE,
FE,
FD,
00,
0B,
00,
FA,
FD,
03,
05,
06,
FF,
06,
00,
07,
FD,
00,
01,
01,
FD,
F7,
FB,
FB,
FB,
FA,
FB,
03,
00,
02,
0B,
FD,
FD,
08,
FB,
F7,
FE,
FD,
FF,
04,
F7,
04,
02,
FA,
FE,
FB,
03,
FE,
F6,
FD,
02,
FE,
FC,
FB,
FC,
FC,
FD,
FB,
FC,
04,
01,
04,
FB,
FD,
01,
F8,
05,
FE,
FF,
03,
FC,
03,
F8,
FD,
F7,
06,
09,
F4,
FD,
07,
06,
F9,
F3,
02,
05,
07,
FD,
FD,
04,
05,
FE,
F8,
FD,
FD,
F9,
F6,
F9,
FD,
FA,
01,
02,
F4,
FC,
02,
FF,
0B,
FD,
07,
01,
FD,
FF,
0A,
01,
08,
FE,
07,
07,
02,
0F,
F8,
FE,
FE,
03,
FA,
02,
08,
FB,
01,
F7,
FE,
F7,
03,
FB,
FC,
03,
FB,
01,
04,
FB,
0A,
00,
02,
01,
F6,
03,
00,
FD,
F4,
FB,
01,
F9,
04,
02,
F9,
FF,
03,
01,
03,
00,
F9,
04,
00,
02,
FB,
FC,
05,
FC,
F4,
FA,
FD,
FC,
FF,
F9,
FE,
02,
05,
F4,
F8,
FF,
00,
FF,
FF,
05,
06,
06,
01,
F9,
FF,
08,
FC,
00,
FE,
FF,
04,
F9,
09,
FF,
F5,
F4,
00,
02,
04,
00,
FD,
01,
06,
FF,
F4,
FD,
04,
02,
F1,
FA,
07,
00,
0C,
0C,
FD,
FE,
FC,
03,
01,
02,
00,
F4,
FE,
01,
FF,
FB,
F2,
FF,
01,
03,
04,
07,
F9,
FF,
FC,
02,
05,
01,
03,
00,
FD,
FF,
02,
00,
FD,
FA,
00,
FA,
06,
01,
FE,
02,
FC,
03,
FF,
FE,
01,
02,
F9,
FB,
FD,
FC,
05,
01,
01,
FC,
07,
FF,
06,
04,
FB,
FE,
06,
F9,
FA,
0A,
01,
F3,
01,
01,
F3,
FE,
01,
F6,
FE,
FF,
F8,
F8,
05,
08,
FC,
03,
07,
FE,
F7,
01,
FF,
02,
F9,
05,
F9,
05,
00,
01,
03,
00,
04,
FD,
06,
00,
0A,
04,
FE,
07,
03,
F9,
0E,
04,
F5,
05,
01,
0B,
03,
FF,
01,
FF,
FF,
02,
05,
FF,
06,
F7,
05,
FC,
F8,
F9,
01,
03,
FF,
FF,
FC,
00,
0B,
00,
FA,
02,
05,
FF,
03,
00,
01,
FF,
F9,
02,
FB,
FE,
FA,
05,
03,
FD,
07,
05,
FE,
02,
FB,
FD,
03,
FD,
00,
05,
07,
08,
FD,
06,
08,
03,
05,
FB,
05,
01,
06,
F9,
FF,
FA,
FF,
03,
04,
06,
01,
00,
04,
01,
FA,
FA,
08,
FC,
F9,
F9,
02,
FD,
FC,
FE,
F7,
FD,
0B,
04,
05,
FD,
02,
01,
03,
FB,
FD,
00,
FE,
FE,
03,
F7,
FE,
FE,
01,
00,
F9,
F9,
05,
00,
FA,
FD,
00,
07,
01,
01,
F5,
06,
06,
EB,
00,
01,
F7,
FE,
06,
FD,
07,
01,
05,
01,
07,
01,
06,
02,
FD,
0B,
F9,
08,
FA,
FB,
FF,
01,
00,
FF,
FE,
02,
FB,
FF,
03,
01,
01,
FD,
07,
FB,
F6,
F7,
FF,
FD,
02,
F4,
07,
FB,
FC,
04,
05,
FC,
FB,
01,
00,
FF,
04,
FB,
FC,
09,
FC,
03,
FD,
FF,
03,
FF,
F9,
01,
FD,
05,
05,
FE,
F8,
FF,
FD,
FB,
FC,
04,
FD,
01,
01,
FB,
FD,
05,
FE,
F9,
F2,
FE,
F6,
F3,
03,
00,
FC,
05,
0D,
01,
F2,
FF,
FE,
FE,
06,
F7,
FB,
07,
06,
F8,
0F,
04,
FC,
01,
05,
FE,
09,
FE,
FF,
02,
00,
FF,
FA,
F9,
FD,
FD,
01,
01,
FB,
08,
00,
FA,
04,
03,
00,
F0,
F9,
F9,
00,
01,
FB,
F5,
00,
08,
FF,
07,
01,
03,
FF,
04,
08,
02,
FD,
FF,
09,
FE,
09,
F9,
FD,
FE,
FE,
08,
FF,
07,
06,
00,
04,
FA,
02,
F4,
FB,
07,
04,
08,
03,
00,
0D,
F8,
0A,
05,
F9,
04,
FE,
FD,
08,
F9,
08,
FC,
03,
06,
05,
F6,
FC,
FB,
02,
FF,
F9,
03,
08,
06,
FB,
01,
03,
03,
03,
FE,
F9,
01,
FE,
FC,
08,
F7,
FC,
FC,
05,
F2,
FE,
FD,
FF,
06,
F3,
01,
07,
01,
07,
06,
FD,
F8,
FB,
FD,
F8,
00,
FF,
00,
FB,
07,
01,
FB,
03,
F9,
FD,
0A,
05,
FB,
06,
FF,
00,
01,
FC,
FB,
F8,
FF,
08,
01,
FB,
FE,
FA,
05,
F8,
08,
04,
02,
FF,
08,
05,
05,
08,
03,
06,
0C,
04,
00,
07,
07,
F6,
FC,
FE,
F7,
01,
05,
F6,
04,
03,
04,
FC,
04,
01,
00,
F7,
03,
FD,
FB,
F9,
05,
FC,
FD,
07,
F6,
01,
01,
04,
FD,
03,
01,
01,
FA,
04,
F5,
FA,
06,
06,
FE,
02,
03,
05,
FC,
FE,
FD,
FF,
F1,
FB,
FF,
01,
03,
00,
02,
FD,
02,
FE,
FF,
00,
F9,
09,
02,
FE,
0D,
0B,
02,
03,
04,
01,
02,
FE,
01,
F9,
FE,
05,
08,
02,
02,
FF,
FB,
00,
01,
01,
FF,
08,
01,
F9,
02,
04,
F7,
08,
01,
FA,
01,
00,
03,
FE,
00,
01,
04,
05,
05,
FD,
03,
03,
FC,
FD,
07,
FC,
F6,
FF,
02,
01,
05,
F7,
03,
FA,
02,
00,
10,
FF,
01,
03,
F2,
FC,
03,
FE,
05,
01,
FA,
02,
02,
06,
02,
01,
05,
F3,
FE,
01,
FE,
FD,
03,
01,
04,
FF,
FA,
00,
02,
06,
F9,
F7,
02,
00,
F7,
F9,
FE,
FB,
FF,
07,
F5,
F9,
07,
FD,
FC,
F9,
FE,
FE,
FF,
F8,
01,
04,
01,
FC,
02,
F7,
03,
FB,
FC,
04,
0B,
04,
04,
FE,
06,
FE,
05,
F8,
FD,
08,
FF,
F9,
F5,
FE,
F5,
02,
FE,
FD,
F9,
F6,
00,
FA,
08,
FC,
FF,
05,
FC,
01,
FF,
FF,
FD,
FC,
FB,
F5,
FE,
08,
F8,
F9,
02,
FE,
04,
FD,
01,
F9,
03,
01,
02,
03,
08,
06,
FC,
00,
FE,
F9,
FB,
FB,
FE,
FD,
03,
FF,
FE,
FF,
05,
FE,
06,
04,
FD,
01,
00,
02,
01,
F6,
04,
02,
04,
F6,
01,
08,
05,
05,
05,
00,
0B,
FA,
F8,
FF,
FA,
FB,
F7,
04,
0C,
06,
FB,
FA,
02,
FE,
F5,
04,
02,
01,
05,
07,
F2,
02,
08,
04,
FC,
06,
02,
08,
01,
00,
01,
FC,
FE,
08,
FA,
F9,
01,
FF,
FA,
0C,
00,
F7,
0B,
09,
0C,
04,
05,
02,
FE,
04,
00,
00,
0A,
FC,
F9,
02,
01,
FF,
FF,
05,
F7,
FD,
FD,
FA,
FE,
00,
F6,
05,
02,
00,
0A,
05,
03,
FD,
03,
04,
F0,
FD,
08,
FF,
FC,
00,
FE,
00,
FD,
FF,
FC,
FE,
00,
FD,
FC,
05,
FF,
05,
FE,
FF,
F9,
02,
F9,
FE,
04,
00,
02,
00,
FF,
FE,
04,
FD,
07,
FD,
01,
F9,
05,
FD,
06,
FB,
03,
FF,
00,
FC,
FC,
F7,
FD,
FE,
FD,
F9,
F6,
FF,
01,
F9,
F9,
01,
07,
00,
02,
07,
F8,
FE,
FC,
F9,
02,
02,
F8,
F9,
08,
0C,
F7,
02,
07,
FB,
06,
07,
05,
07,
FA,
03,
FB,
FE,
05,
00,
07,
03,
FD,
FF,
00,
00,
FE,
FD,
03,
06,
00,
F9,
FE,
FE,
02,
04,
00,
FE,
FC,
FF,
04,
FD,
FD,
06,
FB,
FE,
F7,
04,
F6,
FC,
01,
FF,
00,
09,
0B,
04,
06,
FA,
FA,
03,
08,
0A,
FC,
00,
03,
07,
FA,
FF,
FF,
02,
FA,
F5,
FB,
06,
FD,
F7,
00,
00,
04,
03,
FF,
06,
06,
FD,
01,
02,
01,
F8,
06,
04,
FD,
03,
F9,
04,
0A,
05,
FF,
FF,
04,
FF,
0A,
03,
FB,
01,
FA,
FB,
06,
F7,
FA,
04,
06,
09,
03,
F7,
F9,
FE,
FA,
FE,
FA,
FB,
04,
FF,
FE,
07,
01,
09,
FC,
00,
F8,
FB,
07,
FB,
FE,
FF,
05,
F8,
F5,
FB,
01,
08,
FF,
00,
F5,
05,
FF,
05,
FE,
00,
FC,
F8,
F9,
05,
F8,
F9,
04,
04,
F9,
FD,
F9,
FD,
F3,
F3,
FE,
04,
FD,
05,
FE,
09,
FF,
FB,
0C,
04,
03,
FC,
F6,
08,
FC,
06,
00,
FF,
06,
06,
FF,
FC,
05,
07,
02,
00,
01,
F8,
03,
00,
FC,
F5,
FF,
01,
02,
FC,
01,
00,
05,
05,
01,
FB,
05,
00,
03,
0D,
FC,
F3,
04,
01,
F7,
FE,
04,
FA,
FE,
FA,
FF,
04,
01,
02,
FC,
02,
06,
FC,
FB,
0B,
00,
FC,
FD,
F9,
04,
F8,
FB,
FB,
F7,
FA,
05,
05,
F4,
FA,
01,
FC,
00,
00,
05,
01,
08,
00,
FD,
04,
03,
FC,
FC,
FB,
01,
F4,
FE,
02,
FE,
02,
03,
FD,
FD,
FD,
0A,
02,
FC,
FC,
02,
03,
F9,
01,
04,
FC,
FD,
FA,
FF,
F7,
FB,
FB,
02,
02,
FA,
FD,
FA,
F6,
F6,
04,
FF,
FB,
01,
FF,
FE,
FA,
02,
FB,
F9,
01,
08,
09,
F9,
09,
FF,
F6,
03,
04,
EC,
F3,
07,
FF,
04,
02,
09,
04,
00,
06,
FB,
01,
FC,
F9,
FC,
08,
0B,
01,
FB,
F4,
06,
00,
FD,
05,
FA,
04,
FC,
03,
0D,
FB,
07,
02,
02,
04,
02,
FB,
03,
FE,
01,
FD,
05,
FA,
01,
03,
F1,
FC,
FF,
F3,
04,
06,
07,
04,
FF,
00,
FC,
F6,
FB,
F5,
FC,
02,
02,
02,
02,
FA,
FF,
02,
03,
01,
FE,
01,
FC,
01,
05,
FC,
FB,
02,
08,
FA,
FF,
03,
FC,
02,
FF,
02,
FF,
02,
01,
FC,
FA,
02,
FD,
FB,
00,
FF,
FF,
02,
07,
03,
09,
01,
FA,
00,
FF,
03,
07,
FD,
04,
04,
F9,
FD,
06,
FF,
01,
03,
04,
00,
05,
00,
F8,
F9,
04,
09,
FB,
01,
01,
FF,
00,
05,
FA,
FE,
FC,
03,
02,
FC,
F8,
03,
01,
03,
FF,
FF,
F8,
FD,
F7,
FE,
F6,
FF,
F5,
03,
02,
FD,
05,
F9,
00,
FD,
FD,
02,
01,
02,
03,
0B,
F7,
04,
03,
08,
01,
FE,
FB,
F7,
FD,
F9,
FC,
F8,
FA,
FA,
01,
FF,
00,
04,
FC,
00,
00,
00,
FF,
00,
00,
FF,
02,
FB,
07,
FE,
0A,
03,
02,
FF,
F7,
FC,
06,
F8,
FD,
03,
FF,
01,
0A,
FE,
07,
0A,
04,
01,
01,
00,
04,
FB,
F8,
FE,
FC,
00,
02,
FC,
04,
01,
F6,
0A,
02,
02,
FF,
FF,
03,
03,
F7,
F4,
FD,
F7,
FF,
F7,
01,
FE,
02,
FD,
02,
FF,
00,
01,
01,
00,
FC,
FC,
FF,
FD,
FF,
FC,
04,
FD,
FD,
01,
05,
FE,
01,
FA,
FE,
F8,
FC,
08,
FA,
FA,
FD,
F9,
FF,
04,
FB,
03,
09,
FB,
03,
05,
08,
FD,
01,
06,
01,
FC,
06,
05,
FA,
FB,
FC,
F8,
F5,
00,
F7,
FB,
08,
01,
03,
01,
FF,
FE,
06,
04,
06,
04,
F9,
FB,
FD,
FE,
03,
FD,
04,
04,
00,
FE,
05,
00,
02,
04,
09,
FF,
00,
05,
FE,
05,
03,
01,
F9,
FA,
00,
03,
FF,
FF,
01,
05,
FF,
06,
FB,
F5,
00,
01,
FE,
00,
FD,
FE,
FD,
FD,
FF,
07,
02,
F8,
F9,
F6,
FB,
FA,
FF,
F9,
FA,
01,
04,
01,
06,
FF,
02,
04,
FB,
03,
04,
FE,
03,
05,
FD,
FD,
FE,
FD,
FE,
FD,
02,
F8,
01,
03,
FA,
F9,
FC,
07,
FE,
FE,
08,
02,
FB,
FE,
07,
FA,
01,
06,
02,
07,
FB,
00,
00,
04,
FE,
07,
08,
FC,
FD,
FE,
FF,
FB,
FF,
FC,
FE,
01,
02,
FC,
02,
08,
07,
FF,
FD,
06,
01,
02,
08,
FE,
FA,
FE,
FF,
FE,
05,
00,
FE,
02,
01,
02,
02,
02,
F3,
FD,
F9,
FD,
09,
03,
FC,
FE,
02,
FA,
FF,
04,
00,
04,
FA,
F2,
FE,
02,
00,
FD,
03,
FB,
FA,
07,
07,
04,
0D,
FB,
FC,
06,
FE,
FD,
00,
04,
FC,
04,
FF,
FB,
FE,
00,
F7,
00,
FB,
F8,
FA,
F8,
03,
01,
03,
07,
06,
00,
03,
FF,
FB,
01,
08,
00,
04,
FD,
FF,
05,
04,
FF,
08,
FB,
FE,
F8,
04,
FE,
FD,
FA,
F7,
FB,
05,
01,
01,
00,
03,
06,
01,
03,
FA,
05,
00,
02,
01,
03,
F8,
08,
FD,
F7,
02,
FF,
00,
03,
FF,
02,
FC,
04,
FF,
09,
05,
06,
FA,
FC,
FD,
FD,
03,
05,
05,
FE,
FE,
01,
07,
05,
07,
FD,
01,
FF,
FD,
05,
FC,
F6,
FA,
02,
FC,
FE,
06,
F9,
00,
FE,
01,
06,
00,
03,
04,
03,
01,
FE,
FE,
02,
04,
01,
09,
09,
05,
FD,
05,
FF,
05,
09,
03,
00,
00,
00,
FA,
04,
FB,
02,
02,
FC,
FF,
04,
03,
03,
FE,
05,
F8,
F9,
01,
07,
FC,
FC,
04,
FF,
F7,
06,
FC,
F7,
00,
07,
F5,
00,
09,
01,
01,
F9,
06,
02,
03,
FE,
03,
F8,
01,
FA,
FE,
00,
F7,
FF,
F5,
06,
02,
FB,
02,
02,
FE,
00,
FA,
01,
05,
FC,
01,
FD,
FB,
FF,
03,
FD,
08,
01,
05,
0B,
FF,
FA,
00,
00,
FE,
09,
FD,
FB,
FB,
F6,
00,
FF,
08,
F9,
FC,
07,
04,
FE,
FC,
02,
F7,
FD,
FE,
03,
01,
05,
FD,
FE,
FA,
FF,
00,
09,
FE,
FD,
00,
FD,
04,
0A,
08,
FF,
05,
FD,
02,
09,
01,
FF,
03,
FD,
FC,
FE,
00,
01,
FD,
0E,
02,
FE,
03,
02,
06,
FE,
00,
01,
FC,
FD,
FF,
FC,
00,
06,
01,
FC,
02,
FA,
04,
FD,
08,
02,
FE,
05,
FE,
FC,
FA,
FE,
FD,
00,
08,
FF,
FA,
01,
F9,
01,
04,
04,
03,
FE,
FE,
FF,
01,
FC,
02,
02,
FD,
01,
01,
F8,
FD,
FC,
F9,
FE,
F9,
FE,
02,
FA,
03,
F9,
06,
01,
03,
03,
F9,
FB,
01,
FB,
03,
F6,
FE,
FD,
FE,
FA,
01,
02,
FF,
07,
FB,
FD,
05,
FB,
FB,
01,
FD,
F9,
FD,
F7,
01,
FC,
07,
FB,
FB,
FD,
FE,
FF,
00,
05,
FD,
FD,
01,
FC,
FA,
FF,
FC,
FE,
FA,
FA,
FF,
FA,
FE,
FE,
01,
FD,
04,
FB,
FE,
0B,
00,
FC,
F9,
FF,
04,
00,
00,
FF,
01,
00,
F4,
FF,
06,
04,
07,
00,
00,
03,
03,
FE,
05,
01,
01,
04,
03,
03,
FC,
02,
FF,
02,
FE,
FD,
F6,
F9,
FD,
FE,
FC,
F8,
FE,
03,
FF,
FE,
04,
05,
FB,
FB,
06,
00,
0B,
00,
FC,
FF,
01,
FC,
01,
02,
FE,
01,
FB,
FC,
FF,
01,
F6,
FE,
FC,
FF,
FF,
00,
00,
FF,
FD,
00,
FE,
00,
07,
03,
06,
03,
FD,
08,
01,
00,
FF,
02,
0B,
FC,
05,
FF,
F6,
01,
FD,
FD,
FC,
03,
FB,
F8,
06,
FE,
FF,
00,
04,
05,
F6,
01,
0C,
01,
03,
03,
FD,
05,
04,
FB,
FE,
05,
05,
01,
02,
08,
04,
01,
05,
FC,
02,
01,
FC,
05,
05,
08,
FF,
FC,
00,
FC,
03,
04,
04,
04,
07,
06,
02,
00,
FB,
03,
FD,
03,
0A,
FA,
FD,
02,
05,
FD,
04,
02,
09,
FE,
09,
03,
0E,
00,
FE,
00,
FB,
04,
01,
04,
02,
01,
00,
02,
FE,
FE,
00,
FD,
03,
00,
02,
09,
01,
FC,
04,
01,
00,
04,
00,
F6,
FF,
00,
04,
00,
07,
FA,
02,
FF,
06,
F8,
FE,
02,
FE,
02,
FB,
FE,
FE,
FE,
00,
00,
F7,
03,
FF,
FE,
F2,
FB,
00,
00,
04,
00,
02,
04,
00,
02,
04,
01,
02,
03,
FF,
08,
FA,
FD,
FF,
FD,
FF,
FD,
FC,
04,
FF,
00,
FD,
00,
FC,
FF,
08,
04,
05,
06,
03,
0A,
07,
00,
F9,
03,
FC,
FD,
02,
FD,
FF,
FA,
00,
FE,
FB,
03,
FD,
0C,
08,
0A,
06,
FE,
01,
F9,
FD,
FC,
00,
FE,
04,
00,
FF,
02,
06,
00,
02,
05,
05,
06,
05,
F8,
FD,
02,
FA,
FD,
FF,
FB,
01,
01,
FB,
FF,
02,
03,
FB,
FF,
06,
01,
FE,
04,
00,
00,
F9,
FA,
FD,
00,
FE,
00,
F9,
FC,
01,
00,
06,
FF,
01,
01,
02,
01,
01,
FF,
00,
01,
03,
01,
00,
F9,
00,
07,
01,
FE,
FC,
00,
FA,
F4,
00,
06,
00,
06,
FF,
FE,
02,
06,
FD,
F8,
02,
FD,
FE,
FF,
03,
05,
01,
FE,
06,
06,
FC,
0A,
FB,
FF,
02,
05,
FD,
01,
01,
07,
05,
FF,
04,
FF,
FF,
05,
FF,
FC,
01,
03,
00,
05,
FF,
07,
0B,
01,
01,
04,
FB,
FC,
FF,
07,
03,
03,
FF,
05,
FD,
FD,
01,
FC,
FE,
FE,
0A,
FE,
07,
03,
02,
FA,
03,
F8,
F9,
FB,
FA,
FC,
03,
04,
FD,
FB,
06,
04,
FE,
FE,
03,
03,
FB,
00,
01,
FE,
FA,
02,
FA,
05,
01,
FC,
FC,
FE,
06,
FD,
03,
F9,
FB,
05,
06,
F7,
FF,
04,
02,
FD,
08,
F9,
FD,
FE,
FE,
02,
F6,
FB,
FC,
F3,
FC,
02,
02,
FC,
FE,
FB,
FC,
01,
F8,
FE,
05,
05,
01,
05,
F7,
FE,
01,
F7,
04,
FD,
FA,
07,
02,
FE,
02,
03,
08,
FE,
00,
FE,
01,
00,
09,
01,
FE,
FF,
05,
FE,
00,
01,
02,
FA,
F6,
FD,
05,
F7,
FB,
06,
FB,
01,
00,
08,
01,
00,
FD,
FF,
03,
FF,
FE,
04,
06,
07,
0B,
FD,
04,
02,
00,
05,
00,
08,
03,
FB,
04,
0B,
05,
02,
FC,
FE,
08,
FF,
01,
02,
FB,
FF,
01,
F8,
01,
FA,
FF,
01,
FA,
FF,
FD,
06,
FE,
F8,
FE,
F7,
FC,
02,
07,
FF,
07,
FF,
03,
06,
05,
03,
FB,
03,
01,
07,
04,
FD,
03,
06,
03,
FD,
07,
05,
FF,
04,
FF,
02,
FE,
05,
01,
05,
FC,
01,
06,
02,
03,
FE,
04,
00,
02,
FD,
FF,
01,
FC,
01,
03,
01,
FC,
0A,
02,
FC,
08,
01,
02,
01,
FD,
FE,
04,
FA,
FA,
FE,
FC,
FF,
FF,
FF,
FF,
FD,
05,
00,
FF,
00,
06,
05,
03,
01,
FF,
06,
08,
05,
09,
01,
02,
FE,
FE,
01,
00,
02,
05,
F9,
02,
08,
FD,
FF,
FE,
03,
00,
FF,
FE,
FC,
FB,
FC,
F9,
FC,
01,
FE,
FE,
FA,
FC,
F9,
FF,
FA,
FC,
03,
FB,
00,
04,
02,
02,
04,
02,
02,
03,
02,
FA,
FD,
FE,
FA,
F9,
FA,
F9,
FC,
03,
FE,
FE,
FA,
F9,
06,
F7,
FE,
FF,
02,
FD,
FB,
00,
07,
FD,
FD,
FE,
FC,
FD,
FF,
FB,
02,
00,
01,
FB,
FF,
FD,
03,
FA,
04,
06,
FF,
FF,
06,
08,
FE,
FB,
01,
FA,
00,
02,
FC,
01,
F8,
FC,
04,
FD,
02,
00,
02,
FD,
01,
01,
01,
FF,
FE,
FC,
FC,
FE,
FD,
FA,
FE,
F5,
05,
FF,
F8,
03,
01,
01,
06,
FC,
05,
FD,
01,
08,
04,
08,
06,
F9,
05,
F9,
F8,
01,
05,
00,
F9,
FF,
FF,
F4,
FA,
FF,
FD,
FD,
00,
FE,
FF,
08,
04,
FC,
02,
01,
01,
FC,
06,
FA,
FD,
F9,
FC,
02,
03,
FE,
01,
FF,
FA,
F9,
00,
FD,
03,
FD,
FC,
01,
05,
04,
FC,
01,
05,
00,
FE,
03,
00,
FF,
FD,
04,
03,
FB,
FE,
06,
F9,
FF,
07,
00,
FD,
05,
01,
F9,
00,
02,
06,
07,
FD,
01,
FF,
08,
02,
04,
FE,
FF,
05,
01,
FD,
02,
0C,
FD,
FC,
01,
FA,
FD,
01,
01,
06,
05,
03,
04,
01,
09,
05,
FC,
FF,
02,
02,
FF,
06,
F8,
02,
05,
FE,
03,
03,
03,
FF,
01,
F8,
FA,
FD,
FA,
FF,
05,
FD,
05,
00,
02,
04,
FA,
FE,
03,
FB,
FA,
06,
05,
02,
FF,
01,
FD,
05,
FF,
03,
FF,
FF,
04,
04,
F9,
F8,
02,
01,
04,
09,
0B,
FD,
01,
FC,
07,
02,
02,
00,
FD,
02,
02,
02,
03,
06,
00,
04,
03,
FD,
00,
FD,
FA,
F5,
FB,
F6,
F6,
00,
00,
02,
FB,
02,
01,
02,
FF,
06,
04,
01,
FF,
FF,
FF,
00,
FB,
04,
FC,
02,
FD,
FF,
FE,
01,
FD,
F8,
FE,
06,
FE,
00,
03,
FD,
04,
00,
09,
01,
04,
FE,
03,
07,
09,
FF,
FB,
FE,
06,
F3,
FF,
02,
02,
00,
07,
03,
06,
FF,
FF,
01,
F8,
FB,
F4,
FB,
00,
F8,
FC,
FB,
F7,
FE,
FD,
FF,
FB,
FF,
00,
F8,
06,
FE,
02,
F9,
FF,
03,
FA,
FA,
FB,
04,
F3,
02,
05,
04,
FA,
FC,
00,
04,
00,
05,
00,
F9,
03,
FD,
04,
FA,
09,
00,
FD,
FF,
FF,
F9,
01,
02,
00,
FE,
03,
01,
F8,
FD,
FE,
FF,
FD,
FF,
F8,
01,
05,
03,
FE,
06,
F9,
06,
0A,
FC,
04,
01,
F9,
FB,
FA,
02,
02,
01,
FA,
05,
07,
06,
02,
05,
01,
05,
05,
00,
FA,
FD,
04,
FF,
00,
02,
0D,
FE,
FD,
FC,
FC,
00,
04,
FD,
04,
FD,
04,
01,
03,
0D,
01,
FF,
F9,
01,
FF,
01,
03,
FE,
FD,
03,
00,
F5,
01,
01,
FE,
FF,
05,
00,
FC,
F9,
FA,
06,
FC,
03,
FD,
00,
FD,
FF,
05,
01,
03,
06,
05,
04,
01,
06,
00,
FE,
06,
FE,
01,
03,
FF,
02,
07,
FF,
03,
FB,
07,
FD,
01,
FD,
02,
FA,
06,
FC,
FC,
00,
FB,
01,
01,
FF,
03,
FF,
FF,
01,
F6,
02,
04,
01,
F7,
03,
F8,
FE,
FD,
F9,
02,
02,
07,
02,
06,
FB,
00,
06,
02,
FF,
07,
FA,
01,
01,
08,
01,
FC,
01,
0B,
02,
FF,
02,
FF,
02,
05,
05,
02,
08,
01,
FC,
FD,
FD,
02,
FC,
FE,
07,
05,
FE,
FF,
04,
01,
FF,
FF,
04,
01,
06,
05,
F2,
FF,
06,
04,
02,
03,
FF,
FF,
FE,
F8,
01,
FF,
FE,
05,
FC,
07,
FF,
04,
FC,
02,
FC,
00,
FC,
F8,
FE,
FC,
FC,
00,
00,
FE,
F6,
FF,
FA,
FC,
00,
F7,
FC,
08,
F6,
FE,
FE,
FF,
FE,
F7,
FE,
00,
FC,
F7,
02,
01,
02,
05,
03,
05,
FD,
02,
FF,
07,
0B,
03,
03,
FE,
03,
03,
FC,
05,
FB,
FD,
FD,
07,
08,
02,
02,
04,
FF,
00,
FE,
03,
FE,
04,
06,
01,
04,
03,
00,
FF,
FF,
00,
04,
00,
03,
00,
07,
FE,
00,
FB,
FB,
04,
07,
FA,
F5,
FD,
FF,
F5,
FF,
01,
FA,
05,
FD,
F8,
06,
00,
02,
FA,
01,
08,
FD,
02,
08,
FC,
02,
04,
00,
02,
FF,
FB,
FF,
04,
0A,
01,
01,
FD,
05,
FE,
04,
03,
02,
FE,
02,
00,
FB,
FA,
03,
00,
FD,
FF,
F9,
FC,
01,
00,
FE,
00,
02,
FB,
FF,
06,
FF,
04,
05,
FB,
FF,
FA,
00,
FF,
00,
FE,
FB,
FB,
FE,
03,
F7,
03,
FE,
FB,
FF,
F5,
FB,
F5,
FC,
FD,
FB,
02,
FF,
F5,
05,
02,
03,
02,
00,
FE,
04,
02,
FB,
07,
FA,
FF,
FC,
FC,
F9,
FA,
03,
F9,
FD,
F7,
03,
00,
03,
03,
F9,
07,
03,
FD,
FE,
FF,
FE,
FF,
FE,
FD,
01,
F7,
FA,
FA,
FB,
FA,
FA,
FC,
04,
FB,
01,
00,
04,
00,
02,
00,
09,
04,
06,
FC,
FA,
04,
FB,
FB,
FE,
FA,
02,
02,
02,
03,
FA,
03,
FF,
07,
FC,
FF,
05,
FD,
01,
00,
FF,
FD,
FB,
F9,
FC,
02,
04,
FB,
03,
02,
04,
FC,
FD,
00,
FE,
FF,
00,
FE,
FF,
F7,
01,
FB,
00,
04,
06,
05,
F8,
FD,
F8,
FD,
FF,
02,
03,
00,
FF,
05,
FF,
02,
FD,
FD,
FA,
09,
FE,
FB,
FB,
06,
00,
F7,
FF,
FE,
01,
FF,
04,
05,
FA,
00,
06,
05,
F9,
07,
FF,
09,
FA,
FA,
0C,
09,
07,
FE,
06,
02,
04,
10,
0E,
08,
03,
06,
02,
02,
06,
FE,
08,
FB,
01,
FE,
F9,
F2,
01,
03,
03,
01,
FA,
05,
FE,
FA,
01,
02,
08,
08,
02,
03,
01,
04,
F8,
F9,
FE,
02,
00,
05,
FF,
03,
04,
FE,
02,
FE,
03,
06,
F6,
01,
FE,
0A,
FB,
0C,
FA,
FD,
08,
07,
FC,
02,
09,
FE,
FD,
FA,
02,
FA,
05,
FB,
F9,
F8,
05,
FD,
00,
04,
FE,
00,
0B,
02,
F4,
FA,
0A,
F8,
00,
04,
00,
00,
03,
F9,
F9,
F8,
FE,
EF,
00,
02,
FE,
04,
08,
FA,
00,
06,
FE,
0F,
FF,
F9,
05,
07,
F0,
F6,
03,
03,
08,
FC,
0A,
FC,
FD,
F9,
01,
03,
F1,
FE,
FC,
FE,
05,
00,
FF,
01,
02,
04,
01,
06,
08,
FC,
FD,
04,
F8,
07,
0D,
FC,
FA,
01,
F9,
FE,
FB,
FF,
FF,
00,
F9,
FF,
04,
09,
05,
FF,
01,
FC,
06,
0C,
03,
FE,
F8,
06,
0A,
02,
03,
02,
02,
00,
0C,
FC,
0A,
F8,
00,
F8,
00,
03,
F9,
FD,
05,
08,
01,
07,
05,
02,
FC,
01,
05,
FC,
FF,
01,
FE,
01,
F5,
02,
FA,
FC,
03,
FD,
04,
02,
01,
EF,
FB,
00,
FF,
FE,
FA,
03,
07,
01,
FE,
FC,
FA,
04,
0A,
09,
FD,
07,
01,
FA,
FF,
00,
00,
F4,
03,
FE,
F4,
04,
00,
07,
01,
FC,
FF,
03,
F6,
F9,
01,
FF,
03,
04,
00,
08,
0A,
01,
FC,
06,
04,
FF,
FC,
FF,
FD,
00,
FE,
FB,
06,
0B,
00,
00,
FC,
F1,
FE,
06,
05,
03,
07,
05,
03,
03,
02,
F9,
09,
00,
FD,
09,
01,
F9,
FB,
02,
FA,
FC,
03,
FE,
00,
F8,
FA,
FF,
F5,
01,
FD,
F4,
01,
00,
07,
01,
08,
04,
01,
FA,
FE,
00,
FB,
F9,
09,
01,
FB,
02,
F5,
FF,
FA,
FF,
F8,
0D,
06,
01,
07,
01,
02,
F7,
0F,
09,
02,
01,
FB,
FE,
00,
F6,
F5,
06,
0E,
07,
01,
00,
0C,
F5,
FC,
08,
F6,
FE,
03,
02,
09,
FA,
04,
FC,
FA,
FA,
01,
04,
02,
0B,
FF,
FC,
07,
FF,
FB,
04,
07,
00,
FD,
08,
FF,
FD,
F6,
FD,
F7,
FF,
08,
FE,
FC,
01,
09,
00,
F3,
03,
F8,
FB,
FD,
F4,
FC,
07,
FA,
02,
F5,
FA,
02,
FF,
08,
03,
00,
F4,
06,
07,
0E,
06,
07,
05,
F3,
F8,
01,
01,
04,
00,
01,
02,
FF,
F8,
FF,
06,
F1,
FB,
08,
03,
04,
0D,
FB,
F4,
FE,
0C,
0B,
FC,
0D,
04,
06,
02,
FC,
FE,
04,
FB,
FE,
05,
07,
03,
00,
02,
00,
FF,
01,
FE,
08,
FF,
FD,
04,
07,
FD,
FB,
FF,
00,
FF,
FF,
F9,
FE,
02,
03,
04,
FA,
03,
00,
FE,
00,
02,
03,
0A,
00,
F8,
FF,
01,
02,
F9,
02,
02,
F7,
F8,
FB,
06,
F8,
F6,
FE,
01,
07,
03,
04,
01,
08,
06,
00,
0A,
FB,
FE,
05,
FC,
FA,
FE,
00,
FC,
F8,
01,
07,
FC,
06,
05,
04,
0A,
08,
FC,
F8,
00,
00,
FE,
FD,
F6,
02,
09,
FF,
00,
FC,
FF,
07,
04,
05,
FF,
FE,
FF,
01,
FF,
04,
FD,
FF,
00,
03,
02,
FD,
FD,
04,
01,
FE,
02,
F9,
FD,
F4,
FA,
FF,
01,
02,
00,
FE,
FA,
FC,
00,
03,
FC,
F8,
00,
04,
FE,
00,
01,
07,
04,
FA,
03,
06,
04,
FD,
03,
04,
FF,
08,
01,
05,
01,
00,
FA,
07,
FC,
F3,
FC,
FB,
F3,
FE,
F4,
FD,
02,
07,
08,
0A,
01,
04,
02,
FE,
00,
08,
FC,
EC,
04,
F9,
04,
04,
02,
F9,
04,
FA,
01,
FF,
FC,
05,
FA,
00,
0D,
02,
F8,
FF,
F8,
F8,
F8,
FD,
01,
FE,
00,
FE,
FD,
FE,
FF,
00,
04,
02,
04,
F7,
00,
06,
FF,
02,
07,
00,
01,
03,
05,
02,
FE,
06,
FD,
FE,
FF,
08,
09,
FF,
FF,
03,
01,
FD,
FC,
02,
FF,
FF,
FC,
FF,
FC,
F3,
FC,
07,
06,
FC,
0D,
06,
07,
03,
04,
00,
05,
0B,
FB,
F4,
04,
FE,
FA,
0B,
F8,
06,
FF,
FE,
05,
01,
01,
02,
FF,
FC,
04,
00,
FE,
03,
0A,
01,
08,
04,
F6,
F7,
00,
FD,
FA,
F2,
FE,
06,
FD,
F8,
FD,
FB,
09,
01,
06,
FD,
FE,
F3,
02,
FE,
02,
0C,
03,
00,
FF,
FA,
FD,
FE,
FD,
FF,
FE,
04,
11,
00,
05,
FE,
FA,
01,
04,
04,
FF,
06,
FC,
FC,
FD,
00,
FE,
FF,
FF,
02,
09,
07,
03,
FD,
03,
FE,
FD,
09,
FE,
03,
07,
0E,
FF,
01,
0D,
08,
07,
01,
FE,
FD,
FA,
06,
FC,
F6,
08,
FA,
08,
03,
FE,
00,
01,
FB,
03,
FE,
06,
FC,
FD,
03,
06,
FE,
08,
07,
00,
F7,
01,
FF,
06,
00,
04,
05,
04,
FF,
FE,
05,
FF,
03,
F7,
02,
00,
0A,
04,
FE,
FC,
00,
F5,
F5,
F8,
FA,
F6,
03,
FC,
FA,
FC,
FC,
05,
03,
FC,
06,
FE,
FC,
05,
02,
FA,
F1,
FA,
0C,
00,
03,
FA,
FF,
09,
FF,
FB,
0C,
01,
F7,
FE,
FD,
FB,
04,
F9,
FC,
FB,
02,
01,
F8,
FF,
03,
0C,
FA,
F9,
FF,
FF,
06,
FA,
01,
0D,
00,
F8,
04,
01,
FB,
FE,
FA,
F7,
FB,
FE,
04,
02,
FA,
FC,
0A,
FE,
FE,
07,
0B,
05,
02,
01,
01,
00,
03,
01,
FB,
04,
08,
03,
03,
FE,
04,
06,
FE,
F9,
03,
FE,
01,
01,
05,
00,
05,
04,
04,
FF,
FC,
02,
0A,
FF,
08,
F7,
09,
03,
F9,
01,
08,
01,
F2,
F8,
00,
00,
01,
FD,
FD,
FD,
FB,
F9,
FC,
FC,
FC,
F9,
02,
FD,
FE,
05,
04,
04,
00,
FD,
02,
F3,
FA,
FD,
FC,
01,
01,
FB,
07,
03,
03,
03,
01,
FF,
00,
01,
03,
FC,
F6,
FE,
FC,
FB,
F5,
FE,
04,
07,
FC,
03,
03,
04,
FB,
03,
03,
FE,
07,
FD,
FD,
FC,
00,
08,
FF,
06,
04,
FC,
FA,
09,
02,
05,
01,
0A,
07,
FF,
00,
00,
FF,
F8,
F6,
FB,
F7,
01,
0A,
04,
FB,
00,
09,
01,
07,
02,
09,
04,
03,
FD,
00,
01,
04,
FC,
06,
FB,
02,
FC,
03,
04,
04,
01,
02,
09,
02,
02,
00,
01,
FE,
FB,
05,
00,
00,
F9,
01,
FD,
FE,
07,
FB,
00,
0C,
FA,
01,
07,
03,
FC,
FF,
00,
FC,
0F,
FC,
05,
FE,
01,
FC,
FA,
ED,
FC,
04,
F4,
02,
FF,
00,
04,
0D,
01,
FE,
01,
00,
F3,
EF,
02,
02,
FE,
FA,
02,
06,
05,
04,
FD,
04,
02,
03,
FF,
03,
FB,
07,
FC,
01,
00,
01,
03,
FD,
FC,
FD,
FE,
05,
FE,
07,
F0,
02,
06,
F5,
02,
FB,
01,
04,
03,
0B,
02,
0C,
FB,
04,
04,
00,
00,
FF,
06,
FD,
00,
03,
0A,
0A,
06,
03,
F9,
FD,
06,
FC,
F2,
FC,
FC,
FD,
04,
04,
FD,
FF,
05,
FD,
05,
04,
06,
FE,
05,
03,
FF,
05,
FD,
05,
01,
FA,
05,
FE,
00,
12,
04,
01,
FB,
FF,
07,
FD,
F6,
FD,
FF,
FB,
FA,
F6,
FA,
03,
FC,
FB,
04,
FC,
F8,
03,
06,
05,
FF,
00,
07,
FC,
FA,
FC,
02,
FD,
00,
FB,
F9,
03,
0E,
02,
01,
02,
FD,
F5,
FE,
FA,
00,
FF,
03,
00,
01,
0B,
06,
FC,
FC,
02,
FF,
01,
FB,
07,
07,
FF,
F4,
03,
F7,
04,
FD,
05,
FD,
F4,
FF,
04,
01,
09,
FB,
F6,
FB,
FA,
FF,
F3,
03,
FF,
FB,
FC,
FB,
F9,
06,
0A,
03,
F9,
FD,
FF,
FB,
01,
01,
01,
02,
FF,
06,
FB,
00,
F7,
08,
03,
FD,
F4,
FF,
FA,
00,
FA,
FB,
FE,
0F,
02,
00,
02,
F7,
01,
F9,
01,
0D,
0B,
07,
04,
07,
02,
FC,
03,
00,
07,
FA,
02,
02,
05,
04,
0A,
03,
01,
03,
F8,
08,
06,
FC,
02,
08,
F2,
01,
FB,
09,
05,
FF,
F8,
05,
06,
0B,
04,
F8,
FC,
FD,
FA,
F7,
F4,
FE,
FB,
02,
F7,
00,
FB,
FD,
01,
03,
05,
0A,
02,
FC,
FE,
FC,
FB,
FB,
08,
FE,
00,
01,
FF,
FE,
04,
03,
00,
FB,
09,
FB,
01,
FA,
FD,
FC,
FA,
FF,
FA,
FF,
03,
00,
FD,
07,
FF,
05,
05,
FB,
04,
06,
07,
FE,
FD,
04,
FC,
0A,
FD,
00,
00,
FC,
05,
02,
FF,
03,
FE,
F7,
F7,
01,
F3,
F7,
F7,
FC,
04,
01,
F9,
FF,
00,
FE,
F4,
FB,
FA,
FF,
00,
05,
FC,
FB,
FF,
09,
08,
03,
00,
00,
00,
FE,
FF,
09,
FB,
FD,
FF,
FC,
02,
FF,
04,
01,
F7,
05,
03,
01,
04,
FC,
08,
03,
07,
FB,
FE,
FA,
00,
FA,
FA,
04,
07,
04,
03,
F9,
02,
00,
F9,
02,
07,
F4,
FF,
04,
F8,
0A,
04,
F5,
FD,
FC,
F9,
F7,
FF,
0C,
FD,
FC,
F5,
F4,
03,
03,
FA,
03,
05,
FE,
00,
09,
FD,
FA,
01,
FD,
FF,
04,
FA,
07,
FF,
08,
02,
04,
0B,
FB,
07,
FC,
03,
00,
0A,
FE,
04,
01,
EE,
FF,
FB,
01,
02,
F7,
FC,
01,
FD,
FA,
FC,
03,
01,
FF,
00,
04,
01,
F9,
FC,
07,
F2,
FD,
08,
FD,
02,
08,
FF,
05,
F9,
FC,
FD,
03,
FA,
F9,
03,
07,
00,
FA,
0C,
F5,
02,
09,
05,
04,
00,
FE,
FF,
0A,
FE,
06,
01,
05,
04,
F9,
03,
FE,
FD,
FE,
F5,
01,
F9,
FD,
F9,
0E,
FE,
FC,
FF,
F4,
F7,
08,
FE,
FF,
06,
07,
F8,
0D,
FE,
01,
FF,
02,
FF,
00,
06,
FD,
FF,
FD,
06,
FD,
02,
00,
F4,
04,
02,
02,
01,
00,
FE,
05,
03,
FD,
00,
06,
FC,
F9,
FF,
09,
05,
FD,
00,
05,
01,
FF,
03,
07,
05,
01,
FB,
0B,
F6,
06,
09,
06,
05,
FB,
FB,
02,
FA,
06,
05,
06,
FA,
01,
FF,
03,
01,
FA,
04,
FA,
FE,
00,
02,
FF,
02,
09,
FA,
FD,
FE,
F9,
FC,
FB,
01,
FB,
FF,
02,
FB,
F7,
0A,
00,
F8,
0A,
01,
FA,
05,
04,
00,
FB,
0B,
01,
02,
FB,
08,
03,
0B,
0D,
06,
08,
FF,
FF,
F9,
07,
F6,
01,
01,
FE,
05,
F7,
FC,
06,
FE,
FF,
0E,
FE,
F7,
0A,
FE,
06,
F9,
01,
FF,
00,
F5,
FD,
FB,
FF,
06,
ED,
FF,
07,
05,
F8,
FE,
02,
F9,
F8,
05,
FD,
00,
F6,
03,
03,
0A,
FD,
F7,
06,
FA,
04,
FB,
02,
FE,
F8,
01,
F8,
FA,
F8,
F8,
F8,
F9,
07,
FF,
F8,
02,
06,
FD,
FE,
FD,
FA,
03,
0C,
06,
0A,
06,
F5,
FC,
02,
FD,
03,
07,
FA,
FC,
04,
02,
F7,
FF,
F2,
FC,
FE,
FE,
FA,
05,
00,
F3,
F1,
FD,
07,
F8,
FA,
0A,
FB,
FC,
02,
03,
02,
02,
FE,
01,
03,
0A,
FB,
F2,
03,
F7,
02,
FC,
01,
FA,
0B,
FF,
FD,
FE,
00,
FD,
FD,
FB,
08,
01,
FE,
FE,
FB,
01,
FE,
05,
06,
F7,
FB,
FF,
06,
F6,
FF,
FC,
F9,
F4,
FA,
02,
FB,
01,
03,
FE,
FD,
05,
03,
01,
00,
02,
01,
FF,
FF,
F3,
FB,
FD,
01,
F4,
FD,
01,
09,
09,
02,
0A,
03,
FE,
FB,
07,
0F,
02,
02,
05,
05,
02,
FA,
09,
06,
F3,
06,
03,
01,
FE,
FC,
FC,
03,
02,
02,
FD,
F8,
08,
00,
05,
0D,
11,
FB,
05,
FE,
01,
06,
02,
02,
FA,
FD,
F7,
FD,
FB,
F3,
07,
03,
F2,
FC,
06,
04,
00,
FD,
FF,
FE,
09,
00,
03,
0C,
04,
FC,
00,
F6,
06,
03,
FB,
FE,
02,
04,
EF,
01,
07,
03,
F9,
FF,
FF,
05,
FB,
0C,
02,
02,
04,
04,
FC,
01,
F9,
02,
FF,
00,
03,
02,
07,
01,
FC,
05,
F7,
FA,
FD,
FC,
FA,
01,
03,
FB,
01,
F8,
F9,
00,
F4,
04,
08,
00,
FD,
F6,
01,
FC,
FB,
FB,
FD,
02,
09,
FE,
06,
02,
01,
00,
FC,
00,
FD,
05,
FB,
FD,
03,
06,
01,
FA,
0F,
04,
05,
0C,
08,
F7,
0E,
FA,
FF,
01,
FF,
FD,
F9,
FB,
00,
07,
FC,
02,
FF,
FC,
F8,
0A,
0D,
FE,
02,
07,
04,
03,
03,
FC,
03,
FC,
00,
F1,
05,
FE,
FC,
FB,
FC,
FA,
FE,
F9,
02,
01,
09,
FF,
F7,
00,
03,
FB,
09,
F9,
03,
FE,
FB,
FB,
01,
F3,
00,
03,
F8,
03,
F7,
07,
07,
FB,
FC,
FE,
01,
FE,
FD,
FD,
09,
00,
02,
FC,
FD,
06,
F0,
FC,
01,
02,
00,
05,
02,
F5,
FD,
01,
01,
02,
03,
02,
FA,
FD,
F6,
07,
F8,
FC,
F9,
00,
06,
00,
FF,
FF,
FB,
00,
FA,
00,
FC,
03,
05,
F8,
F8,
00,
FC,
F5,
F5,
FE,
FF,
00,
FA,
F8,
FE,
00,
0A,
FD,
FB,
05,
F9,
FD,
08,
04,
0D,
06,
03,
02,
F6,
F7,
00,
FC,
FE,
FE,
08,
FB,
F9,
08,
0B,
FA,
03,
FF,
F8,
FE,
F5,
FC,
F7,
FD,
01,
09,
01,
03,
FF,
FB,
05,
09,
0A,
04,
FF,
05,
FE,
01,
FF,
FE,
02,
02,
FD,
F7,
FD,
07,
0E,
FC,
01,
FF,
FC,
FB,
FA,
03,
04,
04,
FC,
01,
05,
FD,
F9,
FE,
0C,
FC,
03,
00,
09,
00,
07,
F9,
FB,
03,
F4,
F6,
FC,
FD,
FD,
08,
FB,
0F,
03,
F6,
03,
02,
07,
01,
02,
F6,
FF,
00,
01,
F2,
F9,
F7,
02,
FB,
06,
FD,
00,
FA,
FB,
09,
04,
00,
09,
00,
F9,
00,
00,
01,
05,
05,
02,
01,
02,
04,
FB,
FC,
FE,
02,
0F,
FE,
FE,
04,
F4,
FE,
FF,
F9,
04,
FF,
02,
06,
F6,
07,
03,
08,
01,
07,
01,
00,
FE,
00,
FD,
FE,
05,
00,
FD,
F6,
01,
F7,
0B,
00,
F8,
FC,
0D,
00,
FC,
06,
02,
00,
03,
FF,
FD,
FA,
FF,
FF,
05,
00,
FF,
0A,
01,
FF,
01,
02,
01,
F1,
F4,
07,
F7,
FF,
02,
FC,
03,
FE,
03,
0B,
F8,
05,
FB,
03,
FC,
F7,
04,
F7,
F6,
FD,
FF,
02,
FD,
F8,
09,
FD,
FD,
07,
02,
01,
06,
F4,
03,
FA,
0D,
FD,
FE,
07,
FE,
00,
04,
F9,
01,
F4,
02,
07,
02,
06,
03,
01,
05,
F9,
F9,
FA,
FF,
09,
00,
FB,
F9,
F8,
FA,
05,
FF,
FD,
FE,
02,
F6,
06,
F4,
FB,
03,
FF,
04,
01,
FB,
02,
F4,
F7,
00,
FF,
F5,
FD,
02,
FB,
05,
07,
05,
00,
FF,
F3,
03,
FB,
FC,
FB,
FC,
F9,
F8,
FD,
F2,
F8,
00,
FA,
F9,
09,
06,
01,
04,
03,
08,
02,
FC,
FB,
FA,
F9,
0A,
07,
FE,
FE,
07,
05,
00,
FE,
FD,
02,
FE,
FE,
05,
FC,
02,
01,
0A,
FD,
05,
FF,
FD,
FE,
05,
FD,
FF,
FD,
01,
FA,
FD,
02,
FC,
FF,
F7,
FC,
00,
FA,
03,
FE,
FB,
04,
00,
06,
02,
00,
FC,
05,
00,
01,
01,
FC,
FE,
01,
02,
05,
00,
FE,
FF,
F8,
00,
F8,
F8,
05,
0C,
01,
F8,
F9,
04,
01,
FC,
F1,
FD,
02,
04,
00,
FD,
FD,
03,
0B,
FD,
FA,
FD,
FB,
FE,
09,
03,
FC,
FF,
01,
FE,
00,
06,
FE,
FE,
00,
FF,
FA,
F8,
07,
FD,
EB,
09,
05,
F8,
FE,
00,
03,
01,
F6,
01,
02,
F3,
01,
00,
00,
06,
07,
FB,
F8,
04,
07,
05,
F3,
EE,
F4,
00,
F7,
05,
FC,
FB,
01,
FC,
07,
FA,
03,
04,
FD,
FB,
04,
04,
FE,
F9,
FE,
04,
0F,
FB,
FC,
06,
FB,
FC,
F5,
05,
F3,
F7,
FA,
03,
05,
05,
01,
03,
02,
FE,
06,
FF,
F9,
F9,
04,
FB,
05,
FE,
FD,
0D,
04,
05,
06,
06,
04,
00,
00,
03,
FB,
FB,
FA,
09,
FB,
FC,
FD,
00,
05,
07,
03,
F9,
01,
FE,
FD,
F8,
01,
FC,
FF,
F9,
01,
FC,
02,
00,
FE,
FF,
FE,
FB,
00,
F9,
FD,
00,
01,
07,
07,
00,
F8,
08,
02,
01,
03,
F6,
00,
FE,
00,
00,
03,
04,
F3,
FE,
0F,
FA,
F4,
03,
05,
FD,
FE,
04,
F8,
F9,
00,
FE,
02,
05,
FD,
FA,
09,
04,
FB,
FB,
F3,
F8,
FA,
00,
FF,
05,
FF,
F6,
FC,
02,
FF,
F9,
07,
02,
02,
00,
01,
FA,
F5,
0A,
FD,
F9,
08,
09,
FB,
0E,
05,
05,
02,
04,
02,
FD,
FB,
FE,
00,
FD,
06,
FD,
FB,
06,
03,
FF,
01,
FB,
F9,
FC,
FD,
FF,
06,
08,
F9,
FB,
FF,
02,
F9,
09,
0A,
0B,
02,
01,
FF,
08,
00,
FF,
06,
03,
FA,
FF,
FE,
07,
FE,
F5,
F9,
04,
F7,
09,
FE,
08,
03,
08,
05,
FC,
FB,
F7,
00,
FF,
03,
FE,
01,
FA,
02,
FF,
F9,
FC,
03,
F8,
02,
01,
05,
FC,
00,
04,
EF,
00,
02,
03,
FF,
00,
F9,
F9,
02,
01,
07,
FD,
F6,
FD,
F9,
FE,
03,
F3,
03,
09,
03,
01,
FF,
FA,
F3,
FE,
FB,
F8,
02,
F7,
02,
00,
06,
F2,
F9,
02,
FC,
01,
F8,
FD,
03,
04,
04,
08,
05,
08,
06,
FB,
04,
04,
00,
00,
FA,
07,
FF,
FC,
F2,
FD,
02,
FE,
FB,
FB,
FA,
F9,
04,
01,
01,
08,
F6,
FC,
F6,
FB,
FB,
00,
F8,
F8,
FF,
00,
08,
F9,
FD,
FB,
FF,
05,
06,
FA,
FF,
00,
03,
02,
FD,
FD,
01,
FF,
07,
00,
F3,
01,
FA,
07,
FE,
FA,
02,
FF,
FE,
FC,
FE,
F9,
FE,
00,
02,
04,
03,
00,
F8,
02,
05,
FB,
FE,
F6,
F8,
FF,
FF,
FF,
FA,
EC,
FF,
FD,
FB,
01,
05,
02,
0A,
0F,
02,
FD,
06,
FD,
00,
04,
FA,
FF,
FB,
09,
07,
F7,
02,
FD,
FD,
02,
08,
05,
06,
05,
FF,
FC,
F9,
FC,
F8,
FA,
01,
F7,
02,
05,
05,
FE,
F7,
0D,
12,
01,
01,
04,
FA,
F8,
FF,
00,
00,
03,
FE,
FF,
F8,
FC,
02,
07,
03,
FB,
09,
F5,
0E,
05,
F9,
01,
02,
02,
FF,
04,
FB,
04,
FD,
FC,
F9,
05,
03,
F9,
FF,
0B,
07,
0E,
02,
02,
02,
02,
F8,
F9,
09,
03,
FC,
08,
0F,
FC,
F8,
FE,
06,
F4,
FA,
FE,
02,
FA,
FF,
FD,
04,
04,
02,
07,
0B,
02,
FA,
04,
FE,
11,
04,
03,
01,
FD,
04,
FF,
F9,
FE,
FC,
F9,
01,
F6,
F7,
0D,
F8,
F2,
00,
FF,
F6,
FE,
04,
0C,
01,
F4,
FB,
01,
FB,
07,
FA,
FA,
02,
04,
FF,
03,
05,
07,
F7,
FB,
03,
00,
02,
00,
02,
FC,
00,
07,
07,
02,
01,
02,
02,
06,
FF,
FE,
FD,
FF,
02,
04,
07,
07,
FB,
FD,
02,
04,
FB,
01,
03,
03,
FE,
02,
FB,
04,
F7,
F7,
F1,
01,
FF,
08,
F9,
FE,
00,
02,
F9,
00,
05,
FF,
04,
00,
FC,
F7,
F5,
FD,
F9,
03,
FA,
FA,
F7,
04,
06,
FE,
03,
FF,
FD,
01,
09,
00,
FE,
05,
FD,
F6,
FE,
F8,
FC,
FF,
06,
05,
01,
FE,
00,
02,
03,
03,
0A,
FF,
FE,
03,
03,
FA,
02,
05,
0A,
02,
08,
FF,
FF,
05,
04,
06,
07,
04,
FE,
FF,
FC,
FE,
01,
FD,
FE,
01,
FE,
FF,
01,
04,
02,
0A,
FA,
FB,
FA,
02,
FE,
00,
05,
04,
0E,
02,
03,
01,
F9,
FF,
06,
04,
00,
01,
F7,
FF,
02,
FB,
FF,
04,
F6,
FB,
00,
FD,
02,
F8,
03,
FA,
FD,
FE,
FC,
03,
06,
05,
FA,
03,
F6,
FF,
F9,
FA,
00,
01,
FC,
F1,
04,
FF,
FF,
F7,
FB,
FD,
01,
FF,
FC,
01,
FB,
F2,
02,
FC,
F6,
04,
FA,
0D,
02,
F8,
04,
FB,
04,
FF,
03,
FB,
FC,
00,
01,
02,
FC,
01,
05,
06,
05,
02,
04,
FB,
FA,
01,
F9,
FC,
04,
FF,
02,
07,
FD,
FD,
FA,
FE,
F7,
FF,
FB,
07,
FA,
05,
01,
F9,
FE,
05,
01,
FA,
FD,
FE,
03,
03,
02,
0A,
06,
F3,
02,
02,
FF,
FE,
03,
FF,
05,
0B,
01,
FE,
09,
FB,
FF,
FA,
02,
FD,
05,
05,
05,
01,
01,
03,
00,
05,
FF,
00,
01,
FC,
FB,
F7,
F7,
F8,
FE,
FD,
FA,
01,
01,
FC,
00,
01,
05,
02,
FD,
FD,
0E,
04,
F6,
06,
F8,
FE,
FE,
F6,
01,
03,
FD,
03,
FE,
02,
07,
FF,
F5,
F2,
FE,
FB,
01,
07,
01,
FA,
01,
FF,
05,
F9,
FE,
FA,
FB,
FB,
01,
FD,
07,
FB,
FB,
01,
00,
03,
F6,
F7,
FD,
FE,
01,
08,
FA,
FF,
FE,
F9,
00,
02,
FC,
02,
03,
03,
0D,
03,
FC,
02,
F6,
FE,
F7,
01,
05,
FD,
F7,
FB,
F4,
FD,
FC,
F8,
FF,
FF,
04,
04,
03,
FC,
00,
F5,
FD,
FC,
FA,
FA,
FD,
FE,
F7,
F7,
FD,
00,
05,
07,
F6,
05,
04,
04,
FE,
F8,
FD,
05,
FC,
09,
FE,
F4,
F3,
04,
03,
FF,
FF,
02,
00,
FF,
01,
FE,
FE,
FE,
04,
01,
FF,
01,
07,
F5,
05,
09,
FB,
F7,
01,
FE,
F8,
0A,
00,
07,
06,
05,
FE,
FB,
F7,
F9,
F5,
00,
04,
F8,
FA,
03,
04,
FB,
FE,
FA,
FE,
01,
F4,
FA,
F7,
01,
F8,
FD,
FE,
05,
05,
FB,
01,
FE,
01,
F7,
FE,
07,
F8,
02,
FA,
04,
05,
FB,
FC,
FA,
09,
00,
07,
FB,
FA,
FF,
FC,
FE,
09,
FF,
FB,
F7,
FF,
F8,
01,
FB,
00,
FA,
F3,
FC,
00,
02,
0B,
01,
01,
03,
FD,
FF,
07,
FA,
FA,
04,
00,
04,
F7,
00,
FE,
05,
07,
02,
FE,
05,
06,
04,
F8,
F7,
02,
FF,
FB,
09,
02,
FD,
FE,
05,
02,
FA,
FB,
03,
00,
FF,
01,
01,
FE,
FE,
07,
01,
FD,
05,
02,
FF,
00,
05,
03,
FF,
FD,
02,
FD,
09,
FD,
FF,
03,
01,
F3,
FD,
09,
03,
01,
FF,
FB,
06,
FB,
02,
03,
05,
03,
FC,
0C,
04,
08,
02,
01,
01,
FF,
F9,
FA,
F7,
FC,
FE,
FE,
05,
FB,
02,
02,
00,
09,
00,
02,
FC,
0C,
F9,
F6,
FD,
0B,
09,
01,
FA,
FC,
FE,
F8,
05,
FA,
FC,
FD,
FA,
FD,
02,
FB,
09,
FF,
F6,
03,
00,
00,
00,
F8,
FD,
06,
08,
0A,
05,
FD,
08,
04,
02,
FB,
06,
00,
FC,
08,
FF,
FA,
02,
09,
FF,
00,
03,
07,
07,
FA,
00,
0B,
FF,
F3,
FF,
FF,
F3,
02,
06,
FF,
04,
F7,
03,
FD,
03,
08,
FE,
F7,
02,
0E,
01,
03,
05,
FE,
F9,
FE,
07,
01,
F7,
FF,
03,
FF,
06,
04,
03,
FF,
05,
08,
FC,
09,
07,
09,
FA,
04,
06,
FD,
FF,
01,
FE,
FD,
FD,
04,
03,
01,
FE,
04,
06,
FA,
07,
05,
FD,
F9,
FD,
FE,
06,
08,
05,
FE,
01,
FE,
FE,
03,
0D,
FF,
F8,
FD,
FE,
FA,
FD,
01,
F6,
00,
01,
FA,
FE,
FE,
FE,
FF,
FB,
08,
00,
F5,
F7,
03,
FE,
FA,
02,
FE,
FE,
04,
00,
FF,
05,
04,
FE,
FF,
FE,
09,
F8,
06,
FE,
F7,
FA,
00,
F6,
FA,
FF,
02,
05,
06,
07,
FD,
F7,
FB,
FB,
09,
FE,
01,
FC,
FD,
06,
FB,
F6,
FB,
05,
01,
FE,
07,
00,
07,
03,
F5,
00,
EE,
00,
F9,
06,
0A,
04,
04,
F6,
FB,
00,
04,
00,
FF,
00,
03,
00,
01,
F9,
FB,
F7,
F9,
05,
02,
00,
FE,
0B,
FF,
FD,
F7,
00,
FF,
04,
FB,
FB,
FF,
00,
03,
0A,
F8,
07,
06,
F5,
07,
FC,
F6,
FD,
FA,
05,
04,
FE,
FB,
03,
02,
06,
08,
03,
00,
07,
00,
02,
FC,
FE,
F8,
02,
F5,
01,
FC,
00,
03,
05,
04,
FF,
02,
04,
04,
FF,
F9,
F6,
FF,
FD,
01,
01,
07,
08,
01,
04,
05,
F9,
00,
F8,
FC,
FE,
09,
06,
09,
05,
04,
FC,
09,
FF,
04,
0A,
01,
0B,
02,
FB,
01,
F6,
F7,
FA,
FB,
FB,
06,
FF,
FE,
F5,
04,
02,
04,
01,
01,
FF,
F9,
02,
07,
FF,
FE,
06,
FB,
FB,
FF,
FD,
05,
0C,
0C,
F8,
01,
FB,
F5,
01,
FB,
03,
FF,
05,
01,
0A,
06,
F7,
04,
FF,
FF,
02,
FB,
01,
F1,
00,
03,
04,
FF,
FF,
FC,
03,
03,
03,
FA,
02,
FE,
FF,
F2,
05,
FA,
FC,
FE,
FA,
FF,
F9,
F7,
FD,
02,
F8,
FE,
FD,
FC,
09,
FF,
FE,
FF,
04,
04,
FC,
FA,
01,
F9,
F1,
FD,
F6,
03,
06,
07,
FF,
00,
09,
0B,
F9,
FD,
FA,
06,
00,
05,
00,
01,
FB,
FD,
01,
01,
FA,
00,
FF,
01,
00,
FB,
FA,
0A,
00,
F8,
F5,
03,
FE,
FD,
04,
00,
04,
FF,
FB,
0B,
07,
02,
06,
FC,
01,
F7,
F6,
FD,
FC,
FB,
FD,
02,
00,
01,
F8,
FA,
FE,
02,
FD,
05,
FC,
00,
03,
FD,
08,
01,
08,
FD,
FB,
FD,
00,
F8,
FE,
FC,
F9,
FA,
F9,
04,
FD,
04,
06,
02,
00,
FD,
01,
00,
02,
F5,
00,
F7,
F9,
FA,
FC,
04,
FC,
05,
01,
00,
02,
01,
FE,
FB,
02,
FC,
F6,
01,
05,
02,
06,
01,
00,
00,
01,
02,
FF,
02,
F4,
F7,
FD,
FB,
01,
01,
FF,
F7,
F0,
F8,
04,
05,
09,
00,
06,
03,
01,
F7,
02,
00,
F5,
01,
09,
F9,
01,
FF,
02,
FB,
02,
FA,
FC,
FF,
FC,
FB,
07,
FC,
02,
00,
04,
0B,
FD,
FC,
01,
FA,
F8,
F4,
07,
09,
FE,
04,
0E,
0B,
FB,
FF,
01,
FB,
F9,
FC,
06,
FE,
FF,
06,
00,
08,
FA,
FB,
06,
FF,
06,
FB,
04,
04,
F6,
FE,
04,
01,
0A,
01,
FF,
FC,
FA,
F8,
00,
00,
00,
05,
FB,
FC,
04,
04,
FB,
FB,
FA,
F5,
09,
05,
FF,
08,
FE,
FE,
06,
03,
01,
0B,
00,
00,
FF,
00,
F2,
FE,
FE,
FA,
FF,
F8,
00,
F5,
FB,
09,
06,
04,
FE,
FB,
05,
05,
06,
FE,
FA,
04,
FD,
F8,
FD,
FB,
FE,
06,
F5,
00,
00,
FD,
0F,
FE,
0A,
03,
FD,
F5,
F8,
F9,
FE,
0D,
FA,
F5,
01,
03,
F9,
F7,
05,
06,
00,
05,
F0,
F8,
03,
FA,
F9,
04,
F9,
FB,
08,
FD,
06,
05,
FE,
FB,
FC,
03,
00,
00,
08,
0C,
FC,
01,
FD,
F7,
07,
FF,
FA,
02,
07,
04,
FB,
07,
03,
F8,
03,
05,
06,
02,
00,
07,
06,
F8,
0B,
FF,
F5,
FD,
FD,
00,
F7,
FF,
02,
07,
08,
01,
02,
F9,
01,
00,
06,
01,
02,
07,
02,
03,
02,
04,
06,
FF,
FB,
FA,
00,
02,
FA,
08,
FD,
F5,
FF,
0A,
02,
FE,
09,
0C,
FB,
FC,
FE,
03,
FF,
FA,
03,
FC,
F8,
FE,
06,
F2,
F7,
01,
F5,
F8,
03,
FE,
FC,
05,
F6,
FD,
03,
05,
00,
FE,
F3,
FE,
03,
FC,
FD,
02,
04,
04,
09,
03,
03,
FF,
04,
03,
05,
07,
F7,
01,
0A,
06,
F8,
FC,
00,
05,
02,
FB,
05,
FA,
FE,
01,
00,
02,
05,
02,
FB,
0A,
FA,
02,
FE,
06,
F7,
01,
00,
03,
F1,
00,
0A,
FA,
06,
FB,
0A,
03,
FF,
FB,
03,
FC,
F5,
03,
03,
F7,
02,
04,
FD,
FD,
FD,
06,
03,
07,
F8,
F5,
FC,
FF,
F6,
05,
05,
FF,
07,
F6,
01,
00,
02,
09,
00,
09,
F7,
05,
00,
00,
F8,
FC,
04,
F8,
FF,
00,
FE,
02,
F7,
02,
04,
02,
05,
01,
FF,
04,
FF,
09,
03,
07,
02,
0A,
FE,
00,
FE,
02,
FE,
FA,
FA,
05,
FA,
FD,
06,
06,
F6,
FD,
FC,
07,
03,
F9,
04,
FF,
FE,
00,
06,
FE,
FC,
03,
FB,
FB,
00,
02,
0D,
FD,
F7,
FF,
FA,
FB,
FE,
08,
FE,
F9,
FC,
FA,
FE,
FF,
00,
FE,
FE,
FE,
07,
08,
03,
07,
FE,
FF,
FB,
01,
05,
01,
01,
09,
02,
F8,
F8,
03,
FC,
06,
07,
03,
FF,
FE,
F3,
FE,
FD,
09,
06,
FB,
FE,
02,
01,
0C,
05,
02,
FB,
F8,
02,
08,
FE,
FB,
FE,
03,
F6,
08,
F9,
07,
01,
FD,
FB,
02,
04,
01,
FA,
03,
FE,
04,
07,
09,
F8,
FF,
08,
08,
02,
F6,
FC,
FB,
03,
00,
F8,
F8,
F4,
03,
FF,
08,
00,
0C,
08,
02,
FB,
FA,
F9,
FE,
08,
F8,
FD,
02,
F3,
FD,
F4,
F5,
FC,
FD,
01,
03,
07,
06,
07,
06,
08,
04,
FF,
00,
FE,
FE,
01,
FF,
02,
00,
00,
05,
FF,
06,
01,
FD,
FE,
F6,
07,
FA,
FF,
FA,
00,
03,
FE,
02,
FF,
04,
02,
FD,
FC,
FE,
02,
FC,
FA,
00,
02,
FE,
FE,
FC,
07,
07,
05,
FB,
FE,
00,
FA,
FE,
F9,
00,
02,
05,
02,
01,
F7,
FC,
01,
FF,
FF,
03,
02,
F9,
FD,
00,
07,
02,
FE,
F8,
03,
FE,
FC,
06,
00,
FC,
FF,
FB,
0A,
0C,
02,
FE,
00,
04,
08,
02,
00,
FC,
02,
FF,
F6,
FC,
01,
F5,
01,
01,
F3,
FB,
04,
03,
FE,
FF,
FA,
F7,
01,
00,
03,
00,
FF,
F8,
03,
F7,
FF,
FB,
03,
FB,
FF,
F9,
FF,
FD,
FE,
00,
FE,
FF,
FA,
FC,
08,
02,
FF,
01,
00,
02,
00,
01,
09,
06,
00,
03,
0A,
FE,
FF,
F5,
02,
FE,
FE,
00,
05,
01,
FD,
04,
FF,
01,
FE,
F8,
03,
03,
FD,
04,
05,
FB,
FA,
F8,
FD,
FD,
FB,
02,
FF,
FA,
FF,
F8,
F6,
F8,
02,
FF,
04,
FE,
01,
02,
03,
02,
09,
04,
FC,
07,
FD,
03,
FE,
02,
FE,
07,
00,
00,
05,
F6,
03,
FF,
F5,
01,
FC,
02,
FC,
01,
01,
00,
04,
FA,
02,
01,
02,
05,
00,
FD,
FE,
01,
01,
01,
05,
FE,
04,
00,
F8,
F7,
09,
FC,
FE,
0C,
02,
F7,
FC,
FE,
00,
04,
06,
01,
FD,
01,
04,
FC,
FE,
FC,
02,
04,
05,
02,
02,
05,
09,
01,
05,
FF,
FD,
FA,
FC,
04,
FF,
FB,
05,
10,
03,
F7,
FF,
FE,
F8,
06,
00,
04,
04,
03,
03,
07,
02,
F4,
FF,
FF,
FA,
03,
F3,
FE,
03,
FC,
F9,
FE,
FF,
09,
FB,
FB,
03,
05,
01,
02,
05,
02,
07,
02,
03,
02,
01,
FF,
02,
01,
03,
02,
02,
FE,
FB,
FA,
FE,
03,
02,
09,
00,
FF,
F9,
F8,
02,
FC,
05,
FD,
05,
FC,
FE,
FD,
FF,
00,
FB,
F6,
F9,
FC,
FC,
FF,
05,
02,
04,
FA,
F8,
05,
03,
F7,
FC,
01,
03,
03,
FC,
00,
03,
01,
01,
FE,
FB,
03,
02,
04,
FF,
02,
01,
FE,
01,
F8,
00,
FA,
02,
03,
FC,
00,
FB,
04,
01,
04,
FE,
FD,
FE,
00,
04,
FD,
FF,
0A,
00,
05,
FB,
00,
FB,
05,
04,
FD,
FF,
F9,
FD,
01,
06,
03,
05,
FD,
06,
FE,
FE,
01,
04,
02,
02,
00,
02,
FF,
06,
0A,
FB,
01,
04,
0A,
0A,
02,
01,
06,
08,
05,
0E,
00,
FE,
03,
FD,
FC,
FF,
FE,
03,
08,
04,
02,
05,
04,
00,
01,
04,
FF,
FA,
02,
08,
01,
03,
02,
07,
FF,
FD,
FC,
FD,
FC,
FD,
FF,
06,
FA,
02,
FE,
FB,
04,
00,
02,
05,
03,
01,
03,
04,
00,
FE,
02,
FE,
02,
01,
03,
FD,
FF,
07,
03,
00,
FD,
02,
01,
00,
00,
FE,
FA,
FF,
FD,
02,
FE,
FC,
F6,
FB,
FA,
FB,
FC,
F8,
00,
09,
FE,
04,
00,
02,
01,
04,
07,
03,
02,
04,
04,
02,
FE,
05,
02,
00,
08,
05,
09,
01,
FE,
FD,
FD,
01,
03,
FE,
FE,
05,
FD,
FC,
08,
FF,
04,
FF,
08,
0A,
03,
03,
FE,
01,
FE,
00,
FA,
FC,
02,
00,
03,
FF,
03,
FD,
FF,
00,
03,
FE,
F8,
04,
03,
00,
07,
06,
05,
FC,
FA,
00,
01,
07,
09,
FE,
FF,
06,
FF,
FD,
05,
FC,
00,
01,
FE,
FE,
FD,
09,
FA,
FB,
00,
02,
FC,
03,
FE,
F7,
FB,
05,
FF,
F8,
F9,
FD,
F8,
00,
FF,
05,
00,
FD,
F8,
00,
02,
03,
01,
FF,
FD,
03,
00,
FF,
06,
FE,
FA,
FB,
F9,
FF,
00,
FC,
FB,
F8,
FF,
FD,
FC,
01,
05,
01,
FC,
F9,
FA,
00,
FF,
04,
04,
01,
08,
00,
FB,
FA,
FC,
02,
FF,
02,
03,
FF,
03,
F3,
F8,
FA,
04,
FF,
01,
07,
00,
02,
FD,
00,
02,
05,
FE,
FD,
FF,
00,
00,
05,
07,
00,
01,
F9,
04,
02,
05,
0C,
FD,
F8,
FC,
FD,
02,
01,
01,
FC,
01,
02,
FD,
F7,
03,
02,
F9,
06,
07,
08,
01,
FD,
02,
01,
FC,
00,
FE,
FE,
01,
00,
FE,
00,
07,
FF,
00,
04,
01,
03,
01,
01,
FD,
FF,
F9,
00,
FA,
FB,
FA,
00,
01,
0C,
FE,
00,
FD,
01,
FE,
FA,
03,
00,
FE,
03,
03,
03,
01,
FD,
09,
07,
00,
02,
FD,
FE,
00,
02,
FC,
01,
00,
FC,
03,
03,
03,
01,
02,
0C,
0B,
FE,
01,
FC,
FD,
FD,
FF,
FF,
F8,
FB,
FE,
F5,
FF,
04,
F8,
FB,
FE,
01,
FD,
F7,
03,
04,
00,
FD,
01,
F6,
09,
FF,
07,
06,
03,
00,
FF,
03,
03,
01,
00,
05,
04,
03,
02,
02,
FD,
0D,
FE,
FE,
FE,
04,
FA,
F9,
00,
05,
FB,
02,
01,
04,
FB,
FF,
FD,
05,
04,
04,
01,
00,
FD,
FA,
02,
01,
02,
FE,
FF,
04,
00,
01,
04,
02,
00,
F9,
02,
FE,
09,
FE,
FB,
00,
F6,
FE,
FD,
FA,
F9,
FB,
F8,
07,
FF,
FC,
01,
FD,
06,
FF,
08,
00,
FF,
02,
02,
04,
00,
01,
03,
FA,
07,
03,
03,
FE,
FF,
03,
FF,
F9,
04,
FD,
03,
00,
00,
06,
FD,
FE,
04,
FD,
03,
01,
07,
02,
FD,
FF,
FF,
FC,
05,
07,
05,
00,
04,
04,
06,
06,
04,
09,
FC,
08,
FD,
03,
05,
00,
00,
02,
05,
00,
FC,
FB,
F8,
F8,
FF,
FE,
06,
FF,
FB,
F9,
F3,
00,
02,
FF,
FA,
00,
F7,
FC,
02,
00,
FE,
07,
00,
03,
04,
02,
FB,
01,
01,
FE,
01,
04,
FE,
02,
04,
FF,
FD,
FE,
FF,
F0,
02,
03,
FB,
01,
FD,
06,
FE,
FF,
05,
FC,
F8,
FC,
05,
04,
FE,
05,
06,
03,
F9,
06,
02,
02,
03,
FC,
FF,
FE,
FE,
F3,
FA,
0C,
FC,
06,
01,
03,
03,
04,
05,
0A,
02,
02,
07,
02,
01,
01,
FC,
FE,
01,
FB,
04,
02,
FA,
FA,
01,
04,
FD,
FD,
FC,
FE,
FA,
FF,
02,
06,
FA,
02,
FD,
00,
FE,
04,
FF,
01,
F9,
06,
FC,
FC,
00,
FF,
00,
02,
FD,
05,
FE,
00,
00,
01,
02,
00,
02,
FF,
06,
06,
02,
04,
01,
FF,
02,
07,
03,
01,
03,
04,
01,
FE,
00,
FB,
01,
03,
FE,
FE,
FF,
00,
01,
04,
01,
FE,
FD,
04,
05,
FF,
01,
03,
04,
00,
03,
FE,
04,
05,
FC,
FB,
FD,
FC,
F9,
01,
FF,
02,
02,
04,
01,
FF,
02,
08,
FE,
00,
FC,
09,
F9,
01,
FA,
FE,
FA,
FB,
FB,
08,
F6,
FB,
04,
FE,
02,
FD,
FC,
00,
FB,
FB,
FA,
FA,
F6,
01,
F9,
F9,
FD,
02,
FA,
02,
F9,
02,
06,
FC,
02,
FD,
FA,
0A,
03,
00,
FE,
F9,
FF,
FE,
FA,
06,
FE,
02,
04,
01,
00,
FA,
04,
01,
07,
00,
FE,
01,
02,
05,
08,
FF,
FE,
FC,
FE,
06,
FD,
FB,
FB,
FE,
04,
02,
02,
01,
FC,
02,
FC,
04,
FA,
FF,
F9,
01,
FB,
F7,
FF,
03,
FA,
FC,
01,
01,
FC,
01,
05,
FA,
F7,
FC,
FD,
03,
00,
02,
FD,
FB,
09,
F7,
08,
F7,
00,
00,
FF,
04,
FB,
FD,
0A,
FA,
02,
02,
F9,
FF,
F7,
FA,
04,
FC,
F8,
05,
05,
F7,
FA,
F8,
FC,
04,
FD,
FD,
03,
00,
00,
FD,
FD,
F5,
FF,
02,
F8,
06,
00,
FC,
00,
FC,
05,
FD,
FC,
01,
FE,
FC,
FB,
04,
FE,
09,
08,
FE,
07,
07,
04,
06,
00,
FE,
06,
FF,
06,
06,
07,
03,
02,
F6,
FD,
FB,
01,
03,
04,
09,
FE,
03,
FA,
F9,
FC,
F8,
01,
FE,
02,
05,
01,
00,
FB,
F6,
FE,
FC,
F9,
F8,
00,
06,
03,
02,
FC,
FD,
00,
FA,
01,
00,
FF,
00,
0A,
00,
03,
05,
FE,
00,
07,
07,
03,
FF,
FE,
03,
06,
05,
FD,
04,
FB,
01,
03,
01,
00,
FD,
FC,
06,
FF,
FF,
FC,
00,
F8,
00,
00,
FA,
FC,
04,
01,
FD,
00,
FE,
07,
05,
01,
01,
01,
FD,
FA,
01,
FD,
0A,
FF,
03,
00,
FD,
F8,
00,
03,
05,
07,
01,
FC,
00,
FD,
FE,
01,
FC,
01,
00,
00,
01,
03,
FC,
FF,
01,
05,
02,
08,
05,
FF,
01,
02,
FD,
FF,
FC,
FF,
FC,
01,
01,
FD,
01,
FE,
02,
04,
03,
00,
05,
FF,
01,
07,
01,
07,
FE,
00,
03,
FB,
03,
02,
05,
02,
FF,
00,
FD,
FF,
F6,
00,
FB,
FD,
FB,
FB,
FA,
FD,
02,
FB,
01,
03,
01,
FE,
FA,
00,
FD,
FC,
03,
FA,
00,
FF,
FD,
00,
FC,
FE,
08,
03,
02,
FE,
03,
FD,
FC,
F5,
FC,
FD,
02,
F9,
FD,
00,
F8,
02,
08,
F9,
FA,
FC,
02,
03,
F5,
FE,
FA,
01,
06,
FB,
00,
FF,
03,
FD,
02,
04,
FE,
04,
07,
05,
00,
08,
02,
04,
F8,
00,
FD,
04,
06,
04,
06,
FE,
00,
FC,
00,
0E,
06,
05,
FF,
F7,
00,
03,
00,
FB,
FF,
00,
FC,
00,
02,
FD,
06,
FD,
02,
02,
FD,
FE,
FA,
0A,
00,
04,
01,
FD,
FE,
01,
F4,
01,
04,
01,
01,
FE,
01,
FD,
01,
04,
02,
FD,
07,
FC,
FF,
FC,
02,
02,
F6,
FD,
FE,
06,
03,
04,
0A,
00,
FA,
FE,
01,
02,
04,
01,
FD,
03,
FD,
06,
01,
06,
05,
01,
FE,
FF,
00,
FF,
05,
01,
03,
01,
01,
FF,
03,
03,
F9,
FB,
04,
FE,
04,
FD,
02,
06,
03,
F7,
05,
FC,
FE,
0A,
01,
FD,
FC,
FD,
02,
03,
FF,
F9,
FB,
FD,
FF,
02,
FF,
00,
FB,
FC,
FB,
01,
FF,
06,
03,
F8,
FF,
F8,
02,
06,
FF,
FE,
FF,
05,
FF,
FE,
FB,
00,
F7,
04,
FE,
03,
FD,
03,
00,
FA,
FF,
F8,
04,
FD,
FD,
05,
04,
06,
07,
00,
FC,
03,
FE,
FD,
F9,
02,
FF,
FB,
03,
00,
FD,
F8,
FE,
03,
05,
FD,
FD,
07,
FE,
03,
05,
FF,
02,
00,
F7,
00,
03,
FF,
FF,
05,
FA,
FA,
03,
F9,
FA,
FC,
FC,
FD,
FC,
02,
02,
FC,
01,
FB,
01,
F7,
FE,
00,
FE,
04,
02,
09,
00,
04,
F9,
FA,
00,
00,
FE,
04,
FE,
FA,
00,
01,
FA,
02,
07,
04,
FF,
FB,
04,
04,
05,
02,
FF,
FD,
FE,
F1,
F4,
FF,
FA,
F0,
FC,
01,
FA,
FF,
08,
01,
04,
05,
FD,
FA,
02,
FC,
FF,
04,
00,
FA,
F8,
00,
03,
02,
FE,
F9,
FC,
02,
FA,
FC,
FB,
FC,
03,
03,
FD,
02,
FD,
08,
05,
05,
09,
FD,
FB,
FD,
FE,
FA,
FD,
FD,
05,
F8,
FF,
04,
F8,
F9,
FB,
FC,
FB,
05,
FD,
02,
02,
04,
02,
FF,
01,
07,
FA,
03,
05,
05,
02,
05,
FE,
06,
FF,
00,
05,
FE,
03,
01,
0A,
03,
01,
01,
F7,
FD,
FF,
04,
00,
00,
FD,
01,
00,
02,
01,
00,
02,
01,
08,
FC,
03,
04,
FE,
FC,
FC,
FA,
FE,
FC,
F9,
FA,
0D,
07,
03,
FE,
FD,
FB,
02,
02,
00,
05,
00,
07,
09,
F9,
02,
FF,
06,
03,
02,
01,
08,
FD,
FB,
01,
00,
04,
02,
00,
FC,
FE,
FF,
01,
FB,
02,
FC,
01,
FF,
02,
FC,
00,
FE,
00,
FE,
06,
FB,
06,
00,
0D,
FC,
FD,
FF,
FE,
FB,
03,
FE,
00,
FF,
08,
00,
06,
FD,
FE,
FD,
05,
FB,
FF,
04,
00,
03,
02,
03,
06,
0A,
05,
04,
09,
01,
FF,
FD,
06,
03,
08,
03,
00,
FD,
FD,
FC,
FD,
02,
FF,
F8,
06,
00,
01,
01,
00,
FE,
02,
FF,
02,
06,
F9,
07,
03,
04,
FF,
04,
04,
FA,
03,
FF,
01,
03,
03,
FD,
00,
00,
07,
02,
04,
FA,
FF,
FE,
FB,
FA,
FC,
FB,
FF,
FA,
FD,
FE,
03,
00,
FE,
01,
07,
00,
02,
FB,
FF,
01,
FB,
FA,
FC,
FB,
00,
02,
F9,
FF,
F8,
00,
F9,
01,
FA,
FB,
00,
FF,
03,
FA,
FD,
F8,
FE,
FF,
FE,
FB,
FF,
05,
02,
02,
06,
00,
00,
01,
02,
09,
05,
FF,
F4,
04,
FF,
03,
FD,
04,
FF,
FD,
00,
FC,
FD,
03,
FC,
F8,
F9,
FE,
04,
06,
FF,
F3,
05,
F9,
03,
F8,
FC,
FE,
FB,
02,
FE,
FB,
00,
03,
01,
05,
03,
01,
04,
06,
03,
02,
FD,
05,
FD,
FF,
FC,
01,
07,
05,
03,
FF,
01,
FB,
FF,
FF,
FB,
02,
00,
07,
FE,
04,
03,
0C,
08,
04,
FB,
02,
00,
0A,
07,
04,
FF,
01,
06,
03,
04,
01,
03,
F9,
F9,
FD,
08,
FE,
07,
FA,
FE,
01,
FE,
FB,
FD,
FF,
06,
05,
00,
FE,
FF,
FE,
FF,
08,
FD,
06,
F6,
FF,
01,
FF,
FD,
05,
01,
00,
F9,
F9,
FF,
FD,
04,
FE,
06,
FE,
FF,
05,
03,
01,
FD,
06,
01,
FC,
03,
01,
05,
01,
00,
FC,
01,
04,
00,
FE,
00,
FD,
00,
FD,
F7,
F7,
FD,
07,
FC,
04,
FB,
FB,
FF,
FA,
05,
FC,
02,
F9,
F9,
FB,
F7,
00,
FB,
00,
00,
F9,
FF,
FA,
FF,
FB,
01,
F4,
00,
F9,
04,
FF,
FF,
02,
FF,
03,
FC,
FD,
02,
03,
00,
F9,
FA,
FF,
FF,
FE,
FA,
F8,
02,
FD,
06,
03,
05,
FF,
FF,
01,
FF,
01,
06,
03,
06,
05,
00,
05,
02,
05,
FC,
04,
FF,
FC,
FE,
FD,
05,
FF,
FC,
01,
02,
FF,
02,
FD,
07,
02,
00,
01,
03,
F6,
F7,
F9,
FB,
04,
06,
F9,
FF,
FD,
05,
FF,
06,
05,
02,
05,
03,
FA,
00,
01,
00,
00,
06,
FD,
FC,
FD,
05,
08,
FA,
05,
04,
05,
05,
02,
01,
00,
FE,
FB,
FD,
FB,
FA,
02,
FE,
FA,
FF,
FA,
FC,
F5,
01,
FE,
FE,
F8,
F9,
03,
02,
03,
08,
00,
02,
FF,
FF,
F9,
FA,
FE,
00,
FA,
F8,
FF,
04,
00,
FC,
01,
F9,
01,
02,
01,
FE,
F3,
05,
FA,
F5,
FA,
F8,
FE,
05,
FF,
06,
01,
07,
FF,
FC,
FA,
02,
02,
05,
00,
FE,
04,
FD,
FA,
FD,
FF,
FE,
02,
FD,
03,
00,
FB,
F1,
F8,
FD,
F3,
FE,
FC,
FC,
FC,
00,
03,
03,
FE,
01,
00,
F8,
FF,
FC,
FF,
F7,
04,
04,
F7,
04,
FE,
03,
F8,
FB,
F9,
F9,
06,
02,
0B,
00,
F6,
07,
FB,
09,
FA,
08,
04,
07,
00,
F4,
05,
FC,
00,
FD,
FB,
FB,
FA,
FE,
FA,
F9,
00,
02,
FE,
FD,
FB,
FF,
FD,
03,
F3,
F5,
0B,
08,
09,
FF,
FB,
02,
F8,
00,
FA,
03,
FC,
F8,
07,
02,
F8,
FE,
0F,
F2,
08,
03,
09,
00,
F4,
01,
FA,
01,
FF,
01,
F7,
04,
00,
00,
F9,
06,
FA,
FF,
08,
03,
FD,
07,
04,
F8,
FE,
07,
07,
F8,
02,
05,
FC,
FE,
FA,
09,
F3,
00,
03,
0A,
FC,
06,
FD,
F4,
11,
FE,
03,
FE,
FE,
00,
F8,
F4,
FD,
05,
01,
FD,
F7,
05,
FC,
00,
00,
FF,
FD,
03,
FA,
00,
FE,
04,
FA,
05,
08,
FB,
F2,
07,
F9,
06,
FB,
05,
06,
05,
02,
08,
F9,
04,
F8,
FF,
FC,
FD,
12,
F9,
07,
09,
09,
F6,
FC,
FD,
F5,
00,
FD,
00,
01,
FB,
03,
03,
06,
FB,
FE,
02,
FF,
FD,
02,
07,
00,
0C,
04,
FC,
01,
08,
FE,
F6,
EF,
F5,
FA,
02,
04,
F7,
00,
05,
08,
04,
F6,
FE,
FE,
04,
07,
F6,
FF,
09,
00,
00,
09,
01,
04,
09,
FF,
FA,
01,
F1,
FE,
09,
FB,
FB,
FA,
FD,
F6,
F5,
FA,
05,
FA,
FB,
F9,
08,
00,
FC,
02,
09,
05,
F9,
03,
FE,
FE,
F9,
FE,
F8,
0B,
FA,
00,
04,
FA,
08,
F6,
02,
01,
FA,
FA,
07,
03,
FA,
FB,
03,
06,
FF,
03,
FD,
FD,
0B,
FB,
07,
FD,
04,
FD,
05,
FF,
00,
07,
F8,
05,
FC,
FB,
00,
05,
06,
FC,
00,
FF,
01,
00,
F7,
04,
FA,
00,
FD,
F8,
FB,
00,
FF,
F4,
FC,
00,
07,
04,
01,
03,
F8,
06,
08,
FF,
FB,
01,
00,
F5,
01,
08,
02,
F7,
F7,
02,
06,
00,
00,
FD,
04,
FD,
FC,
02,
F6,
FB,
FB,
FD,
FB,
06,
03,
FA,
00,
F6,
FF,
07,
FD,
04,
FA,
06,
FB,
FC,
FB,
08,
F8,
00,
FF,
00,
03,
FC,
FB,
01,
FD,
FF,
07,
F7,
00,
FA,
08,
03,
01,
07,
00,
FF,
03,
FA,
F8,
06,
FC,
F7,
04,
FA,
FE,
05,
06,
FF,
F6,
00,
FF,
04,
FC,
FA,
FA,
FA,
F9,
FC,
01,
FE,
FF,
01,
03,
FB,
FB,
F9,
FD,
F6,
F7,
01,
01,
06,
FF,
00,
FE,
FB,
FC,
01,
FF,
08,
F6,
FA,
02,
FD,
02,
00,
07,
03,
FA,
F8,
FF,
02,
00,
FE,
00,
05,
FC,
05,
0C,
01,
0B,
05,
FB,
00,
07,
04,
FD,
00,
FE,
06,
0A,
FD,
F4,
FE,
00,
FD,
FE,
03,
03,
FE,
02,
FC,
FE,
01,
04,
06,
02,
FE,
F9,
FA,
F8,
06,
FB,
07,
FC,
03,
02,
FA,
FD,
02,
00,
00,
FD,
F8,
FF,
07,
01,
02,
00,
FF,
FF,
03,
F7,
02,
FF,
03,
FD,
07,
04,
06,
FC,
07,
FE,
0D,
0B,
04,
00,
FD,
08,
FE,
FB,
FD,
04,
00,
FD,
01,
07,
07,
02,
FD,
02,
02,
F5,
02,
06,
01,
00,
02,
FC,
05,
FD,
FD,
FD,
01,
FE,
04,
03,
05,
04,
FD,
02,
FC,
FB,
FD,
09,
FA,
FE,
FC,
FD,
F2,
F6,
F8,
FF,
FB,
00,
05,
F9,
F6,
F1,
04,
03,
00,
FA,
00,
F6,
03,
FF,
00,
08,
06,
FD,
01,
03,
FA,
FA,
FB,
03,
FC,
05,
05,
07,
FB,
02,
03,
02,
FF,
03,
01,
05,
07,
FB,
FB,
02,
00,
EB,
FB,
FD,
FD,
F8,
08,
FC,
01,
04,
04,
09,
FC,
FF,
FF,
FF,
07,
06,
FA,
FC,
0A,
02,
04,
02,
FC,
FF,
05,
01,
FF,
04,
F8,
00,
02,
02,
06,
04,
FB,
FB,
FF,
FF,
FB,
FF,
FE,
FE,
02,
FC,
FA,
06,
02,
05,
09,
F0,
FD,
07,
00,
F6,
03,
F9,
F8,
FD,
FB,
01,
F7,
04,
0C,
04,
05,
02,
02,
FF,
04,
02,
01,
FF,
FB,
FF,
08,
00,
FB,
01,
01,
02,
00,
FD,
FE,
08,
FA,
FF,
F5,
03,
F1,
08,
FE,
FC,
FF,
04,
FC,
EC,
FD,
FF,
F0,
0D,
FC,
FC,
01,
FD,
FF,
FC,
00,
F6,
00,
09,
FD,
03,
F8,
0A,
F3,
00,
01,
04,
03,
FC,
FF,
07,
08,
FD,
01,
0A,
FC,
FF,
FC,
FF,
11,
F9,
02,
03,
01,
FD,
F8,
F5,
00,
07,
FC,
01,
03,
FF,
00,
FA,
02,
06,
08,
00,
02,
0F,
01,
05,
04,
F9,
FF,
01,
F9,
FF,
FF,
FC,
EE,
FD,
05,
FD,
00,
FF,
00,
05,
07,
04,
06,
0A,
03,
F7,
F9,
0C,
F7,
01,
F7,
FA,
F8,
00,
FD,
00,
03,
FE,
FA,
05,
FF,
0E,
FF,
FC,
F7,
06,
FE,
F3,
05,
F4,
FE,
00,
FF,
00,
09,
06,
01,
06,
FE,
FA,
01,
F9,
F9,
F6,
06,
02,
05,
FE,
FF,
FC,
FB,
01,
FD,
01,
F9,
04,
03,
07,
04,
FA,
FA,
FD,
FD,
02,
0A,
FC,
FB,
FE,
FD,
FB,
0B,
06,
FA,
F9,
05,
03,
00,
04,
FD,
00,
FB,
F2,
04,
FD,
FD,
06,
FE,
FB,
00,
FF,
00,
FD,
F8,
00,
00,
FD,
FA,
FE,
FB,
F4,
FC,
FF,
FC,
00,
00,
00,
FC,
01,
05,
FF,
F2,
02,
01,
FE,
01,
FF,
FE,
03,
09,
FA,
01,
F9,
00,
05,
08,
FF,
FD,
FA,
F6,
FA,
FF,
FE,
FF,
FC,
00,
FD,
FC,
05,
0B,
01,
00,
00,
FE,
F8,
03,
02,
FC,
00,
01,
05,
F7,
06,
0A,
01,
FC,
FC,
F4,
00,
01,
02,
F9,
09,
F6,
04,
FD,
FE,
03,
F5,
FF,
01,
F4,
0A,
00,
00,
FF,
FD,
FC,
FA,
FA,
FE,
FD,
11,
00,
04,
F9,
FF,
F5,
00,
F8,
00,
05,
FE,
FC,
F8,
F4,
FD,
00,
04,
02,
00,
09,
F9,
FC,
06,
09,
01,
FC,
08,
07,
07,
FE,
FF,
01,
FC,
00,
F7,
02,
00,
FA,
FA,
00,
00,
00,
06,
06,
07,
FD,
00,
F8,
06,
FF,
00,
FF,
06,
04,
05,
02,
0A,
F7,
08,
FD,
F2,
03,
FC,
FF,
03,
FD,
FE,
00,
FC,
FA,
FF,
FF,
F9,
0B,
FA,
00,
04,
02,
FD,
03,
08,
07,
FE,
F6,
05,
F9,
07,
04,
FE,
0A,
09,
FD,
04,
04,
FA,
F7,
F7,
FF,
FB,
01,
03,
FD,
06,
03,
05,
FF,
00,
04,
FF,
01,
F7,
00,
05,
04,
FC,
FC,
02,
03,
FA,
FA,
01,
F8,
07,
07,
00,
08,
01,
07,
02,
FD,
FB,
FA,
FF,
00,
01,
FB,
FE,
01,
0E,
01,
01,
04,
FB,
05,
03,
01,
01,
F8,
00,
0E,
EF,
00,
FC,
FA,
FD,
00,
FB,
07,
02,
FC,
03,
FF,
04,
04,
FF,
00,
08,
FE,
FC,
FB,
F9,
FE,
05,
F8,
01,
04,
05,
0A,
09,
FE,
F5,
FA,
F8,
08,
F9,
FF,
08,
FF,
F9,
F6,
FA,
FD,
04,
FE,
FE,
FD,
F1,
F8,
F9,
01,
F9,
FA,
F8,
00,
F8,
01,
F7,
0B,
01,
FC,
0A,
09,
05,
00,
04,
0A,
FA,
FF,
FC,
02,
F5,
F9,
FF,
07,
FF,
07,
06,
F5,
FE,
FD,
F5,
00,
01,
FE,
F6,
FF,
FF,
06,
FE,
0C,
0A,
0C,
06,
04,
FC,
FF,
F5,
FD,
FE,
FE,
03,
FA,
01,
FE,
FB,
FD,
07,
06,
F7,
08,
01,
FE,
FC,
FF,
02,
FD,
FB,
06,
0C,
FC,
FE,
06,
08,
FB,
FB,
09,
FE,
02,
01,
FC,
03,
02,
00,
FC,
FE,
FE,
FD,
04,
01,
F8,
FE,
05,
FC,
06,
FC,
FA,
F7,
F9,
02,
FF,
03,
00,
FD,
FF,
FC,
01,
FA,
07,
02,
01,
03,
03,
09,
05,
06,
FD,
06,
F4,
02,
FE,
FD,
03,
F9,
FB,
F9,
F1,
FC,
05,
05,
F9,
FA,
FB,
FC,
02,
FC,
FF,
04,
F9,
FA,
FF,
FF,
FA,
02,
06,
FC,
FA,
FD,
FB,
F7,
FA,
00,
04,
FE,
00,
02,
04,
05,
FE,
FE,
03,
00,
F6,
FD,
01,
FF,
FE,
FB,
03,
02,
08,
FE,
FC,
FC,
00,
06,
FE,
00,
FB,
01,
FE,
05,
05,
FC,
FD,
07,
04,
F8,
FD,
08,
00,
03,
01,
FE,
FF,
06,
FF,
FE,
07,
02,
FE,
02,
04,
FE,
F8,
FF,
F7,
06,
F8,
03,
03,
FE,
05,
FF,
05,
FF,
02,
06,
00,
FC,
FA,
04,
01,
00,
00,
F2,
01,
09,
F9,
02,
F4,
04,
FE,
0B,
FD,
FD,
03,
08,
00,
F5,
11,
F7,
03,
FA,
F9,
FF,
FB,
F7,
00,
00,
FC,
FC,
00,
F9,
FB,
04,
FE,
FF,
FF,
04,
04,
FB,
F7,
FC,
FD,
F9,
FD,
FE,
00,
03,
01,
FF,
FC,
0D,
FF,
FC,
06,
FD,
04,
01,
08,
07,
FF,
FF,
FC,
01,
E8,
FC,
07,
FB,
00,
01,
00,
02,
FD,
F5,
F6,
00,
FF,
02,
FE,
00,
F8,
07,
02,
00,
02,
FC,
FB,
FC,
06,
00,
00,
08,
FC,
FA,
02,
FC,
F9,
00,
FB,
09,
F8,
08,
FE,
FE,
03,
03,
FE,
02,
08,
FA,
09,
05,
F4,
FD,
FC,
FD,
F9,
04,
F8,
F3,
04,
07,
FE,
03,
09,
04,
02,
05,
FD,
FD,
02,
FB,
00,
03,
04,
04,
0C,
FE,
06,
01,
F8,
10,
FF,
F8,
0B,
07,
00,
05,
05,
0A,
01,
FE,
FC,
04,
02,
06,
FB,
FC,
07,
F9,
F8,
FD,
09,
FF,
F9,
FF,
06,
02,
FB,
07,
00,
F6,
F6,
03,
02,
05,
FE,
03,
FA,
F9,
08,
01,
04,
FF,
04,
07,
F7,
FD,
F8,
FA,
FF,
FC,
02,
F9,
F8,
06,
FC,
03,
07,
03,
F9,
04,
F0,
F9,
FF,
F6,
FC,
06,
04,
F9,
07,
03,
FE,
FF,
F8,
06,
F9,
01,
F6,
00,
05,
F4,
02,
EF,
00,
FC,
FF,
06,
09,
0C,
06,
01,
04,
01,
06,
F8,
06,
FD,
02,
FC,
FE,
FA,
FC,
F8,
04,
F8,
F8,
FA,
F9,
01,
FE,
04,
FD,
03,
0C,
04,
03,
02,
01,
FE,
00,
02,
02,
FB,
06,
FF,
04,
FD,
02,
FA,
F6,
08,
F9,
F8,
FC,
FB,
00,
00,
FA,
FD,
03,
F6,
00,
FA,
00,
FF,
FA,
06,
01,
01,
FB,
04,
FC,
00,
FE,
FF,
04,
05,
07,
F9,
01,
00,
FA,
02,
FB,
00,
FF,
02,
00,
01,
FF,
EF,
07,
F7,
00,
F3,
FD,
01,
02,
03,
04,
FE,
01,
FB,
01,
03,
02,
00,
FF,
FB,
FB,
03,
07,
02,
F8,
03,
F5,
00,
0F,
FE,
04,
FB,
02,
0C,
FE,
FF,
00,
01,
06,
FD,
05,
00,
FB,
F6,
03,
F5,
03,
FC,
08,
FB,
03,
02,
F8,
FD,
FE,
01,
FF,
07,
FC,
FC,
F6,
09,
01,
FD,
FE,
F9,
F9,
FD,
07,
0B,
FB,
04,
03,
FA,
FC,
FA,
FE,
01,
FB,
F9,
00,
0D,
00,
FF,
FB,
00,
00,
FB,
F7,
03,
FD,
FF,
02,
00,
02,
01,
00,
08,
00,
06,
06,
0A,
06,
FE,
00,
0A,
F3,
FE,
00,
0C,
FB,
0A,
05,
03,
FC,
01,
FE,
F6,
06,
F4,
FA,
08,
FF,
FF,
02,
F9,
FD,
FD,
FC,
08,
F8,
02,
03,
00,
04,
0C,
02,
02,
09,
04,
FE,
01,
08,
FA,
02,
03,
02,
06,
06,
03,
FA,
07,
F9,
00,
07,
FC,
F6,
02,
00,
01,
FD,
0B,
01,
03,
05,
F9,
FF,
FF,
F9,
07,
FB,
FD,
01,
06,
F9,
FE,
FF,
00,
02,
FE,
FD,
09,
02,
F8,
09,
F7,
FB,
00,
FC,
F5,
F8,
00,
FC,
FB,
00,
00,
06,
FD,
00,
F3,
01,
FB,
FE,
F9,
05,
02,
FE,
FE,
00,
FC,
01,
0F,
FE,
02,
0B,
FD,
02,
FF,
03,
05,
F7,
FC,
03,
FE,
F6,
03,
F9,
01,
FE,
FF,
FE,
02,
09,
F8,
FC,
04,
00,
FC,
FE,
03,
01,
02,
F5,
02,
FB,
02,
04,
02,
0A,
15,
00,
04,
FB,
01,
06,
F9,
02,
05,
01,
03,
0E,
02,
0B,
0A,
00,
FF,
01,
06,
00,
07,
01,
FC,
06,
FE,
FE,
00,
04,
FA,
F8,
02,
FE,
F8,
02,
04,
02,
FF,
06,
FD,
F5,
F3,
FB,
00,
06,
04,
FE,
FF,
FC,
05,
02,
FC,
FF,
F9,
F9,
FF,
F6,
FC,
FF,
00,
0A,
01,
F7,
02,
01,
FD,
FC,
F8,
FF,
FC,
FC,
FB,
FB,
F2,
03,
FB,
05,
09,
08,
10,
FB,
F5,
FE,
03,
06,
FC,
02,
F8,
FC,
F9,
06,
01,
02,
FF,
01,
03,
01,
04,
05,
FF,
FF,
0B,
00,
02,
04,
FE,
F8,
0D,
03,
06,
FE,
FF,
01,
06,
00,
FD,
02,
02,
03,
F5,
FF,
00,
03,
F7,
F7,
01,
FA,
FE,
00,
06,
07,
09,
01,
01,
03,
03,
05,
FB,
F2,
00,
FE,
00,
FF,
08,
05,
00,
FF,
FD,
FB,
00,
FD,
EF,
02,
FC,
08,
01,
01,
F6,
00,
FE,
F9,
F9,
FD,
04,
F9,
02,
FB,
FA,
09,
02,
FE,
08,
07,
04,
00,
03,
04,
02,
FB,
FE,
08,
05,
01,
F8,
04,
FE,
07,
05,
01,
04,
05,
04,
F6,
FE,
08,
00,
FF,
F9,
F5,
FD,
FB,
00,
00,
FD,
07,
FF,
04,
05,
09,
FC,
02,
FF,
FB,
FB,
F8,
FB,
04,
FC,
FD,
FE,
02,
01,
06,
F4,
02,
FC,
01,
04,
FC,
FF,
07,
02,
FF,
05,
0B,
04,
FC,
F1,
FE,
03,
02,
03,
06,
04,
FD,
03,
FD,
03,
FE,
FC,
08,
FE,
FF,
0C,
0B,
F9,
FD,
00,
FF,
FB,
F5,
03,
FE,
FE,
05,
FA,
F9,
FE,
FD,
02,
05,
02,
FA,
02,
FC,
F8,
F9,
F6,
01,
00,
06,
F8,
FE,
03,
FF,
02,
08,
06,
00,
03,
FB,
01,
00,
03,
FB,
FD,
FF,
01,
FB,
04,
FE,
05,
FC,
03,
01,
05,
FA,
02,
06,
00,
FB,
03,
01,
F5,
01,
00,
F6,
F6,
00,
0A,
00,
0A,
03,
02,
FB,
FB,
FD,
02,
07,
07,
F8,
FF,
FE,
FF,
FB,
05,
F7,
02,
02,
FA,
00,
04,
FD,
04,
04,
F7,
FF,
03,
05,
FD,
06,
02,
0C,
01,
FC,
F9,
FA,
02,
F8,
02,
07,
FC,
FF,
09,
04,
FE,
03,
08,
01,
05,
05,
FF,
03,
01,
FB,
FE,
FD,
02,
FB,
FF,
FF,
FD,
FF,
04,
FF,
04,
00,
03,
03,
0E,
FB,
00,
01,
08,
00,
02,
FE,
FA,
F9,
02,
FD,
05,
FC,
00,
FC,
07,
03,
F8,
FC,
FA,
FC,
03,
09,
06,
FF,
F7,
00,
02,
FE,
02,
00,
06,
00,
04,
FC,
03,
04,
02,
FD,
F7,
03,
03,
FE,
01,
00,
FC,
FD,
FA,
FE,
FC,
01,
FE,
F3,
06,
FF,
01,
00,
FF,
00,
FE,
00,
07,
02,
FD,
FE,
01,
FD,
FD,
03,
06,
0A,
06,
FD,
FC,
FE,
FF,
03,
02,
FB,
03,
FD,
02,
00,
FF,
FD,
06,
01,
FE,
03,
04,
00,
FB,
00,
00,
FD,
FC,
FE,
FA,
FA,
07,
FD,
FE,
FC,
F6,
03,
00,
FE,
F8,
FF,
FF,
FD,
FE,
06,
FE,
FB,
05,
02,
FC,
F9,
FF,
00,
FC,
FB,
FF,
08,
01,
FD,
06,
FB,
FC,
FC,
FA,
00,
02,
FE,
FA,
FC,
00,
FB,
FA,
00,
02,
00,
FF,
FF,
02,
01,
FC,
09,
02,
F7,
00,
00,
03,
FF,
05,
FC,
02,
01,
01,
05,
FB,
02,
01,
F7,
F8,
FD,
FE,
07,
03,
FE,
04,
06,
03,
FF,
00,
04,
02,
01,
00,
00,
FF,
04,
01,
03,
FF,
09,
03,
01,
04,
FE,
00,
F8,
FA,
F8,
00,
00,
FF,
02,
FF,
01,
F9,
00,
F9,
04,
FE,
00,
02,
FB,
FD,
FF,
00,
05,
08,
01,
02,
01,
00,
02,
04,
06,
FB,
04,
05,
03,
01,
FC,
F5,
FD,
F9,
FE,
FA,
FE,
FF,
FD,
FB,
FA,
01,
FF,
FE,
05,
FE,
FA,
00,
FF,
02,
09,
FE,
FE,
03,
02,
02,
01,
F0,
00,
01,
05,
01,
07,
FB,
00,
FE,
FF,
FF,
03,
05,
FF,
05,
08,
FA,
FE,
01,
FB,
00,
02,
00,
FE,
FA,
F6,
01,
00,
02,
FB,
03,
FF,
FB,
00,
00,
FA,
FF,
03,
FF,
07,
FF,
00,
F6,
FE,
FF,
02,
04,
01,
00,
FF,
06,
03,
01,
00,
FB,
FF,
FE,
05,
F8,
01,
00,
02,
FF,
FA,
FC,
09,
08,
09,
04,
03,
04,
FB,
01,
02,
FB,
FE,
FE,
01,
03,
0A,
FF,
FF,
FD,
01,
01,
07,
FD,
FE,
FE,
F8,
07,
FB,
03,
01,
07,
FE,
FA,
FE,
FD,
FA,
01,
02,
06,
03,
FC,
F6,
02,
04,
01,
02,
FD,
FF,
FF,
FF,
FF,
FF,
05,
FB,
FC,
06,
04,
01,
FC,
00,
00,
02,
FE,
03,
04,
FF,
09,
FF,
FF,
FB,
FC,
04,
FF,
05,
FD,
07,
02,
05,
01,
FF,
FD,
03,
06,
04,
0B,
FB,
FE,
06,
FF,
04,
08,
03,
00,
04,
07,
03,
03,
00,
04,
FA,
02,
03,
FF,
09,
FF,
05,
01,
06,
00,
05,
0B,
04,
02,
FE,
05,
0A,
04,
03,
03,
03,
FF,
03,
02,
02,
01,
01,
FD,
FF,
FE,
00,
07,
07,
FB,
02,
03,
FF,
03,
00,
0A,
01,
06,
04,
F9,
FE,
04,
FE,
00,
00,
00,
F6,
01,
07,
01,
01,
05,
05,
FF,
00,
04,
03,
02,
FB,
FE,
00,
06,
FF,
01,
02,
FC,
00,
04,
FD,
FD,
FF,
08,
FB,
03,
FE,
07,
07,
0A,
03,
06,
01,
02,
01,
FD,
02,
09,
00,
02,
04,
06,
FE,
FE,
01,
07,
08,
02,
FE,
07,
01,
05,
04,
04,
01,
FE,
FC,
04,
09,
05,
00,
03,
FF,
FF,
F7,
00,
01,
02,
04,
FB,
05,
FE,
FC,
F4,
08,
FC,
FD,
00,
FF,
02,
03,
FE,
FE,
00,
FA,
02,
FF,
FB,
F7,
FF,
FE,
02,
00,
FF,
FD,
01,
FE,
03,
01,
06,
03,
FB,
02,
02,
00,
00,
00,
FD,
00,
FD,
05,
F8,
FA,
FB,
03,
FD,
01,
02,
03,
03,
00,
FA,
FD,
FB,
02,
00,
04,
01,
02,
FC,
FA,
FF,
FD,
00,
00,
00,
FE,
05,
FF,
03,
FE,
FF,
FD,
FE,
04,
FF,
FE,
FE,
01,
04,
FF,
01,
00,
02,
FF,
FD,
03,
FF,
01,
02,
FD,
03,
01,
FF,
08,
04,
06,
00,
FD,
07,
FE,
04,
03,
00,
FA,
02,
F9,
FA,
FD,
F8,
FC,
07,
FD,
04,
05,
08,
FF,
FF,
06,
FC,
FA,
FC,
FC,
01,
FE,
FD,
FC,
FF,
FA,
00,
FF,
FC,
FA,
FC,
09,
02,
FF,
FF,
F6,
FA,
02,
FE,
02,
FE,
01,
04,
FF,
F8,
FB,
FD,
05,
FD,
01,
FF,
05,
FD,
04,
01,
01,
02,
05,
FE,
05,
FE,
05,
01,
FD,
FB,
05,
FD,
06,
04,
00,
01,
05,
FB,
FF,
02,
03,
04,
04,
01,
03,
FC,
01,
F9,
F9,
04,
01,
03,
FF,
FB,
F7,
FE,
FE,
02,
02,
FC,
00,
01,
08,
F5,
03,
F9,
03,
00,
04,
04,
04,
00,
05,
00,
07,
05,
04,
0A,
FA,
FF,
FD,
00,
00,
FE,
FF,
02,
06,
F8,
FE,
FA,
00,
FC,
FC,
02,
02,
07,
04,
F9,
03,
FC,
FC,
FC,
FF,
01,
FD,
FE,
FD,
02,
FE,
FB,
02,
04,
09,
FD,
09,
FB,
F8,
FF,
08,
FD,
0D,
FF,
07,
03,
06,
F9,
FD,
FB,
FF,
FE,
FE,
FA,
FD,
04,
FE,
03,
02,
02,
03,
FE,
FA,
FD,
FD,
01,
02,
FC,
FF,
05,
01,
0B,
02,
00,
F7,
0A,
FF,
F7,
05,
F9,
04,
F8,
01,
04,
02,
FB,
02,
06,
00,
05,
FA,
FE,
02,
02,
FC,
02,
05,
07,
00,
00,
01,
00,
FD,
00,
04,
07,
02,
03,
03,
04,
FC,
FB,
02,
01,
FD,
07,
FB,
00,
FD,
F4,
FE,
00,
05,
07,
00,
FE,
07,
01,
04,
FC,
03,
FB,
03,
FE,
04,
03,
FE,
FB,
00,
01,
00,
06,
05,
01,
FC,
05,
00,
03,
02,
05,
02,
01,
05,
FE,
FE,
FD,
00,
FE,
06,
01,
FF,
01,
01,
00,
03,
07,
01,
FF,
FD,
01,
FF,
00,
FB,
FB,
F8,
FD,
0C,
02,
01,
04,
02,
FC,
07,
FE,
00,
F9,
05,
FD,
00,
FF,
01,
01,
02,
01,
04,
05,
03,
03,
06,
01,
05,
03,
FA,
00,
03,
07,
00,
02,
01,
00,
03,
FF,
00,
02,
FB,
04,
02,
F8,
01,
FF,
08,
FF,
0B,
00,
01,
05,
03,
FC,
FB,
01,
01,
05,
FF,
FC,
02,
FF,
FA,
FE,
FD,
FF,
06,
FD,
06,
FB,
FC,
03,
04,
02,
05,
00,
00,
06,
FF,
03,
01,
08,
FA,
01,
FE,
FB,
FF,
FF,
05,
F4,
02,
FC,
05,
06,
FB,
04,
FB,
FE,
05,
02,
03,
FE,
FB,
04,
06,
FB,
01,
00,
FE,
FD,
06,
FE,
FD,
02,
FD,
FE,
01,
05,
05,
01,
06,
FF,
02,
FE,
04,
09,
01,
00,
00,
04,
04,
FE,
05,
02,
03,
03,
FE,
FB,
FE,
09,
01,
00,
FF,
FD,
05,
FA,
01,
01,
03,
FD,
00,
FB,
00,
01,
03,
02,
00,
FF,
FC,
00,
FD,
FC,
FE,
FB,
FF,
03,
03,
FE,
02,
F5,
FF,
05,
FE,
FD,
01,
02,
FB,
FC,
FC,
09,
04,
FF,
FD,
06,
FE,
FB,
FB,
02,
FE,
FC,
FB,
FF,
02,
07,
02,
01,
01,
01,
F8,
FC,
00,
01,
01,
01,
FE,
01,
02,
FD,
01,
02,
00,
05,
FD,
04,
FD,
FD,
FC,
04,
FA,
01,
04,
FE,
05,
FE,
FD,
FE,
02,
FA,
03,
02,
07,
00,
FF,
FD,
F6,
FF,
FC,
02,
02,
07,
02,
FB,
FC,
00,
01,
FF,
05,
FF,
FB,
04,
06,
FE,
FF,
00,
FD,
01,
02,
F6,
02,
04,
01,
FC,
FC,
FF,
FD,
FC,
FD,
FB,
06,
FE,
04,
00,
00,
FB,
FF,
04,
FA,
02,
02,
FB,
FC,
03,
04,
FF,
00,
FE,
FD,
01,
FF,
FA,
03,
FE,
FB,
03,
00,
FF,
FF,
F7,
02,
FD,
02,
FD,
04,
FD,
04,
00,
02,
01,
02,
00,
FD,
01,
00,
FC,
01,
F8,
01,
FE,
FE,
FF,
FE,
FF,
07,
00,
FF,
00,
FC,
F7,
04,
01,
00,
FE,
FF,
FE,
FD,
03,
09,
00,
01,
00,
03,
03,
02,
01,
FD,
03,
00,
FD,
FF,
FD,
03,
03,
03,
FB,
F7,
FC,
FB,
04,
FD,
01,
FF,
FD,
F8,
F8,
FE,
04,
FE,
FE,
05,
00,
02,
FE,
04,
FD,
FD,
03,
06,
FC,
03,
04,
FD,
03,
01,
FF,
FC,
05,
01,
03,
02,
01,
02,
FE,
FF,
02,
FD,
F9,
05,
FC,
F4,
FF,
FA,
00,
01,
04,
01,
FC,
FE,
08,
0D,
07,
04,
FD,
FE,
FD,
FB,
01,
00,
FA,
00,
FD,
FE,
03,
00,
FA,
FD,
03,
00,
05,
FC,
00,
01,
02,
FF,
FB,
F9,
FD,
FD,
06,
01,
00,
FA,
FA,
FE,
FB,
02,
07,
04,
FE,
FB,
FD,
F9,
FF,
FE,
FF,
FD,
FE,
02,
08,
00,
05,
FB,
F7,
FB,
02,
01,
00,
FD,
00,
FD,
FF,
01,
F9,
04,
03,
02,
01,
02,
FD,
FC,
01,
FD,
02,
FC,
FC,
03,
09,
03,
03,
F5,
FB,
04,
02,
FC,
05,
FA,
FD,
FD,
01,
01,
FD,
00,
FA,
00,
00,
08,
05,
06,
FD,
00,
FD,
FF,
FA,
FA,
02,
FB,
FF,
01,
02,
00,
00,
FF,
04,
03,
03,
FF,
FB,
FD,
03,
FE,
FF,
03,
F8,
FE,
FD,
FE,
00,
06,
02,
FD,
01,
00,
FB,
00,
00,
00,
05,
03,
01,
FF,
03,
02,
FB,
07,
03,
03,
FD,
FF,
03,
FF,
FE,
04,
07,
05,
FD,
04,
00,
00,
FE,
01,
FD,
01,
03,
06,
02,
FF,
01,
FC,
07,
01,
00,
04,
03,
00,
FF,
02,
01,
FF,
FF,
05,
FF,
02,
08,
09,
07,
FC,
01,
FE,
FD,
00,
FE,
01,
FF,
FE,
02,
00,
01,
01,
F9,
02,
FF,
FB,
02,
FF,
FF,
04,
FD,
09,
02,
04,
01,
04,
FD,
00,
02,
06,
FC,
FD,
FF,
FC,
0D,
FD,
FA,
FB,
07,
06,
00,
0A,
FB,
0B,
FB,
FE,
01,
FE,
FF,
03,
06,
00,
01,
FF,
04,
FC,
05,
FA,
03,
02,
04,
05,
03,
01,
03,
08,
F9,
01,
FE,
01,
09,
01,
04,
00,
FE,
00,
FF,
02,
FD,
05,
FD,
FE,
FB,
00,
00,
FC,
02,
01,
FB,
FC,
FC,
02,
03,
FF,
05,
01,
FA,
00,
00,
04,
FD,
01,
02,
FE,
FA,
FB,
05,
01,
FE,
01,
FE,
FD,
01,
F9,
09,
FB,
04,
02,
05,
01,
01,
FE,
FC,
04,
F9,
06,
FE,
FF,
01,
03,
01,
08,
01,
04,
FD,
03,
FA,
FF,
FB,
02,
FA,
FE,
06,
FF,
FF,
03,
01,
02,
F9,
FA,
FB,
00,
FC,
FF,
01,
FE,
04,
05,
09,
04,
06,
00,
01,
FD,
FE,
FE,
F6,
FF,
FE,
04,
FA,
01,
FE,
07,
02,
0D,
F9,
00,
00,
FF,
FD,
FD,
05,
FC,
05,
01,
00,
00,
FF,
01,
07,
06,
04,
06,
F7,
FF,
02,
FD,
FD,
FE,
00,
FF,
05,
02,
00,
05,
02,
F8,
F6,
01,
04,
F9,
FC,
F4,
FE,
02,
F9,
04,
FE,
F9,
02,
FF,
FD,
00,
00,
FC,
06,
FD,
FB,
02,
02,
02,
08,
06,
00,
FF,
FD,
FF,
01,
FD,
FA,
01,
01,
03,
FD,
01,
FE,
02,
02,
FD,
00,
06,
FF,
07,
01,
03,
FE,
FF,
FD,
FF,
FF,
00,
01,
0A,
00,
FC,
03,
FE,
FB,
FD,
07,
FF,
03,
04,
05,
06,
00,
06,
00,
00,
01,
04,
00,
FF,
03,
07,
FC,
02,
02,
01,
02,
FC,
05,
09,
0A,
FF,
FF,
FD,
FF,
01,
04,
FE,
01,
FF,
02,
03,
FE,
00,
00,
FF,
F6,
FE,
05,
01,
FF,
FE,
FF,
04,
01,
FA,
03,
01,
00,
FD,
01,
09,
FE,
FA,
05,
05,
03,
04,
01,
02,
07,
07,
05,
02,
05,
00,
06,
01,
01,
FD,
02,
06,
00,
04,
04,
01,
02,
03,
04,
0A,
08,
FF,
FB,
03,
03,
01,
F9,
FB,
FE,
01,
04,
04,
F9,
01,
FD,
01,
FF,
02,
01,
F5,
FE,
04,
00,
05,
00,
04,
05,
FC,
00,
FA,
F7,
FE,
05,
01,
FD,
03,
FE,
FC,
03,
FA,
02,
01,
FE,
FC,
03,
04,
02,
FC,
FA,
FF,
FD,
03,
FF,
08,
02,
03,
FE,
03,
02,
F9,
07,
FD,
03,
06,
FA,
FF,
FD,
03,
FD,
FD,
01,
04,
FD,
F8,
FE,
FD,
08,
00,
03,
03,
05,
FC,
07,
04,
F9,
FA,
00,
F8,
FB,
03,
FB,
F9,
05,
03,
FF,
01,
FF,
FB,
FD,
FA,
FE,
FB,
FB,
01,
FC,
03,
FE,
02,
FE,
00,
FD,
FB,
02,
FD,
FF,
00,
06,
06,
04,
06,
FF,
FD,
02,
FC,
04,
03,
07,
02,
03,
05,
FF,
05,
07,
00,
07,
01,
FE,
02,
07,
04,
07,
07,
FE,
02,
FE,
05,
06,
FF,
FD,
01,
FD,
05,
FC,
FE,
FF,
04,
FE,
03,
FE,
01,
04,
00,
02,
FC,
04,
FE,
04,
03,
03,
01,
01,
03,
02,
07,
08,
00,
01,
F8,
07,
FD,
00,
FC,
02,
FD,
FB,
04,
FE,
02,
00,
FB,
FF,
FC,
00,
03,
FC,
04,
05,
04,
F7,
02,
F9,
F9,
FF,
03,
FA,
00,
FE,
05,
0A,
FA,
FA,
04,
01,
00,
04,
FF,
05,
02,
00,
02,
00,
02,
07,
FF,
05,
FC,
01,
FF,
05,
03,
FA,
FC,
FD,
03,
FB,
FF,
F7,
FB,
07,
FE,
01,
FB,
02,
01,
04,
FC,
FB,
04,
FF,
00,
FF,
05,
FF,
F7,
06,
04,
F9,
FF,
00,
00,
FF,
00,
01,
FE,
FF,
02,
04,
FA,
FB,
01,
01,
03,
FE,
FF,
FE,
0B,
04,
02,
FF,
08,
FA,
06,
03,
04,
03,
02,
03,
05,
03,
01,
05,
00,
FF,
F6,
03,
FF,
01,
03,
FA,
02,
01,
05,
05,
00,
03,
05,
01,
FD,
FE,
04,
FE,
03,
FD,
F9,
04,
F9,
01,
04,
F8,
FF,
FC,
04,
01,
00,
02,
02,
05,
FF,
03,
04,
02,
06,
01,
FA,
03,
00,
01,
00,
FC,
FE,
09,
F6,
FC,
FC,
FD,
05,
00,
FF,
FB,
FD,
04,
05,
03,
FB,
00,
03,
FF,
FF,
FE,
F8,
FF,
F9,
FA,
FA,
FE,
FF,
F9,
F8,
FD,
00,
01,
FF,
FD,
FF,
FC,
04,
FC,
FE,
04,
07,
02,
FF,
00,
01,
01,
F9,
F7,
FB,
05,
00,
09,
F6,
EC,
00,
FC,
FF,
FE,
FE,
FE,
FA,
FF,
06,
09,
05,
FC,
FD,
F9,
F9,
FD,
F8,
01,
F9,
FE,
05,
02,
ED,
FF,
06,
03,
FE,
02,
FB,
FA,
FE,
FB,
01,
07,
01,
03,
07,
01,
02,
04,
02,
FF,
FA,
05,
02,
05,
03,
05,
04,
FF,
01,
06,
FF,
0B,
F9,
07,
FD,
02,
FB,
01,
01,
01,
00,
FE,
01,
FB,
FD,
FC,
F9,
FC,
FA,
00,
F7,
FD,
FE,
FD,
FB,
02,
F9,
FE,
02,
FF,
FB,
FD,
00,
FD,
00,
FE,
02,
F8,
FD,
00,
FB,
03,
01,
FF,
F6,
02,
0C,
FD,
01,
00,
FE,
00,
06,
FC,
FE,
FC,
F9,
FC,
03,
FE,
0B,
F9,
01,
FD,
03,
F5,
00,
FE,
03,
03,
FE,
04,
FE,
00,
03,
FA,
03,
03,
F9,
06,
08,
F6,
FB,
F6,
00,
FF,
FA,
F6,
06,
F6,
03,
04,
03,
05,
01,
FF,
06,
FD,
FF,
02,
FD,
00,
05,
07,
FD,
04,
F9,
FF,
FE,
FC,
F7,
FF,
00,
03,
00,
F6,
0D,
04,
F9,
F6,
FE,
00,
FC,
01,
02,
05,
FD,
FD,
FB,
08,
07,
03,
09,
06,
07,
FD,
FC,
03,
FE,
08,
03,
05,
03,
FD,
F8,
02,
FF,
FF,
FF,
FA,
02,
FD,
00,
FC,
FD,
F7,
FA,
FD,
FB,
FD,
02,
0B,
FA,
FF,
FF,
0D,
08,
01,
03,
03,
FF,
07,
01,
01,
F5,
FB,
00,
02,
FB,
FF,
FD,
FE,
F4,
09,
F5,
07,
FF,
FE,
04,
FF,
05,
03,
FF,
FD,
07,
00,
FE,
09,
F9,
01,
05,
02,
04,
FF,
FE,
03,
FE,
FB,
01,
F8,
02,
06,
F1,
FA,
00,
FF,
04,
0C,
06,
FD,
03,
03,
01,
00,
F9,
00,
FC,
F8,
FD,
01,
04,
02,
02,
03,
FF,
0A,
FD,
00,
FF,
09,
FF,
F5,
FB,
01,
01,
07,
F6,
02,
04,
FF,
03,
FD,
FE,
03,
02,
F5,
FA,
FD,
FA,
FD,
FF,
01,
04,
FC,
F7,
FF,
FE,
FE,
FE,
F9,
FB,
FF,
01,
F8,
FE,
00,
FA,
FC,
FE,
FB,
07,
01,
07,
05,
FF,
05,
02,
05,
05,
03,
F8,
FE,
FB,
FF,
FB,
FF,
FF,
F7,
FD,
F8,
01,
03,
FC,
FF,
03,
FC,
0A,
07,
02,
F8,
02,
05,
FD,
02,
00,
FB,
04,
FD,
FF,
00,
05,
FE,
03,
F6,
F6,
02,
FD,
05,
06,
FF,
01,
08,
F8,
09,
FD,
03,
FB,
F7,
07,
FA,
00,
02,
02,
FE,
08,
09,
05,
02,
03,
03,
FF,
FD,
06,
FD,
02,
07,
FC,
02,
01,
06,
03,
01,
FC,
FC,
F8,
FB,
FA,
F8,
03,
05,
01,
00,
01,
02,
FD,
FD,
04,
05,
F9,
FE,
06,
05,
02,
07,
FF,
FB,
FC,
FE,
FF,
F8,
FC,
06,
F7,
01,
FD,
FB,
04,
FA,
F7,
FE,
02,
03,
00,
FE,
FC,
FE,
00,
04,
00,
02,
0A,
F8,
FF,
02,
FD,
05,
04,
FE,
03,
01,
00,
08,
00,
FF,
0D,
07,
FA,
01,
FF,
05,
FD,
06,
F8,
FA,
02,
FC,
00,
FB,
00,
01,
F8,
01,
01,
01,
FD,
FE,
09,
FC,
02,
05,
01,
09,
07,
05,
00,
02,
00,
08,
FA,
04,
08,
01,
01,
03,
06,
07,
03,
09,
02,
FE,
01,
08,
04,
FB,
03,
00,
F6,
FF,
FE,
00,
04,
FF,
FE,
FC,
04,
FC,
01,
F8,
04,
FC,
02,
08,
07,
FA,
FA,
FC,
06,
00,
02,
00,
FF,
FA,
04,
03,
00,
0A,
06,
FF,
FE,
04,
09,
FE,
05,
FD,
FD,
FD,
F8,
01,
06,
01,
03,
FE,
FD,
FD,
F6,
01,
F7,
F8,
FC,
F9,
01,
FC,
FD,
07,
FB,
02,
F9,
FF,
00,
06,
00,
FA,
01,
FF,
F8,
FB,
03,
00,
0A,
09,
00,
FC,
FF,
01,
FB,
FC,
FC,
01,
00,
02,
FC,
FB,
08,
FE,
FC,
0A,
FE,
FF,
02,
02,
FF,
04,
FF,
02,
01,
FE,
03,
F8,
FA,
03,
08,
06,
00,
01,
FC,
FB,
FE,
04,
02,
03,
FC,
FF,
06,
FE,
08,
FC,
FF,
F7,
00,
00,
FC,
03,
05,
00,
FE,
FC,
FF,
FC,
F4,
01,
08,
FE,
01,
FC,
07,
FD,
00,
FF,
08,
04,
05,
03,
02,
0C,
01,
FA,
08,
FA,
03,
FF,
04,
FE,
0A,
06,
01,
08,
01,
02,
FC,
FE,
01,
F8,
FA,
FB,
03,
00,
01,
04,
02,
01,
F9,
FA,
F5,
01,
08,
0A,
01,
02,
FB,
00,
01,
09,
FE,
FC,
FB,
FB,
FF,
F6,
FF,
FF,
FF,
04,
0B,
FC,
FB,
00,
FD,
05,
02,
05,
04,
FA,
FF,
03,
FE,
00,
FF,
F8,
F7,
FD,
FE,
01,
01,
00,
04,
F9,
03,
FA,
03,
03,
01,
08,
00,
F4,
FF,
FD,
FF,
FF,
FA,
01,
F8,
01,
F9,
F5,
F7,
FE,
07,
FD,
FB,
FB,
01,
08,
05,
F2,
04,
FC,
FE,
FA,
FA,
FF,
02,
FC,
00,
08,
00,
01,
FE,
FD,
09,
05,
05,
01,
06,
FE,
02,
03,
01,
01,
FE,
05,
FB,
FC,
01,
00,
0B,
03,
FF,
09,
05,
EF,
F4,
FD,
F4,
FE,
07,
03,
03,
FF,
01,
07,
06,
03,
03,
05,
FF,
FB,
0B,
FA,
F8,
09,
06,
F9,
05,
04,
F5,
00,
FE,
FE,
02,
FD,
07,
02,
03,
02,
07,
F8,
02,
00,
03,
01,
07,
04,
03,
06,
FF,
FD,
02,
01,
FE,
02,
04,
F9,
04,
03,
03,
04,
FD,
FC,
00,
00,
01,
08,
F5,
05,
04,
FF,
FD,
00,
FE,
FF,
0A,
0A,
00,
03,
FC,
FB,
FB,
FE,
01,
FF,
00,
FF,
00,
03,
02,
03,
FF,
01,
FD,
FE,
FF,
04,
FD,
FF,
F9,
00,
08,
00,
F6,
03,
FF,
FF,
0B,
FE,
FC,
03,
FB,
FF,
01,
FE,
F3,
F5,
FB,
01,
FD,
03,
08,
FB,
02,
FA,
09,
FA,
FE,
FE,
00,
0A,
00,
00,
02,
05,
FF,
02,
F7,
00,
06,
FF,
00,
FE,
FE,
01,
03,
00,
06,
FF,
FB,
FD,
F9,
FD,
00,
04,
FE,
03,
05,
FF,
FF,
01,
02,
03,
0A,
FE,
FF,
FF,
FC,
FD,
01,
01,
04,
04,
FF,
02,
03,
03,
02,
01,
02,
FF,
00,
F9,
01,
FF,
03,
FC,
FC,
F8,
F5,
F5,
FD,
05,
00,
06,
01,
04,
FD,
00,
02,
FE,
02,
FC,
03,
08,
F6,
01,
08,
00,
FE,
02,
09,
02,
0A,
00,
03,
FF,
00,
06,
04,
FE,
08,
03,
FB,
01,
01,
FA,
F4,
FD,
FB,
02,
06,
00,
FC,
00,
02,
FA,
0E,
FF,
FB,
07,
F8,
05,
FA,
F6,
FA,
FE,
FF,
F3,
02,
01,
02,
05,
04,
FF,
FC,
FB,
F6,
FE,
FD,
FB,
08,
05,
00,
F8,
07,
F7,
FB,
FF,
03,
FB,
FD,
03,
03,
02,
02,
FE,
FE,
02,
02,
00,
FF,
02,
FA,
FC,
F8,
F6,
FF,
01,
02,
03,
08,
01,
FA,
00,
FC,
F9,
03,
FF,
01,
04,
09,
F8,
FD,
04,
F1,
04,
FB,
08,
02,
FE,
FF,
03,
FD,
09,
00,
04,
F8,
FB,
04,
03,
07,
02,
02,
04,
FE,
FA,
FB,
FE,
FC,
FC,
FF,
FA,
F7,
FB,
FF,
FB,
05,
03,
00,
04,
07,
FB,
04,
0A,
00,
06,
01,
04,
0B,
09,
01,
02,
05,
FC,
FE,
08,
FD,
FB,
FF,
FC,
07,
00,
02,
00,
04,
05,
FE,
F2,
01,
FB,
FE,
08,
04,
FF,
02,
05,
FD,
00,
F5,
FC,
02,
02,
F6,
FE,
06,
FC,
09,
02,
F5,
F4,
FD,
FD,
FD,
02,
FF,
FA,
02,
FC,
F4,
FB,
FD,
FD,
FC,
FF,
FB,
F7,
01,
FF,
FB,
03,
F4,
FE,
FC,
03,
0A,
F7,
04,
00,
01,
08,
03,
FC,
04,
F5,
01,
FE,
FC,
01,
FA,
FB,
03,
F8,
02,
09,
01,
05,
FC,
01,
06,
02,
F3,
05,
08,
01,
08,
FE,
03,
FD,
07,
02,
08,
FB,
04,
FA,
FF,
FF,
FE,
FE,
07,
FD,
F9,
01,
FF,
FC,
05,
F7,
00,
FF,
06,
FF,
FF,
FF,
FE,
01,
FF,
02,
06,
FC,
FE,
FC,
FD,
FF,
FD,
FC,
FE,
FB,
02,
00,
FF,
01,
07,
04,
02,
0B,
01,
FE,
F6,
00,
FE,
00,
F9,
FE,
FA,
FA,
05,
03,
EF,
01,
FA,
FF,
FD,
00,
02,
04,
00,
00,
07,
FF,
09,
FF,
01,
FA,
00,
FB,
02,
04,
06,
FF,
03,
04,
04,
FB,
FF,
02,
05,
04,
FE,
09,
07,
FB,
FA,
FF,
01,
FD,
FD,
08,
FC,
05,
02,
FE,
F8,
FA,
FC,
00,
FE,
FB,
FE,
FD,
FE,
FB,
FE,
04,
06,
FE,
06,
05,
07,
F9,
FD,
FB,
FC,
FD,
05,
FC,
F9,
03,
FE,
05,
FC,
01,
FF,
FF,
06,
07,
04,
03,
FE,
00,
02,
F5,
05,
FB,
08,
06,
FE,
FC,
FF,
02,
04,
04,
04,
02,
04,
F9,
07,
FF,
FE,
02,
FE,
01,
01,
04,
08,
FA,
F9,
04,
FB,
FF,
FC,
FC,
00,
F8,
06,
0A,
FB,
FE,
06,
FF,
02,
FC,
F9,
FF,
FF,
F6,
FA,
FA,
04,
FB,
FC,
04,
04,
04,
FD,
04,
FB,
F6,
06,
FE,
05,
F8,
01,
FE,
00,
FA,
F9,
F9,
FD,
02,
FD,
03,
FD,
05,
FB,
01,
FC,
02,
F8,
FE,
00,
06,
08,
0E,
FE,
00,
05,
02,
01,
FC,
F9,
01,
FD,
FC,
02,
07,
02,
01,
00,
03,
03,
05,
03,
FE,
FE,
FF,
00,
FE,
02,
F5,
01,
04,
F4,
F9,
03,
FE,
07,
08,
04,
00,
00,
FA,
03,
FC,
FF,
02,
03,
FB,
08,
FE,
FF,
FF,
01,
FD,
FD,
07,
00,
FD,
04,
FF,
FB,
FD,
00,
FC,
00,
08,
02,
FD,
06,
03,
01,
FE,
04,
03,
FD,
FE,
02,
01,
07,
05,
F8,
FE,
00,
FA,
00,
00,
F6,
FE,
09,
FF,
FE,
05,
06,
04,
FC,
FB,
09,
F7,
FD,
F9,
F9,
07,
01,
05,
F7,
01,
00,
FB,
FF,
FB,
01,
F8,
07,
0B,
FB,
FD,
05,
04,
02,
05,
F5,
07,
FF,
01,
FE,
F6,
FC,
FB,
00,
00,
FB,
FA,
07,
FF,
03,
04,
00,
F6,
01,
09,
01,
F9,
04,
03,
03,
00,
05,
00,
FC,
01,
03,
FB,
FE,
02,
02,
04,
FF,
05,
00,
FF,
FD,
FC,
FD,
F8,
06,
03,
FB,
FF,
F9,
FA,
FC,
07,
FD,
F7,
FD,
F9,
01,
07,
0C,
FD,
0B,
01,
FC,
00,
FF,
03,
FC,
02,
FF,
F1,
FA,
FB,
09,
04,
FD,
00,
FF,
02,
02,
0D,
05,
FE,
00,
FA,
06,
FB,
FE,
FB,
04,
FD,
F9,
FB,
04,
00,
FE,
01,
FF,
FC,
F7,
F4,
FC,
F2,
FB,
00,
FF,
FD,
01,
FF,
04,
03,
05,
03,
FC,
00,
F5,
F8,
FA,
02,
FD,
06,
03,
00,
01,
FD,
F8,
F9,
F8,
F7,
F9,
F0,
01,
FD,
FB,
FC,
02,
03,
05,
00,
03,
02,
FD,
FD,
F8,
00,
01,
03,
FE,
FE,
FA,
07,
02,
06,
FC,
05,
05,
FD,
02,
F6,
FB,
FB,
FB,
FB,
FA,
06,
01,
FA,
02,
FE,
06,
FB,
F7,
FF,
F9,
FD,
01,
03,
01,
05,
FE,
FC,
FC,
00,
FE,
FC,
FD,
09,
04,
FF,
02,
03,
FC,
0A,
01,
FF,
F8,
FC,
F9,
FB,
08,
02,
01,
FC,
FB,
FC,
04,
00,
02,
FD,
FE,
FB,
FB,
04,
F9,
01,
FF,
F6,
FD,
FF,
06,
04,
03,
F8,
04,
05,
0B,
0C,
02,
08,
06,
FC,
FB,
00,
FB,
06,
FE,
FD,
06,
03,
0D,
0E,
02,
01,
01,
04,
FD,
F6,
F9,
06,
04,
F9,
FD,
07,
F9,
FB,
01,
FA,
FC,
05,
05,
FC,
FD,
FF,
FF,
FF,
FC,
09,
FE,
03,
04,
00,
F7,
02,
FD,
FD,
06,
F7,
FD,
07,
FB,
FE,
FC,
03,
01,
00,
F7,
FF,
FD,
FA,
F7,
03,
02,
05,
FE,
02,
00,
00,
08,
07,
05,
FD,
02,
FE,
02,
FE,
FA,
FD,
FE,
06,
F5,
06,
FF,
FA,
02,
FE,
05,
01,
06,
04,
FF,
05,
05,
FC,
00,
04,
03,
FC,
06,
F8,
05,
FD,
FE,
04,
FC,
FD,
00,
01,
00,
03,
FF,
0A,
FE,
00,
03,
FA,
FC,
FC,
01,
03,
F7,
01,
01,
02,
F7,
FB,
0A,
FE,
03,
FD,
FF,
05,
FF,
06,
FC,
03,
FD,
00,
FF,
FC,
04,
FB,
01,
00,
F7,
FA,
F8,
FF,
04,
02,
03,
FA,
06,
04,
FD,
FC,
FB,
00,
02,
FD,
F7,
07,
FC,
FE,
FB,
FB,
04,
0A,
00,
FD,
FC,
00,
00,
FA,
01,
F8,
01,
04,
00,
FD,
FC,
F9,
FD,
FF,
00,
01,
FD,
01,
F9,
04,
04,
04,
01,
00,
06,
00,
FF,
FE,
FF,
FB,
FE,
03,
03,
FE,
07,
09,
03,
08,
F7,
03,
04,
09,
07,
04,
08,
02,
FF,
FC,
03,
09,
05,
FE,
04,
02,
01,
01,
FD,
00,
FD,
00,
07,
06,
FC,
F7,
FA,
02,
FC,
FE,
FB,
F8,
FB,
04,
FB,
01,
03,
02,
FC,
02,
01,
02,
FF,
00,
01,
01,
F3,
FB,
F5,
FD,
06,
FF,
09,
02,
FB,
01,
05,
F8,
00,
04,
FB,
09,
FC,
FB,
F7,
03,
00,
02,
03,
00,
03,
01,
03,
06,
FD,
02,
FC,
FC,
FF,
02,
01,
05,
08,
05,
FB,
FF,
0C,
00,
FA,
FE,
01,
FF,
02,
03,
FB,
FE,
FC,
04,
02,
00,
FB,
FA,
03,
FA,
00,
FC,
04,
00,
02,
01,
01,
04,
FF,
05,
FB,
F4,
03,
07,
FD,
FE,
FB,
FD,
02,
01,
03,
02,
02,
FF,
FF,
F7,
EE,
FB,
FD,
00,
02,
05,
FD,
03,
05,
F8,
F9,
03,
03,
05,
02,
FB,
FE,
FC,
04,
F9,
03,
FF,
FF,
00,
FF,
01,
01,
04,
03,
02,
05,
00,
FC,
04,
FD,
FE,
08,
01,
FD,
07,
08,
FA,
F8,
F9,
F8,
03,
FE,
02,
FA,
F9,
00,
06,
00,
03,
00,
05,
05,
0A,
05,
00,
F4,
02,
FB,
F8,
FF,
F9,
00,
04,
FB,
FF,
07,
FF,
02,
03,
FF,
05,
FD,
F9,
FE,
08,
03,
FB,
08,
FF,
FF,
05,
02,
FB,
F8,
FB,
04,
FE,
02,
FB,
F8,
FD,
03,
00,
01,
03,
04,
01,
0A,
FD,
04,
FB,
05,
05,
F4,
01,
FC,
F7,
03,
05,
FC,
FB,
01,
F7,
F7,
03,
FC,
FA,
F7,
F8,
FD,
FC,
FA,
03,
FD,
02,
FF,
FA,
FD,
04,
04,
FA,
00,
FB,
03,
FF,
04,
0B,
01,
FA,
FA,
FC,
02,
00,
01,
FC,
FF,
00,
FE,
03,
00,
03,
07,
FE,
01,
02,
01,
05,
07,
08,
09,
0A,
01,
F5,
FC,
0B,
00,
05,
03,
04,
00,
05,
05,
07,
04,
FA,
02,
00,
01,
06,
FE,
FC,
01,
01,
00,
05,
00,
FF,
F6,
03,
F9,
03,
F5,
00,
FB,
FE,
FD,
02,
FB,
01,
FB,
00,
FB,
FE,
FA,
FE,
04,
01,
FD,
F3,
FA,
FC,
05,
06,
02,
F8,
01,
FF,
FD,
F8,
05,
FE,
FE,
07,
01,
02,
08,
09,
06,
FC,
05,
03,
06,
08,
04,
03,
FF,
FE,
FC,
03,
00,
0C,
0A,
00,
00,
00,
08,
08,
FE,
00,
05,
01,
02,
FC,
FD,
00,
FC,
FA,
FF,
06,
F9,
F8,
FF,
F4,
FB,
04,
05,
05,
FD,
02,
00,
FB,
F7,
02,
F9,
F4,
FD,
FF,
FA,
06,
FD,
FD,
03,
F7,
0A,
00,
FF,
FE,
00,
FC,
FA,
01,
FF,
FA,
01,
09,
09,
04,
FA,
F9,
F7,
F6,
F2,
F8,
FC,
F7,
FA,
03,
02,
FD,
FB,
FF,
04,
02,
00,
06,
00,
F8,
FF,
01,
02,
03,
FD,
02,
FB,
FF,
01,
01,
FD,
FE,
FA,
FA,
FE,
F9,
FA,
F7,
F9,
03,
06,
05,
F9,
FF,
FE,
FA,
02,
02,
FE,
FD,
03,
04,
05,
03,
FE,
FF,
FD,
FB,
FC,
00,
00,
FD,
02,
FE,
04,
FE,
FF,
02,
04,
03,
03,
FE,
04,
03,
0D,
FD,
FE,
FC,
01,
F8,
FD,
00,
06,
00,
FC,
FF,
01,
01,
04,
03,
FF,
00,
05,
02,
04,
FE,
04,
09,
F9,
FC,
00,
F9,
02,
FF,
06,
01,
FD,
F5,
00,
F8,
F9,
03,
FC,
05,
04,
02,
00,
00,
06,
FD,
FF,
00,
06,
FE,
FB,
FE,
05,
01,
FE,
08,
11,
FE,
FD,
06,
03,
FD,
F7,
FD,
FF,
FC,
FD,
01,
FA,
02,
02,
FB,
09,
FF,
01,
08,
05,
FF,
06,
06,
00,
FC,
FE,
FF,
FF,
FC,
02,
07,
03,
FA,
FD,
FD,
00,
FC,
FF,
F5,
FF,
00,
FF,
FF,
FB,
F8,
05,
F6,
F9,
FF,
06,
09,
08,
FD,
FF,
02,
07,
01,
00,
02,
03,
02,
FD,
F8,
F2,
FF,
FE,
00,
03,
F8,
FC,
02,
01,
01,
08,
FB,
04,
00,
01,
FC,
01,
FF,
FA,
04,
FD,
FC,
FF,
02,
04,
00,
F6,
FF,
FE,
04,
FE,
0A,
F8,
00,
07,
01,
05,
00,
06,
05,
FF,
FC,
01,
F8,
05,
F9,
FD,
FF,
FD,
04,
FE,
08,
01,
FF,
F9,
FF,
07,
01,
FD,
01,
FD,
FC,
F9,
00,
06,
02,
02,
FE,
FD,
04,
01,
03,
FF,
0A,
05,
02,
02,
FD,
FE,
FD,
01,
FC,
05,
03,
05,
0C,
07,
FF,
03,
05,
06,
09,
03,
0A,
03,
F6,
00,
FE,
FC,
04,
FF,
F5,
07,
FD,
02,
FF,
FF,
00,
FF,
00,
F8,
FD,
00,
07,
01,
FF,
07,
FE,
01,
0B,
08,
FA,
FC,
FC,
FD,
0B,
FA,
04,
03,
FF,
FA,
08,
05,
FB,
FC,
FD,
09,
09,
04,
FB,
F4,
F2,
0C,
07,
00,
00,
FB,
FE,
FF,
04,
FF,
FD,
01,
F8,
01,
04,
00,
FF,
FE,
F9,
01,
FF,
06,
FA,
FF,
FC,
FE,
03,
FD,
01,
FC,
FD,
09,
03,
FF,
FD,
FE,
09,
FA,
FD,
FE,
FD,
05,
04,
00,
00,
FC,
FB,
01,
02,
FD,
05,
04,
02,
FF,
FA,
FC,
01,
03,
08,
FD,
02,
00,
02,
02,
FC,
FE,
FF,
F9,
FE,
01,
FB,
FB,
F7,
06,
01,
FB,
03,
02,
FD,
04,
05,
06,
F6,
03,
01,
FD,
FE,
05,
F8,
FE,
02,
01,
0A,
07,
00,
01,
04,
FF,
FF,
03,
07,
04,
07,
06,
02,
04,
FC,
F9,
F9,
03,
05,
03,
07,
03,
02,
00,
F2,
FD,
FD,
01,
FB,
FC,
F8,
FF,
FD,
F6,
FB,
FA,
03,
06,
FE,
FF,
09,
05,
FA,
FD,
00,
FC,
FF,
FF,
FC,
04,
FC,
FE,
00,
00,
FF,
FC,
0D,
09,
06,
04,
01,
00,
06,
03,
FF,
02,
00,
03,
02,
FA,
FF,
FF,
00,
01,
02,
00,
FD,
FD,
06,
00,
FC,
FE,
02,
FF,
07,
FD,
03,
01,
0A,
02,
04,
05,
04,
01,
FE,
07,
F7,
00,
FF,
01,
03,
01,
03,
00,
FE,
FD,
04,
00,
FA,
FD,
FE,
FD,
F8,
04,
FF,
02,
FE,
FB,
05,
FE,
04,
04,
F3,
F9,
FD,
FD,
FB,
FE,
FF,
FD,
FD,
05,
03,
00,
FF,
FF,
F9,
02,
FD,
FF,
02,
05,
FD,
04,
01,
09,
02,
01,
01,
09,
08,
03,
FD,
F8,
04,
05,
04,
03,
05,
FC,
01,
00,
04,
03,
FD,
01,
FD,
01,
FD,
03,
00,
FF,
FF,
02,
05,
01,
06,
00,
09,
00,
F7,
00,
0A,
0A,
05,
03,
FD,
FF,
02,
FA,
FB,
0B,
00,
03,
F8,
03,
F8,
F7,
01,
FD,
01,
07,
03,
FB,
F9,
F4,
F6,
FF,
02,
FD,
FA,
FD,
06,
00,
03,
F8,
F9,
FF,
00,
F9,
FF,
FE,
06,
09,
06,
08,
FD,
FA,
06,
06,
F5,
FC,
FF,
02,
01,
01,
FE,
01,
06,
04,
FD,
06,
FD,
09,
04,
00,
06,
02,
FA,
F8,
FD,
00,
FE,
05,
01,
00,
04,
00,
07,
02,
FF,
01,
02,
FC,
FF,
00,
FE,
03,
01,
FF,
FA,
FF,
05,
FB,
01,
FF,
FC,
F9,
FE,
02,
02,
00,
01,
07,
03,
00,
FB,
04,
FC,
FB,
F9,
FC,
F8,
03,
00,
00,
00,
F7,
FB,
04,
01,
01,
FE,
F7,
02,
00,
01,
00,
00,
01,
01,
FA,
00,
F9,
FF,
03,
00,
F9,
00,
00,
FB,
FA,
03,
FA,
FE,
03,
F8,
FA,
FA,
03,
01,
01,
FC,
FB,
01,
FF,
FD,
00,
03,
01,
00,
02,
06,
01,
01,
FC,
FB,
FE,
06,
05,
F8,
FC,
FB,
FC,
FC,
03,
FF,
FF,
FC,
05,
FD,
00,
02,
FB,
02,
FB,
00,
00,
00,
FA,
F9,
05,
0C,
05,
01,
03,
FB,
FD,
00,
00,
01,
FB,
FD,
01,
00,
03,
05,
FC,
FD,
00,
FF,
FA,
03,
FA,
03,
F6,
00,
FB,
FB,
04,
02,
F4,
F9,
FB,
FC,
FA,
05,
03,
FF,
FB,
FC,
FC,
03,
03,
02,
FC,
01,
09,
05,
05,
00,
F8,
04,
00,
04,
FC,
03,
02,
04,
05,
06,
03,
01,
FF,
FD,
0A,
01,
00,
F3,
F7,
07,
FF,
03,
00,
F8,
FD,
02,
03,
FE,
FD,
06,
05,
FE,
FF,
FE,
FC,
05,
01,
06,
02,
FF,
FB,
FB,
FB,
FD,
03,
02,
08,
F8,
06,
05,
02,
07,
FA,
FF,
F7,
02,
03,
02,
04,
FE,
FE,
03,
0A,
03,
FF,
02,
02,
05,
05,
FC,
01,
04,
05,
FA,
FF,
00,
03,
FF,
00,
08,
0C,
08,
F7,
03,
03,
FB,
FF,
07,
FC,
F8,
01,
09,
0E,
07,
05,
FC,
05,
FE,
FC,
F6,
09,
FD,
FF,
FE,
07,
FE,
01,
FF,
FE,
FA,
05,
00,
02,
FD,
FC,
04,
04,
03,
05,
00,
04,
FA,
04,
FD,
06,
00,
03,
01,
F9,
01,
05,
FE,
03,
05,
0A,
03,
01,
00,
FB,
FA,
FC,
FC,
F6,
FB,
04,
0C,
0D,
02,
09,
0A,
FF,
FB,
F8,
F6,
FC,
FF,
FE,
FB,
02,
01,
FC,
FC,
FA,
FE,
00,
02,
FE,
00,
FD,
FC,
01,
F7,
FE,
04,
05,
04,
01,
01,
01,
03,
F7,
FF,
FD,
FB,
01,
02,
02,
07,
01,
03,
02,
04,
FC,
01,
01,
FA,
08,
08,
01,
FE,
F8,
F9,
03,
0A,
09,
F8,
FA,
06,
05,
FD,
FE,
03,
FE,
FE,
F9,
FD,
FF,
05,
03,
00,
FE,
FC,
03,
FC,
03,
06,
FD,
05,
00,
0C,
03,
03,
01,
00,
F5,
01,
06,
03,
FC,
FE,
02,
01,
FA,
FA,
06,
03,
02,
FF,
02,
FE,
FA,
FD,
04,
05,
02,
02,
FE,
05,
05,
01,
01,
07,
FE,
F9,
FC,
08,
00,
07,
02,
FD,
FE,
FE,
FE,
03,
FA,
FD,
F9,
F9,
FF,
FC,
FE,
FD,
FA,
03,
04,
03,
FF,
FA,
FD,
FC,
FF,
F9,
00,
00,
02,
FA,
FB,
F4,
02,
FC,
00,
F5,
F8,
FF,
01,
02,
01,
F7,
02,
06,
FE,
FB,
FD,
F3,
F2,
FE,
FE,
FE,
03,
00,
05,
FE,
FC,
FF,
01,
FC,
01,
04,
07,
02,
01,
03,
02,
01,
F7,
FC,
F8,
F9,
FB,
01,
FC,
05,
00,
01,
06,
FA,
F9,
01,
FE,
FC,
01,
00,
F6,
FC,
FF,
FE,
02,
00,
02,
07,
02,
03,
05,
FF,
F7,
05,
01,
02,
00,
FB,
03,
00,
F8,
02,
03,
FC,
02,
FE,
FD,
03,
01,
01,
FE,
FC,
FD,
FC,
01,
06,
02,
03,
02,
F9,
02,
FD,
FB,
FB,
F9,
00,
01,
F7,
02,
FE,
FC,
FA,
FE,
FF,
FB,
FC,
FE,
FF,
05,
05,
03,
FC,
04,
FE,
F6,
FC,
06,
03,
02,
FF,
06,
00,
FE,
FD,
F5,
07,
03,
03,
03,
FF,
F9,
F9,
FE,
01,
01,
FF,
05,
FE,
FF,
04,
FC,
FF,
04,
FF,
FF,
FE,
FF,
FA,
01,
FC,
03,
00,
04,
05,
00,
01,
FE,
03,
00,
01,
03,
02,
05,
FD,
FD,
0B,
09,
FA,
06,
FF,
FC,
FE,
02,
04,
03,
03,
FD,
00,
01,
F8,
FA,
FF,
FB,
FA,
FC,
07,
06,
03,
07,
08,
00,
FA,
F3,
F7,
FB,
F9,
FB,
01,
FB,
F7,
04,
FE,
03,
FC,
04,
02,
FC,
02,
04,
04,
FE,
07,
FF,
FF,
FD,
00,
06,
03,
FE,
00,
F2,
01,
FB,
FF,
0F,
0C,
04,
FF,
FE,
02,
F8,
FA,
FF,
FC,
FF,
FB,
FD,
F6,
03,
04,
00,
FD,
04,
00,
07,
FE,
FA,
01,
FE,
00,
06,
FA,
F8,
01,
FF,
FA,
06,
00,
F9,
FD,
FF,
07,
04,
FE,
07,
FF,
F4,
FD,
FD,
07,
02,
03,
F7,
FD,
00,
FE,
FF,
01,
03,
00,
00,
FC,
FB,
FC,
FC,
FB,
FB,
FF,
FB,
F7,
FE,
F1,
04,
02,
FF,
0B,
FB,
F8,
02,
FB,
F8,
FA,
FF,
03,
00,
09,
02,
02,
07,
00,
FE,
FD,
01,
FB,
FE,
FE,
FE,
FD,
02,
FE,
00,
02,
FC,
03,
06,
00,
F6,
F1,
F9,
F8,
04,
00,
FB,
FD,
FC,
FF,
FE,
03,
FC,
00,
04,
FB,
F7,
F9,
FE,
05,
FF,
FE,
01,
FB,
02,
07,
04,
08,
02,
0A,
04,
FF,
FE,
06,
04,
FE,
FA,
07,
FD,
FE,
05,
00,
05,
01,
FD,
02,
04,
01,
F9,
FB,
04,
00,
FD,
02,
01,
FE,
FA,
FB,
01,
01,
01,
04,
03,
08,
01,
FD,
06,
02,
05,
FF,
FC,
03,
04,
08,
0A,
06,
FD,
02,
04,
07,
FB,
05,
FD,
04,
FE,
FC,
02,
02,
01,
01,
09,
FF,
01,
01,
01,
04,
FE,
FD,
07,
02,
01,
FF,
04,
02,
01,
0C,
03,
09,
FC,
F9,
FF,
03,
01,
04,
06,
01,
02,
FE,
00,
FE,
FE,
FF,
02,
FD,
FC,
03,
F7,
FB,
F9,
04,
00,
00,
01,
03,
05,
04,
03,
01,
FE,
FE,
F5,
FE,
FF,
06,
FE,
FA,
04,
04,
04,
FE,
02,
FD,
FF,
02,
03,
02,
00,
F7,
02,
00,
03,
FC,
07,
01,
05,
00,
FE,
F8,
07,
01,
FA,
FE,
04,
08,
F7,
02,
01,
06,
F8,
FE,
FF,
0A,
05,
01,
06,
03,
04,
01,
07,
FF,
FF,
F3,
03,
0A,
0A,
00,
00,
00,
00,
FF,
FA,
04,
FD,
01,
04,
07,
04,
FD,
F8,
FF,
03,
FB,
FE,
0B,
04,
06,
F6,
04,
FE,
03,
0A,
01,
06,
02,
FC,
06,
FA,
FF,
F6,
02,
03,
FC,
05,
05,
FF,
F8,
00,
F5,
FC,
FE,
FF,
07,
FA,
FF,
05,
04,
FF,
F8,
FD,
07,
FA,
05,
FD,
FD,
00,
04,
03,
04,
01,
FD,
FC,
05,
04,
01,
09,
04,
00,
00,
05,
FC,
01,
01,
06,
FD,
09,
04,
FA,
FD,
01,
01,
FE,
FC,
F6,
FF,
05,
FE,
F7,
F8,
01,
