// Exported from TinyDetector7Layer
// Shape: (128,), Bits: 16
@00000000 008B
@00000001 FF55
@00000002 FF81
@00000003 FF65
@00000004 FF69
@00000005 009B
@00000006 FF9A
@00000007 00B1
@00000008 FF3E
@00000009 009F
@0000000A 00AE
@0000000B 0099
@0000000C FF53
@0000000D 0073
@0000000E 00B3
@0000000F FF96
@00000010 00AA
@00000011 00B5
@00000012 FF84
@00000013 FF79
@00000014 FF5F
@00000015 FF69
@00000016 FF40
@00000017 FF4D
@00000018 FF58
@00000019 00A2
@0000001A FF8F
@0000001B 00B8
@0000001C FF73
@0000001D 009A
@0000001E 0075
@0000001F 003E
@00000020 FF6C
@00000021 FF6B
@00000022 00B0
@00000023 FF54
@00000024 0007
@00000025 006B
@00000026 00BA
@00000027 00B8
@00000028 0079
@00000029 FF36
@0000002A FF70
@0000002B FF51
@0000002C FF9B
@0000002D FFE6
@0000002E 00AF
@0000002F FF9D
@00000030 FFD2
@00000031 00BB
@00000032 009E
@00000033 FF33
@00000034 003F
@00000035 FF4D
@00000036 FFE5
@00000037 FF83
@00000038 00A7
@00000039 007D
@0000003A FF7E
@0000003B FF4B
@0000003C 00B4
@0000003D 0095
@0000003E 00AC
@0000003F 00A5
@00000040 FF6A
@00000041 FF96
@00000042 0093
@00000043 FF94
@00000044 0084
@00000045 FF8D
@00000046 FF56
@00000047 009C
@00000048 FFD9
@00000049 007E
@0000004A FF8A
@0000004B FFF4
@0000004C 00A8
@0000004D 00B5
@0000004E FF6C
@0000004F FF67
@00000050 00B0
@00000051 FF72
@00000052 007A
@00000053 FFA1
@00000054 FFB8
@00000055 FFA5
@00000056 00DA
@00000057 FFBC
@00000058 FF9B
@00000059 FFA9
@0000005A 0090
@0000005B 006C
@0000005C FFD2
@0000005D FFC2
@0000005E FF43
@0000005F FF5B
@00000060 FF5E
@00000061 FF6B
@00000062 FF5E
@00000063 FF19
@00000064 FED9
@00000065 FF47
@00000066 0085
@00000067 FF4A
@00000068 FF4C
@00000069 FF58
@0000006A 0078
@0000006B FF86
@0000006C FF5E
@0000006D 0095
@0000006E FFBB
@0000006F 00BC
@00000070 FF0E
@00000071 FFAB
@00000072 FF68
@00000073 FFDE
@00000074 FF93
@00000075 00AE
@00000076 0089
@00000077 0152
@00000078 FFF8
@00000079 FF6B
@0000007A FF6A
@0000007B FFAF
@0000007C FF74
@0000007D FFE0
@0000007E FF86
@0000007F 00B9
