; Exported from TinyDetector7Layer
; Shape: (128, 64, 4, 4), Bits: 8
memory_initialization_radix=16;
memory_initialization_vector=
01,
0F,
07,
02,
FF,
FC,
05,
FC,
F7,
F2,
FA,
FF,
F2,
FA,
FD,
00,
00,
01,
FB,
03,
FE,
06,
F9,
F8,
03,
0C,
F9,
F3,
0F,
0E,
FE,
F3,
03,
06,
F4,
F3,
F7,
03,
FD,
F7,
F4,
05,
F6,
F7,
E8,
ED,
F7,
F3,
F7,
0B,
01,
EF,
F6,
08,
F5,
E3,
F9,
FD,
FA,
ED,
00,
02,
EA,
EA,
03,
05,
F7,
FE,
05,
FE,
FC,
F9,
F7,
01,
03,
02,
01,
06,
F5,
FD,
04,
07,
FA,
01,
07,
FB,
F9,
FD,
04,
00,
01,
0A,
0D,
0F,
FD,
01,
07,
04,
03,
03,
02,
00,
FC,
05,
FE,
11,
03,
FF,
01,
03,
FB,
03,
0F,
03,
0F,
18,
06,
03,
FE,
04,
03,
07,
03,
FB,
F7,
FA,
0A,
00,
FA,
FF,
0B,
0F,
01,
02,
09,
07,
06,
05,
01,
02,
FE,
FE,
F6,
00,
07,
07,
06,
09,
07,
03,
F5,
FD,
02,
06,
09,
05,
FE,
00,
FE,
FC,
04,
05,
F9,
F3,
01,
FE,
F6,
F2,
F8,
04,
F8,
F3,
12,
01,
E6,
EC,
F5,
F6,
FC,
03,
F2,
03,
FF,
05,
FA,
03,
04,
01,
FB,
00,
03,
FE,
F8,
F6,
EB,
F0,
EA,
F6,
E0,
FB,
FF,
EC,
E2,
F6,
0E,
F4,
E8,
F2,
0B,
FD,
0C,
05,
08,
06,
FF,
0A,
0C,
0B,
F3,
01,
03,
04,
F7,
08,
0A,
07,
0E,
06,
03,
09,
09,
02,
00,
FD,
03,
02,
06,
15,
FB,
07,
FD,
F7,
F1,
F9,
FA,
FC,
0B,
04,
03,
F7,
F2,
FA,
F9,
00,
F9,
FE,
09,
03,
03,
F6,
F3,
11,
F0,
F8,
0F,
12,
FA,
FF,
10,
0C,
F8,
FD,
FD,
05,
01,
F8,
03,
FB,
06,
FA,
FF,
02,
FB,
01,
03,
F7,
FD,
03,
FD,
F8,
F1,
F6,
F3,
F4,
E8,
EA,
F9,
FB,
EC,
EA,
FD,
F4,
FC,
F1,
FA,
03,
12,
FA,
F5,
FC,
00,
F3,
04,
FF,
F4,
F7,
00,
FB,
FF,
F5,
10,
FB,
F9,
F4,
04,
00,
F8,
F5,
FB,
F8,
FB,
F1,
06,
F8,
0A,
FA,
04,
FA,
00,
00,
01,
FA,
EA,
02,
FA,
FF,
FC,
05,
FF,
01,
FB,
FB,
FB,
FB,
07,
00,
FC,
08,
08,
04,
03,
07,
02,
F8,
04,
00,
FB,
F8,
01,
F8,
F9,
04,
00,
0D,
FE,
01,
0B,
06,
01,
07,
FA,
F5,
0B,
07,
F0,
03,
04,
06,
00,
FD,
F8,
F9,
F9,
00,
11,
03,
F4,
00,
FD,
F7,
FE,
0B,
05,
00,
01,
06,
FE,
FD,
06,
0E,
FD,
FE,
FB,
FA,
F6,
ED,
02,
FD,
04,
FF,
13,
03,
0E,
01,
0C,
0C,
02,
F8,
FC,
10,
04,
0C,
F4,
03,
FF,
07,
02,
07,
FB,
08,
02,
FF,
03,
FC,
FA,
F3,
01,
F9,
06,
03,
F3,
EF,
FF,
00,
F7,
FF,
06,
08,
0E,
01,
FD,
00,
FF,
03,
02,
FA,
F6,
01,
04,
FE,
05,
02,
06,
03,
F4,
FA,
FF,
09,
03,
F9,
FB,
0A,
FA,
01,
03,
01,
F7,
F9,
F0,
FB,
F0,
EA,
FB,
F9,
EE,
FE,
FA,
FB,
F8,
08,
00,
0E,
F8,
FB,
F0,
03,
FD,
03,
F6,
FD,
01,
05,
FC,
03,
08,
0B,
04,
04,
0C,
06,
FE,
FC,
04,
FC,
FD,
02,
01,
05,
08,
03,
FE,
05,
04,
15,
FC,
FF,
F8,
11,
FE,
FE,
F7,
08,
FC,
06,
01,
FE,
FF,
F5,
04,
FC,
0C,
F6,
FE,
FE,
03,
FE,
08,
07,
08,
FD,
12,
10,
02,
F7,
08,
0B,
FE,
F9,
00,
05,
FF,
FE,
05,
0C,
01,
EF,
01,
FF,
FC,
F9,
F5,
F4,
F7,
FE,
F0,
F7,
FD,
04,
F7,
F6,
FB,
FE,
0E,
02,
F5,
E5,
FE,
FC,
F6,
EE,
FD,
F8,
F1,
F6,
FF,
F9,
F2,
FB,
02,
03,
EF,
EB,
0A,
05,
F7,
ED,
02,
FD,
FD,
F8,
06,
09,
F7,
01,
0B,
0C,
F0,
09,
FC,
FC,
05,
09,
0D,
0A,
02,
0A,
07,
02,
F4,
FF,
FA,
FB,
F9,
00,
F2,
01,
F5,
02,
06,
F9,
00,
0B,
0A,
0D,
03,
05,
0C,
07,
13,
09,
08,
FD,
0F,
06,
FD,
05,
FB,
08,
07,
0F,
00,
FF,
01,
FB,
FC,
03,
FB,
F9,
09,
00,
09,
0A,
0B,
08,
00,
FC,
02,
10,
02,
00,
0A,
0D,
FD,
0D,
08,
02,
F4,
FE,
0F,
FF,
FE,
02,
04,
F3,
FF,
FA,
03,
01,
06,
FF,
FE,
FD,
07,
FC,
F6,
0B,
11,
08,
00,
07,
03,
04,
FC,
04,
FC,
08,
02,
0E,
02,
F5,
FE,
0C,
FE,
FF,
00,
0C,
00,
02,
02,
FB,
F5,
01,
07,
FC,
FB,
FF,
F8,
03,
00,
F9,
F5,
FD,
03,
06,
07,
08,
FE,
FC,
F2,
03,
FF,
01,
05,
02,
09,
F4,
F5,
02,
FB,
00,
F7,
03,
05,
FF,
ED,
F3,
F5,
00,
F8,
09,
02,
03,
02,
07,
08,
1A,
0A,
0D,
FC,
0E,
FA,
04,
0B,
09,
FC,
04,
06,
0F,
F6,
FB,
FE,
F2,
FF,
08,
05,
F5,
F5,
05,
FB,
EA,
F3,
07,
FC,
F2,
EE,
02,
08,
09,
F1,
F5,
07,
FA,
F1,
F2,
05,
01,
EC,
02,
03,
F7,
F6,
0C,
FF,
FC,
07,
FC,
F9,
07,
F4,
F9,
FD,
00,
FD,
03,
EC,
FA,
FE,
F9,
00,
FB,
FC,
F2,
F8,
10,
08,
FF,
00,
10,
0B,
04,
FC,
08,
EE,
F5,
04,
EF,
FC,
FE,
F9,
FA,
08,
10,
04,
F0,
05,
14,
F3,
F5,
06,
0D,
08,
0A,
FD,
FD,
03,
FF,
FB,
F0,
FF,
07,
FB,
F3,
09,
FE,
F7,
F7,
FF,
03,
FE,
F5,
FA,
01,
03,
FC,
04,
00,
00,
F8,
0F,
02,
08,
01,
08,
FA,
E8,
F4,
03,
FF,
EA,
F4,
F5,
07,
EE,
F4,
F7,
FB,
FE,
01,
07,
01,
0B,
0B,
FD,
FE,
0B,
0E,
F8,
01,
07,
07,
F7,
FB,
04,
05,
03,
F1,
EB,
02,
06,
FA,
05,
00,
FC,
FC,
03,
08,
F5,
F8,
FE,
02,
08,
FF,
F3,
EE,
04,
FF,
F2,
E6,
F8,
FB,
EB,
E9,
00,
01,
E8,
F5,
F8,
00,
02,
FC,
0A,
FA,
FE,
FD,
07,
FA,
FB,
08,
FD,
F2,
04,
FA,
F6,
F9,
03,
F7,
F9,
F4,
04,
FE,
FF,
FD,
04,
FA,
F9,
FB,
FC,
FF,
03,
07,
05,
09,
FA,
06,
FE,
04,
F7,
01,
FA,
07,
FF,
00,
01,
01,
06,
FA,
F8,
00,
02,
FC,
FD,
01,
FC,
02,
F9,
01,
01,
F9,
00,
00,
FA,
F9,
FB,
F9,
FA,
F9,
FD,
FB,
F8,
01,
FF,
FD,
F6,
F5,
FF,
06,
04,
00,
FF,
FE,
FE,
01,
FF,
04,
02,
02,
04,
F9,
00,
05,
FE,
02,
FC,
02,
01,
F3,
F9,
FB,
03,
FA,
F8,
FD,
FC,
FD,
FC,
FD,
03,
FF,
05,
FA,
FA,
FE,
00,
FC,
03,
FF,
02,
FF,
00,
06,
00,
FF,
02,
03,
03,
0A,
01,
08,
FF,
05,
05,
02,
03,
08,
09,
07,
06,
09,
08,
0A,
FF,
01,
F8,
00,
01,
FC,
05,
05,
02,
08,
FF,
F9,
06,
02,
06,
F7,
03,
FC,
03,
04,
0A,
01,
06,
04,
03,
04,
05,
FB,
03,
06,
06,
00,
03,
02,
01,
02,
01,
FF,
F9,
01,
04,
03,
01,
FF,
00,
02,
FF,
FB,
05,
FB,
01,
FC,
FD,
01,
FF,
FE,
FC,
01,
05,
01,
00,
FE,
07,
01,
00,
FD,
FE,
F7,
FF,
FE,
FC,
FA,
FD,
01,
FC,
F9,
FD,
FA,
00,
F5,
FA,
F7,
F9,
F9,
FA,
FF,
FD,
FB,
FE,
07,
06,
FC,
FE,
FC,
FE,
FA,
F7,
FC,
01,
F8,
FA,
04,
00,
01,
F6,
02,
01,
F8,
F9,
00,
08,
FA,
02,
FA,
00,
FE,
04,
00,
02,
FB,
03,
00,
00,
FB,
03,
00,
03,
FD,
02,
FE,
03,
F9,
00,
00,
08,
00,
02,
FF,
FB,
01,
FD,
04,
FC,
FA,
FF,
03,
00,
FF,
02,
03,
02,
FA,
00,
05,
05,
05,
01,
03,
02,
00,
08,
00,
01,
FC,
02,
05,
07,
01,
FA,
08,
F9,
FF,
07,
02,
FD,
FE,
FB,
FC,
01,
F3,
FD,
FA,
02,
FB,
01,
FF,
02,
FC,
F8,
F9,
00,
F4,
05,
FF,
F7,
F8,
FA,
FE,
FF,
FA,
F8,
02,
FF,
FA,
00,
F6,
FF,
F8,
04,
00,
F5,
FE,
FA,
FB,
F7,
FC,
FC,
FF,
FA,
FA,
FD,
FC,
FC,
FE,
00,
01,
00,
FD,
FD,
08,
03,
FC,
00,
01,
02,
FC,
FD,
FC,
03,
02,
07,
FE,
FE,
04,
02,
FE,
04,
FD,
07,
01,
03,
02,
00,
03,
FF,
07,
02,
00,
00,
FF,
01,
FE,
FE,
02,
FB,
02,
06,
FE,
04,
05,
01,
06,
FD,
02,
02,
FF,
FF,
FE,
FE,
F7,
FA,
00,
04,
00,
F8,
FA,
08,
FB,
FF,
FF,
03,
FD,
FA,
03,
00,
FF,
00,
FE,
03,
02,
07,
FE,
05,
03,
FC,
00,
02,
FD,
01,
FE,
F8,
FE,
FD,
00,
FA,
06,
FF,
FD,
FB,
FF,
F8,
FC,
02,
FF,
FB,
FF,
05,
02,
FE,
06,
05,
FD,
FD,
F8,
FD,
FD,
03,
01,
02,
03,
FE,
03,
06,
03,
07,
07,
02,
04,
00,
04,
03,
0A,
F9,
F9,
FA,
FC,
FD,
FE,
02,
FE,
FD,
F9,
01,
FE,
00,
FE,
04,
FC,
FC,
07,
02,
01,
FF,
07,
09,
FF,
FC,
05,
FF,
00,
03,
08,
05,
FD,
02,
FE,
07,
FF,
00,
01,
05,
00,
01,
FF,
00,
06,
01,
05,
01,
FD,
FF,
05,
FF,
02,
FC,
03,
F9,
F8,
04,
FF,
01,
FA,
FF,
F9,
FD,
FC,
FE,
00,
01,
FD,
04,
FD,
00,
01,
FD,
FF,
03,
05,
04,
FD,
00,
00,
FD,
F8,
00,
F9,
01,
0E,
02,
00,
05,
FC,
FE,
05,
FD,
FD,
00,
06,
FD,
FF,
00,
00,
FF,
FB,
FF,
FC,
01,
FB,
F9,
01,
04,
00,
FE,
04,
FE,
00,
FD,
FC,
FE,
04,
02,
FC,
06,
FF,
03,
02,
00,
02,
FE,
FE,
F8,
FD,
F8,
FB,
FC,
F9,
FF,
F5,
FD,
F8,
F3,
01,
03,
FB,
FF,
FF,
FD,
05,
FA,
F6,
F5,
FC,
F6,
F7,
F8,
F4,
FF,
F6,
FE,
F3,
FB,
F4,
01,
05,
07,
06,
06,
01,
05,
09,
02,
06,
FF,
03,
03,
01,
06,
01,
00,
FA,
FA,
FC,
01,
00,
FA,
F9,
FE,
FC,
FB,
F7,
F5,
FB,
FA,
FB,
00,
FF,
06,
02,
05,
00,
FE,
01,
04,
01,
05,
00,
01,
02,
FE,
01,
FE,
FB,
FE,
FD,
FF,
02,
FE,
00,
FE,
FE,
F8,
FB,
FC,
01,
FC,
F9,
F5,
FA,
F5,
F7,
F6,
F3,
FA,
F4,
00,
FF,
00,
01,
04,
07,
FB,
02,
FF,
FD,
04,
01,
05,
FD,
07,
03,
06,
FE,
FD,
05,
05,
F9,
00,
03,
05,
FD,
FC,
FB,
04,
02,
01,
FB,
00,
06,
00,
FC,
00,
01,
FE,
F9,
F8,
F6,
FF,
F8,
F6,
F8,
FE,
F9,
01,
F9,
FC,
F8,
F9,
FB,
FC,
FA,
03,
00,
02,
00,
00,
03,
0A,
04,
00,
04,
FC,
00,
03,
05,
FF,
02,
F6,
02,
FC,
FF,
F7,
FB,
FA,
FD,
01,
01,
FD,
03,
00,
04,
02,
09,
FE,
02,
FD,
FF,
02,
07,
02,
FC,
04,
FD,
FF,
FA,
FF,
FB,
FB,
02,
FF,
01,
06,
F9,
01,
F7,
F7,
01,
03,
FD,
FF,
FC,
FF,
F9,
FB,
F6,
02,
F8,
FC,
02,
01,
00,
FC,
FB,
FA,
09,
02,
FD,
FF,
00,
00,
00,
FA,
FE,
F7,
FC,
FC,
FD,
F8,
F6,
F4,
F9,
FE,
F6,
FA,
F8,
FD,
F4,
FF,
04,
00,
FF,
08,
04,
02,
FF,
08,
08,
FD,
07,
FA,
02,
02,
F9,
FF,
F8,
F9,
F9,
F7,
00,
FC,
FC,
FC,
F9,
01,
FA,
FA,
FC,
00,
FD,
08,
04,
02,
FF,
00,
FE,
01,
FE,
09,
05,
08,
05,
02,
06,
05,
08,
02,
01,
00,
FA,
04,
00,
01,
04,
04,
00,
FC,
F7,
01,
FF,
00,
F8,
04,
02,
FE,
05,
02,
02,
05,
FE,
01,
02,
06,
00,
03,
02,
00,
02,
FF,
FD,
FC,
FF,
06,
00,
03,
F8,
01,
FC,
FC,
00,
02,
FF,
FF,
FB,
F9,
00,
00,
00,
05,
00,
FC,
FF,
02,
02,
03,
0A,
FC,
FA,
FC,
02,
FE,
FF,
F7,
FD,
FA,
F5,
01,
02,
02,
01,
00,
03,
05,
02,
06,
08,
FE,
FA,
01,
F8,
FC,
02,
FA,
FD,
00,
02,
FB,
F8,
02,
03,
FB,
F8,
02,
03,
FF,
FB,
02,
FF,
02,
FA,
FC,
01,
02,
01,
00,
02,
06,
07,
FD,
F6,
01,
04,
06,
06,
09,
02,
06,
06,
0A,
06,
04,
04,
04,
FF,
FB,
F6,
FD,
FF,
F8,
F9,
FE,
FA,
FB,
02,
F9,
F7,
F9,
FF,
FB,
F9,
F5,
13,
13,
13,
F6,
FA,
00,
0B,
E7,
E5,
F2,
FE,
01,
E3,
FA,
F7,
0B,
0A,
07,
FD,
01,
FF,
FB,
06,
06,
05,
00,
1D,
FF,
07,
14,
06,
FE,
0E,
FD,
05,
FE,
F2,
FD,
FD,
FB,
08,
F5,
F5,
08,
09,
0F,
09,
09,
12,
18,
16,
08,
14,
0C,
11,
FE,
02,
03,
F1,
FB,
F2,
FC,
F7,
0C,
19,
08,
EC,
0A,
0F,
F6,
EA,
FD,
09,
F0,
F1,
0D,
14,
F7,
02,
09,
00,
06,
06,
11,
01,
07,
02,
11,
0B,
0A,
0D,
FC,
FB,
FB,
F8,
FB,
03,
12,
0B,
02,
F7,
FA,
FA,
05,
07,
05,
F5,
FF,
08,
01,
00,
01,
09,
09,
FE,
F6,
08,
F8,
00,
EA,
01,
FF,
F6,
F0,
FD,
0F,
02,
FB,
00,
E8,
F6,
01,
FC,
09,
00,
FE,
08,
00,
FF,
14,
00,
09,
0C,
0A,
FD,
06,
0B,
05,
08,
F9,
05,
FC,
08,
02,
11,
F6,
07,
0A,
13,
FF,
EC,
FD,
05,
04,
00,
01,
FF,
19,
0E,
FF,
0F,
0F,
10,
16,
1D,
04,
F0,
FF,
03,
06,
F6,
FB,
04,
12,
F4,
0E,
13,
03,
13,
0F,
14,
0C,
F3,
F1,
E8,
02,
FD,
FF,
E9,
04,
03,
02,
EA,
03,
0E,
09,
04,
00,
0B,
F4,
F6,
F9,
FD,
F1,
FA,
02,
18,
FD,
EB,
0D,
12,
01,
08,
FF,
FA,
E5,
EC,
05,
F7,
FB,
06,
F8,
05,
FD,
05,
0C,
FB,
15,
0A,
10,
08,
F4,
02,
03,
F9,
F3,
F5,
F2,
01,
05,
0A,
04,
04,
03,
FB,
FB,
E6,
00,
F1,
FA,
F0,
00,
05,
FC,
0F,
F8,
05,
08,
09,
06,
11,
10,
13,
09,
EE,
02,
17,
F5,
12,
10,
10,
05,
F3,
EE,
07,
06,
01,
06,
F4,
04,
01,
0E,
03,
02,
09,
0D,
10,
F4,
F5,
F5,
10,
FA,
F6,
FE,
FC,
03,
F3,
00,
FB,
FF,
FB,
0F,
05,
05,
FB,
03,
1C,
10,
13,
FB,
FC,
00,
FB,
F7,
F3,
EF,
FC,
07,
09,
F4,
05,
F1,
00,
FF,
0D,
E6,
17,
FD,
07,
07,
00,
FE,
07,
06,
FC,
F5,
0A,
0B,
FF,
0E,
06,
0F,
03,
03,
02,
FC,
01,
08,
FF,
FA,
F8,
FD,
05,
FB,
04,
0C,
0D,
12,
0A,
07,
FB,
18,
05,
07,
12,
11,
F2,
16,
0F,
0D,
1C,
00,
00,
01,
F9,
E8,
00,
FF,
F8,
F3,
FD,
FC,
FA,
F9,
06,
03,
F9,
04,
0F,
F8,
FF,
0C,
09,
FB,
0A,
EE,
0A,
FF,
06,
FD,
0C,
09,
01,
0C,
16,
05,
09,
FA,
F7,
10,
0C,
FA,
FD,
09,
06,
0D,
05,
14,
09,
18,
0A,
03,
06,
F9,
11,
00,
0A,
01,
F8,
02,
FD,
07,
0D,
FC,
00,
06,
F3,
05,
17,
10,
FD,
17,
FE,
F7,
FB,
F8,
FE,
FD,
FA,
0B,
03,
FA,
EF,
FE,
F5,
E8,
FC,
01,
00,
F5,
0D,
F8,
00,
00,
01,
F9,
12,
F5,
00,
FC,
04,
F3,
0F,
03,
F6,
FD,
03,
FD,
00,
FA,
14,
00,
05,
02,
0A,
FF,
F8,
F3,
FC,
03,
02,
F2,
F0,
F6,
00,
0E,
04,
07,
08,
FF,
FA,
F5,
FC,
FC,
FC,
F6,
EF,
EB,
FA,
F5,
FA,
F8,
FC,
FB,
F4,
EB,
01,
FE,
02,
FD,
F5,
F9,
FE,
08,
FA,
11,
F1,
06,
00,
00,
F5,
00,
0D,
02,
F1,
F1,
E9,
F3,
F1,
F5,
F3,
0B,
03,
F6,
F3,
FE,
04,
ED,
07,
07,
0E,
03,
FB,
08,
EF,
00,
FA,
FA,
0C,
15,
04,
0D,
09,
07,
11,
F9,
F8,
EF,
CD,
0A,
03,
EC,
F0,
18,
FF,
0B,
F0,
F3,
0F,
F5,
01,
03,
06,
F7,
12,
0D,
0C,
F2,
10,
FA,
1E,
12,
03,
EB,
12,
0E,
0A,
07,
F8,
F7,
02,
0E,
F0,
FC,
FF,
F6,
ED,
09,
0C,
F2,
FD,
FB,
FB,
0E,
FF,
07,
F6,
03,
E8,
F8,
EB,
03,
FD,
05,
0E,
1A,
06,
16,
0F,
FE,
EA,
EF,
F2,
00,
F8,
F5,
08,
01,
EC,
08,
00,
FD,
01,
FF,
18,
FF,
12,
04,
1B,
03,
02,
04,
04,
05,
FD,
06,
0F,
FE,
E0,
F8,
0E,
14,
10,
DA,
E8,
09,
02,
F2,
EE,
0F,
12,
0E,
0B,
FD,
11,
13,
01,
00,
FE,
03,
06,
F2,
04,
F9,
05,
07,
FC,
FF,
FE,
04,
F7,
02,
F4,
F5,
00,
EA,
F6,
F8,
01,
F9,
F5,
16,
0E,
F7,
F7,
F3,
05,
04,
F7,
EB,
DA,
F3,
DD,
F1,
EB,
FC,
EC,
05,
FD,
EB,
F7,
0B,
04,
F2,
F4,
01,
00,
E8,
08,
0F,
EC,
F5,
12,
F7,
02,
FA,
01,
F6,
F4,
02,
10,
F6,
01,
FB,
01,
F1,
F9,
F2,
F9,
0A,
F6,
02,
04,
FB,
E9,
FE,
04,
02,
0B,
15,
FE,
0A,
04,
02,
FA,
04,
FF,
FD,
0B,
FA,
00,
00,
02,
EC,
F9,
FF,
F8,
08,
F5,
FF,
FE,
13,
03,
0B,
FB,
07,
05,
1A,
0D,
09,
18,
09,
0A,
F9,
15,
07,
F3,
03,
0E,
08,
06,
FE,
F3,
19,
0B,
07,
01,
EF,
F7,
0B,
EA,
F8,
F6,
FA,
11,
DB,
01,
F7,
0D,
10,
10,
01,
F1,
F4,
12,
F3,
F9,
0A,
F6,
02,
F8,
01,
FC,
09,
05,
18,
10,
04,
01,
EF,
E6,
F7,
F7,
F4,
F8,
03,
F6,
F3,
FA,
FA,
09,
03,
0A,
F7,
00,
EA,
F7,
02,
FA,
F5,
04,
11,
02,
F6,
04,
FA,
FE,
FE,
F9,
05,
F5,
00,
01,
F5,
15,
02,
F4,
02,
13,
0A,
FA,
00,
09,
10,
15,
0A,
F9,
F8,
F0,
04,
F9,
F0,
F6,
09,
FA,
F1,
02,
F9,
FD,
F6,
F7,
0D,
03,
04,
03,
06,
FD,
0B,
0F,
E8,
F1,
00,
F5,
0E,
EB,
03,
F8,
1D,
0B,
0C,
17,
03,
04,
03,
00,
FD,
F7,
F1,
0A,
FB,
F2,
FD,
07,
FB,
F9,
F5,
F6,
10,
01,
E5,
F8,
FF,
05,
02,
F3,
FB,
F8,
03,
09,
09,
0E,
F5,
00,
04,
00,
F8,
05,
F9,
01,
03,
0F,
FD,
05,
FF,
0B,
00,
F4,
F1,
00,
FE,
E5,
E8,
FD,
08,
FC,
02,
04,
FD,
02,
0A,
03,
0B,
02,
00,
FC,
00,
FC,
00,
F2,
16,
EE,
FB,
FE,
F0,
12,
0E,
0B,
FA,
F5,
EA,
EF,
07,
EB,
F3,
E7,
FB,
F3,
F6,
F6,
04,
0D,
F6,
05,
FF,
EE,
E7,
0E,
FB,
FF,
0F,
00,
F7,
F2,
F3,
09,
F6,
F7,
02,
0F,
FC,
0F,
08,
0A,
FB,
13,
13,
FB,
FB,
F6,
FF,
03,
FC,
03,
E8,
F7,
E8,
0E,
08,
05,
FB,
00,
FE,
03,
F5,
04,
05,
01,
00,
F2,
FC,
EE,
F7,
F5,
FC,
00,
FC,
F7,
0D,
00,
08,
F0,
FA,
FD,
FC,
09,
F1,
F6,
FA,
E9,
F5,
FD,
FB,
E4,
FC,
E7,
01,
EA,
E8,
F6,
06,
E9,
F2,
FB,
F5,
FD,
0B,
FB,
F2,
05,
03,
06,
09,
FE,
00,
02,
FE,
07,
F5,
0B,
E9,
E1,
00,
0B,
EA,
ED,
EF,
F9,
EF,
EF,
00,
01,
F1,
F7,
09,
00,
ED,
FD,
0D,
0C,
F6,
FA,
FF,
16,
F0,
07,
04,
08,
FB,
F6,
07,
15,
F7,
08,
FB,
02,
F0,
EE,
F0,
00,
F5,
03,
F8,
EF,
FA,
01,
08,
F8,
FA,
0B,
0B,
01,
E9,
04,
0B,
06,
FB,
03,
FE,
04,
F6,
FC,
0A,
F7,
0A,
0F,
00,
06,
06,
01,
04,
F7,
03,
02,
06,
F1,
03,
00,
FE,
E8,
04,
F4,
00,
F6,
03,
03,
F2,
E9,
FC,
FD,
F0,
E9,
06,
F1,
08,
FD,
04,
1B,
09,
04,
10,
0A,
04,
F7,
0A,
0A,
0B,
FB,
0B,
0A,
07,
01,
F9,
20,
08,
12,
FA,
00,
06,
10,
FD,
F6,
08,
0B,
00,
F8,
FE,
0D,
0A,
14,
FC,
03,
FB,
0A,
FA,
F6,
FC,
FA,
01,
F5,
09,
F9,
05,
FC,
EA,
05,
0A,
02,
FF,
0D,
14,
01,
F4,
0D,
02,
0B,
14,
01,
02,
09,
02,
03,
16,
07,
FA,
FF,
09,
F0,
03,
FE,
EB,
EE,
F7,
FC,
07,
ED,
EB,
F8,
FB,
FD,
E9,
EE,
EE,
F6,
FA,
E8,
F8,
F1,
06,
FB,
FD,
F8,
03,
ED,
07,
FA,
FD,
FE,
00,
F0,
01,
00,
FD,
EB,
1E,
FD,
F5,
F6,
0B,
1A,
08,
ED,
0D,
1A,
0C,
F6,
15,
1C,
F7,
F1,
0B,
02,
F9,
F0,
07,
F9,
0C,
1B,
F1,
0C,
04,
08,
02,
06,
FD,
0D,
F0,
0C,
FA,
1A,
F3,
06,
11,
16,
F6,
F0,
05,
06,
06,
1D,
05,
08,
F0,
05,
0F,
10,
06,
0A,
03,
FA,
00,
09,
04,
F4,
FE,
F2,
0B,
06,
F4,
F6,
01,
F0,
EF,
FB,
F7,
04,
F3,
EC,
E9,
FC,
F0,
EB,
F7,
F7,
F6,
F4,
FA,
04,
0B,
00,
F4,
F5,
EE,
04,
F0,
00,
02,
E5,
F4,
F7,
0A,
FA,
EE,
F9,
16,
0A,
0A,
FC,
0A,
04,
FA,
02,
18,
0B,
04,
01,
02,
FC,
F4,
FF,
F2,
F8,
FD,
F9,
EB,
F0,
FF,
F0,
F8,
EF,
04,
F4,
EB,
FD,
F8,
08,
F8,
FA,
0C,
05,
00,
F9,
FE,
09,
F0,
F0,
F5,
1D,
07,
04,
FB,
06,
04,
ED,
F2,
0A,
F3,
EB,
05,
FC,
E2,
EC,
F4,
F8,
FF,
FC,
0F,
08,
F6,
07,
11,
FC,
03,
0D,
0F,
FF,
00,
13,
00,
FC,
00,
07,
01,
F8,
F3,
0C,
0D,
FE,
09,
10,
FA,
09,
08,
10,
08,
0E,
02,
08,
FC,
02,
FE,
0C,
0A,
08,
FC,
F7,
EB,
EF,
00,
FC,
12,
F2,
01,
04,
01,
F2,
FA,
F1,
08,
10,
FC,
FD,
07,
03,
F1,
FA,
00,
0D,
FE,
0A,
0E,
1C,
0E,
09,
0F,
12,
FC,
FB,
FF,
02,
03,
07,
0D,
0E,
08,
05,
F3,
1E,
1A,
08,
FB,
FF,
0D,
FE,
F6,
08,
0B,
FE,
0C,
F6,
14,
12,
07,
00,
FB,
0A,
02,
04,
0D,
08,
0F,
F1,
FB,
08,
05,
FD,
05,
FB,
0C,
03,
0C,
15,
FB,
0C,
11,
F6,
01,
F5,
0A,
0D,
06,
00,
0A,
F8,
05,
03,
0D,
15,
04,
0B,
1A,
1B,
FE,
F6,
14,
0F,
FA,
FD,
05,
FE,
FD,
01,
F7,
F5,
0A,
13,
F3,
FB,
12,
F7,
05,
01,
08,
FE,
F4,
FA,
08,
FC,
03,
11,
F8,
ED,
06,
F5,
03,
F5,
03,
02,
0B,
F4,
FF,
F0,
F0,
FC,
F2,
F5,
FD,
01,
F9,
FC,
F7,
FD,
00,
F9,
EB,
F7,
F3,
FD,
F9,
03,
EE,
F3,
0E,
FA,
E6,
F0,
02,
06,
F8,
00,
FF,
F9,
F0,
FB,
12,
F9,
0E,
F8,
04,
F0,
FE,
02,
00,
01,
FB,
0F,
0C,
0E,
11,
06,
15,
15,
F8,
FE,
12,
01,
F2,
FA,
07,
FF,
F0,
FD,
09,
06,
F1,
FA,
08,
01,
F8,
FF,
F6,
FD,
FE,
EE,
FC,
FB,
F8,
F7,
02,
F9,
F2,
EB,
F1,
F9,
0B,
EF,
FD,
05,
11,
18,
05,
F5,
11,
06,
F1,
F9,
07,
10,
01,
00,
04,
06,
00,
F8,
F7,
FB,
08,
04,
F5,
03,
04,
07,
F4,
08,
F9,
07,
FC,
04,
F1,
F7,
FF,
F0,
EB,
F1,
F9,
ED,
F9,
FB,
FB,
F3,
F7,
02,
00,
01,
F5,
00,
00,
F8,
FA,
09,
1A,
FD,
F2,
F6,
0C,
EF,
FC,
00,
FF,
FA,
03,
0E,
12,
12,
10,
F9,
F4,
0A,
FD,
FD,
13,
01,
FD,
FD,
F9,
FC,
05,
05,
03,
0A,
10,
E3,
F7,
0C,
08,
01,
08,
06,
09,
FB,
0E,
0B,
F5,
11,
09,
FC,
FD,
FA,
FE,
13,
FD,
EF,
FB,
FE,
FD,
EA,
FC,
13,
0C,
02,
F3,
05,
00,
F7,
FA,
0F,
0E,
08,
0C,
0F,
02,
01,
08,
0D,
F1,
F8,
F6,
FA,
06,
0F,
0A,
F2,
FE,
F9,
FC,
ED,
07,
03,
F4,
04,
F6,
07,
F7,
FE,
FC,
05,
09,
F8,
0A,
0E,
FF,
08,
14,
0C,
06,
05,
0E,
FF,
03,
02,
07,
FB,
0D,
08,
FF,
F7,
0C,
05,
F2,
FE,
FA,
FE,
FA,
F5,
01,
F3,
04,
F6,
FB,
01,
08,
EE,
F9,
FD,
04,
F4,
0B,
F9,
12,
F8,
02,
FE,
0B,
08,
F7,
02,
FC,
FC,
02,
07,
14,
F2,
0D,
00,
F6,
14,
11,
19,
FA,
04,
F8,
01,
08,
00,
04,
0C,
0F,
00,
12,
00,
03,
02,
19,
F4,
F2,
E2,
07,
06,
EE,
03,
06,
EE,
00,
FF,
0F,
17,
FD,
0D,
19,
0E,
00,
03,
20,
16,
03,
F9,
06,
06,
FF,
FE,
0D,
FD,
03,
02,
FC,
06,
04,
FA,
06,
F6,
FE,
03,
07,
FA,
11,
12,
F8,
FE,
05,
00,
F7,
F5,
FE,
08,
02,
FC,
F9,
FD,
09,
FD,
FD,
07,
12,
0E,
F4,
F5,
03,
FD,
FC,
F3,
07,
FE,
FF,
DB,
0B,
FC,
02,
02,
0A,
F8,
00,
FE,
F0,
F3,
EB,
FB,
FF,
E9,
ED,
F5,
EC,
F6,
F4,
EB,
07,
EE,
F6,
F9,
F6,
F8,
08,
FE,
F5,
EC,
07,
08,
FD,
F8,
FB,
03,
FA,
04,
0D,
08,
04,
0B,
0F,
04,
FE,
07,
0E,
FA,
EB,
E8,
FF,
E7,
02,
00,
16,
0E,
FB,
04,
07,
06,
FB,
FC,
FE,
FE,
F7,
ED,
F7,
01,
0B,
0C,
0D,
FF,
00,
08,
00,
FF,
03,
0A,
04,
0D,
0B,
FD,
09,
02,
FC,
FA,
EE,
04,
F2,
F3,
EE,
F6,
F8,
F6,
EA,
F5,
FD,
F8,
FA,
FB,
09,
13,
11,
10,
0A,
12,
11,
04,
14,
1B,
11,
04,
07,
19,
0E,
FD,
FB,
09,
F6,
F9,
FE,
02,
00,
06,
F5,
EE,
FA,
F6,
F7,
F9,
07,
FA,
06,
0E,
07,
FF,
05,
06,
03,
03,
FF,
FE,
0D,
01,
F8,
06,
01,
F8,
0E,
0C,
08,
0E,
0B,
05,
03,
FB,
F4,
06,
03,
FA,
F6,
EF,
F6,
FC,
06,
0A,
04,
F4,
08,
07,
0A,
07,
01,
05,
FF,
F4,
02,
F5,
FE,
F1,
FD,
04,
04,
FE,
FB,
0A,
04,
F6,
EE,
02,
06,
02,
F8,
F5,
08,
F9,
00,
02,
15,
FA,
02,
F6,
08,
01,
F9,
FE,
FD,
FA,
F2,
F5,
FB,
F4,
00,
F9,
09,
01,
05,
FD,
09,
FE,
0B,
0E,
0A,
05,
F9,
02,
FA,
F5,
01,
FF,
07,
04,
01,
09,
14,
01,
F7,
01,
04,
F4,
F0,
FA,
F9,
F6,
03,
03,
FB,
FD,
01,
00,
10,
F7,
05,
02,
FE,
F8,
F8,
F8,
FA,
F9,
14,
0C,
0D,
00,
06,
0C,
04,
0D,
0F,
0F,
17,
02,
FF,
03,
04,
F9,
0F,
15,
18,
02,
FD,
13,
08,
07,
03,
0E,
F9,
12,
F2,
0E,
FF,
0C,
05,
04,
F7,
06,
02,
03,
FC,
FA,
FE,
0A,
FF,
00,
F2,
FA,
FA,
09,
F4,
F4,
EF,
F1,
F2,
FB,
EA,
F5,
03,
F7,
08,
FD,
FE,
F0,
FC,
FC,
F4,
F7,
F4,
EE,
F5,
00,
00,
F0,
FA,
FE,
06,
FE,
F8,
F5,
FB,
FB,
F8,
06,
08,
00,
05,
06,
F7,
FB,
FA,
08,
0C,
FB,
03,
F8,
FB,
FE,
F8,
08,
0A,
02,
F8,
06,
FE,
09,
FB,
FE,
FE,
FE,
EF,
EE,
E5,
ED,
09,
03,
14,
06,
01,
0B,
05,
0C,
F9,
0C,
18,
0C,
01,
07,
18,
FC,
0A,
FF,
FE,
05,
06,
02,
05,
03,
FD,
F9,
01,
FD,
F6,
F8,
F8,
F0,
05,
07,
FE,
F9,
F1,
F8,
00,
FD,
F4,
F9,
F4,
0C,
07,
FF,
F6,
03,
F5,
0E,
F6,
10,
04,
0B,
09,
0C,
0A,
22,
1B,
05,
09,
11,
1C,
08,
FE,
06,
FF,
01,
F8,
F8,
05,
02,
03,
F4,
F9,
10,
F9,
F7,
00,
01,
01,
F7,
FA,
03,
03,
09,
03,
0A,
08,
09,
FF,
06,
FF,
F7,
F8,
0D,
F7,
EE,
FB,
F2,
FD,
05,
02,
FF,
04,
FC,
FA,
03,
F8,
F4,
FC,
08,
FD,
FE,
F9,
FB,
F1,
FE,
F9,
FC,
ED,
F3,
06,
FD,
F0,
FB,
FB,
F4,
F5,
FA,
04,
FD,
00,
FA,
F0,
F9,
03,
F9,
0C,
FB,
FF,
0F,
03,
08,
0B,
06,
FC,
07,
EF,
F3,
FC,
01,
FC,
FE,
FE,
F4,
01,
FA,
F9,
00,
FD,
F7,
EF,
0A,
F7,
F3,
F9,
03,
FA,
0A,
01,
07,
FE,
F9,
FD,
04,
04,
FD,
F1,
FF,
11,
02,
00,
03,
0F,
12,
09,
F7,
01,
08,
FE,
FC,
FD,
18,
00,
07,
FF,
FB,
06,
FE,
06,
01,
09,
11,
F9,
F7,
08,
00,
FA,
F4,
EE,
FC,
F6,
F4,
E2,
F0,
04,
FB,
0B,
FA,
05,
FD,
F5,
E9,
F7,
FA,
0D,
EC,
01,
00,
08,
04,
12,
05,
03,
F5,
01,
07,
FF,
FA,
09,
F6,
00,
FC,
04,
F9,
06,
FE,
F9,
F5,
03,
FC,
FD,
F0,
02,
F6,
07,
10,
0D,
04,
07,
11,
0E,
03,
07,
13,
04,
F9,
F1,
F9,
01,
F3,
05,
14,
02,
0C,
FD,
15,
00,
F5,
FA,
05,
F9,
FE,
F6,
FE,
F8,
F3,
04,
09,
19,
0B,
06,
00,
0F,
03,
FC,
04,
FF,
06,
08,
10,
0E,
02,
17,
0C,
07,
0B,
08,
09,
0D,
FE,
06,
03,
02,
0C,
05,
FA,
FE,
FF,
FA,
00,
05,
FB,
F8,
ED,
ED,
01,
F1,
05,
FB,
FF,
FE,
EA,
F6,
06,
0B,
FA,
04,
FC,
11,
14,
0E,
F8,
00,
0D,
18,
FB,
0D,
08,
00,
F6,
FF,
F8,
EF,
FE,
03,
01,
FE,
F1,
02,
04,
F8,
00,
10,
F0,
F7,
08,
0D,
15,
05,
F8,
03,
0B,
FE,
FA,
FA,
FC,
FA,
F9,
FC,
EB,
F1,
F7,
F5,
FD,
03,
12,
FD,
02,
F7,
FE,
FA,
EC,
FD,
ED,
FD,
F8,
FD,
01,
FE,
EF,
F5,
EC,
FF,
FA,
FF,
F6,
01,
02,
ED,
04,
19,
13,
03,
06,
F6,
FF,
FE,
09,
06,
07,
05,
FA,
0F,
0A,
FF,
00,
FE,
00,
FD,
FE,
04,
02,
FF,
0B,
00,
03,
03,
01,
FE,
01,
14,
08,
02,
F4,
FD,
F9,
FE,
EC,
0A,
FD,
F8,
00,
09,
F6,
0C,
FC,
0F,
00,
FE,
05,
09,
F7,
FB,
04,
03,
0B,
F2,
F9,
FC,
0C,
0A,
F9,
00,
02,
F8,
FF,
FE,
FD,
01,
FA,
04,
FD,
01,
F8,
04,
F7,
01,
FF,
03,
09,
01,
F9,
01,
02,
F8,
F8,
FF,
EC,
FC,
FB,
F9,
F0,
F2,
F8,
F0,
E9,
F6,
F9,
FB,
FE,
FA,
04,
0F,
FC,
01,
13,
15,
06,
FF,
F1,
FF,
FA,
F2,
F4,
FD,
F9,
FF,
09,
FF,
FB,
F4,
F7,
11,
F9,
FB,
01,
02,
02,
F5,
F1,
00,
E9,
FD,
F8,
08,
04,
FF,
05,
04,
FD,
0F,
0F,
05,
02,
F4,
0A,
09,
FC,
03,
0D,
FF,
FF,
00,
04,
F7,
03,
0A,
FE,
FD,
06,
FC,
F3,
02,
0A,
F8,
EE,
E4,
EC,
E8,
F4,
ED,
EF,
09,
F6,
FE,
FF,
12,
06,
02,
03,
F7,
F9,
0B,
F9,
FC,
0A,
04,
03,
03,
04,
05,
F1,
F9,
FF,
FB,
ED,
FA,
F8,
EA,
E4,
E9,
FD,
EE,
EB,
F3,
FD,
F5,
F5,
EA,
FC,
08,
F5,
04,
02,
FA,
F9,
13,
FE,
10,
FD,
0D,
FD,
10,
07,
FB,
06,
05,
FF,
03,
02,
FC,
FE,
0E,
03,
06,
FA,
04,
FA,
FF,
F9,
F8,
02,
EC,
02,
FF,
0D,
04,
F0,
09,
14,
FE,
00,
06,
F5,
FB,
F7,
06,
09,
14,
10,
07,
F4,
EF,
ED,
FE,
0A,
04,
F4,
04,
0C,
FF,
F4,
0A,
09,
1B,
04,
07,
F7,
F8,
F4,
EB,
FE,
F4,
F3,
F6,
FC,
F6,
FB,
F4,
04,
F5,
F5,
FB,
EE,
08,
EC,
00,
F8,
02,
F8,
00,
07,
F8,
F9,
F9,
1D,
F3,
00,
FD,
03,
04,
09,
0B,
F6,
07,
0A,
FC,
02,
1F,
FD,
EF,
F9,
0D,
F9,
07,
F1,
FC,
04,
05,
07,
06,
F7,
02,
F5,
F9,
03,
0C,
EC,
05,
FA,
07,
FE,
F8,
F9,
0E,
FD,
02,
E9,
F7,
EF,
06,
FC,
06,
FC,
14,
12,
05,
FF,
FD,
05,
F9,
FD,
F6,
F6,
FB,
F3,
FA,
FA,
F9,
02,
F6,
01,
06,
0E,
04,
0D,
00,
F7,
05,
0F,
FE,
F9,
FC,
06,
00,
02,
FA,
0A,
FF,
02,
FA,
FD,
01,
00,
F1,
FE,
EE,
07,
FF,
FA,
F0,
F5,
FB,
FB,
FB,
FB,
F7,
EA,
01,
F3,
FF,
FC,
E1,
F5,
FC,
F0,
ED,
F2,
FE,
07,
0C,
FF,
F2,
F8,
04,
0F,
03,
0F,
06,
F6,
F7,
09,
03,
02,
00,
F9,
06,
FA,
F1,
02,
FE,
F4,
FA,
E9,
F8,
07,
F1,
F4,
01,
12,
F7,
F3,
01,
07,
09,
0A,
15,
F9,
FF,
FD,
FA,
F4,
07,
F1,
14,
10,
09,
02,
FA,
FF,
00,
FD,
FE,
FC,
FC,
F8,
F4,
F5,
FF,
FE,
FD,
0D,
0B,
06,
00,
07,
0A,
00,
02,
06,
07,
FA,
0A,
F5,
05,
F7,
FE,
F6,
07,
F7,
00,
FE,
12,
F9,
FE,
FC,
E8,
FE,
FD,
0B,
FC,
04,
F8,
06,
11,
05,
F6,
00,
03,
F7,
0A,
E7,
F5,
15,
04,
F8,
01,
FD,
F8,
EA,
F3,
05,
02,
02,
08,
0F,
F4,
FC,
05,
0B,
F8,
FA,
F2,
01,
04,
F9,
03,
06,
06,
FE,
F8,
01,
F2,
F0,
02,
08,
E3,
F0,
F6,
02,
02,
FB,
F4,
06,
02,
06,
F0,
FC,
0D,
00,
EF,
FB,
F0,
FC,
F7,
FA,
FB,
08,
06,
FF,
FC,
F6,
F3,
FC,
0D,
F6,
FC,
ED,
0D,
F8,
04,
FE,
06,
02,
09,
EC,
F8,
FF,
02,
01,
FE,
02,
FF,
FD,
F9,
0E,
FF,
00,
07,
05,
01,
06,
0B,
12,
FD,
0D,
02,
08,
F8,
FC,
FC,
FE,
02,
09,
08,
F6,
F7,
09,
06,
F2,
F5,
F7,
17,
05,
07,
03,
09,
F9,
05,
06,
10,
03,
07,
09,
02,
FE,
03,
0E,
F5,
FC,
FC,
02,
F3,
E8,
FD,
00,
E9,
FA,
0A,
06,
02,
05,
FB,
04,
00,
0A,
F4,
0A,
04,
04,
FE,
ED,
ED,
FE,
F9,
ED,
05,
F7,
05,
FE,
01,
FC,
FA,
FC,
09,
0A,
FD,
F7,
00,
FD,
FD,
F9,
07,
FA,
0E,
EE,
10,
0B,
F7,
FB,
F4,
F6,
F5,
F4,
FA,
F1,
07,
FE,
F7,
FD,
0A,
F4,
03,
FC,
09,
E9,
FB,
04,
F7,
F9,
0F,
F6,
05,
03,
0E,
F2,
05,
F0,
04,
F9,
F8,
17,
EE,
F2,
F4,
F0,
00,
06,
07,
13,
01,
02,
07,
07,
FC,
FB,
F5,
00,
0F,
FE,
08,
F8,
F3,
08,
ED,
02,
04,
02,
FD,
05,
11,
0A,
FF,
01,
03,
08,
0A,
03,
FE,
08,
FF,
0A,
F3,
04,
08,
FF,
FD,
0D,
F5,
FD,
F3,
FD,
F3,
FD,
EC,
FC,
FF,
0E,
F9,
FA,
FD,
F0,
FB,
FD,
04,
07,
F8,
FB,
03,
F7,
01,
01,
08,
FB,
E7,
F3,
06,
F5,
FB,
06,
0C,
04,
EF,
01,
F8,
05,
01,
12,
05,
13,
F7,
FF,
F7,
0F,
F6,
FA,
F9,
01,
EA,
07,
FB,
FF,
FD,
FA,
01,
07,
F8,
E7,
F2,
FF,
EA,
FA,
01,
09,
F0,
F5,
F5,
FB,
F9,
02,
12,
06,
0C,
FC,
F4,
F5,
07,
07,
F1,
ED,
FE,
06,
06,
EF,
FE,
06,
09,
FC,
01,
FC,
F1,
03,
FB,
0C,
FA,
FB,
FF,
0A,
FE,
17,
FA,
0E,
04,
06,
11,
FE,
03,
00,
02,
02,
FD,
FE,
FE,
1B,
06,
0E,
06,
15,
06,
00,
06,
08,
14,
F7,
04,
E7,
06,
0E,
FC,
F8,
02,
03,
04,
FB,
16,
FD,
F5,
0C,
05,
F9,
FF,
FD,
04,
07,
03,
FE,
FB,
00,
F0,
F4,
FB,
F9,
F6,
FB,
F6,
0C,
02,
0B,
06,
01,
F9,
03,
02,
0F,
FA,
FF,
01,
00,
01,
FE,
0B,
02,
1F,
FB,
04,
FE,
13,
11,
14,
0B,
03,
0C,
13,
0A,
03,
16,
07,
FE,
08,
0B,
EB,
FF,
FF,
FC,
02,
05,
00,
16,
01,
06,
0B,
FE,
04,
01,
0B,
04,
02,
F3,
0C,
11,
0C,
F7,
09,
0D,
01,
FF,
FA,
01,
F6,
FA,
09,
04,
09,
04,
03,
0C,
F8,
07,
01,
07,
FC,
03,
FB,
FA,
09,
FE,
EF,
FB,
FB,
F2,
01,
05,
FA,
E6,
06,
07,
F4,
E6,
FB,
00,
FE,
EE,
02,
09,
EF,
F3,
F5,
0B,
E6,
F2,
F8,
01,
FE,
FE,
06,
EC,
F3,
FF,
F9,
04,
01,
FA,
0A,
01,
FF,
0D,
05,
0E,
F9,
FF,
F6,
05,
EF,
F9,
FB,
0B,
F5,
07,
07,
06,
04,
F1,
06,
19,
09,
09,
FC,
00,
03,
F6,
01,
01,
FA,
FC,
06,
F8,
F8,
00,
EF,
FA,
00,
F0,
FA,
FE,
F0,
00,
09,
08,
F0,
F6,
01,
FF,
FB,
00,
0C,
12,
0E,
01,
FB,
FB,
FA,
05,
06,
F9,
F2,
02,
FB,
FE,
FC,
F7,
00,
08,
15,
00,
FE,
EB,
F6,
F0,
EF,
05,
FB,
FD,
F7,
F7,
F4,
09,
F3,
F7,
FB,
FD,
06,
F2,
F0,
FB,
0A,
02,
0C,
F2,
FA,
FC,
06,
15,
08,
02,
08,
09,
F5,
FD,
ED,
F5,
F0,
01,
FA,
F8,
F6,
01,
F5,
0B,
07,
FF,
F1,
EF,
FA,
04,
01,
F7,
FD,
09,
0E,
12,
0A,
00,
06,
03,
01,
FB,
06,
FE,
FB,
FE,
0C,
F7,
03,
06,
F7,
0D,
EF,
FE,
09,
FE,
07,
01,
10,
12,
F8,
F2,
FE,
FA,
F0,
F2,
08,
FF,
EF,
FA,
02,
F8,
F5,
EA,
12,
0A,
FD,
F9,
E0,
06,
07,
01,
0B,
FE,
E7,
F0,
E8,
01,
FE,
07,
FB,
0D,
FB,
F4,
FD,
F0,
13,
00,
09,
F6,
04,
06,
08,
00,
07,
0D,
F8,
04,
EF,
FE,
04,
07,
F0,
FF,
0A,
03,
10,
FC,
15,
10,
0A,
15,
11,
09,
FA,
FC,
FC,
03,
04,
09,
01,
08,
02,
02,
FD,
03,
F7,
F7,
FE,
FF,
FB,
FB,
03,
FB,
FC,
FB,
FD,
F7,
F8,
F6,
F6,
F6,
F9,
F6,
FE,
02,
FE,
08,
FF,
01,
07,
FB,
FF,
F9,
FE,
03,
FD,
F8,
01,
FD,
F8,
01,
F4,
F9,
FB,
EF,
F1,
F7,
F7,
FA,
F1,
F4,
F8,
F4,
F1,
F3,
FA,
F6,
03,
00,
03,
00,
03,
02,
FE,
01,
01,
FE,
FB,
FF,
00,
01,
01,
07,
09,
05,
09,
05,
01,
0E,
01,
03,
00,
06,
03,
06,
0A,
01,
00,
FD,
04,
F4,
FB,
09,
03,
FA,
FE,
03,
01,
FE,
01,
00,
02,
05,
07,
08,
02,
01,
07,
0A,
FD,
FE,
FC,
05,
FF,
01,
FE,
05,
00,
03,
FD,
03,
00,
02,
FB,
05,
07,
03,
03,
02,
03,
01,
00,
01,
01,
03,
04,
08,
FF,
FD,
00,
01,
02,
01,
02,
03,
FA,
00,
02,
06,
F9,
01,
09,
FB,
04,
03,
02,
FF,
F9,
FB,
F2,
F8,
F7,
F1,
F5,
FB,
F5,
FA,
FE,
F8,
04,
06,
05,
00,
01,
03,
F5,
00,
FD,
FD,
03,
02,
FE,
F8,
02,
0B,
F9,
FD,
FB,
03,
F3,
FA,
F4,
F3,
F1,
EC,
EB,
F2,
FD,
F8,
02,
00,
06,
08,
01,
08,
08,
04,
03,
07,
01,
00,
06,
FD,
FB,
FF,
04,
02,
05,
FE,
FB,
FF,
03,
01,
FC,
FF,
05,
00,
FD,
03,
00,
FB,
01,
04,
F9,
F6,
FB,
FB,
06,
F7,
06,
02,
FA,
01,
F3,
F9,
03,
FF,
FA,
FF,
01,
05,
03,
0C,
03,
FA,
FF,
01,
00,
00,
FB,
FA,
FE,
FE,
FC,
FF,
F9,
04,
00,
02,
FC,
FC,
04,
F8,
F7,
FE,
01,
05,
01,
FF,
00,
FF,
F7,
01,
F8,
F9,
F6,
F7,
FD,
F5,
FF,
F6,
F5,
F9,
F8,
FA,
FA,
F2,
FA,
06,
00,
00,
F9,
00,
FB,
07,
01,
03,
FB,
00,
FF,
FF,
FA,
FF,
FE,
FE,
FC,
F7,
FC,
FE,
F8,
03,
FF,
FA,
FA,
F9,
00,
F9,
FE,
FF,
01,
03,
FA,
FF,
FE,
02,
03,
00,
04,
F8,
01,
01,
FF,
07,
04,
05,
FD,
02,
01,
FB,
05,
01,
06,
05,
FC,
02,
02,
FF,
F8,
FF,
FB,
F6,
F9,
01,
03,
FE,
00,
00,
03,
FE,
F6,
FB,
FC,
FD,
FD,
FB,
FE,
F9,
FF,
01,
FB,
02,
FC,
FD,
FF,
03,
F5,
03,
01,
03,
FD,
F9,
F9,
FD,
FD,
FD,
FE,
FE,
FF,
00,
FB,
F8,
FE,
05,
01,
03,
FE,
02,
FF,
FE,
FE,
FB,
02,
F9,
04,
FB,
01,
FD,
FE,
FE,
FB,
00,
FD,
FC,
03,
07,
FF,
FB,
00,
03,
F8,
FE,
03,
02,
FF,
FE,
03,
FE,
FD,
04,
FB,
00,
FD,
F9,
FB,
FB,
05,
FA,
01,
07,
00,
03,
06,
FB,
05,
FD,
0A,
03,
F9,
02,
FF,
00,
F9,
FD,
FC,
00,
01,
00,
F7,
02,
FC,
FA,
01,
FF,
FC,
FD,
05,
FB,
FC,
04,
FC,
FA,
FE,
04,
FF,
F7,
FE,
0A,
FE,
04,
03,
FF,
FA,
FC,
FD,
F9,
FC,
F9,
F7,
F6,
FB,
F8,
FA,
FC,
FC,
FD,
FE,
FC,
FA,
FA,
FE,
00,
FC,
FA,
01,
00,
06,
FB,
FE,
FD,
FE,
00,
01,
FC,
00,
0A,
00,
00,
F9,
00,
00,
FD,
FD,
04,
FD,
FC,
02,
FF,
F9,
FE,
02,
FD,
04,
04,
FB,
01,
F9,
FA,
FF,
FA,
08,
07,
0A,
03,
06,
FD,
FC,
FE,
07,
FF,
FB,
01,
07,
FE,
03,
FA,
01,
FC,
02,
F8,
F9,
00,
02,
F1,
FF,
FF,
F9,
FF,
F5,
F8,
F7,
FE,
FA,
F4,
F7,
F6,
F8,
FC,
F8,
FB,
F9,
F4,
EF,
00,
FB,
F7,
EE,
F4,
02,
FA,
F4,
F7,
FB,
FB,
FB,
FC,
FC,
F6,
FC,
FF,
FB,
FB,
F5,
FC,
00,
FE,
FE,
FD,
02,
00,
04,
FF,
07,
02,
F4,
FC,
01,
04,
FC,
FB,
00,
03,
FE,
FD,
FE,
04,
FF,
09,
FD,
FC,
FC,
FC,
FC,
00,
FA,
03,
FC,
01,
01,
00,
04,
FC,
FC,
FA,
FE,
04,
FD,
00,
02,
00,
01,
03,
FC,
FC,
FC,
07,
03,
FB,
FB,
FF,
00,
FA,
FE,
05,
F9,
F5,
FD,
01,
01,
FD,
0A,
0B,
00,
00,
05,
09,
03,
01,
0D,
08,
01,
01,
06,
05,
F7,
00,
FF,
FD,
FE,
00,
FB,
FF,
FD,
FB,
05,
FA,
02,
F7,
FF,
FC,
FF,
01,
01,
03,
FC,
F6,
02,
FE,
FD,
FF,
F5,
FE,
05,
FC,
F8,
FD,
F6,
FE,
FD,
01,
FD,
FB,
FB,
01,
FE,
00,
FD,
FE,
01,
06,
02,
01,
03,
01,
FA,
01,
FC,
FB,
FE,
00,
00,
03,
0D,
02,
FC,
FE,
02,
00,
02,
06,
FB,
FD,
FE,
02,
02,
0A,
03,
02,
FB,
FC,
FE,
FE,
FC,
02,
FB,
00,
02,
06,
00,
02,
09,
09,
01,
01,
F5,
FF,
05,
00,
04,
05,
03,
FE,
FE,
02,
FC,
01,
01,
03,
F5,
01,
F7,
FC,
FB,
FD,
FF,
F8,
F7,
01,
FC,
FF,
FD,
F7,
01,
00,
00,
FB,
F2,
00,
FD,
F0,
FC,
F5,
FB,
F7,
01,
FD,
08,
04,
FF,
02,
03,
02,
01,
F8,
01,
06,
FC,
05,
FF,
03,
FF,
FA,
FA,
03,
FE,
FF,
02,
01,
01,
FF,
00,
F8,
FC,
F4,
FE,
FF,
FE,
FD,
FD,
01,
04,
01,
05,
FF,
06,
0D,
01,
FF,
07,
03,
FE,
F3,
FD,
FF,
FE,
02,
00,
03,
FE,
FB,
FA,
00,
03,
03,
FC,
F9,
FC,
FF,
FA,
02,
FF,
FC,
04,
05,
04,
FF,
03,
01,
FC,
03,
FD,
F9,
FC,
FC,
FE,
07,
FA,
FF,
02,
FD,
F9,
FB,
FC,
01,
02,
FE,
F2,
FC,
FC,
F9,
FB,
FF,
FE,
01,
02,
FD,
FD,
FB,
FB,
05,
01,
02,
03,
01,
00,
FF,
FF,
04,
FC,
FA,
FB,
FE,
FC,
FC,
0A,
06,
03,
FD,
FA,
FE,
F9,
FC,
FD,
F6,
F6,
FC,
FC,
FC,
06,
FB,
F7,
FA,
FA,
01,
FA,
FE,
FB,
FE,
F6,
FD,
F9,
FF,
FB,
F7,
F8,
FE,
FF,
FE,
FF,
02,
FC,
FC,
FD,
FE,
FF,
FA,
04,
FA,
F9,
FA,
07,
00,
04,
02,
01,
05,
FE,
FC,
FF,
01,
F8,
00,
03,
00,
FC,
02,
00,
03,
08,
03,
00,
05,
00,
FC,
01,
09,
FE,
03,
13,
07,
07,
FA,
05,
10,
14,
0F,
03,
02,
08,
FA,
F4,
F4,
F7,
F2,
F5,
03,
09,
FB,
F8,
FF,
FA,
FC,
FD,
FC,
09,
F1,
07,
00,
05,
F3,
F6,
08,
EE,
05,
F3,
01,
EF,
FE,
F7,
01,
F6,
06,
FF,
FA,
03,
F7,
FA,
01,
15,
05,
11,
0C,
15,
0E,
0E,
00,
02,
FF,
01,
FB,
EC,
FE,
06,
03,
FC,
08,
04,
01,
FB,
04,
0C,
03,
FD,
04,
04,
03,
F6,
02,
09,
FF,
07,
03,
FE,
06,
F5,
07,
03,
F3,
0C,
0A,
11,
00,
0B,
02,
FD,
F8,
01,
FD,
0F,
02,
FC,
F8,
0B,
FB,
F7,
FF,
08,
01,
00,
08,
12,
0D,
03,
0D,
0D,
FB,
0F,
F0,
F7,
05,
FD,
07,
09,
03,
02,
FE,
FC,
FA,
06,
0A,
FE,
F1,
03,
E8,
F9,
08,
0C,
0C,
08,
04,
15,
FC,
05,
05,
03,
0B,
04,
FF,
FC,
00,
04,
11,
F5,
07,
08,
05,
02,
01,
F3,
EB,
F5,
FC,
00,
EE,
E7,
EF,
03,
F6,
FD,
E0,
EF,
F7,
FB,
F6,
09,
00,
00,
FD,
FB,
07,
0B,
07,
F8,
05,
FD,
FF,
09,
12,
04,
04,
E2,
00,
02,
FE,
EF,
E1,
F9,
FD,
FF,
F1,
DA,
05,
0A,
01,
01,
00,
03,
FE,
FE,
07,
F3,
EF,
01,
0B,
05,
FB,
FC,
05,
FF,
F1,
FE,
FD,
09,
EF,
03,
FC,
F8,
07,
FE,
EE,
F2,
F5,
02,
FC,
F5,
00,
06,
FA,
FA,
FB,
04,
FF,
05,
F4,
FC,
FE,
FC,
03,
FF,
08,
07,
06,
09,
F9,
F7,
E2,
EE,
0A,
0A,
DE,
E8,
F0,
01,
FC,
EB,
F6,
FA,
FE,
04,
FA,
EE,
04,
E8,
07,
01,
FB,
02,
F7,
12,
0F,
F9,
0B,
08,
16,
0D,
01,
FE,
02,
EE,
FB,
11,
F7,
06,
F0,
04,
FA,
F6,
FB,
02,
00,
05,
F8,
00,
FD,
F8,
FB,
FB,
FE,
F9,
F8,
13,
09,
0C,
00,
11,
14,
05,
FD,
F4,
06,
0A,
06,
FB,
06,
FF,
05,
09,
06,
05,
F0,
FB,
07,
FB,
F8,
08,
01,
F3,
FF,
F7,
09,
0F,
0D,
FF,
03,
F6,
FF,
FA,
F8,
03,
0B,
05,
07,
FD,
F1,
FF,
F9,
F9,
F8,
F3,
07,
FE,
FA,
F6,
FD,
FD,
04,
FD,
FB,
05,
06,
FF,
FC,
01,
F7,
FE,
0B,
01,
14,
0F,
03,
07,
06,
05,
0B,
02,
04,
FC,
FC,
02,
FC,
FF,
04,
03,
13,
FF,
07,
0E,
01,
03,
01,
0B,
FB,
06,
FE,
FA,
06,
05,
FE,
09,
F1,
00,
02,
F8,
EB,
F0,
0E,
04,
0A,
FE,
F9,
FF,
F6,
FF,
06,
F1,
0A,
FF,
02,
01,
05,
0F,
00,
FD,
09,
FA,
03,
08,
FC,
00,
FA,
02,
01,
FC,
02,
FB,
FD,
F8,
09,
04,
10,
0F,
06,
05,
0A,
FC,
F5,
FC,
F8,
03,
07,
08,
14,
00,
02,
08,
0D,
0B,
FE,
01,
0A,
10,
01,
EE,
0B,
14,
00,
0F,
F5,
05,
F6,
FE,
0B,
02,
ED,
F7,
F1,
0D,
FE,
10,
F6,
FF,
FC,
04,
02,
FE,
FB,
08,
FD,
03,
00,
14,
01,
F5,
0F,
EF,
0E,
03,
0E,
09,
06,
05,
07,
09,
0B,
FA,
F5,
06,
FB,
0F,
F7,
06,
F9,
09,
06,
FF,
02,
F5,
FF,
F0,
05,
FB,
03,
FE,
FF,
EF,
05,
06,
09,
F3,
F8,
0D,
FF,
08,
F9,
0E,
07,
02,
F6,
06,
F1,
0D,
0D,
FA,
08,
0F,
16,
0E,
04,
F9,
F6,
FE,
ED,
F3,
EE,
F3,
F9,
03,
ED,
FB,
FC,
FD,
FF,
FD,
06,
04,
01,
1B,
1A,
06,
F9,
0A,
0A,
03,
FC,
0A,
0A,
0A,
02,
0C,
FF,
05,
FF,
F3,
06,
09,
F8,
F5,
FB,
FF,
F6,
00,
F9,
0C,
04,
FB,
FF,
04,
F3,
0D,
FF,
0B,
00,
0A,
FC,
06,
F8,
01,
F9,
F6,
F8,
09,
09,
ED,
05,
FA,
F9,
F3,
09,
F2,
FB,
F9,
F7,
F8,
04,
E8,
05,
06,
FE,
F8,
F5,
F3,
FE,
F5,
FA,
F1,
ED,
00,
07,
08,
11,
04,
05,
08,
03,
F7,
FE,
06,
E8,
01,
06,
FC,
FE,
FD,
EE,
08,
0C,
FC,
08,
10,
03,
03,
04,
03,
FB,
02,
0F,
10,
08,
05,
FD,
08,
07,
F9,
05,
11,
16,
04,
03,
08,
03,
FF,
F5,
00,
00,
F8,
0C,
03,
01,
0B,
EB,
EA,
E9,
01,
FB,
FD,
07,
FC,
EA,
FC,
F3,
0E,
F1,
FE,
FA,
0C,
F7,
05,
03,
FE,
FC,
09,
1A,
FC,
FA,
F3,
06,
FC,
FE,
FF,
F9,
06,
FD,
FB,
02,
FC,
04,
02,
FE,
FF,
FB,
FE,
01,
FB,
03,
FE,
F2,
04,
05,
05,
FD,
11,
FD,
03,
F9,
06,
FE,
0F,
05,
F6,
0B,
09,
13,
FE,
F7,
0F,
F6,
FC,
04,
06,
0F,
FC,
01,
0E,
12,
01,
04,
07,
EF,
08,
FA,
01,
FC,
00,
01,
F6,
FD,
E9,
EB,
F3,
EB,
ED,
0D,
0B,
01,
02,
07,
08,
F5,
FE,
07,
F0,
00,
F9,
F1,
EA,
0B,
FA,
F7,
FA,
FF,
09,
06,
FE,
F8,
04,
FC,
EA,
04,
00,
FB,
F0,
03,
F4,
F0,
FA,
FA,
06,
FF,
10,
F9,
FB,
FC,
09,
04,
FD,
0A,
F5,
F9,
F9,
FA,
FD,
10,
08,
07,
07,
F7,
F9,
04,
0F,
17,
F2,
04,
00,
09,
01,
07,
F8,
0B,
FC,
06,
05,
FB,
F3,
F5,
06,
08,
01,
03,
05,
FB,
0C,
FE,
09,
01,
FD,
FE,
F5,
0D,
FC,
F8,
02,
FA,
FA,
FD,
F5,
EE,
06,
04,
01,
FB,
02,
00,
F3,
F5,
F2,
00,
05,
02,
06,
FA,
F4,
FD,
0C,
FB,
FF,
FE,
03,
10,
0A,
0F,
FF,
0B,
FD,
0F,
09,
00,
01,
F9,
00,
FE,
F2,
07,
F1,
FA,
FD,
00,
11,
0B,
13,
10,
05,
04,
06,
F4,
F5,
F3,
FB,
FD,
FA,
FD,
FF,
07,
F2,
FA,
01,
00,
01,
0A,
0B,
1A,
10,
0A,
0D,
FC,
F7,
FF,
06,
06,
FB,
F2,
F6,
F5,
04,
FE,
F6,
F1,
FC,
FF,
00,
F8,
07,
01,
FC,
05,
EE,
F4,
FB,
07,
F1,
EF,
01,
02,
00,
F8,
FE,
F9,
05,
F9,
F8,
F9,
FA,
05,
0B,
0B,
F4,
00,
01,
FB,
04,
FE,
0A,
0E,
09,
0B,
02,
FD,
04,
FF,
FB,
0D,
FB,
EE,
00,
EF,
F8,
F0,
FE,
FB,
02,
08,
FE,
05,
02,
04,
00,
05,
02,
07,
10,
03,
06,
01,
0D,
03,
FE,
FF,
05,
F9,
FB,
02,
F6,
07,
F6,
FB,
F6,
FA,
E9,
EE,
FA,
FB,
EB,
F9,
F1,
F9,
F3,
FD,
F3,
F2,
EC,
FE,
FD,
F8,
EE,
02,
06,
0F,
FB,
F7,
02,
08,
FD,
07,
02,
F8,
00,
FC,
FA,
FF,
FF,
02,
FD,
FE,
FA,
0E,
03,
09,
FD,
04,
08,
FA,
FC,
01,
01,
00,
05,
04,
06,
0B,
FA,
04,
06,
0E,
F3,
FA,
F9,
06,
FD,
03,
FD,
0C,
EE,
FB,
F9,
FA,
FE,
FB,
F7,
06,
14,
1E,
0D,
0A,
0E,
00,
FF,
F6,
05,
11,
FF,
0B,
F5,
0C,
00,
04,
06,
F9,
F8,
FF,
FD,
FE,
FE,
F7,
03,
09,
09,
FB,
FB,
FD,
09,
03,
02,
03,
05,
F5,
00,
FD,
F7,
00,
FA,
F2,
F0,
F5,
F4,
08,
EE,
04,
03,
F9,
10,
01,
07,
F9,
06,
0D,
11,
FD,
FA,
0B,
08,
03,
08,
06,
02,
0B,
F7,
F3,
FE,
FC,
FA,
FB,
FE,
03,
F8,
FF,
F7,
F8,
05,
00,
02,
F9,
02,
FD,
11,
02,
07,
F4,
FD,
01,
FD,
FA,
FB,
FB,
EE,
E9,
FD,
FF,
02,
FD,
04,
EB,
FB,
EC,
E7,
F4,
FB,
FF,
EE,
EF,
EE,
FC,
FA,
FA,
06,
FC,
00,
F7,
F4,
00,
FA,
FE,
01,
FB,
06,
FB,
02,
06,
01,
04,
F7,
01,
F7,
00,
01,
0A,
FA,
FE,
0E,
01,
F7,
FB,
0A,
06,
04,
05,
F7,
F9,
08,
FD,
04,
FA,
03,
00,
08,
04,
F7,
EF,
01,
FD,
FF,
FE,
04,
02,
09,
07,
04,
04,
07,
0D,
0D,
01,
04,
11,
0C,
14,
11,
00,
FE,
FD,
FE,
FE,
03,
F8,
02,
FB,
EE,
F3,
05,
F8,
FD,
F8,
03,
07,
06,
F7,
00,
01,
FA,
0F,
FD,
06,
FD,
EA,
07,
F5,
FB,
FF,
FB,
FF,
00,
F5,
F9,
FB,
EC,
EE,
F1,
02,
F9,
FC,
FA,
FE,
EB,
F3,
12,
FD,
FF,
07,
F6,
07,
0C,
05,
07,
F9,
FF,
03,
04,
FC,
07,
07,
F6,
FE,
FD,
06,
12,
01,
FE,
06,
FA,
F4,
12,
01,
F7,
F7,
F6,
0A,
F8,
F9,
FC,
F0,
03,
03,
FB,
FC,
F3,
FF,
FB,
05,
F0,
FB,
F9,
04,
F9,
04,
02,
0A,
FF,
FD,
07,
18,
07,
05,
05,
F6,
03,
F7,
05,
FB,
03,
02,
FC,
F0,
03,
F4,
0A,
02,
F5,
F7,
03,
FF,
F4,
FB,
FD,
F3,
FC,
FD,
F3,
06,
EE,
FA,
03,
09,
07,
03,
04,
05,
11,
FC,
14,
03,
05,
F4,
06,
FF,
FA,
00,
0B,
04,
02,
09,
02,
09,
00,
03,
01,
05,
01,
FE,
F0,
FB,
F8,
01,
01,
11,
01,
F8,
00,
05,
06,
06,
FA,
02,
03,
04,
00,
0F,
0C,
04,
08,
06,
00,
06,
12,
01,
F7,
02,
0A,
F2,
F1,
FB,
FB,
03,
F8,
F4,
F2,
F1,
F8,
FD,
F6,
02,
F4,
F8,
06,
FD,
FE,
08,
04,
FB,
F8,
00,
02,
FF,
FE,
08,
05,
03,
0A,
02,
03,
04,
F7,
F5,
FF,
11,
FD,
FD,
F9,
02,
E6,
F4,
F2,
FF,
F8,
01,
00,
05,
02,
FD,
FD,
F6,
FE,
09,
11,
0F,
F8,
0A,
04,
0C,
F9,
06,
0F,
0D,
08,
05,
05,
10,
0F,
06,
0A,
06,
13,
07,
00,
0A,
09,
FE,
03,
09,
06,
F1,
08,
02,
03,
FE,
F9,
FA,
04,
02,
07,
F6,
0F,
FC,
01,
04,
FC,
FD,
EF,
FD,
02,
FC,
FF,
01,
04,
FA,
FD,
FD,
06,
09,
03,
12,
F8,
07,
03,
03,
01,
EB,
FF,
04,
06,
F6,
F1,
F6,
FD,
F3,
F1,
F6,
04,
FD,
02,
F2,
03,
11,
FE,
F7,
01,
08,
FF,
FD,
0B,
FC,
13,
FB,
02,
FB,
F0,
F4,
00,
05,
0B,
02,
F8,
FD,
FF,
11,
FB,
06,
05,
14,
FD,
05,
F6,
02,
F0,
FE,
02,
F8,
07,
E9,
FB,
03,
F6,
FE,
F2,
0A,
FC,
FF,
00,
FF,
FE,
05,
01,
F8,
FA,
FD,
FE,
02,
F9,
03,
08,
FD,
0B,
FC,
FF,
07,
18,
0C,
0B,
08,
04,
1A,
07,
FE,
F4,
02,
0A,
FE,
0E,
F6,
F7,
F5,
0C,
00,
03,
E6,
0B,
F7,
E4,
E3,
04,
F8,
FC,
F5,
F3,
EB,
08,
0A,
F8,
F8,
0A,
FF,
EC,
F6,
0C,
0B,
FC,
FA,
FE,
0D,
F2,
00,
07,
0A,
01,
02,
FD,
F3,
00,
00,
FC,
F4,
03,
FC,
09,
FE,
01,
FD,
09,
07,
F9,
F1,
FD,
F7,
FC,
01,
F6,
08,
06,
04,
06,
02,
FC,
FB,
0C,
FD,
F8,
FC,
FC,
FE,
F8,
06,
05,
FE,
FA,
FE,
FC,
05,
09,
0B,
0F,
0A,
F7,
FD,
05,
03,
F5,
06,
FD,
EE,
0F,
FA,
08,
06,
03,
07,
FA,
01,
05,
01,
02,
00,
EC,
F5,
F4,
FE,
EB,
08,
FB,
01,
03,
04,
FA,
07,
11,
00,
08,
FB,
FF,
FE,
0B,
07,
0E,
F9,
FC,
06,
FE,
01,
08,
03,
F9,
F6,
F5,
EF,
05,
F8,
FC,
F6,
02,
FC,
01,
05,
05,
FE,
FF,
F6,
0C,
FC,
03,
E5,
F7,
F2,
02,
F5,
FC,
F9,
04,
03,
F9,
FD,
F2,
F8,
00,
0D,
05,
0F,
FF,
0F,
04,
14,
F6,
FC,
0E,
03,
08,
FF,
09,
07,
FB,
F2,
FC,
FC,
FC,
02,
F9,
FA,
04,
FA,
03,
03,
FC,
02,
F7,
F2,
F7,
F0,
FB,
FA,
02,
F8,
F1,
FE,
FE,
01,
00,
01,
F6,
0E,
00,
F9,
0A,
FF,
06,
0B,
04,
06,
05,
06,
FC,
0A,
0D,
05,
05,
F0,
FC,
00,
FD,
08,
05,
FA,
02,
FC,
FE,
FF,
FE,
FB,
00,
09,
FD,
FC,
08,
08,
FD,
04,
02,
F2,
FD,
03,
FA,
FD,
04,
FC,
F4,
0A,
07,
01,
F2,
0B,
FF,
06,
00,
06,
FC,
0A,
0D,
0E,
03,
F3,
01,
04,
01,
FA,
F4,
08,
F8,
01,
F3,
FA,
02,
05,
F4,
F6,
10,
00,
F8,
0E,
00,
FA,
F4,
F9,
FD,
FD,
F6,
FA,
0A,
10,
F9,
03,
06,
00,
00,
F6,
F3,
FE,
FA,
FF,
FE,
FE,
09,
0D,
F5,
F5,
F6,
07,
0D,
F7,
15,
0B,
F3,
FE,
FF,
FE,
09,
0D,
0F,
0C,
FF,
FF,
07,
FF,
FB,
FA,
FB,
FE,
F5,
0A,
F7,
F7,
F9,
FD,
F5,
FA,
0C,
FD,
F2,
FE,
03,
F7,
FA,
F7,
EF,
FA,
FF,
F3,
00,
E4,
FD,
EE,
05,
F9,
05,
EE,
08,
13,
03,
04,
04,
00,
02,
18,
0D,
FB,
0A,
FE,
0A,
0A,
08,
F2,
0D,
11,
08,
E4,
00,
FB,
F6,
08,
FD,
04,
0D,
14,
FC,
0E,
03,
0D,
00,
FA,
EB,
ED,
11,
EE,
0B,
02,
00,
04,
03,
09,
13,
07,
FE,
05,
01,
EE,
ED,
EF,
06,
12,
03,
FB,
FD,
0D,
11,
06,
EC,
08,
04,
1A,
E3,
0C,
09,
07,
03,
FA,
FD,
FE,
05,
F4,
02,
FE,
05,
EE,
08,
ED,
0C,
F4,
01,
03,
01,
0C,
F7,
FE,
06,
1B,
16,
F8,
01,
19,
14,
FC,
08,
0E,
19,
0B,
01,
07,
F1,
F3,
02,
FD,
0F,
F1,
F3,
F6,
FC,
FF,
FC,
0F,
FB,
02,
F1,
03,
13,
01,
03,
F6,
1A,
FB,
ED,
F8,
06,
F6,
F5,
0A,
0A,
FE,
F0,
FC,
00,
06,
F0,
1A,
FA,
03,
FE,
01,
02,
FC,
FD,
F9,
0B,
F7,
F7,
FD,
13,
09,
03,
1D,
10,
F8,
F7,
1D,
09,
09,
FC,
FE,
F5,
13,
F4,
0C,
01,
19,
E8,
0E,
02,
FD,
EE,
FB,
EE,
02,
F9,
FD,
F7,
03,
F1,
E7,
05,
F6,
F9,
EC,
FD,
10,
EF,
02,
F9,
05,
F8,
03,
F4,
E4,
F3,
01,
02,
ED,
FD,
E9,
FF,
FE,
FF,
0F,
0B,
F2,
FD,
1D,
09,
02,
08,
FA,
F6,
04,
F1,
FF,
FA,
FA,
F6,
01,
FA,
F5,
0A,
F9,
04,
01,
09,
FA,
05,
F4,
F6,
F8,
FD,
FB,
E5,
F0,
FE,
E6,
0A,
FA,
F7,
F0,
11,
FB,
04,
17,
09,
22,
12,
19,
13,
23,
08,
F5,
10,
0A,
FF,
F8,
FD,
14,
0D,
F1,
F1,
10,
0C,
F5,
FC,
13,
F4,
F6,
FE,
13,
05,
05,
02,
10,
00,
ED,
02,
0D,
FE,
08,
F6,
0C,
05,
01,
F2,
01,
ED,
12,
E6,
0D,
14,
0D,
F7,
1A,
FE,
00,
F1,
15,
FD,
01,
F1,
FE,
F8,
0C,
0B,
F7,
01,
04,
0D,
18,
FE,
0D,
00,
1C,
F8,
FE,
09,
F2,
09,
FE,
04,
02,
F3,
F8,
F8,
FC,
01,
02,
F4,
04,
23,
0A,
0A,
0A,
04,
F4,
16,
03,
09,
F4,
03,
FA,
03,
FB,
09,
F2,
FD,
F7,
FF,
FD,
06,
FA,
04,
F3,
11,
03,
17,
10,
F8,
0B,
0D,
06,
F8,
0F,
EF,
F8,
FD,
01,
0B,
13,
03,
06,
05,
F2,
FF,
04,
02,
0A,
0B,
02,
04,
FE,
05,
F4,
F5,
F4,
FD,
FB,
F3,
E1,
00,
E4,
05,
EA,
01,
F1,
01,
EA,
F0,
EE,
FC,
1A,
07,
F2,
14,
0A,
18,
1E,
F9,
13,
0A,
16,
F3,
16,
05,
08,
0A,
F5,
0B,
FB,
07,
E4,
00,
03,
12,
F7,
04,
0A,
F0,
01,
FC,
EF,
02,
08,
F6,
EF,
02,
F3,
02,
FA,
00,
08,
FE,
FE,
05,
08,
01,
F2,
FC,
E4,
F1,
05,
F4,
F0,
F2,
0A,
FB,
00,
04,
FC,
00,
ED,
F6,
FC,
FA,
03,
FF,
FC,
08,
15,
FF,
F4,
FB,
0D,
03,
F1,
0A,
08,
F7,
FC,
FC,
08,
F9,
F0,
02,
F6,
F0,
03,
FB,
F0,
F9,
F1,
06,
06,
15,
03,
05,
FF,
05,
03,
F6,
0A,
07,
01,
E8,
01,
FA,
0E,
0B,
0A,
03,
01,
F4,
FE,
0E,
10,
FA,
09,
1E,
F8,
02,
11,
E7,
FD,
15,
08,
FB,
F7,
02,
F2,
0A,
05,
F7,
00,
10,
F9,
01,
00,
06,
F3,
F6,
F8,
E6,
0E,
FD,
F5,
00,
0D,
05,
10,
09,
FB,
FD,
00,
0F,
EF,
05,
FA,
09,
09,
FF,
0B,
1B,
09,
F7,
11,
23,
07,
07,
02,
05,
0C,
03,
FF,
0A,
FC,
07,
00,
05,
06,
08,
1E,
F4,
FF,
03,
0A,
E6,
F9,
F7,
F7,
ED,
04,
05,
FD,
E9,
F5,
FA,
F1,
FB,
F9,
FB,
F9,
F8,
F3,
F5,
05,
F8,
EF,
F6,
01,
09,
08,
05,
1D,
F9,
F7,
0C,
14,
FA,
00,
EB,
FC,
F3,
F6,
E3,
F7,
F1,
F1,
ED,
08,
EC,
00,
F4,
F4,
F3,
FA,
FD,
F8,
05,
FA,
04,
FF,
F4,
00,
FF,
FA,
0E,
01,
06,
0E,
13,
FF,
FF,
11,
F9,
F1,
EE,
FC,
07,
EF,
E6,
00,
0D,
FC,
F8,
F4,
DD,
D4,
F2,
F4,
02,
FE,
09,
F8,
FA,
FD,
FB,
F3,
F6,
0E,
08,
0B,
F4,
EB,
F8,
F7,
08,
04,
F0,
08,
08,
FC,
02,
0C,
07,
04,
04,
0A,
11,
F2,
EF,
02,
F6,
FB,
E3,
E7,
08,
F3,
FF,
0B,
00,
F9,
F7,
04,
00,
F0,
EA,
EE,
0F,
F7,
FD,
07,
F1,
EE,
F3,
FD,
0B,
01,
0C,
F4,
02,
F6,
01,
FB,
F1,
FF,
F7,
03,
0F,
02,
ED,
FD,
04,
F7,
F4,
FB,
11,
ED,
11,
FE,
FD,
FF,
FF,
E8,
ED,
EB,
0C,
F3,
ED,
FF,
01,
F6,
F0,
EB,
04,
F1,
0E,
E9,
F3,
FE,
13,
0A,
EE,
0B,
08,
13,
0F,
17,
1E,
07,
FD,
03,
0B,
EC,
F7,
0D,
01,
04,
ED,
04,
1F,
0F,
F9,
1F,
F9,
04,
02,
12,
03,
EC,
02,
03,
F6,
FE,
F7,
13,
F9,
08,
FC,
1A,
F2,
03,
04,
ED,
ED,
08,
F7,
05,
EC,
12,
F6,
05,
08,
03,
EE,
09,
0B,
0F,
0A,
01,
07,
F4,
EF,
01,
13,
FE,
07,
02,
06,
FF,
16,
FF,
FC,
0E,
09,
F0,
09,
06,
FB,
F7,
08,
F6,
EE,
F7,
F4,
F5,
FC,
EC,
E3,
F9,
09,
03,
EA,
F2,
04,
FC,
00,
06,
FB,
00,
10,
F3,
04,
06,
FD,
E1,
F8,
FB,
E8,
FA,
FB,
EE,
F4,
00,
FB,
F7,
F8,
F4,
04,
03,
F7,
FC,
EA,
04,
F0,
E9,
02,
FB,
0E,
08,
09,
10,
12,
FF,
08,
06,
07,
F5,
FB,
FC,
FA,
E8,
F7,
0F,
0B,
04,
F4,
01,
FA,
F6,
FB,
F7,
FB,
04,
FE,
04,
05,
F9,
FC,
07,
02,
F8,
08,
05,
0A,
0B,
03,
07,
FA,
F6,
FA,
F8,
05,
04,
ED,
06,
F9,
F6,
DE,
07,
FE,
E8,
FA,
F6,
E9,
F4,
DB,
FB,
DF,
FD,
EF,
FF,
0C,
F0,
F7,
0D,
0E,
FD,
FD,
12,
0F,
FE,
FE,
0A,
04,
01,
03,
05,
0F,
08,
01,
06,
FB,
12,
05,
FD,
F3,
0C,
FC,
02,
10,
09,
F9,
FB,
14,
0C,
F3,
12,
16,
0E,
EE,
FA,
0D,
06,
F7,
EE,
FB,
11,
10,
16,
F3,
E8,
07,
10,
06,
F5,
02,
1A,
04,
F7,
F9,
02,
00,
F9,
EE,
FF,
FD,
09,
E5,
01,
0D,
06,
FA,
F4,
0A,
F1,
F5,
FD,
FD,
0A,
FA,
FC,
F1,
03,
04,
EB,
FD,
07,
F0,
E1,
FC,
FC,
F2,
EB,
F2,
FE,
E8,
0D,
06,
F2,
F2,
EF,
F2,
FE,
FB,
F4,
0D,
F1,
ED,
FF,
03,
E3,
E7,
E7,
F0,
EF,
F5,
F4,
DF,
01,
F7,
F1,
E5,
F7,
FC,
F9,
10,
00,
05,
F0,
F7,
FA,
F1,
F6,
06,
00,
F9,
FE,
01,
02,
07,
FD,
05,
FE,
13,
F1,
FD,
FF,
0F,
F4,
F9,
F2,
FC,
05,
FC,
EE,
07,
0A,
09,
09,
13,
13,
F8,
F9,
F7,
0F,
00,
FB,
FE,
05,
F9,
FE,
0C,
F5,
FA,
F5,
F5,
F1,
EC,
F6,
F5,
07,
FD,
FD,
F1,
F6,
F0,
FE,
F8,
FE,
F9,
F0,
11,
08,
0D,
09,
FC,
DF,
F5,
EA,
F1,
02,
F9,
02,
0A,
F7,
0A,
F6,
FC,
F1,
F5,
F9,
03,
DB,
E2,
E1,
FC,
E6,
EA,
F5,
FA,
F5,
EB,
04,
19,
08,
F8,
02,
FF,
13,
16,
EF,
F5,
FB,
FF,
FE,
EC,
FF,
0D,
F6,
F6,
0F,
04,
07,
F7,
F8,
FD,
02,
DF,
00,
FB,
FC,
05,
F9,
FF,
01,
02,
0A,
07,
08,
F0,
0A,
1D,
03,
07,
05,
FC,
08,
06,
FF,
12,
0C,
18,
08,
10,
10,
02,
19,
0E,
04,
06,
07,
04,
0E,
F9,
FF,
06,
1A,
09,
0C,
E6,
EC,
07,
FB,
EE,
FF,
01,
FD,
0E,
EC,
08,
FF,
F0,
FA,
F2,
EB,
F3,
11,
FC,
EA,
E9,
FA,
FD,
E1,
F4,
ED,
0C,
FD,
FC,
FE,
EF,
FC,
06,
F3,
F0,
F2,
E5,
FA,
EC,
D9,
DD,
F7,
F7,
F7,
F6,
F1,
04,
FA,
F4,
02,
F9,
EB,
E3,
04,
F8,
E8,
F2,
07,
01,
FD,
FE,
04,
06,
E9,
EE,
FE,
EC,
EF,
EA,
F7,
0B,
ED,
F4,
F7,
FC,
F2,
FC,
05,
1F,
1F,
1B,
10,
18,
10,
18,
19,
05,
24,
16,
04,
01,
0B,
11,
FF,
0F,
18,
01,
F6,
F7,
0D,
05,
01,
02,
01,
0D,
11,
19,
1C,
02,
08,
0B,
FC,
FC,
01,
0A,
F4,
F2,
0C,
F6,
EB,
F7,
02,
F1,
F8,
09,
F8,
FB,
EF,
F0,
F9,
FE,
0C,
F4,
ED,
04,
F9,
F1,
F4,
F4,
F4,
F8,
E8,
FA,
FC,
FA,
05,
02,
10,
FB,
06,
FB,
18,
FD,
FC,
0A,
07,
00,
FA,
06,
02,
F5,
FC,
F4,
05,
F8,
F9,
04,
01,
EB,
F6,
0D,
00,
EB,
F9,
F0,
F5,
FD,
02,
F0,
E7,
E9,
02,
F2,
F2,
F8,
F7,
08,
02,
F8,
06,
0F,
F7,
F3,
F3,
F9,
00,
1A,
FB,
F6,
06,
F9,
EE,
03,
FD,
03,
F9,
07,
F4,
00,
F0,
1A,
09,
F4,
F7,
06,
06,
11,
F4,
0A,
1C,
18,
1A,
0A,
EA,
10,
03,
03,
00,
FA,
06,
FE,
0E,
08,
FF,
08,
0A,
0C,
00,
10,
0A,
01,
FB,
04,
FC,
00,
F5,
08,
0A,
03,
05,
09,
FB,
04,
F7,
1A,
16,
06,
12,
06,
01,
07,
08,
F9,
FA,
F4,
FB,
08,
02,
06,
03,
02,
0C,
F4,
E6,
19,
FB,
04,
F6,
F2,
04,
F5,
FC,
FD,
03,
02,
F5,
0D,
13,
02,
FA,
FD,
0C,
1B,
08,
16,
1C,
23,
04,
10,
14,
18,
24,
0E,
FF,
04,
12,
16,
05,
01,
FF,
06,
0A,
03,
01,
14,
FD,
FF,
05,
E6,
03,
00,
F2,
EB,
F1,
FD,
F5,
F5,
FD,
E4,
05,
FB,
E7,
F6,
00,
12,
29,
0E,
F9,
12,
29,
1E,
1F,
13,
21,
29,
17,
0C,
14,
10,
17,
12,
04,
13,
00,
01,
09,
08,
EC,
FF,
07,
0C,
0F,
03,
11,
02,
10,
03,
00,
0F,
09,
01,
FF,
FA,
08,
F0,
FF,
05,
0F,
EF,
F0,
F6,
0D,
EA,
00,
F8,
F7,
F2,
E9,
FF,
FE,
F9,
F7,
09,
0C,
E3,
F8,
0A,
0E,
F7,
0B,
F4,
04,
FA,
11,
F6,
F9,
FA,
FA,
0C,
FF,
04,
00,
06,
FF,
06,
FD,
F2,
D8,
F6,
FB,
EF,
EC,
ED,
14,
02,
F3,
07,
F5,
FD,
09,
F9,
F4,
E1,
E3,
15,
11,
EB,
F0,
00,
02,
04,
FF,
0D,
FA,
03,
F6,
F8,
11,
FA,
00,
12,
06,
10,
07,
06,
F4,
07,
FB,
01,
07,
15,
10,
E0,
F7,
06,
FA,
FB,
E5,
FA,
F8,
F7,
EF,
E7,
E8,
F3,
FA,
F5,
F5,
FE,
EE,
0A,
0B,
FA,
F2,
FA,
0E,
F4,
F1,
FE,
F7,
E7,
E8,
F7,
0C,
F8,
0F,
EE,
0E,
0C,
FA,
0C,
01,
F0,
08,
FA,
02,
04,
F4,
FB,
FC,
01,
11,
08,
03,
06,
0D,
07,
F3,
FF,
10,
1B,
0F,
01,
FD,
0B,
FF,
EC,
FD,
07,
06,
0B,
FA,
03,
E9,
FA,
00,
FA,
0C,
09,
05,
04,
FF,
06,
00,
03,
19,
F4,
F0,
F7,
16,
02,
FF,
00,
17,
13,
04,
FA,
06,
EE,
F3,
05,
E4,
E9,
F6,
FB,
02,
EF,
E7,
F6,
F4,
0C,
F4,
11,
FF,
0E,
0B,
02,
02,
F5,
0A,
11,
14,
F2,
02,
09,
04,
E8,
FD,
0D,
0E,
FC,
01,
FB,
FA,
0E,
F6,
04,
0B,
11,
FD,
FD,
FC,
0A,
19,
FD,
F1,
EE,
03,
0A,
03,
ED,
0A,
08,
F8,
FB,
07,
0E,
0D,
0C,
0B,
0E,
07,
06,
F9,
F5,
F0,
FE,
0E,
FF,
F4,
0D,
FF,
FC,
FE,
03,
FB,
0D,
06,
FF,
FC,
07,
17,
EB,
FD,
FF,
0F,
FB,
F4,
F3,
0B,
F2,
ED,
01,
F2,
FB,
FF,
F9,
F7,
03,
F4,
FD,
04,
06,
FD,
15,
01,
00,
F8,
00,
FF,
00,
FB,
11,
FC,
06,
0D,
FD,
04,
08,
02,
FC,
05,
07,
FE,
01,
FF,
FC,
01,
FC,
F8,
FC,
20,
22,
0D,
0B,
08,
06,
05,
07,
08,
FE,
07,
F0,
EE,
F7,
F3,
02,
08,
03,
F6,
FF,
01,
08,
F8,
1C,
0E,
FC,
08,
02,
FD,
26,
0F,
09,
0E,
07,
0A,
19,
15,
0C,
0F,
04,
06,
05,
07,
FA,
E6,
F1,
00,
F3,
03,
02,
03,
FA,
FD,
FA,
0A,
04,
FE,
F2,
02,
F1,
F3,
F7,
04,
F7,
FD,
FD,
F6,
F8,
F9,
FC,
01,
EF,
F0,
FB,
F1,
01,
F8,
10,
0F,
FA,
09,
0B,
11,
F4,
FD,
F8,
25,
ED,
F7,
01,
21,
0C,
0F,
13,
0A,
06,
05,
FA,
0C,
07,
F8,
FB,
04,
FE,
F4,
FA,
ED,
FD,
FC,
0D,
01,
F7,
F5,
FD,
05,
F3,
03,
11,
06,
15,
08,
0E,
F1,
13,
09,
FB,
09,
0C,
0D,
FE,
03,
11,
FC,
06,
E7,
FE,
F3,
F6,
EF,
F2,
F7,
F5,
02,
F5,
FB,
F1,
03,
F3,
01,
F8,
07,
0D,
F0,
F5,
08,
11,
00,
05,
0B,
07,
12,
05,
10,
0D,
0A,
07,
08,
17,
05,
10,
11,
F7,
FF,
FE,
F7,
0C,
01,
FB,
F3,
0F,
F3,
F2,
FF,
11,
F7,
FD,
EE,
0E,
01,
01,
15,
18,
FC,
07,
14,
19,
F6,
05,
0F,
0F,
FF,
00,
0B,
04,
08,
FA,
04,
11,
04,
06,
0C,
0D,
08,
FC,
F6,
03,
FD,
00,
07,
10,
F9,
0A,
04,
F6,
02,
E8,
F4,
F4,
FC,
FA,
01,
03,
E4,
F6,
F4,
03,
FB,
EA,
F4,
03,
F4,
02,
F8,
FE,
FC,
F8,
F7,
F9,
F3,
05,
02,
09,
F0,
F7,
F2,
0E,
FB,
E9,
0D,
04,
F4,
02,
0A,
07,
04,
09,
FB,
15,
F2,
03,
FE,
FA,
FD,
F4,
FC,
0A,
F7,
FC,
F1,
FB,
F6,
F2,
FB,
12,
05,
0E,
02,
11,
05,
FD,
F7,
F6,
18,
01,
FD,
06,
04,
09,
F3,
FA,
F3,
F6,
FA,
09,
ED,
06,
F5,
0D,
FB,
EE,
02,
16,
FE,
04,
0D,
02,
0B,
14,
FC,
F6,
F7,
01,
0C,
F7,
FC,
04,
F5,
E9,
00,
FF,
FA,
FD,
09,
0A,
05,
14,
18,
FC,
FF,
00,
F9,
FA,
F5,
06,
EB,
EC,
E6,
07,
FC,
01,
F1,
00,
F3,
F7,
03,
0B,
EF,
0D,
0D,
0F,
0B,
17,
07,
02,
FB,
F3,
06,
F0,
08,
06,
0E,
ED,
F7,
FA,
F9,
F2,
FA,
FC,
02,
FF,
EC,
F9,
F7,
F2,
EE,
F4,
16,
F2,
06,
F2,
07,
F5,
16,
03,
05,
FF,
00,
DB,
F1,
04,
E8,
EF,
0A,
F3,
EC,
04,
02,
F6,
F7,
FB,
EC,
08,
F2,
FF,
0A,
FB,
EB,
02,
07,
F4,
03,
0E,
FE,
FD,
03,
F3,
F6,
FC,
FD,
09,
0B,
24,
10,
17,
0E,
0B,
FB,
0E,
07,
F3,
F6,
06,
FF,
0E,
05,
02,
03,
01,
FD,
08,
0D,
EF,
EF,
FC,
08,
F8,
E7,
11,
FC,
05,
0F,
03,
00,
E5,
E1,
E6,
F6,
F3,
0C,
F8,
EF,
F9,
08,
02,
FC,
06,
10,
10,
0B,
01,
0B,
0F,
14,
11,
FC,
01,
FF,
EF,
F3,
EF,
F6,
EA,
FD,
F8,
F8,
FC,
F9,
01,
0D,
EB,
E6,
00,
FE,
F1,
F2,
0F,
08,
F0,
0F,
01,
0B,
F9,
0B,
F6,
17,
F3,
0A,
09,
F2,
06,
09,
02,
01,
04,
04,
18,
0F,
05,
09,
07,
03,
FF,
FE,
08,
F9,
FD,
E1,
DD,
E2,
FC,
FC,
0F,
0C,
09,
FF,
12,
13,
07,
0B,
0E,
11,
05,
FD,
F8,
FF,
ED,
FF,
13,
FB,
FA,
0D,
FA,
F1,
03,
FA,
EE,
FA,
0B,
E1,
FC,
02,
02,
06,
ED,
03,
05,
F4,
EA,
00,
F2,
EF,
F3,
EF,
FB,
F2,
FA,
F4,
ED,
01,
EA,
00,
FC,
FC,
03,
F1,
0B,
13,
FE,
FE,
05,
03,
FE,
0E,
FB,
16,
15,
1F,
ED,
0F,
FF,
07,
12,
06,
03,
07,
02,
FC,
F9,
EC,
FE,
07,
07,
FA,
FF,
F5,
F6,
08,
09,
F7,
F7,
06,
FB,
F1,
F7,
F5,
FA,
13,
0E,
FE,
F5,
F8,
FB,
02,
EC,
12,
07,
10,
06,
F1,
0C,
05,
0D,
00,
F5,
FB,
F0,
F8,
FA,
01,
F4,
ED,
01,
FF,
FA,
DF,
10,
FA,
02,
07,
F9,
0A,
04,
0B,
0A,
04,
00,
07,
08,
0A,
F1,
14,
F6,
FB,
09,
F5,
F6,
01,
FB,
F1,
04,
01,
FD,
05,
09,
F9,
F3,
08,
0B,
F7,
05,
05,
0D,
00,
FD,
F7,
06,
07,
02,
EB,
05,
F8,
FD,
F7,
F4,
EC,
17,
05,
FB,
08,
02,
FB,
FE,
FC,
02,
ED,
12,
0A,
FD,
FB,
07,
F6,
0C,
10,
16,
08,
07,
04,
FA,
F3,
FE,
00,
F8,
01,
F5,
FF,
F1,
03,
FC,
F3,
1A,
FF,
10,
12,
11,
03,
11,
04,
01,
07,
1B,
07,
03,
01,
FC,
02,
07,
01,
F4,
06,
FC,
EF,
15,
06,
FA,
0A,
09,
05,
03,
11,
EE,
E7,
F8,
0D,
01,
F1,
F6,
03,
F6,
F7,
FB,
04,
F4,
F4,
E1,
F5,
08,
0F,
FE,
FB,
09,
01,
FB,
07,
13,
07,
08,
09,
14,
FF,
05,
F7,
0C,
01,
F6,
F5,
FE,
07,
FE,
05,
0D,
0C,
0A,
FC,
0C,
06,
01,
13,
03,
0D,
23,
12,
00,
08,
0C,
02,
F9,
FE,
F4,
FD,
F4,
06,
F8,
F4,
06,
F4,
F1,
08,
0F,
03,
F8,
FB,
FC,
08,
FE,
FF,
F9,
00,
FC,
06,
F7,
F6,
FB,
FB,
00,
05,
18,
01,
0B,
06,
04,
F9,
20,
0F,
05,
F7,
03,
FF,
EF,
F1,
02,
F4,
FE,
FE,
FB,
FD,
0E,
FE,
08,
04,
06,
FD,
0A,
F2,
F5,
FB,
FC,
06,
F8,
FF,
14,
FC,
10,
05,
F7,
EB,
FB,
02,
05,
F1,
FF,
FC,
08,
F3,
12,
FB,
00,
05,
10,
F2,
00,
0D,
0B,
0D,
04,
0A,
08,
0D,
0C,
01,
FB,
F1,
0B,
F2,
01,
0D,
FE,
0E,
ED,
FA,
00,
EB,
FC,
F7,
F9,
0F,
F2,
06,
F1,
03,
FA,
FD,
F7,
FF,
05,
0A,
0F,
06,
F9,
FA,
F7,
F7,
F7,
F6,
EC,
F3,
FC,
F7,
EB,
F2,
FB,
DD,
06,
04,
06,
FE,
06,
04,
FA,
0E,
F7,
F5,
11,
FA,
FE,
F1,
FF,
EC,
F8,
10,
0F,
F8,
05,
0A,
F1,
10,
FE,
07,
F7,
FD,
04,
F8,
F3,
FD,
06,
03,
FA,
F8,
FF,
EA,
EB,
01,
03,
03,
00,
0F,
0F,
07,
02,
0E,
F5,
F3,
F5,
05,
02,
F5,
F2,
EE,
05,
04,
F1,
01,
0D,
F2,
06,
0E,
F8,
F0,
FA,
0A,
E8,
F2,
07,
EF,
F8,
E4,
0C,
FF,
02,
FE,
F9,
03,
08,
02,
F2,
FA,
FA,
FA,
DF,
FD,
02,
F0,
F6,
FF,
F5,
FC,
FA,
05,
01,
F9,
EC,
F6,
F6,
DA,
03,
F5,
ED,
F8,
FD,
FD,
F6,
03,
06,
04,
1A,
1F,
10,
13,
0C,
0D,
04,
00,
09,
FF,
FA,
F7,
07,
FB,
FB,
F9,
06,
06,
F8,
10,
03,
16,
FE,
1C,
FC,
11,
0E,
13,
EC,
04,
0E,
03,
F1,
F5,
F7,
FA,
EB,
03,
04,
08,
FB,
FE,
FC,
0B,
E8,
F6,
04,
1E,
E3,
FD,
EA,
F9,
14,
10,
F8,
F4,
12,
FC,
04,
ED,
06,
E7,
FD,
FE,
FC,
E6,
EE,
EC,
1F,
16,
FC,
0A,
0F,
FF,
07,
01,
0A,
02,
EF,
01,
05,
07,
FA,
07,
08,
06,
F9,
14,
27,
FB,
05,
08,
16,
E1,
FD,
1A,
F2,
EA,
F1,
FA,
E0,
ED,
F4,
04,
03,
FB,
0D,
FC,
04,
FA,
FA,
17,
FD,
0D,
F4,
02,
F9,
FA,
EF,
08,
FE,
F2,
FA,
05,
0C,
03,
08,
09,
F4,
F5,
EC,
F6,
ED,
0C,
ED,
F7,
02,
00,
05,
0D,
08,
06,
01,
0F,
16,
F3,
05,
07,
F6,
ED,
07,
EC,
0D,
EC,
0B,
FE,
FA,
FF,
FD,
0A,
1B,
1F,
08,
00,
01,
00,
05,
06,
FF,
FB,
01,
ED,
01,
1C,
20,
12,
0C,
F3,
F8,
F7,
FA,
07,
0D,
F8,
0B,
03,
0B,
01,
F5,
0E,
FC,
ED,
0E,
01,
FA,
12,
F1,
FF,
FD,
01,
04,
17,
F7,
03,
0C,
08,
07,
FD,
FA,
08,
F5,
11,
04,
16,
10,
1A,
11,
0A,
1B,
03,
01,
0F,
FF,
05,
17,
09,
E9,
0F,
18,
07,
EE,
F4,
19,
FD,
F5,
07,
10,
06,
F5,
02,
FA,
FA,
06,
FF,
FB,
DE,
F7,
EF,
FB,
FD,
F8,
05,
F8,
FB,
00,
12,
FC,
07,
F9,
FF,
10,
13,
07,
0B,
ED,
04,
FA,
FC,
FA,
12,
01,
02,
F7,
EE,
FE,
E8,
01,
07,
F5,
FA,
07,
F7,
03,
F1,
FC,
FD,
FC,
F3,
02,
ED,
F4,
00,
F1,
04,
F3,
F1,
01,
0A,
F3,
0D,
01,
0C,
0F,
FC,
F9,
F9,
F6,
01,
F1,
FD,
05,
F8,
1D,
00,
F5,
08,
12,
FA,
0D,
15,
19,
FE,
FF,
F8,
08,
06,
03,
01,
0F,
07,
FA,
0A,
12,
08,
FA,
FF,
FB,
02,
20,
02,
01,
F6,
0F,
07,
F6,
09,
19,
03,
FB,
01,
FC,
06,
F3,
EF,
E9,
19,
F4,
05,
F7,
02,
E8,
F5,
12,
04,
F2,
EC,
08,
08,
FA,
E6,
E2,
EE,
FF,
D9,
DD,
FD,
FE,
0D,
F1,
F7,
05,
14,
13,
0C,
18,
08,
00,
0D,
10,
0B,
06,
07,
06,
1C,
0E,
00,
0C,
06,
FE,
F1,
23,
27,
11,
FC,
04,
0E,
00,
0F,
0A,
00,
0D,
07,
14,
0F,
0F,
13,
04,
04,
1D,
F6,
08,
16,
03,
04,
FF,
08,
00,
FD,
03,
04,
EC,
01,
0C,
23,
0F,
0F,
02,
FF,
06,
FB,
FF,
03,
0F,
06,
0D,
F7,
FF,
0A,
FC,
F8,
FF,
F2,
06,
0A,
F2,
03,
17,
00,
FF,
FB,
21,
20,
12,
1F,
F8,
FE,
0B,
FA,
06,
FF,
FD,
07,
F6,
FE,
F5,
E9,
02,
07,
FC,
F8,
F1,
E2,
E3,
FC,
FD,
0B,
F8,
06,
F8,
08,
17,
11,
05,
FE,
FD,
0E,
09,
FB,
09,
F6,
0B,
07,
F6,
EE,
F9,
1F,
F5,
EE,
ED,
06,
0C,
05,
F4,
FA,
FF,
F9,
09,
FA,
EE,
F9,
FA,
EF,
FD,
E9,
FB,
F9,
EC,
FE,
FB,
F3,
14,
F6,
F6,
FE,
FA,
F7,
F2,
EB,
07,
F4,
FD,
10,
18,
F9,
EB,
E1,
F1,
F8,
F0,
F8,
FA,
F8,
F5,
03,
FE,
EE,
FF,
15,
17,
09,
E7,
FE,
E3,
F9,
E7,
EA,
DE,
0B,
F4,
E5,
F2,
09,
F1,
F7,
02,
02,
FA,
02,
F5,
EF,
FF,
17,
12,
17,
FC,
01,
10,
0E,
09,
FA,
EC,
09,
08,
07,
08,
02,
13,
08,
02,
F7,
F9,
12,
00,
03,
0B,
0B,
03,
0A,
04,
05,
15,
F9,
E2,
13,
F9,
E8,
EC,
04,
ED,
04,
FD,
00,
F9,
F1,
FF,
FA,
FE,
00,
02,
FB,
10,
01,
02,
ED,
18,
06,
FE,
00,
FD,
F8,
FB,
F5,
F7,
F5,
05,
FD,
FF,
F2,
FF,
FD,
F9,
F0,
01,
05,
FF,
13,
FE,
F7,
F0,
ED,
0A,
FD,
F8,
08,
05,
06,
F5,
FD,
0A,
04,
0A,
E6,
05,
F9,
F2,
F9,
16,
FB,
06,
0E,
03,
F8,
FF,
FD,
FA,
10,
06,
FB,
F8,
F6,
F4,
FC,
E2,
FB,
FD,
07,
01,
EF,
FE,
16,
02,
0A,
0A,
10,
FB,
09,
02,
F9,
FA,
02,
0D,
09,
FA,
16,
14,
09,
14,
03,
0C,
04,
FA,
04,
01,
07,
1A,
0A,
03,
FB,
08,
F0,
07,
FA,
FE,
04,
0F,
0F,
02,
F8,
06,
FA,
00,
09,
F4,
EB,
0B,
F5,
F7,
F9,
09,
0C,
18,
F8,
FE,
12,
05,
09,
02,
0B,
F9,
EE,
F7,
1D,
15,
F4,
FD,
0F,
0E,
FC,
0E,
FF,
02,
07,
02,
F8,
F9,
05,
F3,
F8,
03,
FD,
EE,
FF,
F4,
F7,
06,
03,
12,
FF,
F8,
04,
FF,
F7,
F5,
F7,
F1,
F8,
FD,
EF,
F8,
ED,
F5,
15,
11,
F9,
F6,
04,
FE,
0B,
FD,
FA,
03,
FF,
FB,
01,
FD,
16,
01,
14,
F0,
0E,
0C,
F5,
E6,
01,
02,
06,
EC,
FC,
0A,
11,
05,
1D,
04,
05,
07,
0E,
06,
14,
FB,
14,
09,
F0,
13,
EA,
F6,
FA,
03,
F4,
FF,
FC,
09,
0B,
17,
00,
05,
0B,
04,
FE,
10,
07,
FB,
FF,
F5,
0F,
09,
04,
FF,
FB,
05,
01,
FD,
00,
08,
FD,
FD,
01,
0A,
16,
02,
FE,
07,
0C,
05,
ED,
02,
FF,
E8,
02,
10,
F1,
07,
09,
F6,
EB,
18,
0A,
F4,
F9,
02,
ED,
FB,
00,
F6,
0A,
F5,
F6,
0C,
03,
FC,
FE,
09,
10,
11,
ED,
FC,
FE,
0B,
EE,
F1,
FD,
00,
0F,
08,
F8,
01,
09,
F7,
00,
FD,
FA,
FE,
F5,
03,
06,
0E,
00,
12,
0B,
11,
0B,
0F,
04,
EF,
F2,
04,
0C,
FC,
E8,
07,
0D,
E9,
F0,
F7,
07,
F4,
01,
F7,
00,
F2,
F7,
EF,
0B,
FF,
F4,
F9,
07,
FB,
FD,
0C,
04,
F6,
F4,
FD,
F4,
F3,
FE,
FC,
03,
07,
0A,
FD,
0B,
12,
EB,
F0,
0E,
09,
06,
E4,
03,
F4,
02,
FE,
07,
01,
F8,
0B,
11,
FB,
03,
FD,
00,
F4,
F8,
02,
E3,
E8,
08,
EF,
00,
F6,
F6,
DD,
EA,
FA,
00,
F2,
0F,
FB,
FA,
FE,
FA,
08,
01,
FE,
14,
11,
0B,
FB,
F3,
02,
16,
F9,
F8,
FF,
FB,
00,
FD,
00,
FE,
FB,
F2,
FB,
F7,
FC,
02,
0C,
EC,
EC,
FF,
00,
F3,
05,
0D,
0A,
08,
F8,
FD,
F8,
0E,
F9,
07,
05,
F5,
02,
FF,
F9,
13,
0A,
03,
F6,
1F,
0E,
F2,
10,
FE,
EC,
F5,
F2,
EA,
F4,
E8,
F7,
FE,
EF,
F9,
EF,
F7,
0F,
11,
07,
0C,
FF,
FE,
FE,
F6,
00,
F4,
04,
F6,
0B,
00,
FF,
FA,
FF,
E9,
F0,
E9,
FF,
EA,
F8,
EC,
0D,
01,
03,
F5,
F8,
F0,
EE,
F6,
FE,
11,
0D,
04,
F7,
06,
0A,
0D,
FB,
FA,
FF,
FA,
EC,
02,
06,
FF,
F1,
EC,
FD,
FC,
FB,
F8,
ED,
F1,
F6,
0C,
00,
FE,
07,
F5,
F8,
F7,
FE,
15,
08,
07,
14,
10,
0C,
F8,
FE,
ED,
E7,
02,
F2,
FC,
ED,
03,
06,
10,
12,
06,
09,
05,
FA,
02,
FE,
FA,
FD,
06,
05,
0A,
FD,
0A,
04,
0A,
0F,
14,
10,
0A,
0C,
12,
0B,
F7,
FD,
04,
01,
06,
02,
FD,
F8,
04,
03,
FB,
FD,
0C,
04,
05,
07,
F2,
06,
F5,
F8,
04,
00,
03,
1D,
15,
09,
09,
0A,
0D,
FB,
06,
04,
F5,
EA,
06,
E5,
02,
F5,
EC,
FF,
07,
0A,
05,
0A,
0B,
0D,
FD,
FA,
00,
0E,
FB,
05,
0B,
FF,
F4,
0F,
09,
0E,
F4,
FB,
05,
EE,
FD,
EC,
E4,
E8,
EF,
EE,
E7,
E1,
F1,
1A,
09,
FF,
10,
FE,
03,
F9,
03,
01,
FC,
01,
EC,
F8,
EB,
E9,
FC,
FD,
F5,
FA,
FF,
04,
00,
FD,
EE,
FB,
EF,
E8,
F1,
00,
05,
FE,
01,
FE,
00,
0A,
FF,
F7,
07,
00,
EC,
F6,
FF,
FC,
F8,
03,
02,
07,
01,
0D,
1B,
18,
FF,
10,
FB,
F1,
01,
03,
F9,
E7,
05,
F4,
EC,
E9,
E9,
0F,
1C,
FE,
0D,
00,
0B,
0D,
1B,
0A,
0A,
09,
14,
05,
07,
0B,
FF,
0A,
07,
0E,
03,
0A,
F2,
FB,
09,
FF,
F9,
F2,
EE,
F8,
F4,
F4,
EA,
FD,
EE,
F7,
FD,
FE,
FF,
F5,
F9,
01,
F3,
F4,
FA,
08,
00,
F6,
F5,
09,
0A,
17,
0D,
F8,
F4,
00,
FA,
FC,
F7,
E7,
FD,
ED,
FD,
F7,
FC,
10,
FA,
FE,
FF,
10,
FE,
F0,
EF,
F2,
F8,
F6,
F2,
F1,
E9,
F8,
14,
0A,
EF,
04,
01,
F7,
F4,
01,
FA,
F2,
FD,
FC,
F9,
00,
F6,
07,
02,
19,
06,
0C,
05,
1C,
FF,
FF,
11,
02,
09,
FB,
01,
1C,
06,
0A,
12,
F6,
F1,
FD,
FE,
EF,
03,
F3,
00,
FA,
FF,
0F,
06,
0E,
0C,
12,
0D,
F4,
FC,
06,
0C,
07,
F3,
F4,
ED,
04,
0E,
11,
0C,
01,
05,
07,
0A,
14,
15,
00,
FA,
FE,
0C,
0C,
F0,
F9,
FF,
F6,
F4,
F9,
07,
FE,
F6,
F4,
0A,
F4,
0F,
F4,
EF,
F7,
F6,
05,
0B,
0C,
11,
FF,
0C,
0F,
10,
10,
02,
15,
15,
11,
06,
F8,
04,
F7,
F4,
F3,
FB,
01,
F8,
F7,
FE,
09,
F0,
05,
07,
F6,
06,
00,
FB,
00,
F1,
EC,
EB,
FD,
FD,
00,
F4,
0A,
0C,
FC,
09,
0F,
EF,
E8,
EF,
F4,
F2,
E9,
FB,
FE,
F7,
FA,
FB,
FA,
13,
04,
F0,
FA,
02,
EF,
FB,
10,
F8,
FE,
F3,
FF,
02,
FE,
FE,
F8,
01,
F5,
FB,
00,
F2,
F8,
07,
03,
09,
07,
0F,
06,
0E,
17,
FD,
F9,
03,
11,
17,
0C,
00,
00,
FF,
F0,
F9,
01,
09,
F2,
E7,
F4,
F8,
FA,
FB,
08,
10,
FD,
F1,
01,
06,
EC,
FC,
F4,
FF,
FB,
EE,
F9,
FF,
14,
0B,
17,
F6,
01,
FD,
EF,
F1,
FB,
08,
F6,
F0,
06,
EF,
F0,
07,
0C,
09,
14,
16,
02,
E8,
FA,
F9,
F8,
F4,
07,
F8,
FA,
F9,
FD,
FA,
0E,
03,
04,
18,
F0,
EC,
FD,
00,
EE,
F8,
F7,
03,
E3,
F4,
E9,
F6,
FE,
05,
00,
01,
FD,
FC,
FC,
F2,
04,
F9,
FD,
FC,
00,
09,
11,
0A,
0D,
14,
12,
0C,
FF,
FB,
F9,
16,
FA,
FA,
ED,
00,
FB,
E8,
FB,
01,
FC,
05,
FA,
0C,
03,
FC,
F6,
F6,
03,
FF,
01,
07,
F0,
06,
FE,
10,
0E,
FC,
15,
11,
12,
01,
08,
07,
0D,
04,
02,
04,
0B,
F2,
F2,
FF,
02,
FA,
06,
08,
F1,
07,
11,
0A,
FB,
03,
01,
0B,
FD,
0E,
12,
0B,
04,
09,
06,
FF,
00,
01,
FB,
EF,
0C,
08,
EB,
02,
F9,
0B,
07,
04,
09,
0D,
06,
11,
12,
05,
0E,
08,
0E,
07,
0A,
FF,
01,
FC,
FF,
FC,
0E,
12,
15,
0B,
05,
F3,
00,
FA,
F8,
00,
FB,
FF,
04,
07,
04,
07,
EB,
FE,
F3,
07,
FA,
FE,
EC,
FE,
05,
08,
02,
FF,
F9,
00,
06,
FE,
FF,
10,
0B,
FE,
00,
EE,
ED,
0D,
09,
0E,
FF,
01,
15,
03,
00,
0D,
01,
F8,
0B,
F3,
00,
01,
F8,
09,
FD,
04,
00,
F0,
F9,
03,
F9,
F5,
12,
0D,
0C,
0D,
09,
03,
F0,
F7,
12,
04,
F2,
F2,
09,
06,
07,
04,
F8,
0A,
01,
03,
F6,
EF,
ED,
FA,
F1,
E9,
F1,
03,
03,
F6,
F0,
06,
14,
0C,
0A,
0B,
ED,
01,
03,
01,
FA,
F4,
F3,
00,
F5,
03,
F8,
EC,
04,
FD,
08,
02,
FA,
FA,
FC,
06,
08,
01,
FF,
FC,
04,
FF,
10,
08,
11,
05,
07,
02,
FA,
01,
0D,
EA,
04,
F9,
00,
01,
F0,
FC,
02,
FD,
EA,
F7,
F2,
FC,
01,
FC,
0E,
F5,
0E,
03,
00,
05,
06,
FF,
FA,
09,
12,
FF,
03,
07,
FA,
0D,
12,
00,
0B,
E9,
F1,
EC,
09,
04,
F5,
F9,
0F,
11,
03,
F6,
FF,
0A,
FE,
FE,
FA,
FB,
FF,
F0,
11,
09,
FA,
05,
0F,
13,
04,
FA,
07,
04,
02,
FF,
00,
07,
08,
F3,
02,
00,
01,
F8,
E7,
ED,
FB,
04,
F0,
F8,
FA,
FF,
FA,
FB,
EE,
04,
00,
F7,
F9,
09,
FC,
FC,
00,
F7,
08,
F8,
02,
F7,
08,
06,
07,
0C,
0C,
01,
04,
16,
0F,
FF,
06,
19,
0A,
FC,
FE,
FC,
F2,
E6,
EB,
F7,
F4,
FC,
F0,
EC,
FE,
14,
07,
05,
F8,
0C,
F7,
F4,
0A,
07,
19,
0E,
07,
12,
07,
01,
01,
F6,
FB,
FC,
08,
FB,
F6,
08,
0E,
0E,
FD,
02,
FB,
07,
16,
04,
03,
03,
07,
0E,
F9,
F9,
09,
09,
01,
01,
EC,
0E,
F4,
F5,
F5,
00,
F9,
F3,
EB,
05,
F4,
FA,
01,
06,
04,
03,
FF,
FF,
00,
F9,
EF,
06,
FC,
0C,
F7,
0A,
03,
0D,
04,
02,
0F,
FF,
0D,
03,
13,
0C,
03,
FD,
EB,
EC,
F9,
EE,
FE,
F9,
F5,
02,
FE,
07,
01,
0E,
06,
FE,
0D,
08,
02,
02,
08,
07,
F5,
0A,
08,
01,
05,
F5,
FA,
05,
02,
08,
0B,
F3,
0D,
F6,
FB,
F0,
00,
FC,
FE,
F9,
05,
F3,
FC,
F0,
00,
FF,
08,
00,
04,
13,
0B,
09,
05,
12,
06,
08,
0B,
0E,
04,
10,
0E,
FD,
00,
0C,
0A,
09,
12,
FB,
06,
04,
04,
03,
0E,
0D,
FF,
FD,
02,
13,
04,
0B,
01,
F4,
FE,
FD,
04,
06,
09,
FF,
FC,
FC,
F9,
FE,
06,
FA,
FC,
F3,
F5,
FA,
F7,
FC,
F8,
00,
01,
F6,
05,
07,
02,
09,
04,
1E,
00,
11,
00,
FF,
F4,
FC,
FC,
F5,
F8,
FB,
04,
F7,
F7,
0E,
0D,
14,
FC,
03,
03,
09,
09,
EB,
02,
05,
F6,
FA,
08,
FF,
0B,
13,
06,
1E,
10,
07,
F7,
02,
0E,
F8,
EA,
F3,
EF,
DF,
FF,
0D,
0C,
01,
04,
F8,
12,
11,
E9,
EC,
DF,
E8,
E7,
F3,
F7,
FA,
FB,
F6,
01,
F6,
11,
F4,
05,
0A,
FD,
FC,
08,
FA,
04,
FD,
0B,
EF,
08,
F3,
04,
F7,
01,
FD,
0B,
04,
EB,
03,
ED,
FD,
FB,
FA,
F9,
F0,
FC,
F4,
09,
17,
12,
F7,
00,
0E,
F9,
E8,
F8,
E8,
EA,
00,
F9,
08,
FB,
FC,
08,
EF,
09,
F4,
F2,
0A,
02,
00,
05,
FB,
F9,
07,
03,
06,
02,
0B,
11,
0F,
0A,
14,
1B,
0B,
F4,
FC,
FA,
03,
01,
F0,
FE,
F0,
0B,
03,
F6,
FA,
F9,
07,
F8,
04,
0C,
F7,
08,
06,
02,
F8,
F4,
FF,
0C,
02,
F8,
01,
06,
FE,
FD,
F2,
04,
07,
0F,
05,
F6,
07,
EE,
F5,
0B,
0B,
0B,
FD,
F6,
0B,
05,
00,
F1,
02,
FE,
F4,
F4,
09,
07,
04,
04,
05,
0D,
F7,
06,
08,
09,
07,
FD,
FD,
F7,
FA,
FA,
09,
0B,
FB,
06,
F8,
03,
00,
03,
0A,
F5,
FA,
FC,
FA,
03,
FC,
FE,
FE,
10,
F5,
08,
02,
0B,
04,
0D,
09,
0C,
06,
0A,
EF,
06,
03,
F9,
FC,
FA,
00,
11,
02,
F7,
F8,
FB,
12,
0F,
01,
01,
01,
00,
FA,
0A,
06,
08,
01,
09,
00,
FE,
00,
0B,
F5,
05,
0D,
FE,
0D,
EB,
00,
0C,
F9,
05,
FF,
05,
FF,
05,
19,
FF,
FD,
05,
0A,
F4,
FD,
05,
F0,
FE,
02,
00,
FD,
F2,
01,
01,
F0,
F3,
F6,
FB,
FE,
F7,
FF,
FA,
00,
0A,
FD,
05,
01,
06,
FF,
F6,
04,
07,
0A,
00,
15,
F8,
FA,
FE,
10,
01,
F6,
06,
F3,
EB,
FE,
ED,
EC,
02,
F1,
FD,
FD,
F9,
DF,
FF,
FC,
E9,
09,
01,
07,
FA,
01,
05,
F4,
FB,
06,
05,
02,
03,
FF,
07,
EE,
FF,
07,
01,
00,
03,
F7,
02,
FC,
FF,
F8,
06,
FE,
05,
0A,
F9,
FE,
F3,
07,
FD,
FD,
FF,
0A,
FA,
FB,
00,
05,
F5,
F7,
FC,
FE,
F5,
F7,
06,
F3,
0C,
FE,
FA,
FB,
01,
FF,
04,
F4,
04,
01,
F0,
F6,
07,
06,
FD,
FE,
04,
05,
F7,
09,
FF,
FE,
03,
0E,
09,
07,
F5,
FC,
0F,
09,
04,
01,
0A,
EE,
FD,
02,
FA,
F6,
05,
07,
12,
FC,
E2,
04,
FA,
F9,
FB,
00,
05,
F6,
0C,
0E,
00,
11,
0B,
07,
0D,
0C,
02,
FF,
06,
F5,
F3,
06,
09,
EB,
E3,
05,
07,
F4,
F2,
F8,
02,
0B,
F6,
02,
09,
F8,
01,
F9,
06,
10,
01,
03,
0F,
00,
FD,
0C,
06,
F3,
F6,
E6,
F3,
F1,
02,
F6,
FD,
00,
0F,
06,
F7,
09,
07,
00,
01,
04,
F9,
E8,
E7,
EB,
F1,
F9,
FF,
F5,
FF,
00,
04,
05,
01,
11,
07,
FF,
F2,
EE,
EB,
F4,
F3,
F4,
FB,
FA,
02,
FD,
F8,
F3,
14,
1C,
08,
0D,
08,
F5,
FF,
F2,
02,
07,
19,
F9,
FD,
F3,
04,
F7,
F3,
0C,
03,
FB,
03,
EE,
03,
FF,
FC,
FB,
F2,
F4,
F8,
07,
06,
EA,
EE,
F9,
F0,
06,
0B,
08,
FC,
FE,
F8,
0C,
09,
0B,
0E,
FF,
04,
0D,
02,
16,
06,
01,
FB,
06,
0F,
F4,
FD,
03,
F0,
E6,
13,
18,
F8,
F8,
16,
0B,
FE,
08,
F3,
FE,
EC,
F6,
F1,
FC,
FF,
ED,
F9,
F9,
01,
FE,
00,
03,
05,
F2,
FC,
EF,
F0,
F9,
0A,
06,
FC,
01,
00,
0C,
F9,
F2,
FF,
00,
FE,
07,
0D,
07,
F6,
F9,
FA,
02,
00,
FF,
FE,
09,
F4,
13,
06,
F7,
FB,
00,
FA,
09,
04,
F3,
F8,
FC,
0B,
0C,
04,
08,
FF,
00,
04,
EC,
FA,
EC,
FA,
F1,
04,
EF,
FD,
09,
0D,
02,
FC,
01,
14,
04,
0A,
0D,
0C,
FE,
FD,
FA,
07,
F4,
F1,
F9,
FD,
F7,
04,
0D,
FF,
10,
0C,
0D,
0E,
FA,
EB,
08,
FC,
F0,
F9,
FD,
FF,
00,
EB,
F6,
09,
E8,
FA,
0D,
0A,
FB,
F2,
F7,
E8,
F4,
F7,
FA,
12,
F1,
FE,
FA,
11,
F5,
FE,
FB,
02,
0C,
EF,
F6,
ED,
FB,
FD,
0F,
01,
FD,
01,
FB,
0F,
FA,
11,
06,
24,
F5,
0B,
0D,
08,
09,
EA,
F5,
0E,
F6,
F5,
FF,
00,
00,
08,
03,
07,
01,
F2,
F7,
F6,
F7,
F7,
12,
FD,
F2,
05,
0C,
03,
01,
09,
F9,
01,
18,
FE,
F8,
EE,
F2,
EB,
FE,
ED,
FE,
11,
00,
02,
00,
02,
01,
FE,
06,
08,
F9,
0B,
08,
07,
0B,
10,
0A,
01,
05,
F8,
FD,
FC,
F8,
F8,
FF,
10,
0C,
EC,
05,
F9,
FD,
F6,
FB,
E2,
0E,
03,
04,
FE,
00,
08,
FB,
FE,
09,
0C,
F6,
FB,
0D,
FF,
06,
FD,
FF,
01,
03,
05,
04,
05,
01,
FD,
EC,
09,
01,
FF,
F2,
F0,
FE,
F9,
F8,
03,
08,
FD,
FF,
13,
04,
F4,
11,
0C,
F1,
FB,
03,
FC,
02,
00,
08,
06,
11,
0B,
12,
17,
01,
F9,
05,
F6,
F8,
FB,
09,
00,
09,
00,
0D,
06,
0E,
FE,
03,
08,
05,
FF,
F1,
F1,
F0,
E6,
D9,
FD,
E1,
02,
F4,
01,
07,
09,
08,
18,
04,
F9,
FB,
09,
01,
FD,
FD,
FC,
FA,
FA,
FB,
FA,
FC,
FE,
FE,
06,
F8,
FC,
03,
F7,
F6,
04,
F6,
F9,
FB,
FE,
F9,
F8,
F9,
F7,
F8,
F9,
FF,
03,
FA,
F2,
F9,
F3,
FA,
02,
FB,
FE,
F6,
FE,
FB,
F9,
FE,
FE,
02,
FF,
F5,
F5,
F9,
02,
04,
FF,
F5,
FB,
04,
FC,
03,
FC,
FC,
07,
FF,
0F,
07,
FB,
F9,
FE,
FE,
02,
F6,
06,
03,
FA,
05,
03,
FD,
03,
FB,
05,
FD,
08,
05,
06,
FA,
08,
07,
07,
FD,
00,
08,
05,
0E,
0C,
0B,
00,
FA,
FB,
FC,
F6,
FC,
05,
FD,
FB,
FB,
01,
FE,
02,
F8,
0D,
FB,
10,
FC,
04,
05,
08,
01,
04,
04,
00,
F8,
0D,
12,
02,
F8,
0A,
06,
03,
00,
FB,
05,
FF,
FB,
F8,
F6,
FF,
FE,
0A,
08,
01,
00,
02,
FA,
FC,
FD,
F8,
05,
FF,
05,
03,
08,
09,
02,
04,
FE,
01,
FE,
07,
0C,
FF,
FC,
FC,
02,
03,
01,
03,
F1,
00,
FD,
02,
F9,
03,
FD,
04,
FE,
0A,
03,
FD,
02,
FE,
07,
FE,
06,
FC,
FA,
F8,
F4,
FB,
00,
F7,
FE,
06,
04,
01,
FC,
FC,
E3,
ED,
03,
01,
EB,
F4,
FF,
F8,
E9,
FC,
05,
FF,
F9,
FB,
05,
FF,
01,
06,
03,
F9,
FD,
02,
0B,
00,
05,
08,
FF,
08,
00,
FD,
FC,
FF,
07,
02,
F1,
FD,
03,
13,
FD,
00,
03,
07,
07,
03,
00,
F8,
02,
FB,
F5,
FD,
FB,
03,
F8,
FC,
02,
03,
FB,
05,
F7,
03,
FE,
04,
FD,
05,
02,
04,
F6,
09,
02,
06,
03,
0B,
0A,
07,
FE,
05,
FB,
05,
04,
FA,
FD,
FF,
FB,
01,
F9,
FF,
05,
03,
00,
03,
08,
FF,
FC,
01,
FD,
01,
F5,
FF,
02,
03,
F5,
00,
02,
02,
FA,
FA,
FC,
06,
07,
02,
05,
07,
03,
07,
FE,
0D,
13,
05,
0A,
08,
04,
FB,
FF,
F8,
FF,
FA,
02,
FF,
F6,
FC,
FB,
F8,
0B,
03,
F5,
F8,
03,
07,
FC,
02,
FA,
01,
FF,
01,
F4,
F4,
FB,
02,
FA,
F8,
07,
03,
F9,
FB,
00,
FB,
01,
FD,
00,
03,
02,
01,
0B,
FB,
02,
02,
09,
FE,
FA,
02,
09,
0E,
FB,
06,
00,
FB,
FF,
04,
04,
00,
00,
02,
02,
00,
03,
FB,
F6,
03,
FD,
FE,
0C,
FE,
FB,
FF,
07,
F9,
F7,
F7,
00,
EE,
F7,
00,
F7,
FD,
06,
05,
FE,
07,
06,
10,
08,
04,
01,
09,
FE,
FF,
FE,
FE,
06,
03,
03,
06,
F9,
01,
00,
00,
FF,
FB,
02,
FA,
08,
0D,
08,
FC,
FC,
FC,
FA,
08,
FD,
F7,
FB,
FE,
02,
FE,
F9,
01,
02,
F1,
FC,
06,
FB,
0B,
01,
04,
FD,
10,
09,
FA,
F9,
FE,
F9,
02,
04,
0A,
00,
06,
FB,
FF,
FF,
F6,
01,
FC,
FD,
F3,
05,
0A,
FE,
00,
04,
FC,
FD,
F5,
FD,
06,
F8,
F7,
05,
02,
07,
02,
FB,
F5,
04,
0C,
06,
04,
FF,
05,
00,
0A,
F5,
08,
07,
00,
03,
FE,
05,
FE,
F7,
FD,
01,
F7,
FB,
F6,
F8,
FC,
FB,
FF,
00,
FF,
F5,
F8,
FD,
08,
FE,
01,
05,
04,
0A,
FE,
F6,
F8,
00,
FC,
FD,
01,
0A,
FB,
FF,
03,
FE,
00,
F2,
F7,
00,
03,
02,
03,
FD,
01,
FF,
FD,
03,
00,
F8,
04,
FB,
F4,
F6,
FE,
05,
FB,
FA,
FE,
00,
00,
FB,
FE,
03,
06,
05,
00,
03,
06,
FC,
FE,
FE,
FD,
02,
FD,
0C,
0E,
06,
04,
EF,
F4,
FF,
FC,
F2,
E7,
F0,
04,
F1,
EA,
F5,
F6,
FB,
FD,
FE,
00,
01,
F9,
FA,
01,
05,
06,
FB,
00,
01,
04,
F6,
07,
00,
04,
00,
FC,
F3,
03,
F7,
02,
FF,
0C,
F3,
0D,
02,
0A,
FD,
FE,
08,
FC,
FB,
F8,
F7,
F8,
01,
00,
EE,
FA,
01,
F8,
F6,
FB,
01,
FC,
FD,
F9,
03,
F3,
FB,
F7,
01,
FB,
05,
01,
01,
F9,
FC,
02,
01,
03,
FF,
09,
FC,
FD,
07,
06,
FF,
F6,
FE,
07,
F9,
FD,
FF,
FE,
FD,
0E,
0C,
FB,
FF,
03,
FA,
F3,
F6,
0C,
F8,
FC,
F9,
04,
F4,
F6,
07,
FD,
FA,
F9,
00,
FC,
FE,
06,
09,
02,
FA,
09,
FE,
FF,
FC,
F2,
F1,
FC,
01,
05,
FD,
FC,
F7,
01,
0A,
F3,
F1,
01,
F9,
F7,
F4,
FC,
F9,
FA,
03,
FB,
07,
FF,
FC,
EE,
09,
02,
F5,
FB,
02,
F8,
ED,
FD,
04,
03,
FB,
00,
F6,
FA,
FB,
02,
03,
01,
04,
FE,
F9,
05,
F7,
FA,
F2,
01,
FC,
0C,
05,
F9,
F9,
03,
FF,
FF,
FD,
F7,
04,
01,
01,
0A,
FB,
00,
03,
08,
05,
00,
02,
01,
03,
FE,
FE,
03,
06,
F8,
00,
01,
F9,
03,
FD,
05,
01,
05,
03,
02,
FF,
0A,
FF,
04,
FF,
05,
F2,
02,
01,
07,
08,
FB,
0B,
FA,
FA,
F1,
03,
EE,
F8,
F7,
05,
F9,
FB,
FA,
0A,
02,
F6,
FA,
04,
F8,
07,
F2,
FA,
FD,
F9,
04,
F3,
FA,
FC,
F6,
F5,
08,
00,
03,
01,
FF,
FF,
04,
FD,
FB,
04,
F5,
03,
FE,
FE,
ED,
F7,
FE,
FD,
02,
0A,
07,
F5,
EC,
00,
F8,
EE,
F9,
00,
F8,
F3,
02,
FF,
FB,
FB,
02,
11,
03,
F5,
01,
FE,
F6,
F3,
FA,
00,
F4,
08,
01,
05,
0C,
02,
03,
00,
0A,
FC,
FB,
F7,
08,
F4,
04,
0C,
FE,
03,
07,
01,
FF,
07,
01,
01,
FE,
FB,
06,
FD,
F9,
FC,
06,
F9,
03,
FB,
02,
F5,
10,
FC,
02,
FF,
FB,
03,
FF,
FE,
FB,
F4,
F2,
00,
FA,
F6,
FD,
03,
0E,
03,
01,
F8,
0B,
FE,
06,
03,
0C,
04,
FF,
03,
FF,
FA,
05,
04,
15,
FB,
0F,
13,
01,
02,
00,
FE,
06,
FB,
F7,
F8,
06,
03,
00,
F9,
05,
FD,
FF,
F6,
05,
07,
0A,
F9,
FE,
FF,
04,
F3,
F3,
00,
FF,
F7,
FC,
F6,
F8,
06,
FF,
F8,
F8,
02,
FE,
ED,
FA,
F5,
F6,
FB,
FE,
F8,
03,
FE,
00,
FD,
FA,
F8,
05,
03,
FD,
F6,
FB,
02,
FC,
FB,
FC,
F6,
FE,
FD,
01,
FC,
FF,
00,
FC,
FA,
FC,
F6,
FD,
0E,
FE,
01,
00,
FE,
0F,
07,
04,
FF,
F9,
FD,
0B,
13,
EB,
F0,
FC,
10,
F9,
07,
0A,
FC,
02,
0D,
12,
10,
FC,
F2,
0B,
1C,
F2,
F5,
E5,
08,
F9,
04,
10,
F9,
FE,
F3,
06,
05,
02,
03,
FF,
FD,
01,
EE,
01,
06,
04,
EC,
F5,
F6,
F1,
03,
03,
EE,
F0,
F7,
03,
1C,
F4,
E9,
F8,
FF,
FF,
F7,
02,
0B,
FA,
FA,
FF,
03,
08,
0C,
02,
07,
05,
04,
09,
FB,
17,
0E,
FE,
0E,
02,
07,
03,
0F,
07,
FE,
FC,
08,
F9,
FD,
FB,
15,
02,
00,
F9,
07,
02,
F1,
0C,
F7,
F3,
FF,
F4,
F4,
FB,
03,
0C,
0D,
01,
EE,
0B,
FD,
FC,
02,
FD,
F0,
FF,
0A,
FB,
DF,
00,
F2,
0A,
07,
F7,
FD,
01,
0B,
03,
05,
F1,
FC,
F9,
06,
FA,
F6,
FB,
07,
F6,
F3,
EA,
07,
06,
05,
FC,
04,
FE,
F8,
11,
03,
11,
F1,
0D,
FB,
F3,
F1,
F6,
03,
FC,
FF,
0F,
06,
02,
EF,
04,
F7,
FA,
FA,
F4,
F9,
EF,
F5,
02,
F2,
EB,
F5,
0A,
06,
F9,
F5,
FE,
01,
04,
FA,
0C,
0D,
F6,
03,
F5,
F5,
FB,
05,
1C,
06,
1D,
09,
FB,
0E,
0F,
14,
F3,
F1,
06,
1B,
FA,
F7,
ED,
03,
F8,
0D,
01,
05,
FA,
04,
00,
08,
F9,
00,
FF,
0E,
F3,
FA,
F4,
FE,
F0,
00,
08,
0A,
F5,
03,
0F,
02,
F6,
F6,
08,
13,
F8,
F9,
FE,
FA,
08,
00,
FE,
EF,
F8,
FF,
01,
0D,
FD,
F7,
FC,
0D,
F5,
09,
0B,
F6,
13,
FF,
E8,
FD,
00,
FB,
EC,
F2,
FB,
F9,
E6,
F5,
08,
FB,
FB,
F2,
FE,
04,
F8,
05,
05,
07,
FB,
0B,
F9,
E8,
E1,
FB,
EE,
07,
E5,
EC,
02,
06,
F0,
05,
10,
FA,
05,
0C,
FE,
F0,
FA,
0E,
0E,
F7,
E9,
FA,
0A,
01,
04,
EC,
14,
12,
03,
F4,
0F,
14,
F4,
EF,
08,
F8,
FA,
F7,
0B,
FD,
15,
1F,
FE,
FD,
05,
1E,
00,
03,
0E,
FF,
FA,
04,
17,
0A,
06,
00,
F7,
F3,
E0,
0C,
12,
0B,
DF,
F6,
04,
13,
FF,
F4,
F9,
0A,
E6,
F2,
0F,
FB,
E2,
03,
0B,
F0,
FB,
06,
FD,
08,
E8,
F2,
F7,
F4,
0C,
FC,
02,
FD,
06,
08,
FF,
EF,
FE,
F5,
05,
FF,
01,
FC,
F0,
F2,
05,
00,
FA,
FB,
FC,
05,
FA,
F8,
F8,
ED,
02,
0B,
05,
FB,
F0,
05,
14,
10,
0D,
F6,
10,
1E,
00,
D9,
F5,
01,
F3,
DA,
01,
FB,
01,
EC,
F4,
05,
F4,
F3,
F8,
FF,
F6,
F3,
F2,
14,
0A,
FA,
ED,
F7,
14,
E1,
08,
FA,
06,
F0,
E8,
FD,
F8,
FE,
F6,
01,
12,
F9,
04,
09,
FB,
06,
ED,
F4,
EE,
0E,
F7,
F9,
F8,
00,
F7,
FD,
0A,
FF,
FF,
01,
05,
0C,
08,
F9,
03,
05,
F3,
06,
03,
18,
EB,
F0,
F5,
05,
07,
FE,
FA,
F9,
0D,
03,
18,
16,
02,
06,
02,
08,
FB,
04,
0C,
FB,
FD,
F8,
FD,
12,
F9,
FD,
01,
05,
FD,
FD,
F6,
F1,
F0,
F7,
13,
14,
F5,
FC,
F2,
0E,
18,
08,
03,
02,
F9,
FD,
14,
02,
08,
09,
06,
F5,
13,
0C,
0D,
0B,
0C,
F4,
14,
00,
FA,
02,
EF,
10,
FC,
02,
FC,
06,
F9,
FE,
FF,
DC,
F6,
04,
03,
FF,
00,
FF,
F9,
FC,
FC,
FA,
FE,
F3,
02,
08,
00,
F4,
E6,
10,
0B,
06,
06,
00,
15,
FF,
F9,
F8,
08,
EF,
FE,
01,
FA,
EF,
08,
13,
00,
E7,
13,
07,
12,
F9,
FD,
EA,
FA,
22,
0A,
E3,
EA,
E9,
FF,
FD,
0E,
19,
04,
06,
05,
0E,
01,
E4,
F7,
F2,
12,
F9,
F9,
11,
FD,
EF,
F8,
F2,
F4,
03,
FE,
04,
EF,
09,
04,
FB,
00,
03,
12,
15,
10,
F7,
FC,
FA,
08,
FC,
F5,
F5,
EE,
E9,
F7,
F1,
02,
EB,
09,
F1,
F1,
EB,
F9,
06,
07,
0B,
02,
F7,
FB,
00,
17,
FC,
01,
E9,
F3,
FA,
F6,
FC,
0E,
FC,
FB,
E6,
04,
FF,
04,
05,
02,
FC,
FA,
08,
0F,
F7,
04,
F8,
FA,
F3,
FE,
08,
FE,
EE,
0A,
0A,
0F,
08,
1C,
0B,
09,
08,
FB,
00,
F4,
02,
F1,
FA,
ED,
F3,
FE,
F2,
F3,
EA,
F5,
E3,
01,
E9,
01,
EF,
EB,
FC,
04,
EF,
FA,
F6,
02,
05,
F0,
18,
FF,
FF,
F1,
FB,
09,
05,
16,
06,
0C,
09,
05,
07,
04,
FC,
E5,
0C,
01,
FC,
F5,
07,
07,
04,
0F,
EE,
F6,
00,
F6,
01,
FA,
0C,
01,
FC,
FD,
FD,
FE,
F4,
0A,
11,
11,
07,
13,
00,
0E,
12,
FC,
EA,
0D,
1E,
F6,
EC,
EC,
04,
0A,
03,
F9,
03,
E4,
F7,
09,
11,
01,
09,
F8,
FA,
ED,
07,
04,
0E,
0C,
01,
08,
F4,
09,
0C,
F8,
F6,
EB,
01,
02,
ED,
0B,
FD,
F7,
F2,
F0,
FE,
03,
FF,
F0,
01,
02,
03,
F5,
F1,
EF,
F0,
FF,
F5,
F0,
0E,
06,
07,
0D,
2A,
F9,
F4,
E9,
F6,
FC,
01,
FE,
F8,
04,
F8,
0E,
12,
FC,
18,
F9,
04,
F3,
03,
FE,
EF,
E4,
FF,
01,
FF,
EA,
FE,
F4,
FF,
03,
F4,
15,
FF,
FC,
02,
12,
FF,
EF,
F3,
DE,
02,
05,
F8,
00,
F0,
0A,
FE,
F5,
F8,
F2,
F7,
03,
ED,
F6,
F3,
02,
17,
06,
01,
ED,
F6,
06,
03,
02,
15,
FB,
12,
FC,
FE,
FF,
FB,
03,
F6,
EA,
01,
F3,
FE,
F8,
E7,
FD,
E7,
00,
08,
F9,
EA,
FD,
E2,
F7,
FF,
EF,
06,
00,
ED,
FB,
FC,
F4,
12,
10,
E2,
F7,
0A,
0B,
F3,
03,
FC,
FB,
03,
F8,
FB,
09,
10,
06,
EB,
FE,
FF,
F5,
F4,
1B,
0E,
F3,
FE,
FC,
0C,
F1,
06,
03,
00,
06,
01,
0C,
07,
F5,
16,
01,
FA,
EB,
08,
15,
0C,
F3,
F4,
04,
18,
05,
0B,
16,
0B,
11,
0A,
11,
01,
05,
ED,
0A,
FC,
F9,
02,
01,
09,
00,
F3,
0A,
0C,
0E,
0D,
F0,
F8,
FA,
05,
0B,
04,
02,
09,
00,
03,
00,
EC,
0E,
01,
FA,
04,
10,
0A,
02,
0D,
01,
00,
00,
06,
00,
12,
07,
FB,
12,
FE,
07,
10,
1E,
00,
00,
00,
03,
02,
05,
F8,
08,
05,
F9,
F5,
FA,
FE,
FB,
E5,
05,
FB,
F1,
F0,
0A,
F8,
EA,
F6,
ED,
EF,
F7,
F8,
D4,
EE,
F2,
00,
F1,
E5,
F8,
FD,
F0,
F8,
0B,
F8,
02,
ED,
FD,
F9,
F3,
E7,
F5,
F7,
FA,
ED,
FF,
FA,
F4,
05,
08,
EF,
FF,
05,
03,
06,
09,
09,
04,
00,
0A,
06,
02,
FF,
FB,
05,
01,
FF,
00,
FC,
F6,
FE,
F1,
F2,
F1,
F4,
F3,
E6,
F5,
F7,
FA,
FD,
02,
03,
0B,
F9,
09,
EF,
F3,
F2,
00,
FB,
FB,
F3,
F8,
F9,
00,
02,
05,
FF,
F0,
05,
1A,
04,
FC,
05,
06,
05,
05,
0B,
06,
08,
0B,
10,
0E,
02,
F9,
FE,
06,
F1,
04,
03,
06,
F4,
FF,
FD,
02,
01,
FE,
F5,
EA,
F7,
F8,
F8,
00,
FE,
01,
11,
08,
F4,
12,
05,
11,
FB,
07,
0A,
F7,
01,
03,
0B,
00,
0E,
FA,
05,
0A,
0A,
06,
0D,
0E,
FA,
FB,
07,
05,
0E,
E8,
F0,
02,
04,
F4,
EA,
F9,
01,
EF,
FD,
04,
02,
FD,
0A,
11,
0C,
06,
0E,
17,
FC,
11,
02,
13,
FC,
FF,
FC,
08,
07,
0E,
0D,
00,
F6,
E9,
DE,
F1,
F9,
E6,
ED,
F4,
02,
DE,
EE,
F8,
FE,
F3,
F9,
FA,
F3,
F2,
03,
02,
FC,
F9,
02,
10,
F5,
08,
0E,
0E,
07,
03,
09,
FF,
04,
EA,
FA,
F4,
0B,
E0,
E5,
F4,
FE,
F9,
EF,
EB,
EE,
FE,
01,
F4,
00,
11,
F4,
F6,
FF,
FF,
FA,
F9,
FC,
00,
00,
03,
F7,
F9,
02,
FB,
FC,
F5,
F5,
F9,
0B,
00,
06,
03,
10,
FF,
08,
0C,
13,
0A,
06,
10,
0C,
0B,
15,
0F,
FB,
11,
0B,
0C,
07,
0C,
08,
0A,
FB,
0F,
09,
0E,
FD,
FE,
F5,
07,
02,
06,
FC,
08,
09,
00,
FC,
0C,
06,
08,
05,
FF,
08,
01,
FC,
04,
0C,
F5,
F5,
F4,
01,
F1,
FA,
F6,
02,
FB,
03,
05,
00,
F3,
F4,
03,
02,
E3,
EB,
FA,
04,
F8,
FD,
FF,
07,
00,
04,
02,
F8,
F8,
FE,
FB,
F8,
F4,
FC,
F1,
FF,
01,
F5,
00,
F0,
0E,
11,
FF,
FB,
FE,
F8,
FE,
FF,
FB,
F8,
0F,
FE,
11,
04,
07,
09,
08,
F9,
07,
06,
09,
06,
0E,
0B,
0F,
15,
0C,
1B,
00,
09,
15,
15,
09,
1B,
0D,
04,
FB,
07,
04,
FD,
01,
FA,
09,
03,
03,
03,
F5,
FE,
04,
06,
07,
FF,
05,
FA,
F2,
EE,
0A,
04,
F8,
F3,
F7,
FC,
F5,
04,
FD,
01,
F8,
FD,
F7,
FB,
04,
F8,
F6,
F7,
07,
13,
F2,
02,
07,
05,
FC,
01,
07,
0B,
03,
04,
09,
06,
F7,
08,
0B,
FC,
08,
FC,
F3,
F8,
00,
F9,
00,
08,
FF,
03,
06,
06,
12,
0F,
FE,
08,
FC,
0D,
F9,
02,
12,
03,
04,
F2,
F3,
F1,
FB,
00,
EB,
EE,
01,
F6,
F2,
05,
05,
0A,
FC,
1E,
F1,
F6,
F6,
EF,
EE,
04,
F4,
FB,
F5,
FE,
E2,
F7,
E7,
F0,
ED,
F2,
F7,
00,
10,
FB,
0D,
FD,
03,
05,
06,
0C,
08,
09,
13,
14,
09,
15,
FD,
0A,
01,
06,
FC,
00,
F3,
EF,
EE,
05,
F9,
FA,
E7,
F1,
F1,
FA,
EB,
02,
FB,
10,
01,
04,
09,
FE,
FF,
FA,
07,
FF,
F8,
0E,
0E,
FE,
04,
0E,
01,
06,
05,
13,
FE,
FE,
02,
F6,
FE,
06,
03,
09,
FC,
0E,
03,
07,
F2,
FD,
00,
0A,
FB,
F6,
FA,
FD,
FD,
00,
FC,
11,
0A,
EE,
FD,
08,
06,
02,
E9,
00,
FC,
F5,
F3,
F2,
08,
E8,
03,
F8,
12,
06,
EF,
F0,
EF,
F4,
13,
03,
EF,
F9,
02,
02,
FA,
FE,
08,
00,
F9,
06,
08,
10,
04,
03,
05,
FC,
15,
FC,
FE,
0A,
01,
05,
11,
03,
F9,
04,
13,
07,
FD,
F5,
02,
06,
04,
02,
11,
08,
F9,
FE,
0D,
05,
13,
06,
08,
05,
FD,
FD,
00,
03,
01,
01,
0C,
0C,
04,
10,
09,
FC,
13,
0A,
FE,
FC,
FD,
18,
11,
FF,
0D,
0A,
06,
0A,
13,
06,
EF,
03,
03,
F3,
09,
01,
12,
FF,
0C,
07,
0E,
04,
04,
02,
0B,
02,
F7,
EF,
FC,
04,
F5,
EB,
F8,
01,
F8,
F7,
FE,
0A,
04,
05,
FD,
FA,
00,
03,
02,
F3,
00,
FF,
00,
FC,
12,
01,
FF,
01,
15,
0A,
F5,
07,
15,
0B,
FC,
04,
23,
07,
05,
F4,
00,
00,
03,
EE,
FE,
FE,
F2,
EF,
FA,
FF,
06,
FD,
F4,
00,
F2,
00,
ED,
02,
F0,
FD,
F5,
EE,
FB,
FC,
F7,
F8,
FA,
FC,
FC,
04,
01,
FD,
00,
E9,
FF,
10,
F2,
F3,
0D,
FD,
E4,
EE,
06,
F9,
ED,
02,
F9,
02,
FE,
F9,
0A,
00,
03,
05,
03,
13,
00,
FD,
FD,
06,
FD,
05,
05,
FB,
FF,
0B,
09,
02,
01,
17,
0E,
FC,
02,
09,
08,
07,
FC,
FE,
FC,
FA,
08,
F4,
05,
02,
0A,
FC,
FE,
03,
09,
FC,
FC,
F4,
00,
FF,
F6,
ED,
14,
0F,
EF,
E5,
0C,
0A,
F3,
F5,
0C,
FC,
FE,
00,
10,
06,
F1,
FD,
F7,
00,
09,
0B,
FC,
FD,
09,
08,
FA,
EE,
03,
00,
F6,
01,
02,
09,
02,
03,
FE,
EF,
F8,
06,
04,
FA,
F2,
09,
FA,
0C,
0A,
F8,
01,
07,
07,
F9,
00,
FE,
0A,
FC,
FE,
FD,
F6,
FC,
08,
00,
00,
F5,
EF,
FE,
F9,
06,
00,
F9,
FB,
02,
F6,
06,
FB,
F5,
06,
F8,
0F,
06,
F5,
04,
02,
F8,
FE,
F8,
FE,
05,
EF,
FB,
05,
FB,
06,
00,
FF,
F7,
00,
02,
F4,
04,
08,
F6,
08,
03,
07,
00,
09,
00,
09,
0A,
FD,
11,
09,
0E,
02,
09,
04,
03,
0C,
F6,
0B,
10,
FF,
01,
FD,
FA,
F3,
F1,
09,
02,
0A,
FA,
F5,
E9,
F0,
F6,
09,
FB,
05,
0C,
F1,
FA,
01,
FF,
06,
00,
0B,
00,
F5,
0A,
FF,
01,
F2,
EA,
F9,
FC,
F7,
F4,
FC,
FB,
01,
FC,
F8,
02,
F1,
ED,
EF,
FD,
00,
F6,
F1,
F9,
FC,
EC,
EF,
ED,
F8,
06,
F0,
FF,
FE,
F4,
12,
F1,
FC,
00,
F1,
09,
04,
F2,
01,
08,
02,
FF,
0D,
0F,
00,
F0,
FD,
FF,
05,
F2,
F5,
F6,
FA,
F0,
F0,
F0,
F0,
03,
FC,
0D,
FC,
02,
04,
03,
F9,
F1,
00,
F2,
F5,
16,
0B,
04,
1A,
1A,
0B,
FD,
19,
1B,
09,
F9,
20,
13,
F9,
DC,
1B,
F8,
F0,
F3,
FD,
00,
F9,
F8,
23,
0B,
FD,
EE,
0C,
04,
FB,
F9,
0B,
02,
FD,
ED,
FA,
FE,
0D,
08,
EA,
F2,
FC,
FE,
FD,
EA,
FD,
FA,
FE,
F2,
18,
24,
05,
FF,
FC,
F2,
22,
21,
01,
F1,
32,
25,
04,
EC,
27,
1E,
09,
FA,
FC,
FD,
FC,
F5,
F8,
F5,
FF,
08,
F5,
F6,
F2,
F6,
FA,
FA,
F3,
F8,
F7,
02,
24,
F5,
FB,
0B,
1E,
06,
F0,
F3,
09,
FD,
F4,
0F,
F7,
F2,
FE,
FD,
FD,
F7,
00,
FD,
02,
FF,
EF,
13,
FC,
00,
00,
F6,
E6,
09,
F9,
F8,
05,
FB,
ED,
F8,
0B,
FF,
00,
17,
1C,
10,
10,
F4,
EA,
04,
E4,
FC,
FF,
06,
01,
0D,
00,
0E,
F4,
FD,
05,
06,
EF,
FA,
F9,
07,
0F,
EE,
FB,
F2,
0C,
06,
FE,
2E,
FC,
ED,
04,
12,
00,
FE,
FB,
E6,
DE,
E4,
EC,
E9,
F1,
F1,
19,
18,
DF,
0A,
04,
12,
EA,
07,
FD,
04,
0A,
F8,
F6,
0B,
0E,
0E,
10,
16,
EC,
FF,
0E,
EF,
EE,
E8,
FD,
FF,
E1,
FE,
07,
FC,
01,
FD,
09,
F2,
FE,
FF,
09,
01,
F5,
FE,
03,
05,
05,
E7,
F2,
F7,
16,
F4,
FB,
00,
16,
0E,
F6,
04,
F7,
01,
FD,
10,
07,
10,
F8,
04,
F1,
F5,
ED,
0B,
F8,
F1,
0A,
ED,
07,
FF,
01,
0A,
FA,
EC,
0C,
F8,
0D,
F6,
0D,
04,
03,
10,
05,
1A,
FB,
01,
EE,
FD,
ED,
F6,
F7,
01,
E5,
10,
11,
16,
04,
06,
1E,
09,
0C,
F4,
EE,
0A,
F8,
0A,
EA,
FE,
11,
03,
0F,
05,
FB,
12,
05,
F5,
F4,
06,
03,
FC,
10,
00,
FD,
ED,
17,
0A,
0B,
1F,
08,
0C,
05,
01,
FE,
FC,
02,
F7,
07,
0E,
14,
0D,
11,
14,
0E,
0D,
04,
07,
18,
0A,
EC,
08,
06,
F0,
04,
06,
0C,
04,
F5,
0C,
0E,
FC,
EC,
F5,
05,
FB,
FF,
DA,
03,
07,
FB,
F6,
EF,
00,
09,
0B,
EB,
EF,
F4,
F4,
F0,
F6,
FE,
FA,
0E,
EF,
00,
09,
18,
FA,
05,
06,
05,
0F,
E8,
12,
23,
10,
02,
0C,
F9,
F9,
01,
FF,
08,
F4,
FC,
F3,
EC,
F5,
FA,
EA,
F5,
06,
F0,
F1,
04,
F7,
FE,
0A,
F7,
FE,
F6,
F2,
FF,
FA,
FB,
FC,
F5,
FA,
F8,
FD,
F2,
ED,
0D,
F9,
FA,
02,
02,
19,
04,
F3,
FC,
ED,
F4,
E6,
00,
F6,
F9,
01,
05,
FB,
F4,
F5,
0D,
F5,
FD,
FE,
FE,
F4,
ED,
08,
FB,
F1,
FF,
04,
FB,
F1,
06,
0A,
04,
0F,
FF,
FB,
FC,
FB,
F4,
FF,
F9,
08,
FD,
00,
09,
FC,
00,
F8,
F9,
EC,
06,
0B,
F6,
F5,
E4,
FA,
F4,
EA,
0A,
06,
00,
FE,
10,
04,
0B,
09,
0A,
20,
0D,
0B,
0A,
08,
01,
02,
02,
03,
EC,
EF,
07,
FE,
E6,
F5,
01,
E8,
FC,
FB,
F3,
ED,
F2,
E7,
E8,
EF,
04,
15,
F2,
04,
30,
05,
F4,
ED,
17,
0D,
06,
EE,
2A,
07,
FB,
03,
F1,
0D,
02,
10,
FA,
11,
FF,
03,
01,
FA,
03,
01,
03,
04,
00,
FF,
FB,
00,
08,
00,
03,
0F,
03,
06,
FA,
F8,
F4,
01,
FB,
09,
FF,
F8,
F5,
FB,
1A,
03,
17,
0E,
FC,
10,
0C,
05,
03,
08,
00,
F8,
09,
01,
FB,
04,
EA,
01,
FE,
08,
0C,
F2,
ED,
09,
06,
F4,
E0,
EB,
E5,
EC,
FA,
05,
01,
17,
FE,
FE,
15,
15,
00,
00,
19,
FB,
FC,
F8,
01,
FC,
05,
F7,
04,
FC,
02,
FD,
DF,
0F,
00,
FA,
FC,
FE,
09,
FB,
DC,
00,
F7,
06,
F4,
EE,
FB,
11,
06,
01,
EE,
09,
0C,
F8,
0D,
08,
11,
F3,
F7,
E8,
F3,
03,
F0,
F5,
ED,
FE,
02,
FE,
10,
0A,
07,
02,
F1,
F7,
00,
FA,
02,
FB,
07,
F3,
02,
F4,
16,
05,
FE,
04,
F7,
F6,
F5,
04,
EB,
04,
00,
FD,
F4,
05,
0E,
0C,
FF,
0B,
FD,
E9,
00,
F9,
FB,
04,
10,
10,
F8,
FD,
FA,
00,
FE,
FB,
02,
10,
F2,
FF,
04,
F3,
FD,
F1,
F6,
F7,
11,
03,
F6,
FF,
12,
09,
E8,
05,
FC,
F6,
09,
FF,
FE,
F0,
F8,
0A,
0B,
EC,
08,
04,
09,
E3,
E0,
11,
0C,
0F,
F9,
E7,
0B,
05,
18,
FF,
FA,
04,
13,
EC,
E9,
EB,
05,
EB,
EA,
E4,
20,
04,
EC,
0B,
EE,
0B,
13,
03,
E1,
05,
08,
0E,
E7,
FA,
16,
FF,
EC,
01,
1E,
05,
17,
F6,
06,
03,
F4,
05,
FA,
F8,
FB,
04,
EC,
E8,
09,
01,
FB,
00,
FD,
01,
0A,
04,
F0,
17,
01,
01,
F5,
0A,
15,
11,
F7,
EC,
04,
F8,
07,
13,
13,
FC,
02,
25,
16,
04,
F5,
19,
0D,
F5,
0E,
FE,
00,
FF,
F2,
FF,
F8,
09,
FC,
FE,
0A,
FA,
1C,
02,
E0,
05,
F8,
0E,
F4,
FF,
F9,
FF,
F9,
EC,
0D,
FB,
EC,
EB,
0F,
0C,
03,
F1,
0B,
04,
DB,
F7,
02,
17,
F7,
14,
10,
20,
12,
FF,
07,
03,
F0,
01,
14,
08,
01,
00,
E5,
F6,
EF,
FC,
E6,
EA,
EF,
F2,
05,
00,
F4,
FD,
0B,
01,
FA,
08,
ED,
FA,
0B,
06,
05,
15,
02,
0E,
06,
0B,
FE,
0D,
E9,
FD,
07,
08,
0E,
06,
ED,
F9,
F3,
F6,
EC,
F7,
F5,
F8,
E1,
DF,
06,
F4,
FA,
EF,
F9,
00,
1B,
F9,
EE,
06,
13,
08,
F4,
0E,
F8,
02,
FD,
01,
FB,
F6,
F5,
05,
FA,
FB,
EB,
01,
01,
F7,
F8,
08,
0B,
F9,
E4,
01,
0F,
09,
F1,
0E,
F3,
FF,
02,
02,
F3,
FD,
0A,
F3,
0C,
F9,
15,
FD,
06,
DB,
F7,
FA,
11,
0B,
FD,
0B,
FA,
22,
F3,
11,
08,
1F,
D4,
01,
08,
FB,
FE,
FE,
E4,
F2,
25,
15,
FF,
02,
1B,
08,
03,
00,
0C,
FF,
EF,
DF,
08,
08,
09,
06,
1A,
06,
EA,
02,
FB,
F9,
01,
03,
F0,
F9,
F9,
14,
F2,
FD,
E6,
F4,
04,
16,
05,
16,
F1,
14,
10,
02,
E6,
0C,
17,
FC,
03,
03,
09,
05,
EF,
01,
03,
FF,
FD,
FF,
04,
05,
01,
07,
08,
11,
06,
FF,
F7,
08,
F6,
03,
FF,
03,
FB,
FB,
FB,
03,
EF,
FB,
FE,
05,
05,
F2,
F9,
F5,
03,
FC,
EE,
F6,
FE,
01,
F0,
FA,
FC,
06,
EE,
F3,
0A,
F7,
FF,
F4,
FC,
06,
FD,
FE,
F9,
01,
07,
0B,
04,
06,
02,
F6,
0E,
FB,
EE,
FC,
0A,
F9,
EF,
FE,
08,
F7,
F3,
00,
FD,
FA,
F5,
01,
11,
01,
03,
09,
01,
F9,
F3,
F9,
09,
FE,
07,
F8,
FB,
06,
0C,
04,
0A,
07,
F2,
FE,
02,
FD,
0A,
04,
FC,
05,
05,
FF,
0F,
0B,
FF,
0B,
F5,
0A,
F3,
0D,
04,
03,
FF,
FD,
FE,
00,
FE,
FB,
02,
FA,
05,
04,
01,
FA,
F7,
FE,
FF,
F9,
FE,
01,
04,
0A,
FA,
00,
FE,
FC,
02,
FE,
07,
01,
02,
FB,
09,
FB,
FB,
F9,
08,
00,
07,
FB,
FF,
0C,
F5,
03,
0F,
FA,
F1,
F4,
F8,
F9,
ED,
EF,
F9,
E7,
EE,
F5,
07,
EA,
EF,
EE,
03,
EB,
F7,
ED,
FA,
FA,
F3,
FE,
FF,
F6,
FF,
F5,
0C,
FA,
FD,
F5,
1B,
10,
0A,
07,
13,
0D,
FE,
0D,
08,
F7,
FF,
05,
16,
FD,
F3,
EC,
09,
02,
FE,
0A,
03,
13,
04,
0A,
0E,
07,
05,
1A,
05,
13,
06,
FB,
EC,
F6,
F5,
EF,
F7,
FE,
EE,
F4,
0B,
11,
FC,
F5,
11,
13,
FB,
F4,
0E,
F8,
02,
00,
05,
F9,
F4,
03,
FE,
FB,
FC,
FB,
01,
01,
F6,
F5,
03,
F1,
E8,
F0,
04,
EF,
FC,
EE,
FF,
01,
EC,
F4,
0D,
F5,
E4,
05,
0A,
00,
E7,
04,
02,
01,
00,
02,
FF,
0B,
FA,
09,
02,
FA,
01,
08,
01,
F8,
FB,
15,
FF,
FE,
00,
10,
F4,
ED,
04,
09,
03,
F9,
07,
05,
06,
F8,
FB,
FB,
FF,
F1,
F7,
04,
F6,
FB,
01,
FA,
09,
FF,
FA,
05,
03,
04,
0F,
0B,
07,
FF,
F2,
07,
F6,
0B,
04,
05,
F8,
FC,
04,
01,
0D,
FD,
0C,
08,
0C,
FD,
01,
0F,
09,
10,
03,
07,
0F,
0C,
06,
03,
08,
08,
F9,
FF,
0F,
0B,
F8,
04,
0B,
FE,
F2,
F1,
08,
07,
FF,
04,
F5,
F3,
FE,
04,
03,
F7,
FB,
FD,
07,
F6,
FB,
02,
07,
00,
EC,
FF,
05,
02,
06,
03,
01,
05,
00,
FB,
FC,
0C,
02,
FC,
F3,
0A,
06,
05,
09,
08,
FB,
FC,
02,
FD,
F5,
F7,
F6,
00,
02,
FA,
F8,
FE,
00,
01,
0C,
EF,
F6,
02,
FE,
ED,
F7,
FD,
FD,
FF,
00,
F3,
07,
FE,
07,
0B,
00,
FE,
10,
FB,
F7,
02,
F1,
09,
FE,
FC,
FB,
03,
06,
FA,
FF,
FB,
01,
FE,
FF,
0A,
FD,
02,
F8,
0F,
01,
FB,
FA,
FB,
F7,
14,
11,
08,
0D,
F8,
06,
0A,
04,
06,
FA,
04,
01,
08,
08,
F5,
08,
09,
06,
02,
F4,
F9,
0E,
03,
F8,
EE,
EC,
EC,
F1,
FF,
F8,
F3,
F9,
F0,
E9,
F9,
04,
03,
10,
19,
03,
04,
00,
10,
05,
08,
07,
1A,
06,
0B,
08,
04,
F2,
F9,
F3,
F7,
FB,
00,
F9,
09,
03,
04,
F3,
FC,
03,
09,
FD,
F8,
F1,
F2,
00,
04,
F6,
02,
FB,
09,
09,
0F,
FB,
FB,
03,
FE,
07,
01,
FA,
FA,
03,
04,
08,
04,
00,
06,
F4,
0B,
04,
03,
05,
FB,
FA,
13,
FB,
FF,
EC,
EE,
F9,
F8,
F1,
FB,
FE,
03,
F3,
F0,
F9,
FD,
F9,
F8,
09,
04,
17,
1B,
03,
12,
0D,
0F,
0B,
11,
13,
1A,
0E,
0E,
1A,
06,
F1,
F9,
06,
F8,
E6,
F3,
FF,
FE,
F0,
FE,
F6,
EE,
FE,
FA,
F6,
F0,
FE,
05,
05,
FD,
02,
FD,
FD,
03,
F8,
FA,
07,
00,
06,
05,
F5,
00,
00,
F9,
F7,
08,
F6,
09,
F7,
03,
09,
F7,
F5,
FA,
07,
0D,
FB,
EF,
0F,
F4,
F4,
F6,
16,
FB,
F9,
01,
03,
FC,
FB,
04,
10,
FF,
FD,
EE,
00,
FB,
03,
06,
FB,
FD,
FB,
04,
02,
02,
F6,
04,
03,
FC,
01,
02,
F3,
01,
01,
00,
0A,
F5,
FB,
04,
01,
00,
07,
FB,
16,
04,
06,
F6,
0A,
FC,
F5,
08,
04,
F8,
FF,
09,
FD,
09,
FA,
06,
06,
FA,
0B,
00,
07,
07,
F8,
12,
0A,
FA,
FE,
04,
FD,
F5,
FB,
F3,
0C,
01,
FA,
04,
F6,
02,
08,
10,
0A,
FF,
F9,
06,
FD,
15,
06,
04,
0D,
06,
0A,
01,
08,
FF,
F5,
03,
07,
00,
F1,
F8,
00,
FE,
01,
F2,
FF,
FE,
01,
02,
07,
07,
04,
0E,
FA,
00,
05,
F9,
FB,
09,
0A,
07,
FB,
05,
01,
01,
0C,
F4,
06,
0F,
08,
04,
0B,
14,
09,
00,
01,
0E,
FA,
0D,
07,
0C,
FE,
04,
F0,
F5,
FD,
FE,
05,
FE,
FB,
02,
FB,
0B,
0A,
FB,
0D,
F8,
09,
04,
07,
FD,
09,
0E,
09,
08,
0B,
0D,
FD,
01,
08,
F1,
03,
06,
EF,
F4,
F0,
FF,
F2,
FE,
04,
FE,
FE,
03,
00,
ED,
F6,
00,
FA,
FE,
06,
01,
ED,
09,
0A,
FA,
07,
0D,
F3,
02,
02,
14,
F6,
0A,
FE,
0E,
FE,
04,
05,
FB,
F2,
FE,
FE,
FB,
07,
06,
05,
01,
0D,
19,
0B,
11,
07,
FE,
01,
0C,
FE,
F6,
02,
FB,
06,
F6,
FA,
F6,
02,
FE,
0C,
08,
F9,
FC,
FF,
FF,
02,
06,
F2,
FE,
F9,
F6,
F9,
F4,
FE,
01,
FE,
F6,
04,
03,
FD,
00,
02,
08,
FD,
FE,
FE,
F2,
F8,
FC,
FE,
F9,
FA,
F4,
FB,
F4,
FA,
0C,
FB,
FB,
F1,
15,
F3,
04,
0E,
15,
F5,
03,
06,
10,
E9,
01,
0B,
0F,
FD,
FE,
01,
09,
F8,
F5,
0A,
03,
08,
11,
15,
08,
FD,
F4,
FC,
F5,
F6,
E3,
FC,
FE,
F6,
09,
0C,
06,
01,
02,
06,
04,
04,
00,
05,
F9,
F1,
F5,
F7,
F0,
F4,
F7,
F5,
EF,
05,
05,
EB,
FD,
01,
F5,
00,
FC,
F7,
F5,
01,
04,
E7,
E8,
F2,
FB,
FC,
FD,
FF,
01,
FF,
F6,
F6,
00,
09,
03,
FC,
F5,
F8,
F6,
F9,
FA,
FF,
02,
01,
FC,
03,
05,
00,
07,
F8,
FE,
F4,
03,
FF,
02,
E8,
F0,
09,
09,
F8,
F8,
01,
06,
0C,
06,
FE,
FD,
F5,
F5,
08,
06,
FB,
F7,
FC,
04,
FC,
02,
01,
EF,
F5,
FD,
FF,
FB,
FC,
F7,
0B,
08,
08,
09,
0A,
0D,
06,
FB,
01,
03,
FF,
03,
00,
13,
FD,
FD,
FC,
FA,
F4,
00,
0F,
F7,
FE,
EF,
0F,
07,
F1,
ED,
F4,
03,
FC,
F4,
FA,
07,
FF,
FB,
00,
05,
F9,
EF,
09,
0B,
10,
FC,
09,
04,
00,
FB,
FD,
FD,
0E,
0E,
0A,
FD,
00,
0A,
05,
05,
FF,
EF,
FF,
01,
F6,
F8,
04,
0B,
FD,
05,
F8,
09,
01,
03,
11,
09,
03,
11,
00,
09,
05,
08,
0A,
0D,
09,
F9,
0A,
0B,
03,
FB,
13,
0C,
18,
02,
08,
10,
06,
F8,
FF,
03,
FD,
EF,
FF,
01,
F2,
ED,
FA,
FB,
F5,
06,
F4,
FD,
FA,
FB,
06,
07,
0B,
FA,
FE,
F8,
FD,
00,
16,
10,
0B,
03,
10,
0E,
0F,
03,
04,
02,
F8,
FE,
0A,
F4,
F7,
F9,
02,
09,
FE,
F7,
FF,
F9,
01,
03,
FF,
F2,
FB,
FF,
04,
EF,
F1,
F7,
16,
01,
07,
F6,
0E,
06,
07,
0A,
03,
FD,
F9,
FE,
04,
FD,
FD,
00,
0A,
FD,
F9,
FE,
06,
FD,
F5,
FB,
00,
07,
0A,
01,
10,
12,
00,
F1,
09,
05,
07,
07,
11,
07,
01,
EF,
00,
04,
F8,
F5,
0C,
FD,
02,
EF,
0D,
FF,
04,
00,
05,
08,
F5,
FA,
08,
F7,
FC,
05,
FF,
FC,
EC,
F9,
11,
07,
03,
0D,
08,
01,
03,
06,
FF,
06,
F7,
01,
F1,
FB,
05,
0A,
02,
04,
F9,
F7,
F2,
FA,
F3,
FD,
01,
03,
FA,
08,
00,
F7,
03,
06,
13,
13,
08,
0A,
0D,
FD,
F7,
FE,
09,
0A,
FE,
F4,
06,
01,
04,
F6,
EE,
FE,
00,
03,
03,
07,
0C,
05,
FD,
05,
12,
04,
00,
F6,
07,
01,
01,
01,
FD,
F9,
F9,
FE,
FC,
05,
08,
F6,
01,
FE,
FD,
F2,
00,
FD,
03,
04,
F8,
E2,
04,
FD,
F3,
F1,
03,
F7,
F8,
00,
0B,
F5,
03,
FC,
04,
FE,
FF,
F2,
FC,
FE,
FB,
FB,
00,
0D,
01,
FB,
11,
06,
01,
FA,
02,
F7,
00,
08,
F7,
F8,
F9,
F7,
FC,
FD,
EE,
F5,
02,
F3,
FD,
F6,
04,
FB,
13,
03,
0E,
02,
FF,
03,
02,
0B,
F9,
EB,
FD,
FC,
F8,
0A,
08,
04,
0A,
FD,
00,
FB,
FA,
05,
00,
03,
F3,
F2,
F9,
FB,
00,
F3,
F5,
F1,
0A,
01,
EF,
EF,
F6,
FF,
EB,
F1,
EF,
FD,
F3,
FE,
FA,
F2,
01,
FF,
FE,
F9,
0E,
06,
FD,
FF,
0D,
02,
0D,
F6,
14,
0A,
0E,
03,
FA,
04,
09,
03,
01,
07,
FB,
04,
06,
FE,
F1,
FA,
04,
0B,
01,
F5,
04,
04,
12,
10,
04,
05,
12,
04,
12,
0B,
0E,
08,
04,
0C,
0C,
FF,
03,
FC,
F3,
FD,
F2,
FB,
03,
FF,
0B,
09,
05,
FE,
02,
0A,
03,
03,
00,
0B,
00,
F5,
02,
04,
08,
0C,
03,
FD,
EF,
06,
08,
F5,
F2,
F8,
FF,
FC,
06,
FE,
FB,
0E,
0E,
FC,
F8,
0A,
F6,
0F,
FE,
FC,
04,
FA,
FB,
FC,
FD,
FB,
FC,
F9,
FA,
FC,
0B,
FE,
FE,
FB,
00,
05,
04,
06,
0C,
09,
0E,
05,
F5,
02,
FF,
F3,
0F,
05,
ED,
FA,
04,
08,
FF,
F0,
FB,
F7,
04,
01,
04,
03,
03,
FE,
FF,
EC,
0C,
15,
FE,
F7,
05,
0A,
FD,
F6,
06,
00,
06,
02,
FE,
FD,
FC,
FE,
EA,
FA,
03,
F2,
F3,
F5,
F5,
01,
06,
10,
F9,
F9,
FB,
FD,
02,
FB,
0B,
FD,
08,
0D,
08,
02,
00,
FD,
FA,
E9,
F2,
FE,
F3,
FD,
F9,
E1,
F0,
FC,
F7,
F6,
00,
FD,
06,
05,
05,
09,
FA,
04,
FD,
F1,
06,
03,
F8,
F8,
02,
00,
FC,
01,
01,
F6,
04,
FC,
07,
05,
04,
F3,
FE,
FE,
FC,
FB,
04,
03,
FD,
F2,
07,
FE,
01,
06,
FF,
FA,
0D,
F5,
02,
04,
08,
EA,
F6,
01,
FB,
FF,
0B,
FA,
0B,
0D,
F7,
06,
00,
05,
06,
17,
FD,
00,
01,
04,
FD,
EE,
05,
0C,
0A,
0D,
05,
07,
08,
12,
08,
07,
06,
09,
FC,
07,
07,
09,
0A,
03,
09,
F7,
06,
0A,
F3,
FD,
06,
00,
EC,
E1,
FF,
06,
F1,
FC,
FE,
F7,
FC,
0E,
FB,
F3,
05,
00,
00,
F6,
06,
0B,
05,
F8,
FE,
04,
04,
0A,
0A,
02,
06,
09,
07,
0C,
05,
08,
0F,
00,
07,
FF,
02,
03,
03,
0A,
02,
FD,
FF,
FA,
02,
FC,
FD,
F5,
F7,
05,
03,
FF,
06,
FD,
0D,
08,
12,
03,
0C,
0C,
F8,
F8,
F0,
F9,
03,
01,
FA,
FC,
03,
EF,
FC,
00,
F9,
06,
FC,
03,
FF,
FF,
05,
00,
07,
0B,
07,
00,
0F,
18,
0F,
01,
FA,
FC,
F6,
05,
00,
FC,
03,
11,
FE,
F8,
0D,
FB,
FC,
F9,
09,
F9,
FB,
13,
02,
FD,
FE,
01,
02,
0A,
FF,
F2,
FD,
F5,
F7,
F3,
0C,
F8,
F8,
F9,
09,
02,
09,
02,
0E,
F6,
08,
FE,
F9,
0B,
FE,
FA,
05,
02,
08,
03,
FB,
07,
FF,
02,
07,
FD,
FA,
F7,
FC,
05,
F2,
EE,
0D,
05,
01,
02,
F7,
F7,
04,
F1,
0C,
03,
FC,
F6,
07,
0A,
11,
FB,
FF,
06,
0B,
04,
FB,
FD,
F6,
EC,
0C,
FF,
FA,
FC,
02,
07,
0B,
FF,
09,
15,
FE,
F7,
0D,
02,
FD,
03,
02,
00,
FC,
FF,
04,
04,
FE,
F3,
04,
F5,
05,
00,
00,
01,
FD,
08,
0A,
F9,
07,
03,
FF,
FB,
09,
06,
0A,
05,
04,
00,
0E,
F2,
11,
FB,
FB,
08,
FC,
FF,
10,
09,
F7,
FC,
0C,
06,
FE,
FB,
10,
04,
03,
FF,
0F,
0C,
01,
FF,
08,
03,
01,
FB,
09,
F8,
02,
02,
FB,
F7,
00,
FE,
F9,
F5,
FF,
0D,
FD,
0A,
15,
1C,
04,
07,
06,
02,
00,
F7,
FD,
09,
FB,
ED,
EE,
0A,
FF,
F0,
F7,
EB,
FE,
08,
03,
FA,
FD,
F0,
F5,
E7,
FD,
F0,
F1,
EF,
01,
03,
FE,
08,
FD,
0D,
01,
04,
FB,
06,
FD,
F4,
FB,
03,
00,
F8,
F6,
03,
F5,
FD,
05,
05,
02,
0E,
F7,
F8,
02,
17,
02,
03,
F6,
01,
FB,
FE,
FB,
05,
07,
FC,
FC,
00,
1F,
0C,
FB,
FA,
00,
08,
FE,
F3,
EE,
01,
0A,
F1,
0E,
F8,
E8,
F2,
04,
0A,
F0,
FF,
09,
08,
EA,
F4,
11,
01,
F3,
FE,
F0,
04,
ED,
00,
F4,
E9,
F6,
EC,
FA,
F4,
F4,
03,
F5,
0D,
F2,
0A,
0D,
02,
F9,
01,
07,
15,
05,
19,
05,
12,
F8,
08,
08,
0C,
06,
FE,
01,
F4,
F2,
0E,
FD,
E3,
E8,
F4,
02,
F1,
D9,
E9,
FA,
02,
F5,
F5,
04,
13,
FC,
00,
ED,
FE,
F9,
F7,
02,
FF,
03,
03,
EF,
09,
0B,
17,
F9,
0E,
03,
11,
F8,
FD,
F5,
0A,
F1,
0E,
EF,
02,
0F,
10,
01,
FB,
E8,
FB,
09,
FA,
EB,
0C,
06,
01,
E9,
02,
02,
00,
02,
FD,
FC,
F6,
FA,
0D,
0E,
11,
05,
F2,
12,
02,
03,
0A,
0F,
0E,
12,
10,
0E,
10,
EB,
F6,
02,
F7,
FE,
F1,
FE,
FA,
FE,
01,
04,
07,
00,
03,
21,
0F,
EC,
05,
F8,
0F,
09,
ED,
F2,
04,
F4,
EC,
F6,
F9,
05,
F7,
07,
0F,
F4,
09,
00,
11,
06,
04,
1A,
13,
03,
08,
14,
0C,
EE,
FB,
F8,
FC,
0D,
E8,
E7,
F2,
F7,
D4,
D7,
F1,
FA,
F8,
E4,
FE,
0F,
FD,
00,
09,
0D,
0A,
04,
08,
11,
F7,
07,
04,
04,
07,
02,
09,
16,
13,
01,
FB,
00,
03,
ED,
FB,
01,
05,
F2,
FC,
07,
04,
0E,
F9,
0C,
0F,
06,
03,
0C,
0C,
01,
FC,
08,
04,
08,
E7,
F8,
FA,
06,
03,
03,
FA,
08,
F6,
F9,
00,
F3,
02,
07,
F6,
E1,
0B,
0C,
03,
FA,
02,
0E,
11,
F3,
07,
02,
13,
09,
F7,
FD,
13,
09,
18,
03,
1C,
0B,
18,
07,
17,
0B,
01,
02,
00,
EB,
FB,
F8,
04,
FC,
F1,
01,
F1,
EF,
05,
0A,
0B,
0B,
FC,
F0,
FA,
EC,
E6,
E9,
E4,
E4,
F6,
F4,
FB,
F6,
00,
FF,
F6,
FF,
0C,
06,
0A,
13,
1A,
14,
0B,
F8,
02,
08,
09,
FC,
01,
05,
05,
12,
F5,
0E,
FD,
03,
00,
07,
FD,
F9,
F9,
01,
F3,
01,
FC,
0E,
0E,
04,
05,
0C,
F1,
F4,
FC,
FE,
07,
F4,
0D,
0B,
02,
00,
01,
FA,
07,
16,
0B,
FE,
0F,
0A,
12,
0B,
16,
0D,
07,
09,
0E,
11,
02,
01,
FE,
11,
05,
F9,
FE,
FF,
03,
EA,
FF,
06,
01,
02,
0B,
05,
08,
F3,
0C,
FC,
10,
F4,
FF,
FA,
F5,
03,
01,
01,
FB,
F8,
FA,
FB,
EB,
0B,
F6,
00,
00,
EF,
07,
EF,
0C,
FA,
F1,
EC,
02,
06,
FD,
F9,
EA,
01,
F1,
F8,
09,
F0,
EF,
0A,
FB,
F4,
07,
18,
FB,
F3,
FB,
08,
FA,
FA,
F8,
00,
08,
08,
10,
0A,
FC,
03,
06,
00,
F6,
0C,
01,
F3,
01,
F0,
0B,
00,
FD,
F0,
F0,
F0,
FD,
FA,
EE,
EE,
EF,
F6,
F8,
F7,
F3,
FD,
07,
10,
F9,
F6,
01,
F2,
FD,
EE,
DE,
F0,
F9,
F7,
EC,
DF,
FA,
EB,
F8,
04,
FF,
F2,
12,
FB,
EE,
01,
F5,
0E,
FF,
00,
13,
00,
00,
F2,
00,
07,
FD,
FE,
F4,
04,
05,
09,
E6,
06,
F8,
F7,
FC,
F4,
F9,
12,
F5,
F1,
09,
13,
FC,
02,
0E,
F8,
01,
0C,
FA,
01,
05,
09,
F7,
F5,
02,
FE,
11,
02,
00,
03,
FC,
0F,
03,
03,
F7,
08,
0A,
F9,
E4,
F0,
0B,
E7,
FE,
FC,
0D,
FE,
0B,
EE,
FC,
02,
FE,
01,
10,
FB,
08,
09,
10,
01,
12,
0D,
02,
01,
FE,
13,
FB,
E3,
EF,
FD,
00,
EB,
00,
EB,
FA,
F7,
F2,
0D,
0F,
0E,
08,
19,
FB,
08,
07,
FD,
0A,
10,
0E,
02,
0A,
06,
19,
01,
0C,
F6,
05,
0A,
0E,
FC,
01,
1A,
09,
F9,
09,
10,
12,
01,
01,
FE,
F0,
FF,
F5,
11,
0A,
01,
FD,
10,
07,
09,
10,
1C,
FF,
FD,
22,
07,
FB,
0B,
03,
FD,
01,
04,
FF,
FE,
07,
03,
07,
04,
F9,
08,
00,
04,
02,
08,
00,
05,
0D,
1C,
0F,
FA,
04,
0D,
04,
FC,
FC,
00,
F4,
06,
FE,
05,
F3,
F0,
F2,
F6,
F7,
EA,
11,
F9,
FC,
01,
E9,
F1,
EE,
EE,
F8,
ED,
03,
F8,
F9,
F9,
03,
ED,
08,
F3,
03,
06,
03,
04,
00,
06,
01,
F3,
01,
FC,
F0,
F3,
0A,
FC,
03,
FA,
07,
01,
04,
0E,
0F,
E6,
E0,
E9,
00,
F2,
DB,
E4,
F9,
EA,
DC,
DA,
FB,
06,
F3,
06,
F2,
FE,
F2,
FA,
ED,
FF,
08,
04,
FA,
FC,
F2,
03,
EC,
07,
EB,
0B,
F8,
06,
05,
F9,
00,
14,
1B,
01,
FA,
14,
0D,
10,
F0,
0C,
18,
0C,
F5,
0A,
0F,
13,
07,
ED,
04,
F7,
00,
EE,
09,
02,
F6,
0F,
00,
FE,
F4,
0F,
F1,
E7,
F8,
FB,
E6,
FB,
00,
F5,
F2,
E3,
F7,
1A,
03,
F0,
F7,
03,
D8,
FD,
FF,
E7,
E9,
F4,
02,
0D,
F2,
F2,
04,
07,
FD,
F6,
02,
18,
07,
01,
11,
11,
F0,
FE,
16,
14,
FF,
F9,
08,
0D,
F8,
FF,
19,
16,
F8,
F9,
01,
01,
F4,
FA,
FF,
FB,
FB,
FC,
EF,
FE,
FA,
FC,
FB,
15,
14,
07,
07,
0C,
14,
00,
0B,
FD,
0D,
FD,
00,
0E,
0C,
0A,
02,
10,
1B,
0D,
FA,
15,
07,
19,
0B,
03,
11,
12,
0C,
FB,
0B,
09,
07,
18,
03,
09,
08,
0A,
FC,
01,
F8,
07,
FD,
01,
0A,
0D,
18,
16,
1B,
FE,
FD,
F9,
ED,
F2,
EC,
FA,
F5,
F9,
FC,
07,
0D,
02,
FE,
02,
04,
FF,
0F,
02,
16,
0C,
07,
FF,
FF,
FE,
02,
03,
FE,
1F,
0B,
06,
09,
ED,
16,
1A,
FF,
0C,
19,
09,
04,
F0,
FB,
FA,
F9,
D4,
F4,
F8,
FF,
11,
13,
12,
04,
03,
04,
F6,
E6,
FA,
F4,
06,
01,
FA,
02,
FF,
0A,
FE,
17,
FB,
04,
02,
F6,
F4,
F7,
01,
0D,
F7,
02,
07,
05,
FA,
0A,
FF,
F2,
F5,
ED,
06,
03,
F5,
F3,
F4,
F5,
F8,
F3,
F8,
F7,
00,
00,
F6,
05,
FB,
EF,
F5,
F6,
F1,
F6,
FF,
F0,
04,
FE,
F9,
EC,
04,
FC,
09,
EC,
F3,
FF,
18,
FC,
F8,
FB,
F8,
F9,
F1,
FD,
0A,
0E,
FC,
F7,
04,
FA,
15,
FF,
07,
0F,
1B,
15,
FD,
07,
F4,
03,
00,
0B,
FC,
01,
13,
F0,
F7,
F6,
F9,
EF,
FC,
01,
EE,
06,
FB,
FA,
EF,
06,
0F,
04,
0A,
F5,
FA,
0B,
FC,
01,
F7,
EF,
04,
F4,
E4,
F1,
FF,
F2,
07,
FA,
00,
04,
05,
FE,
20,
F4,
03,
01,
0F,
FD,
06,
00,
0C,
13,
0C,
FF,
F4,
F9,
03,
01,
F4,
05,
08,
17,
F1,
FC,
01,
05,
F3,
F2,
F4,
05,
01,
E5,
02,
E3,
02,
F2,
F5,
F8,
FF,
01,
02,
05,
F4,
00,
0F,
01,
14,
16,
0C,
F1,
0D,
01,
07,
FD,
F8,
16,
11,
F3,
03,
16,
0B,
08,
E8,
02,
F8,
F9,
FE,
04,
06,
EE,
FE,
00,
FD,
F5,
11,
00,
07,
05,
09,
19,
10,
18,
F9,
0F,
F8,
FC,
0A,
FE,
06,
FC,
0C,
14,
0C,
01,
F2,
FA,
02,
11,
F8,
F9,
17,
F2,
06,
EC,
13,
F9,
07,
12,
12,
01,
FE,
05,
F8,
E8,
11,
03,
F8,
E8,
09,
16,
05,
FC,
0F,
00,
14,
FB,
05,
01,
FE,
0D,
07,
F9,
F5,
FC,
EF,
14,
0F,
11,
09,
0F,
0E,
08,
02,
E3,
E9,
EF,
ED,
E9,
F1,
FF,
E9,
F4,
00,
F0,
F2,
02,
FB,
02,
FB,
F7,
F5,
FE,
F7,
F3,
E9,
F8,
FB,
FD,
05,
FF,
12,
FF,
FA,
05,
FB,
F4,
03,
10,
00,
E5,
EE,
F4,
0C,
E7,
E9,
EE,
02,
0C,
F3,
F0,
14,
01,
FD,
14,
ED,
FB,
FB,
0F,
0A,
F1,
0A,
08,
EB,
F5,
06,
EF,
0E,
FF,
FD,
F8,
02,
00,
F1,
10,
1D,
01,
F7,
07,
0E,
07,
12,
0E,
04,
10,
08,
FC,
F6,
09,
0C,
FF,
0A,
FC,
10,
04,
15,
04,
10,
FF,
00,
10,
EB,
F7,
04,
07,
07,
FA,
F1,
FF,
06,
F9,
06,
F0,
1B,
0C,
FE,
00,
F2,
EC,
F8,
FF,
0C,
F2,
F7,
FE,
0A,
08,
03,
07,
FE,
F9,
03,
00,
00,
F4,
EF,
00,
F8,
FE,
F7,
FE,
F1,
FF,
F6,
FD,
03,
07,
F0,
E6,
01,
02,
F4,
EE,
F4,
EA,
EB,
EE,
F7,
F7,
F2,
04,
0F,
F9,
01,
02,
FF,
0C,
00,
F6,
08,
02,
FE,
07,
FA,
02,
FF,
06,
0E,
EC,
10,
03,
FB,
11,
FD,
1B,
0C,
FC,
03,
0B,
1D,
03,
FC,
02,
08,
01,
06,
06,
08,
0E,
00,
0D,
F5,
08,
04,
F7,
03,
FD,
EB,
EA,
FA,
FF,
01,
ED,
F7,
E5,
10,
FD,
FC,
FB,
08,
0D,
09,
F6,
07,
F6,
FF,
F8,
F4,
07,
EF,
01,
F7,
00,
FE,
FB,
F8,
FD,
06,
0A,
FD,
02,
FD,
F6,
04,
FA,
0C,
F5,
FC,
10,
F7,
FD,
FC,
09,
03,
E5,
FA,
F8,
EF,
F1,
0C,
03,
16,
07,
14,
05,
11,
07,
F7,
04,
F8,
03,
F1,
00,
FA,
04,
F7,
F6,
F6,
07,
F1,
F8,
FF,
09,
0D,
00,
FA,
E8,
01,
04,
0C,
01,
F6,
F6,
F2,
F1,
02,
F1,
E7,
E9,
F4,
01,
F6,
EA,
0E,
03,
09,
F4,
F1,
FD,
1B,
13,
EF,
01,
0D,
13,
05,
0B,
0E,
14,
03,
F6,
0C,
FC,
F4,
07,
FE,
0E,
FC,
00,
FC,
0C,
07,
F5,
00,
FD,
FA,
06,
0A,
10,
F9,
00,
00,
05,
03,
F1,
F1,
04,
FC,
F8,
FC,
0F,
FE,
FF,
FF,
07,
F0,
FD,
10,
04,
F4,
00,
FD,
FE,
EC,
F5,
0B,
FD,
EF,
ED,
FC,
F9,
01,
04,
F3,
F4,
FD,
F2,
DF,
F5,
06,
FD,
F0,
F3,
F5,
07,
F0,
FE,
FF,
F2,
08,
0C,
F6,
E7,
F4,
0B,
FE,
EF,
0E,
0D,
FC,
F2,
1C,
12,
02,
FD,
ED,
FB,
FD,
E5,
EF,
07,
0D,
FA,
F2,
F9,
07,
FC,
FA,
FB,
09,
06,
13,
03,
12,
0A,
05,
0F,
F6,
F5,
F9,
F9,
F6,
01,
F8,
EC,
F7,
03,
F3,
03,
EF,
0D,
F4,
11,
EE,
08,
00,
FE,
F8,
15,
0E,
FF,
13,
FD,
17,
1D,
F6,
05,
09,
03,
02,
F9,
FD,
F6,
EF,
F7,
F5,
F9,
28,
1A,
04,
0C,
0E,
FE,
0D,
02,
0D,
18,
08,
03,
14,
F2,
FE,
F8,
FA,
02,
0B,
1A,
05,
01,
09,
07,
03,
00,
EA,
FA,
06,
08,
00,
05,
F4,
F1,
F3,
F0,
00,
17,
03,
F8,
EF,
09,
03,
F8,
04,
FB,
FD,
F2,
14,
0D,
0E,
0B,
06,
08,
FB,
FD,
10,
10,
01,
03,
0D,
0C,
07,
0D,
02,
FF,
F3,
0E,
FE,
0F,
11,
05,
FB,
06,
08,
08,
F9,
0D,
0A,
09,
FE,
02,
12,
11,
F3,
F1,
08,
03,
F0,
00,
E2,
F7,
F7,
F3,
E8,
FD,
FB,
FC,
F5,
FE,
F0,
01,
04,
01,
06,
01,
00,
0F,
09,
14,
0C,
01,
01,
FE,
00,
01,
01,
02,
FE,
F3,
FB,
04,
06,
FF,
01,
02,
00,
F6,
EF,
F2,
FC,
EA,
F5,
F6,
01,
FB,
F5,
F9,
16,
00,
F6,
09,
05,
02,
EE,
F1,
F5,
F9,
EA,
FF,
F1,
F9,
03,
0E,
01,
F7,
01,
0E,
05,
01,
0B,
F3,
F0,
0C,
01,
FE,
FF,
FF,
FB,
F5,
FE,
FF,
F7,
F6,
F4,
F5,
F5,
F4,
FF,
F8,
09,
F7,
0B,
0A,
F8,
01,
F4,
EE,
08,
00,
FA,
FE,
F5,
EA,
0A,
0F,
ED,
ED,
01,
04,
F4,
06,
08,
07,
06,
06,
11,
11,
FF,
07,
0C,
17,
F9,
FC,
FF,
15,
EC,
E3,
F8,
F9,
04,
FE,
0C,
F6,
01,
FC,
FE,
FB,
FD,
F4,
EC,
F0,
0D,
FD,
E6,
FA,
FD,
FB,
01,
F2,
0C,
F1,
F6,
F8,
FD,
F4,
FD,
03,
00,
EF,
EE,
E8,
F3,
E9,
00,
F9,
F4,
FC,
F8,
FA,
03,
07,
F6,
FC,
F7,
1A,
00,
F5,
F9,
15,
01,
01,
FE,
09,
0A,
06,
09,
0C,
03,
FE,
FD,
FF,
FF,
06,
FD,
05,
02,
F4,
FD,
F2,
0B,
FF,
F9,
F1,
FE,
03,
F8,
FF,
0B,
11,
08,
FE,
09,
04,
00,
F1,
F3,
FE,
FD,
F2,
00,
FC,
EF,
00,
ED,
E4,
07,
FA,
FE,
E2,
F4,
02,
06,
04,
EB,
F0,
FD,
01,
EC,
EF,
01,
00,
08,
04,
0E,
02,
FD,
09,
12,
10,
EF,
FF,
03,
0A,
F3,
F0,
FD,
09,
F7,
FB,
05,
FC,
FA,
F1,
0C,
08,
F9,
E6,
F3,
00,
F0,
F6,
05,
04,
05,
12,
13,
00,
F6,
05,
03,
09,
01,
06,
0C,
0E,
00,
0A,
03,
08,
02,
FC,
06,
FB,
FD,
03,
FA,
05,
F6,
03,
FD,
FF,
FD,
FC,
05,
F3,
F3,
F8,
F7,
F2,
FE,
F7,
F4,
00,
FB,
05,
00,
00,
03,
04,
FD,
F4,
FD,
F9,
F7,
FE,
F2,
F7,
F5,
F6,
FD,
02,
FF,
F6,
FB,
07,
01,
FC,
FB,
04,
FF,
F8,
05,
01,
02,
00,
0C,
06,
05,
01,
03,
03,
07,
02,
F8,
F9,
FA,
F3,
02,
05,
05,
04,
05,
01,
0C,
09,
00,
04,
05,
07,
08,
05,
0B,
03,
FD,
FD,
FF,
FA,
00,
02,
03,
01,
01,
00,
04,
FF,
FF,
FF,
FC,
FC,
FF,
FE,
FC,
02,
03,
05,
07,
03,
05,
02,
02,
01,
06,
04,
04,
F8,
FE,
FC,
00,
F4,
F8,
F5,
04,
03,
08,
04,
00,
FE,
FA,
FC,
FE,
FC,
03,
01,
03,
FB,
00,
03,
FF,
00,
03,
08,
05,
04,
FE,
09,
06,
06,
F0,
FB,
FB,
F7,
F8,
FB,
06,
F7,
F6,
02,
FA,
F0,
F9,
03,
FE,
F5,
FB,
03,
05,
FB,
01,
03,
02,
F7,
FE,
09,
04,
01,
FD,
04,
FD,
FA,
E9,
FC,
F6,
F0,
F5,
09,
F9,
F7,
F2,
F9,
F8,
F7,
E9,
FC,
F7,
F1,
01,
FE,
02,
FD,
04,
FE,
03,
F8,
07,
FB,
FF,
01,
07,
01,
04,
02,
F9,
00,
07,
FC,
07,
03,
0A,
07,
01,
04,
FB,
F9,
F9,
02,
FE,
00,
FB,
F7,
FB,
F6,
FD,
01,
04,
02,
02,
02,
FB,
FB,
FE,
03,
01,
FC,
FC,
FD,
F5,
FB,
FC,
FE,
FC,
FF,
FB,
06,
FF,
FC,
F6,
00,
F9,
FA,
FE,
FD,
FB,
F5,
FE,
02,
00,
FC,
03,
04,
02,
04,
FC,
FD,
01,
FC,
F9,
F7,
FE,
00,
FF,
FF,
00,
04,
06,
04,
F9,
FC,
F7,
01,
02,
F8,
02,
04,
04,
FA,
FF,
FE,
03,
FD,
F9,
FB,
02,
03,
00,
02,
FF,
FB,
FD,
FD,
FC,
FB,
03,
09,
09,
00,
02,
00,
04,
04,
FC,
07,
00,
F9,
F9,
FA,
03,
07,
FE,
FE,
0A,
04,
02,
01,
02,
FF,
03,
02,
01,
01,
00,
02,
FE,
F5,
04,
FE,
FD,
03,
FD,
F9,
08,
FF,
FC,
01,
00,
FE,
FA,
05,
03,
FB,
FF,
FC,
06,
00,
0A,
00,
00,
FB,
FF,
FA,
FE,
00,
FC,
00,
04,
FB,
01,
FE,
FB,
02,
F9,
02,
00,
FE,
FB,
02,
FE,
FA,
00,
00,
05,
05,
07,
01,
03,
05,
06,
01,
00,
FC,
FB,
FC,
00,
F7,
F8,
FE,
03,
00,
06,
00,
04,
FC,
00,
09,
FF,
02,
01,
FF,
F7,
FC,
FB,
03,
FE,
FA,
0E,
00,
08,
02,
04,
06,
04,
00,
FE,
FF,
00,
FD,
05,
FB,
FD,
02,
FC,
04,
05,
FF,
04,
04,
0A,
07,
FF,
00,
FB,
FA,
FB,
00,
FE,
FA,
FF,
05,
FD,
07,
09,
03,
FE,
00,
00,
FA,
00,
FA,
00,
FE,
F7,
03,
01,
05,
02,
02,
05,
0A,
01,
FE,
01,
05,
04,
03,
FF,
03,
03,
01,
02,
09,
02,
FD,
06,
FF,
FF,
F8,
01,
FB,
03,
F7,
06,
FA,
FE,
00,
02,
07,
03,
08,
00,
02,
FF,
07,
01,
00,
FC,
00,
01,
FF,
00,
00,
07,
06,
09,
03,
08,
05,
06,
02,
FF,
07,
01,
01,
05,
FD,
01,
F9,
FF,
0A,
06,
02,
05,
01,
FE,
02,
FF,
03,
FF,
FA,
01,
FE,
FE,
FE,
02,
FB,
F8,
FE,
02,
FF,
02,
FC,
F8,
FF,
01,
F9,
F8,
08,
01,
FD,
00,
01,
08,
0E,
FA,
FB,
01,
02,
FA,
FD,
FF,
F5,
FC,
02,
FB,
F8,
F4,
FB,
FB,
00,
FE,
01,
03,
FA,
FF,
FE,
FC,
F2,
01,
03,
FA,
FA,
02,
00,
FE,
FD,
FD,
01,
FD,
FE,
FF,
03,
FC,
FF,
FA,
F8,
FD,
F6,
FA,
FD,
FB,
00,
FC,
F9,
F3,
F3,
F1,
F7,
F7,
FF,
FE,
00,
FE,
F5,
00,
01,
00,
06,
03,
F9,
F9,
02,
F9,
00,
FC,
FC,
09,
04,
05,
04,
07,
FE,
01,
03,
01,
04,
06,
01,
FD,
02,
01,
FF,
FA,
FA,
F1,
F2,
03,
00,
08,
07,
02,
04,
FF,
02,
F4,
F9,
FE,
F3,
FB,
FB,
00,
00,
06,
01,
0B,
04,
03,
00,
05,
04,
03,
F8,
FB,
FB,
F6,
00,
FE,
E5,
06,
FC,
02,
F7,
FB,
FA,
FD,
F4,
00,
FA,
01,
FA,
F5,
FB,
01,
F9,
FC,
FB,
07,
03,
FA,
01,
02,
F9,
F3,
F9,
FD,
FC,
FD,
03,
FF,
FC,
06,
05,
00,
FF,
08,
03,
FD,
01,
FF,
FD,
FD,
FF,
FD,
FF,
04,
FD,
FE,
05,
06,
05,
F9,
FD,
01,
02,
04,
07,
04,
03,
FC,
04,
FD,
FC,
FA,
03,
01,
FD,
02,
02,
09,
00,
00,
02,
03,
FA,
FF,
07,
FC,
FE,
FE,
06,
00,
04,
03,
00,
FE,
FE,
F8,
01,
F9,
F5,
FE,
F9,
01,
01,
FF,
FE,
05,
FE,
FB,
02,
FD,
02,
FC,
FD,
01,
FA,
F7,
F7,
FD,
F2,
F5,
FC,
04,
F5,
F6,
01,
F9,
F0,
F7,
F6,
FB,
F4,
FE,
FD,
04,
00,
07,
0A,
FF,
0A,
03,
02,
FF,
FC,
01,
FD,
FD,
FB,
03,
02,
FE,
0A,
F8,
09,
07,
04,
FF,
04,
02,
F6,
FD,
F5,
FB,
F5,
03,
06,
07,
0B,
04,
02,
05,
01,
03,
02,
05,
04,
FA,
02,
FD,
FC,
FE,
FD,
F5,
F2,
FD,
FC,
F9,
FE,
00,
FE,
FA,
01,
FB,
F5,
FF,
FA,
FF,
FE,
04,
F6,
FF,
04,
FE,
FD,
FF,
05,
06,
F6,
F8,
FE,
05,
FF,
F5,
F6,
FB,
F5,
07,
FF,
FA,
01,
05,
03,
02,
00,
FD,
FF,
00,
FB,
03,
01,
01,
03,
03,
06,
FF,
03,
07,
03,
04,
05,
FA,
02,
FD,
FA,
FC,
FC,
03,
FC,
F9,
FF,
02,
FD,
04,
FE,
FF,
04,
FF,
01,
04,
FD,
00,
FC,
F1,
F1,
FD,
00,
FE,
F7,
FC,
04,
02,
03,
00,
F8,
05,
FF,
01,
02,
FE,
FD,
02,
03,
09,
03,
04,
02,
FD,
FC,
F5,
FE,
01,
FB,
05,
FF,
FF,
00,
06,
01,
03,
FC,
02,
06,
FC,
02,
FC,
FF,
F8,
FE,
F7,
F7,
F8,
F7,
FC,
FB,
FE,
00,
FA,
FF,
F9,
F8,
F4,
F8,
03,
F8,
00,
02,
FD,
FA,
0B,
02,
F4,
F5,
00,
F1,
09,
FB,
09,
04,
00,
F6,
EB,
03,
F4,
05,
01,
03,
0A,
F8,
02,
09,
0E,
07,
02,
07,
07,
0E,
01,
FF,
02,
06,
05,
0C,
07,
00,
08,
0F,
11,
0D,
FF,
05,
02,
0C,
E9,
00,
F2,
12,
FE,
FD,
FB,
12,
03,
FC,
FE,
10,
01,
03,
09,
02,
15,
0F,
03,
08,
08,
15,
03,
11,
FC,
FE,
0E,
12,
FF,
06,
15,
14,
FF,
12,
F2,
08,
FF,
0A,
09,
0D,
FF,
16,
FB,
06,
08,
10,
05,
FE,
01,
F8,
0D,
0A,
FE,
0E,
09,
09,
00,
09,
04,
07,
15,
03,
0A,
11,
09,
02,
10,
10,
00,
03,
07,
06,
0A,
0E,
08,
04,
0C,
FE,
FC,
01,
02,
F5,
0D,
F9,
FD,
05,
14,
04,
0A,
0D,
03,
07,
04,
08,
FD,
FC,
F9,
05,
02,
13,
0C,
04,
0E,
0C,
FE,
12,
FD,
02,
F9,
0F,
0B,
F3,
F0,
F9,
FE,
F3,
F2,
0A,
F8,
02,
07,
04,
06,
FE,
FD,
F9,
F5,
08,
EA,
EA,
01,
F5,
FB,
FF,
0E,
FC,
01,
F2,
0B,
00,
07,
01,
02,
02,
EB,
FB,
FF,
0E,
F4,
FD,
FB,
0E,
0F,
06,
07,
03,
FD,
13,
00,
1B,
09,
EC,
06,
01,
02,
F7,
17,
FB,
F9,
06,
0E,
04,
08,
09,
0E,
06,
05,
06,
06,
FC,
F8,
0B,
FB,
FD,
F6,
FF,
08,
F9,
FC,
F8,
05,
0C,
04,
02,
EF,
00,
0F,
F9,
01,
10,
F8,
07,
09,
04,
F7,
F8,
FD,
07,
EC,
F6,
FD,
F8,
F8,
03,
FF,
F8,
00,
11,
11,
0B,
10,
FF,
0F,
0B,
F0,
16,
F9,
0E,
FC,
FD,
F2,
00,
06,
0E,
09,
0E,
0D,
01,
0B,
02,
02,
0E,
FF,
08,
05,
F3,
01,
16,
F5,
F1,
07,
01,
FC,
00,
F1,
07,
05,
0B,
F6,
FE,
F5,
04,
F9,
05,
11,
FC,
0C,
FB,
09,
F9,
03,
FE,
FD,
01,
00,
0E,
F6,
05,
F9,
FD,
06,
04,
02,
01,
F3,
FF,
04,
00,
04,
00,
FB,
07,
F5,
0A,
09,
F6,
06,
0F,
0F,
09,
FD,
02,
FD,
05,
FD,
0A,
16,
13,
EE,
0E,
01,
08,
FE,
09,
11,
12,
F9,
0F,
03,
04,
F4,
0C,
FA,
0F,
FF,
EE,
05,
03,
FB,
FB,
FF,
0B,
F9,
FC,
FD,
F3,
F6,
EF,
00,
E8,
F0,
F2,
F9,
