// Exported from TinyDetector7Layer
// Shape: (128, 64, 4, 4), Bits: 8
@00000000 01
@00000001 0F
@00000002 07
@00000003 02
@00000004 FF
@00000005 FC
@00000006 05
@00000007 FC
@00000008 F7
@00000009 F2
@0000000A FA
@0000000B FF
@0000000C F2
@0000000D FA
@0000000E FD
@0000000F 00
@00000010 00
@00000011 01
@00000012 FB
@00000013 03
@00000014 FE
@00000015 06
@00000016 F9
@00000017 F8
@00000018 03
@00000019 0C
@0000001A F9
@0000001B F3
@0000001C 0F
@0000001D 0E
@0000001E FE
@0000001F F3
@00000020 03
@00000021 06
@00000022 F4
@00000023 F3
@00000024 F7
@00000025 03
@00000026 FD
@00000027 F7
@00000028 F4
@00000029 05
@0000002A F6
@0000002B F7
@0000002C E8
@0000002D ED
@0000002E F7
@0000002F F3
@00000030 F7
@00000031 0B
@00000032 01
@00000033 EF
@00000034 F6
@00000035 08
@00000036 F5
@00000037 E3
@00000038 F9
@00000039 FD
@0000003A FA
@0000003B ED
@0000003C 00
@0000003D 02
@0000003E EA
@0000003F EA
@00000040 03
@00000041 05
@00000042 F7
@00000043 FE
@00000044 05
@00000045 FE
@00000046 FC
@00000047 F9
@00000048 F7
@00000049 01
@0000004A 03
@0000004B 02
@0000004C 01
@0000004D 06
@0000004E F5
@0000004F FD
@00000050 04
@00000051 07
@00000052 FA
@00000053 01
@00000054 07
@00000055 FB
@00000056 F9
@00000057 FD
@00000058 04
@00000059 00
@0000005A 01
@0000005B 0A
@0000005C 0D
@0000005D 0F
@0000005E FD
@0000005F 01
@00000060 07
@00000061 04
@00000062 03
@00000063 03
@00000064 02
@00000065 00
@00000066 FC
@00000067 05
@00000068 FE
@00000069 11
@0000006A 03
@0000006B FF
@0000006C 01
@0000006D 03
@0000006E FB
@0000006F 03
@00000070 0F
@00000071 03
@00000072 0F
@00000073 18
@00000074 06
@00000075 03
@00000076 FE
@00000077 04
@00000078 03
@00000079 07
@0000007A 03
@0000007B FB
@0000007C F7
@0000007D FA
@0000007E 0A
@0000007F 00
@00000080 FA
@00000081 FF
@00000082 0B
@00000083 0F
@00000084 01
@00000085 02
@00000086 09
@00000087 07
@00000088 06
@00000089 05
@0000008A 01
@0000008B 02
@0000008C FE
@0000008D FE
@0000008E F6
@0000008F 00
@00000090 07
@00000091 07
@00000092 06
@00000093 09
@00000094 07
@00000095 03
@00000096 F5
@00000097 FD
@00000098 02
@00000099 06
@0000009A 09
@0000009B 05
@0000009C FE
@0000009D 00
@0000009E FE
@0000009F FC
@000000A0 04
@000000A1 05
@000000A2 F9
@000000A3 F3
@000000A4 01
@000000A5 FE
@000000A6 F6
@000000A7 F2
@000000A8 F8
@000000A9 04
@000000AA F8
@000000AB F3
@000000AC 12
@000000AD 01
@000000AE E6
@000000AF EC
@000000B0 F5
@000000B1 F6
@000000B2 FC
@000000B3 03
@000000B4 F2
@000000B5 03
@000000B6 FF
@000000B7 05
@000000B8 FA
@000000B9 03
@000000BA 04
@000000BB 01
@000000BC FB
@000000BD 00
@000000BE 03
@000000BF FE
@000000C0 F8
@000000C1 F6
@000000C2 EB
@000000C3 F0
@000000C4 EA
@000000C5 F6
@000000C6 E0
@000000C7 FB
@000000C8 FF
@000000C9 EC
@000000CA E2
@000000CB F6
@000000CC 0E
@000000CD F4
@000000CE E8
@000000CF F2
@000000D0 0B
@000000D1 FD
@000000D2 0C
@000000D3 05
@000000D4 08
@000000D5 06
@000000D6 FF
@000000D7 0A
@000000D8 0C
@000000D9 0B
@000000DA F3
@000000DB 01
@000000DC 03
@000000DD 04
@000000DE F7
@000000DF 08
@000000E0 0A
@000000E1 07
@000000E2 0E
@000000E3 06
@000000E4 03
@000000E5 09
@000000E6 09
@000000E7 02
@000000E8 00
@000000E9 FD
@000000EA 03
@000000EB 02
@000000EC 06
@000000ED 15
@000000EE FB
@000000EF 07
@000000F0 FD
@000000F1 F7
@000000F2 F1
@000000F3 F9
@000000F4 FA
@000000F5 FC
@000000F6 0B
@000000F7 04
@000000F8 03
@000000F9 F7
@000000FA F2
@000000FB FA
@000000FC F9
@000000FD 00
@000000FE F9
@000000FF FE
@00000100 09
@00000101 03
@00000102 03
@00000103 F6
@00000104 F3
@00000105 11
@00000106 F0
@00000107 F8
@00000108 0F
@00000109 12
@0000010A FA
@0000010B FF
@0000010C 10
@0000010D 0C
@0000010E F8
@0000010F FD
@00000110 FD
@00000111 05
@00000112 01
@00000113 F8
@00000114 03
@00000115 FB
@00000116 06
@00000117 FA
@00000118 FF
@00000119 02
@0000011A FB
@0000011B 01
@0000011C 03
@0000011D F7
@0000011E FD
@0000011F 03
@00000120 FD
@00000121 F8
@00000122 F1
@00000123 F6
@00000124 F3
@00000125 F4
@00000126 E8
@00000127 EA
@00000128 F9
@00000129 FB
@0000012A EC
@0000012B EA
@0000012C FD
@0000012D F4
@0000012E FC
@0000012F F1
@00000130 FA
@00000131 03
@00000132 12
@00000133 FA
@00000134 F5
@00000135 FC
@00000136 00
@00000137 F3
@00000138 04
@00000139 FF
@0000013A F4
@0000013B F7
@0000013C 00
@0000013D FB
@0000013E FF
@0000013F F5
@00000140 10
@00000141 FB
@00000142 F9
@00000143 F4
@00000144 04
@00000145 00
@00000146 F8
@00000147 F5
@00000148 FB
@00000149 F8
@0000014A FB
@0000014B F1
@0000014C 06
@0000014D F8
@0000014E 0A
@0000014F FA
@00000150 04
@00000151 FA
@00000152 00
@00000153 00
@00000154 01
@00000155 FA
@00000156 EA
@00000157 02
@00000158 FA
@00000159 FF
@0000015A FC
@0000015B 05
@0000015C FF
@0000015D 01
@0000015E FB
@0000015F FB
@00000160 FB
@00000161 FB
@00000162 07
@00000163 00
@00000164 FC
@00000165 08
@00000166 08
@00000167 04
@00000168 03
@00000169 07
@0000016A 02
@0000016B F8
@0000016C 04
@0000016D 00
@0000016E FB
@0000016F F8
@00000170 01
@00000171 F8
@00000172 F9
@00000173 04
@00000174 00
@00000175 0D
@00000176 FE
@00000177 01
@00000178 0B
@00000179 06
@0000017A 01
@0000017B 07
@0000017C FA
@0000017D F5
@0000017E 0B
@0000017F 07
@00000180 F0
@00000181 03
@00000182 04
@00000183 06
@00000184 00
@00000185 FD
@00000186 F8
@00000187 F9
@00000188 F9
@00000189 00
@0000018A 11
@0000018B 03
@0000018C F4
@0000018D 00
@0000018E FD
@0000018F F7
@00000190 FE
@00000191 0B
@00000192 05
@00000193 00
@00000194 01
@00000195 06
@00000196 FE
@00000197 FD
@00000198 06
@00000199 0E
@0000019A FD
@0000019B FE
@0000019C FB
@0000019D FA
@0000019E F6
@0000019F ED
@000001A0 02
@000001A1 FD
@000001A2 04
@000001A3 FF
@000001A4 13
@000001A5 03
@000001A6 0E
@000001A7 01
@000001A8 0C
@000001A9 0C
@000001AA 02
@000001AB F8
@000001AC FC
@000001AD 10
@000001AE 04
@000001AF 0C
@000001B0 F4
@000001B1 03
@000001B2 FF
@000001B3 07
@000001B4 02
@000001B5 07
@000001B6 FB
@000001B7 08
@000001B8 02
@000001B9 FF
@000001BA 03
@000001BB FC
@000001BC FA
@000001BD F3
@000001BE 01
@000001BF F9
@000001C0 06
@000001C1 03
@000001C2 F3
@000001C3 EF
@000001C4 FF
@000001C5 00
@000001C6 F7
@000001C7 FF
@000001C8 06
@000001C9 08
@000001CA 0E
@000001CB 01
@000001CC FD
@000001CD 00
@000001CE FF
@000001CF 03
@000001D0 02
@000001D1 FA
@000001D2 F6
@000001D3 01
@000001D4 04
@000001D5 FE
@000001D6 05
@000001D7 02
@000001D8 06
@000001D9 03
@000001DA F4
@000001DB FA
@000001DC FF
@000001DD 09
@000001DE 03
@000001DF F9
@000001E0 FB
@000001E1 0A
@000001E2 FA
@000001E3 01
@000001E4 03
@000001E5 01
@000001E6 F7
@000001E7 F9
@000001E8 F0
@000001E9 FB
@000001EA F0
@000001EB EA
@000001EC FB
@000001ED F9
@000001EE EE
@000001EF FE
@000001F0 FA
@000001F1 FB
@000001F2 F8
@000001F3 08
@000001F4 00
@000001F5 0E
@000001F6 F8
@000001F7 FB
@000001F8 F0
@000001F9 03
@000001FA FD
@000001FB 03
@000001FC F6
@000001FD FD
@000001FE 01
@000001FF 05
@00000200 FC
@00000201 03
@00000202 08
@00000203 0B
@00000204 04
@00000205 04
@00000206 0C
@00000207 06
@00000208 FE
@00000209 FC
@0000020A 04
@0000020B FC
@0000020C FD
@0000020D 02
@0000020E 01
@0000020F 05
@00000210 08
@00000211 03
@00000212 FE
@00000213 05
@00000214 04
@00000215 15
@00000216 FC
@00000217 FF
@00000218 F8
@00000219 11
@0000021A FE
@0000021B FE
@0000021C F7
@0000021D 08
@0000021E FC
@0000021F 06
@00000220 01
@00000221 FE
@00000222 FF
@00000223 F5
@00000224 04
@00000225 FC
@00000226 0C
@00000227 F6
@00000228 FE
@00000229 FE
@0000022A 03
@0000022B FE
@0000022C 08
@0000022D 07
@0000022E 08
@0000022F FD
@00000230 12
@00000231 10
@00000232 02
@00000233 F7
@00000234 08
@00000235 0B
@00000236 FE
@00000237 F9
@00000238 00
@00000239 05
@0000023A FF
@0000023B FE
@0000023C 05
@0000023D 0C
@0000023E 01
@0000023F EF
@00000240 01
@00000241 FF
@00000242 FC
@00000243 F9
@00000244 F5
@00000245 F4
@00000246 F7
@00000247 FE
@00000248 F0
@00000249 F7
@0000024A FD
@0000024B 04
@0000024C F7
@0000024D F6
@0000024E FB
@0000024F FE
@00000250 0E
@00000251 02
@00000252 F5
@00000253 E5
@00000254 FE
@00000255 FC
@00000256 F6
@00000257 EE
@00000258 FD
@00000259 F8
@0000025A F1
@0000025B F6
@0000025C FF
@0000025D F9
@0000025E F2
@0000025F FB
@00000260 02
@00000261 03
@00000262 EF
@00000263 EB
@00000264 0A
@00000265 05
@00000266 F7
@00000267 ED
@00000268 02
@00000269 FD
@0000026A FD
@0000026B F8
@0000026C 06
@0000026D 09
@0000026E F7
@0000026F 01
@00000270 0B
@00000271 0C
@00000272 F0
@00000273 09
@00000274 FC
@00000275 FC
@00000276 05
@00000277 09
@00000278 0D
@00000279 0A
@0000027A 02
@0000027B 0A
@0000027C 07
@0000027D 02
@0000027E F4
@0000027F FF
@00000280 FA
@00000281 FB
@00000282 F9
@00000283 00
@00000284 F2
@00000285 01
@00000286 F5
@00000287 02
@00000288 06
@00000289 F9
@0000028A 00
@0000028B 0B
@0000028C 0A
@0000028D 0D
@0000028E 03
@0000028F 05
@00000290 0C
@00000291 07
@00000292 13
@00000293 09
@00000294 08
@00000295 FD
@00000296 0F
@00000297 06
@00000298 FD
@00000299 05
@0000029A FB
@0000029B 08
@0000029C 07
@0000029D 0F
@0000029E 00
@0000029F FF
@000002A0 01
@000002A1 FB
@000002A2 FC
@000002A3 03
@000002A4 FB
@000002A5 F9
@000002A6 09
@000002A7 00
@000002A8 09
@000002A9 0A
@000002AA 0B
@000002AB 08
@000002AC 00
@000002AD FC
@000002AE 02
@000002AF 10
@000002B0 02
@000002B1 00
@000002B2 0A
@000002B3 0D
@000002B4 FD
@000002B5 0D
@000002B6 08
@000002B7 02
@000002B8 F4
@000002B9 FE
@000002BA 0F
@000002BB FF
@000002BC FE
@000002BD 02
@000002BE 04
@000002BF F3
@000002C0 FF
@000002C1 FA
@000002C2 03
@000002C3 01
@000002C4 06
@000002C5 FF
@000002C6 FE
@000002C7 FD
@000002C8 07
@000002C9 FC
@000002CA F6
@000002CB 0B
@000002CC 11
@000002CD 08
@000002CE 00
@000002CF 07
@000002D0 03
@000002D1 04
@000002D2 FC
@000002D3 04
@000002D4 FC
@000002D5 08
@000002D6 02
@000002D7 0E
@000002D8 02
@000002D9 F5
@000002DA FE
@000002DB 0C
@000002DC FE
@000002DD FF
@000002DE 00
@000002DF 0C
@000002E0 00
@000002E1 02
@000002E2 02
@000002E3 FB
@000002E4 F5
@000002E5 01
@000002E6 07
@000002E7 FC
@000002E8 FB
@000002E9 FF
@000002EA F8
@000002EB 03
@000002EC 00
@000002ED F9
@000002EE F5
@000002EF FD
@000002F0 03
@000002F1 06
@000002F2 07
@000002F3 08
@000002F4 FE
@000002F5 FC
@000002F6 F2
@000002F7 03
@000002F8 FF
@000002F9 01
@000002FA 05
@000002FB 02
@000002FC 09
@000002FD F4
@000002FE F5
@000002FF 02
@00000300 FB
@00000301 00
@00000302 F7
@00000303 03
@00000304 05
@00000305 FF
@00000306 ED
@00000307 F3
@00000308 F5
@00000309 00
@0000030A F8
@0000030B 09
@0000030C 02
@0000030D 03
@0000030E 02
@0000030F 07
@00000310 08
@00000311 1A
@00000312 0A
@00000313 0D
@00000314 FC
@00000315 0E
@00000316 FA
@00000317 04
@00000318 0B
@00000319 09
@0000031A FC
@0000031B 04
@0000031C 06
@0000031D 0F
@0000031E F6
@0000031F FB
@00000320 FE
@00000321 F2
@00000322 FF
@00000323 08
@00000324 05
@00000325 F5
@00000326 F5
@00000327 05
@00000328 FB
@00000329 EA
@0000032A F3
@0000032B 07
@0000032C FC
@0000032D F2
@0000032E EE
@0000032F 02
@00000330 08
@00000331 09
@00000332 F1
@00000333 F5
@00000334 07
@00000335 FA
@00000336 F1
@00000337 F2
@00000338 05
@00000339 01
@0000033A EC
@0000033B 02
@0000033C 03
@0000033D F7
@0000033E F6
@0000033F 0C
@00000340 FF
@00000341 FC
@00000342 07
@00000343 FC
@00000344 F9
@00000345 07
@00000346 F4
@00000347 F9
@00000348 FD
@00000349 00
@0000034A FD
@0000034B 03
@0000034C EC
@0000034D FA
@0000034E FE
@0000034F F9
@00000350 00
@00000351 FB
@00000352 FC
@00000353 F2
@00000354 F8
@00000355 10
@00000356 08
@00000357 FF
@00000358 00
@00000359 10
@0000035A 0B
@0000035B 04
@0000035C FC
@0000035D 08
@0000035E EE
@0000035F F5
@00000360 04
@00000361 EF
@00000362 FC
@00000363 FE
@00000364 F9
@00000365 FA
@00000366 08
@00000367 10
@00000368 04
@00000369 F0
@0000036A 05
@0000036B 14
@0000036C F3
@0000036D F5
@0000036E 06
@0000036F 0D
@00000370 08
@00000371 0A
@00000372 FD
@00000373 FD
@00000374 03
@00000375 FF
@00000376 FB
@00000377 F0
@00000378 FF
@00000379 07
@0000037A FB
@0000037B F3
@0000037C 09
@0000037D FE
@0000037E F7
@0000037F F7
@00000380 FF
@00000381 03
@00000382 FE
@00000383 F5
@00000384 FA
@00000385 01
@00000386 03
@00000387 FC
@00000388 04
@00000389 00
@0000038A 00
@0000038B F8
@0000038C 0F
@0000038D 02
@0000038E 08
@0000038F 01
@00000390 08
@00000391 FA
@00000392 E8
@00000393 F4
@00000394 03
@00000395 FF
@00000396 EA
@00000397 F4
@00000398 F5
@00000399 07
@0000039A EE
@0000039B F4
@0000039C F7
@0000039D FB
@0000039E FE
@0000039F 01
@000003A0 07
@000003A1 01
@000003A2 0B
@000003A3 0B
@000003A4 FD
@000003A5 FE
@000003A6 0B
@000003A7 0E
@000003A8 F8
@000003A9 01
@000003AA 07
@000003AB 07
@000003AC F7
@000003AD FB
@000003AE 04
@000003AF 05
@000003B0 03
@000003B1 F1
@000003B2 EB
@000003B3 02
@000003B4 06
@000003B5 FA
@000003B6 05
@000003B7 00
@000003B8 FC
@000003B9 FC
@000003BA 03
@000003BB 08
@000003BC F5
@000003BD F8
@000003BE FE
@000003BF 02
@000003C0 08
@000003C1 FF
@000003C2 F3
@000003C3 EE
@000003C4 04
@000003C5 FF
@000003C6 F2
@000003C7 E6
@000003C8 F8
@000003C9 FB
@000003CA EB
@000003CB E9
@000003CC 00
@000003CD 01
@000003CE E8
@000003CF F5
@000003D0 F8
@000003D1 00
@000003D2 02
@000003D3 FC
@000003D4 0A
@000003D5 FA
@000003D6 FE
@000003D7 FD
@000003D8 07
@000003D9 FA
@000003DA FB
@000003DB 08
@000003DC FD
@000003DD F2
@000003DE 04
@000003DF FA
@000003E0 F6
@000003E1 F9
@000003E2 03
@000003E3 F7
@000003E4 F9
@000003E5 F4
@000003E6 04
@000003E7 FE
@000003E8 FF
@000003E9 FD
@000003EA 04
@000003EB FA
@000003EC F9
@000003ED FB
@000003EE FC
@000003EF FF
@000003F0 03
@000003F1 07
@000003F2 05
@000003F3 09
@000003F4 FA
@000003F5 06
@000003F6 FE
@000003F7 04
@000003F8 F7
@000003F9 01
@000003FA FA
@000003FB 07
@000003FC FF
@000003FD 00
@000003FE 01
@000003FF 01
@00000400 06
@00000401 FA
@00000402 F8
@00000403 00
@00000404 02
@00000405 FC
@00000406 FD
@00000407 01
@00000408 FC
@00000409 02
@0000040A F9
@0000040B 01
@0000040C 01
@0000040D F9
@0000040E 00
@0000040F 00
@00000410 FA
@00000411 F9
@00000412 FB
@00000413 F9
@00000414 FA
@00000415 F9
@00000416 FD
@00000417 FB
@00000418 F8
@00000419 01
@0000041A FF
@0000041B FD
@0000041C F6
@0000041D F5
@0000041E FF
@0000041F 06
@00000420 04
@00000421 00
@00000422 FF
@00000423 FE
@00000424 FE
@00000425 01
@00000426 FF
@00000427 04
@00000428 02
@00000429 02
@0000042A 04
@0000042B F9
@0000042C 00
@0000042D 05
@0000042E FE
@0000042F 02
@00000430 FC
@00000431 02
@00000432 01
@00000433 F3
@00000434 F9
@00000435 FB
@00000436 03
@00000437 FA
@00000438 F8
@00000439 FD
@0000043A FC
@0000043B FD
@0000043C FC
@0000043D FD
@0000043E 03
@0000043F FF
@00000440 05
@00000441 FA
@00000442 FA
@00000443 FE
@00000444 00
@00000445 FC
@00000446 03
@00000447 FF
@00000448 02
@00000449 FF
@0000044A 00
@0000044B 06
@0000044C 00
@0000044D FF
@0000044E 02
@0000044F 03
@00000450 03
@00000451 0A
@00000452 01
@00000453 08
@00000454 FF
@00000455 05
@00000456 05
@00000457 02
@00000458 03
@00000459 08
@0000045A 09
@0000045B 07
@0000045C 06
@0000045D 09
@0000045E 08
@0000045F 0A
@00000460 FF
@00000461 01
@00000462 F8
@00000463 00
@00000464 01
@00000465 FC
@00000466 05
@00000467 05
@00000468 02
@00000469 08
@0000046A FF
@0000046B F9
@0000046C 06
@0000046D 02
@0000046E 06
@0000046F F7
@00000470 03
@00000471 FC
@00000472 03
@00000473 04
@00000474 0A
@00000475 01
@00000476 06
@00000477 04
@00000478 03
@00000479 04
@0000047A 05
@0000047B FB
@0000047C 03
@0000047D 06
@0000047E 06
@0000047F 00
@00000480 03
@00000481 02
@00000482 01
@00000483 02
@00000484 01
@00000485 FF
@00000486 F9
@00000487 01
@00000488 04
@00000489 03
@0000048A 01
@0000048B FF
@0000048C 00
@0000048D 02
@0000048E FF
@0000048F FB
@00000490 05
@00000491 FB
@00000492 01
@00000493 FC
@00000494 FD
@00000495 01
@00000496 FF
@00000497 FE
@00000498 FC
@00000499 01
@0000049A 05
@0000049B 01
@0000049C 00
@0000049D FE
@0000049E 07
@0000049F 01
@000004A0 00
@000004A1 FD
@000004A2 FE
@000004A3 F7
@000004A4 FF
@000004A5 FE
@000004A6 FC
@000004A7 FA
@000004A8 FD
@000004A9 01
@000004AA FC
@000004AB F9
@000004AC FD
@000004AD FA
@000004AE 00
@000004AF F5
@000004B0 FA
@000004B1 F7
@000004B2 F9
@000004B3 F9
@000004B4 FA
@000004B5 FF
@000004B6 FD
@000004B7 FB
@000004B8 FE
@000004B9 07
@000004BA 06
@000004BB FC
@000004BC FE
@000004BD FC
@000004BE FE
@000004BF FA
@000004C0 F7
@000004C1 FC
@000004C2 01
@000004C3 F8
@000004C4 FA
@000004C5 04
@000004C6 00
@000004C7 01
@000004C8 F6
@000004C9 02
@000004CA 01
@000004CB F8
@000004CC F9
@000004CD 00
@000004CE 08
@000004CF FA
@000004D0 02
@000004D1 FA
@000004D2 00
@000004D3 FE
@000004D4 04
@000004D5 00
@000004D6 02
@000004D7 FB
@000004D8 03
@000004D9 00
@000004DA 00
@000004DB FB
@000004DC 03
@000004DD 00
@000004DE 03
@000004DF FD
@000004E0 02
@000004E1 FE
@000004E2 03
@000004E3 F9
@000004E4 00
@000004E5 00
@000004E6 08
@000004E7 00
@000004E8 02
@000004E9 FF
@000004EA FB
@000004EB 01
@000004EC FD
@000004ED 04
@000004EE FC
@000004EF FA
@000004F0 FF
@000004F1 03
@000004F2 00
@000004F3 FF
@000004F4 02
@000004F5 03
@000004F6 02
@000004F7 FA
@000004F8 00
@000004F9 05
@000004FA 05
@000004FB 05
@000004FC 01
@000004FD 03
@000004FE 02
@000004FF 00
@00000500 08
@00000501 00
@00000502 01
@00000503 FC
@00000504 02
@00000505 05
@00000506 07
@00000507 01
@00000508 FA
@00000509 08
@0000050A F9
@0000050B FF
@0000050C 07
@0000050D 02
@0000050E FD
@0000050F FE
@00000510 FB
@00000511 FC
@00000512 01
@00000513 F3
@00000514 FD
@00000515 FA
@00000516 02
@00000517 FB
@00000518 01
@00000519 FF
@0000051A 02
@0000051B FC
@0000051C F8
@0000051D F9
@0000051E 00
@0000051F F4
@00000520 05
@00000521 FF
@00000522 F7
@00000523 F8
@00000524 FA
@00000525 FE
@00000526 FF
@00000527 FA
@00000528 F8
@00000529 02
@0000052A FF
@0000052B FA
@0000052C 00
@0000052D F6
@0000052E FF
@0000052F F8
@00000530 04
@00000531 00
@00000532 F5
@00000533 FE
@00000534 FA
@00000535 FB
@00000536 F7
@00000537 FC
@00000538 FC
@00000539 FF
@0000053A FA
@0000053B FA
@0000053C FD
@0000053D FC
@0000053E FC
@0000053F FE
@00000540 00
@00000541 01
@00000542 00
@00000543 FD
@00000544 FD
@00000545 08
@00000546 03
@00000547 FC
@00000548 00
@00000549 01
@0000054A 02
@0000054B FC
@0000054C FD
@0000054D FC
@0000054E 03
@0000054F 02
@00000550 07
@00000551 FE
@00000552 FE
@00000553 04
@00000554 02
@00000555 FE
@00000556 04
@00000557 FD
@00000558 07
@00000559 01
@0000055A 03
@0000055B 02
@0000055C 00
@0000055D 03
@0000055E FF
@0000055F 07
@00000560 02
@00000561 00
@00000562 00
@00000563 FF
@00000564 01
@00000565 FE
@00000566 FE
@00000567 02
@00000568 FB
@00000569 02
@0000056A 06
@0000056B FE
@0000056C 04
@0000056D 05
@0000056E 01
@0000056F 06
@00000570 FD
@00000571 02
@00000572 02
@00000573 FF
@00000574 FF
@00000575 FE
@00000576 FE
@00000577 F7
@00000578 FA
@00000579 00
@0000057A 04
@0000057B 00
@0000057C F8
@0000057D FA
@0000057E 08
@0000057F FB
@00000580 FF
@00000581 FF
@00000582 03
@00000583 FD
@00000584 FA
@00000585 03
@00000586 00
@00000587 FF
@00000588 00
@00000589 FE
@0000058A 03
@0000058B 02
@0000058C 07
@0000058D FE
@0000058E 05
@0000058F 03
@00000590 FC
@00000591 00
@00000592 02
@00000593 FD
@00000594 01
@00000595 FE
@00000596 F8
@00000597 FE
@00000598 FD
@00000599 00
@0000059A FA
@0000059B 06
@0000059C FF
@0000059D FD
@0000059E FB
@0000059F FF
@000005A0 F8
@000005A1 FC
@000005A2 02
@000005A3 FF
@000005A4 FB
@000005A5 FF
@000005A6 05
@000005A7 02
@000005A8 FE
@000005A9 06
@000005AA 05
@000005AB FD
@000005AC FD
@000005AD F8
@000005AE FD
@000005AF FD
@000005B0 03
@000005B1 01
@000005B2 02
@000005B3 03
@000005B4 FE
@000005B5 03
@000005B6 06
@000005B7 03
@000005B8 07
@000005B9 07
@000005BA 02
@000005BB 04
@000005BC 00
@000005BD 04
@000005BE 03
@000005BF 0A
@000005C0 F9
@000005C1 F9
@000005C2 FA
@000005C3 FC
@000005C4 FD
@000005C5 FE
@000005C6 02
@000005C7 FE
@000005C8 FD
@000005C9 F9
@000005CA 01
@000005CB FE
@000005CC 00
@000005CD FE
@000005CE 04
@000005CF FC
@000005D0 FC
@000005D1 07
@000005D2 02
@000005D3 01
@000005D4 FF
@000005D5 07
@000005D6 09
@000005D7 FF
@000005D8 FC
@000005D9 05
@000005DA FF
@000005DB 00
@000005DC 03
@000005DD 08
@000005DE 05
@000005DF FD
@000005E0 02
@000005E1 FE
@000005E2 07
@000005E3 FF
@000005E4 00
@000005E5 01
@000005E6 05
@000005E7 00
@000005E8 01
@000005E9 FF
@000005EA 00
@000005EB 06
@000005EC 01
@000005ED 05
@000005EE 01
@000005EF FD
@000005F0 FF
@000005F1 05
@000005F2 FF
@000005F3 02
@000005F4 FC
@000005F5 03
@000005F6 F9
@000005F7 F8
@000005F8 04
@000005F9 FF
@000005FA 01
@000005FB FA
@000005FC FF
@000005FD F9
@000005FE FD
@000005FF FC
@00000600 FE
@00000601 00
@00000602 01
@00000603 FD
@00000604 04
@00000605 FD
@00000606 00
@00000607 01
@00000608 FD
@00000609 FF
@0000060A 03
@0000060B 05
@0000060C 04
@0000060D FD
@0000060E 00
@0000060F 00
@00000610 FD
@00000611 F8
@00000612 00
@00000613 F9
@00000614 01
@00000615 0E
@00000616 02
@00000617 00
@00000618 05
@00000619 FC
@0000061A FE
@0000061B 05
@0000061C FD
@0000061D FD
@0000061E 00
@0000061F 06
@00000620 FD
@00000621 FF
@00000622 00
@00000623 00
@00000624 FF
@00000625 FB
@00000626 FF
@00000627 FC
@00000628 01
@00000629 FB
@0000062A F9
@0000062B 01
@0000062C 04
@0000062D 00
@0000062E FE
@0000062F 04
@00000630 FE
@00000631 00
@00000632 FD
@00000633 FC
@00000634 FE
@00000635 04
@00000636 02
@00000637 FC
@00000638 06
@00000639 FF
@0000063A 03
@0000063B 02
@0000063C 00
@0000063D 02
@0000063E FE
@0000063F FE
@00000640 F8
@00000641 FD
@00000642 F8
@00000643 FB
@00000644 FC
@00000645 F9
@00000646 FF
@00000647 F5
@00000648 FD
@00000649 F8
@0000064A F3
@0000064B 01
@0000064C 03
@0000064D FB
@0000064E FF
@0000064F FF
@00000650 FD
@00000651 05
@00000652 FA
@00000653 F6
@00000654 F5
@00000655 FC
@00000656 F6
@00000657 F7
@00000658 F8
@00000659 F4
@0000065A FF
@0000065B F6
@0000065C FE
@0000065D F3
@0000065E FB
@0000065F F4
@00000660 01
@00000661 05
@00000662 07
@00000663 06
@00000664 06
@00000665 01
@00000666 05
@00000667 09
@00000668 02
@00000669 06
@0000066A FF
@0000066B 03
@0000066C 03
@0000066D 01
@0000066E 06
@0000066F 01
@00000670 00
@00000671 FA
@00000672 FA
@00000673 FC
@00000674 01
@00000675 00
@00000676 FA
@00000677 F9
@00000678 FE
@00000679 FC
@0000067A FB
@0000067B F7
@0000067C F5
@0000067D FB
@0000067E FA
@0000067F FB
@00000680 00
@00000681 FF
@00000682 06
@00000683 02
@00000684 05
@00000685 00
@00000686 FE
@00000687 01
@00000688 04
@00000689 01
@0000068A 05
@0000068B 00
@0000068C 01
@0000068D 02
@0000068E FE
@0000068F 01
@00000690 FE
@00000691 FB
@00000692 FE
@00000693 FD
@00000694 FF
@00000695 02
@00000696 FE
@00000697 00
@00000698 FE
@00000699 FE
@0000069A F8
@0000069B FB
@0000069C FC
@0000069D 01
@0000069E FC
@0000069F F9
@000006A0 F5
@000006A1 FA
@000006A2 F5
@000006A3 F7
@000006A4 F6
@000006A5 F3
@000006A6 FA
@000006A7 F4
@000006A8 00
@000006A9 FF
@000006AA 00
@000006AB 01
@000006AC 04
@000006AD 07
@000006AE FB
@000006AF 02
@000006B0 FF
@000006B1 FD
@000006B2 04
@000006B3 01
@000006B4 05
@000006B5 FD
@000006B6 07
@000006B7 03
@000006B8 06
@000006B9 FE
@000006BA FD
@000006BB 05
@000006BC 05
@000006BD F9
@000006BE 00
@000006BF 03
@000006C0 05
@000006C1 FD
@000006C2 FC
@000006C3 FB
@000006C4 04
@000006C5 02
@000006C6 01
@000006C7 FB
@000006C8 00
@000006C9 06
@000006CA 00
@000006CB FC
@000006CC 00
@000006CD 01
@000006CE FE
@000006CF F9
@000006D0 F8
@000006D1 F6
@000006D2 FF
@000006D3 F8
@000006D4 F6
@000006D5 F8
@000006D6 FE
@000006D7 F9
@000006D8 01
@000006D9 F9
@000006DA FC
@000006DB F8
@000006DC F9
@000006DD FB
@000006DE FC
@000006DF FA
@000006E0 03
@000006E1 00
@000006E2 02
@000006E3 00
@000006E4 00
@000006E5 03
@000006E6 0A
@000006E7 04
@000006E8 00
@000006E9 04
@000006EA FC
@000006EB 00
@000006EC 03
@000006ED 05
@000006EE FF
@000006EF 02
@000006F0 F6
@000006F1 02
@000006F2 FC
@000006F3 FF
@000006F4 F7
@000006F5 FB
@000006F6 FA
@000006F7 FD
@000006F8 01
@000006F9 01
@000006FA FD
@000006FB 03
@000006FC 00
@000006FD 04
@000006FE 02
@000006FF 09
@00000700 FE
@00000701 02
@00000702 FD
@00000703 FF
@00000704 02
@00000705 07
@00000706 02
@00000707 FC
@00000708 04
@00000709 FD
@0000070A FF
@0000070B FA
@0000070C FF
@0000070D FB
@0000070E FB
@0000070F 02
@00000710 FF
@00000711 01
@00000712 06
@00000713 F9
@00000714 01
@00000715 F7
@00000716 F7
@00000717 01
@00000718 03
@00000719 FD
@0000071A FF
@0000071B FC
@0000071C FF
@0000071D F9
@0000071E FB
@0000071F F6
@00000720 02
@00000721 F8
@00000722 FC
@00000723 02
@00000724 01
@00000725 00
@00000726 FC
@00000727 FB
@00000728 FA
@00000729 09
@0000072A 02
@0000072B FD
@0000072C FF
@0000072D 00
@0000072E 00
@0000072F 00
@00000730 FA
@00000731 FE
@00000732 F7
@00000733 FC
@00000734 FC
@00000735 FD
@00000736 F8
@00000737 F6
@00000738 F4
@00000739 F9
@0000073A FE
@0000073B F6
@0000073C FA
@0000073D F8
@0000073E FD
@0000073F F4
@00000740 FF
@00000741 04
@00000742 00
@00000743 FF
@00000744 08
@00000745 04
@00000746 02
@00000747 FF
@00000748 08
@00000749 08
@0000074A FD
@0000074B 07
@0000074C FA
@0000074D 02
@0000074E 02
@0000074F F9
@00000750 FF
@00000751 F8
@00000752 F9
@00000753 F9
@00000754 F7
@00000755 00
@00000756 FC
@00000757 FC
@00000758 FC
@00000759 F9
@0000075A 01
@0000075B FA
@0000075C FA
@0000075D FC
@0000075E 00
@0000075F FD
@00000760 08
@00000761 04
@00000762 02
@00000763 FF
@00000764 00
@00000765 FE
@00000766 01
@00000767 FE
@00000768 09
@00000769 05
@0000076A 08
@0000076B 05
@0000076C 02
@0000076D 06
@0000076E 05
@0000076F 08
@00000770 02
@00000771 01
@00000772 00
@00000773 FA
@00000774 04
@00000775 00
@00000776 01
@00000777 04
@00000778 04
@00000779 00
@0000077A FC
@0000077B F7
@0000077C 01
@0000077D FF
@0000077E 00
@0000077F F8
@00000780 04
@00000781 02
@00000782 FE
@00000783 05
@00000784 02
@00000785 02
@00000786 05
@00000787 FE
@00000788 01
@00000789 02
@0000078A 06
@0000078B 00
@0000078C 03
@0000078D 02
@0000078E 00
@0000078F 02
@00000790 FF
@00000791 FD
@00000792 FC
@00000793 FF
@00000794 06
@00000795 00
@00000796 03
@00000797 F8
@00000798 01
@00000799 FC
@0000079A FC
@0000079B 00
@0000079C 02
@0000079D FF
@0000079E FF
@0000079F FB
@000007A0 F9
@000007A1 00
@000007A2 00
@000007A3 00
@000007A4 05
@000007A5 00
@000007A6 FC
@000007A7 FF
@000007A8 02
@000007A9 02
@000007AA 03
@000007AB 0A
@000007AC FC
@000007AD FA
@000007AE FC
@000007AF 02
@000007B0 FE
@000007B1 FF
@000007B2 F7
@000007B3 FD
@000007B4 FA
@000007B5 F5
@000007B6 01
@000007B7 02
@000007B8 02
@000007B9 01
@000007BA 00
@000007BB 03
@000007BC 05
@000007BD 02
@000007BE 06
@000007BF 08
@000007C0 FE
@000007C1 FA
@000007C2 01
@000007C3 F8
@000007C4 FC
@000007C5 02
@000007C6 FA
@000007C7 FD
@000007C8 00
@000007C9 02
@000007CA FB
@000007CB F8
@000007CC 02
@000007CD 03
@000007CE FB
@000007CF F8
@000007D0 02
@000007D1 03
@000007D2 FF
@000007D3 FB
@000007D4 02
@000007D5 FF
@000007D6 02
@000007D7 FA
@000007D8 FC
@000007D9 01
@000007DA 02
@000007DB 01
@000007DC 00
@000007DD 02
@000007DE 06
@000007DF 07
@000007E0 FD
@000007E1 F6
@000007E2 01
@000007E3 04
@000007E4 06
@000007E5 06
@000007E6 09
@000007E7 02
@000007E8 06
@000007E9 06
@000007EA 0A
@000007EB 06
@000007EC 04
@000007ED 04
@000007EE 04
@000007EF FF
@000007F0 FB
@000007F1 F6
@000007F2 FD
@000007F3 FF
@000007F4 F8
@000007F5 F9
@000007F6 FE
@000007F7 FA
@000007F8 FB
@000007F9 02
@000007FA F9
@000007FB F7
@000007FC F9
@000007FD FF
@000007FE FB
@000007FF F9
@00000800 F5
@00000801 13
@00000802 13
@00000803 13
@00000804 F6
@00000805 FA
@00000806 00
@00000807 0B
@00000808 E7
@00000809 E5
@0000080A F2
@0000080B FE
@0000080C 01
@0000080D E3
@0000080E FA
@0000080F F7
@00000810 0B
@00000811 0A
@00000812 07
@00000813 FD
@00000814 01
@00000815 FF
@00000816 FB
@00000817 06
@00000818 06
@00000819 05
@0000081A 00
@0000081B 1D
@0000081C FF
@0000081D 07
@0000081E 14
@0000081F 06
@00000820 FE
@00000821 0E
@00000822 FD
@00000823 05
@00000824 FE
@00000825 F2
@00000826 FD
@00000827 FD
@00000828 FB
@00000829 08
@0000082A F5
@0000082B F5
@0000082C 08
@0000082D 09
@0000082E 0F
@0000082F 09
@00000830 09
@00000831 12
@00000832 18
@00000833 16
@00000834 08
@00000835 14
@00000836 0C
@00000837 11
@00000838 FE
@00000839 02
@0000083A 03
@0000083B F1
@0000083C FB
@0000083D F2
@0000083E FC
@0000083F F7
@00000840 0C
@00000841 19
@00000842 08
@00000843 EC
@00000844 0A
@00000845 0F
@00000846 F6
@00000847 EA
@00000848 FD
@00000849 09
@0000084A F0
@0000084B F1
@0000084C 0D
@0000084D 14
@0000084E F7
@0000084F 02
@00000850 09
@00000851 00
@00000852 06
@00000853 06
@00000854 11
@00000855 01
@00000856 07
@00000857 02
@00000858 11
@00000859 0B
@0000085A 0A
@0000085B 0D
@0000085C FC
@0000085D FB
@0000085E FB
@0000085F F8
@00000860 FB
@00000861 03
@00000862 12
@00000863 0B
@00000864 02
@00000865 F7
@00000866 FA
@00000867 FA
@00000868 05
@00000869 07
@0000086A 05
@0000086B F5
@0000086C FF
@0000086D 08
@0000086E 01
@0000086F 00
@00000870 01
@00000871 09
@00000872 09
@00000873 FE
@00000874 F6
@00000875 08
@00000876 F8
@00000877 00
@00000878 EA
@00000879 01
@0000087A FF
@0000087B F6
@0000087C F0
@0000087D FD
@0000087E 0F
@0000087F 02
@00000880 FB
@00000881 00
@00000882 E8
@00000883 F6
@00000884 01
@00000885 FC
@00000886 09
@00000887 00
@00000888 FE
@00000889 08
@0000088A 00
@0000088B FF
@0000088C 14
@0000088D 00
@0000088E 09
@0000088F 0C
@00000890 0A
@00000891 FD
@00000892 06
@00000893 0B
@00000894 05
@00000895 08
@00000896 F9
@00000897 05
@00000898 FC
@00000899 08
@0000089A 02
@0000089B 11
@0000089C F6
@0000089D 07
@0000089E 0A
@0000089F 13
@000008A0 FF
@000008A1 EC
@000008A2 FD
@000008A3 05
@000008A4 04
@000008A5 00
@000008A6 01
@000008A7 FF
@000008A8 19
@000008A9 0E
@000008AA FF
@000008AB 0F
@000008AC 0F
@000008AD 10
@000008AE 16
@000008AF 1D
@000008B0 04
@000008B1 F0
@000008B2 FF
@000008B3 03
@000008B4 06
@000008B5 F6
@000008B6 FB
@000008B7 04
@000008B8 12
@000008B9 F4
@000008BA 0E
@000008BB 13
@000008BC 03
@000008BD 13
@000008BE 0F
@000008BF 14
@000008C0 0C
@000008C1 F3
@000008C2 F1
@000008C3 E8
@000008C4 02
@000008C5 FD
@000008C6 FF
@000008C7 E9
@000008C8 04
@000008C9 03
@000008CA 02
@000008CB EA
@000008CC 03
@000008CD 0E
@000008CE 09
@000008CF 04
@000008D0 00
@000008D1 0B
@000008D2 F4
@000008D3 F6
@000008D4 F9
@000008D5 FD
@000008D6 F1
@000008D7 FA
@000008D8 02
@000008D9 18
@000008DA FD
@000008DB EB
@000008DC 0D
@000008DD 12
@000008DE 01
@000008DF 08
@000008E0 FF
@000008E1 FA
@000008E2 E5
@000008E3 EC
@000008E4 05
@000008E5 F7
@000008E6 FB
@000008E7 06
@000008E8 F8
@000008E9 05
@000008EA FD
@000008EB 05
@000008EC 0C
@000008ED FB
@000008EE 15
@000008EF 0A
@000008F0 10
@000008F1 08
@000008F2 F4
@000008F3 02
@000008F4 03
@000008F5 F9
@000008F6 F3
@000008F7 F5
@000008F8 F2
@000008F9 01
@000008FA 05
@000008FB 0A
@000008FC 04
@000008FD 04
@000008FE 03
@000008FF FB
@00000900 FB
@00000901 E6
@00000902 00
@00000903 F1
@00000904 FA
@00000905 F0
@00000906 00
@00000907 05
@00000908 FC
@00000909 0F
@0000090A F8
@0000090B 05
@0000090C 08
@0000090D 09
@0000090E 06
@0000090F 11
@00000910 10
@00000911 13
@00000912 09
@00000913 EE
@00000914 02
@00000915 17
@00000916 F5
@00000917 12
@00000918 10
@00000919 10
@0000091A 05
@0000091B F3
@0000091C EE
@0000091D 07
@0000091E 06
@0000091F 01
@00000920 06
@00000921 F4
@00000922 04
@00000923 01
@00000924 0E
@00000925 03
@00000926 02
@00000927 09
@00000928 0D
@00000929 10
@0000092A F4
@0000092B F5
@0000092C F5
@0000092D 10
@0000092E FA
@0000092F F6
@00000930 FE
@00000931 FC
@00000932 03
@00000933 F3
@00000934 00
@00000935 FB
@00000936 FF
@00000937 FB
@00000938 0F
@00000939 05
@0000093A 05
@0000093B FB
@0000093C 03
@0000093D 1C
@0000093E 10
@0000093F 13
@00000940 FB
@00000941 FC
@00000942 00
@00000943 FB
@00000944 F7
@00000945 F3
@00000946 EF
@00000947 FC
@00000948 07
@00000949 09
@0000094A F4
@0000094B 05
@0000094C F1
@0000094D 00
@0000094E FF
@0000094F 0D
@00000950 E6
@00000951 17
@00000952 FD
@00000953 07
@00000954 07
@00000955 00
@00000956 FE
@00000957 07
@00000958 06
@00000959 FC
@0000095A F5
@0000095B 0A
@0000095C 0B
@0000095D FF
@0000095E 0E
@0000095F 06
@00000960 0F
@00000961 03
@00000962 03
@00000963 02
@00000964 FC
@00000965 01
@00000966 08
@00000967 FF
@00000968 FA
@00000969 F8
@0000096A FD
@0000096B 05
@0000096C FB
@0000096D 04
@0000096E 0C
@0000096F 0D
@00000970 12
@00000971 0A
@00000972 07
@00000973 FB
@00000974 18
@00000975 05
@00000976 07
@00000977 12
@00000978 11
@00000979 F2
@0000097A 16
@0000097B 0F
@0000097C 0D
@0000097D 1C
@0000097E 00
@0000097F 00
@00000980 01
@00000981 F9
@00000982 E8
@00000983 00
@00000984 FF
@00000985 F8
@00000986 F3
@00000987 FD
@00000988 FC
@00000989 FA
@0000098A F9
@0000098B 06
@0000098C 03
@0000098D F9
@0000098E 04
@0000098F 0F
@00000990 F8
@00000991 FF
@00000992 0C
@00000993 09
@00000994 FB
@00000995 0A
@00000996 EE
@00000997 0A
@00000998 FF
@00000999 06
@0000099A FD
@0000099B 0C
@0000099C 09
@0000099D 01
@0000099E 0C
@0000099F 16
@000009A0 05
@000009A1 09
@000009A2 FA
@000009A3 F7
@000009A4 10
@000009A5 0C
@000009A6 FA
@000009A7 FD
@000009A8 09
@000009A9 06
@000009AA 0D
@000009AB 05
@000009AC 14
@000009AD 09
@000009AE 18
@000009AF 0A
@000009B0 03
@000009B1 06
@000009B2 F9
@000009B3 11
@000009B4 00
@000009B5 0A
@000009B6 01
@000009B7 F8
@000009B8 02
@000009B9 FD
@000009BA 07
@000009BB 0D
@000009BC FC
@000009BD 00
@000009BE 06
@000009BF F3
@000009C0 05
@000009C1 17
@000009C2 10
@000009C3 FD
@000009C4 17
@000009C5 FE
@000009C6 F7
@000009C7 FB
@000009C8 F8
@000009C9 FE
@000009CA FD
@000009CB FA
@000009CC 0B
@000009CD 03
@000009CE FA
@000009CF EF
@000009D0 FE
@000009D1 F5
@000009D2 E8
@000009D3 FC
@000009D4 01
@000009D5 00
@000009D6 F5
@000009D7 0D
@000009D8 F8
@000009D9 00
@000009DA 00
@000009DB 01
@000009DC F9
@000009DD 12
@000009DE F5
@000009DF 00
@000009E0 FC
@000009E1 04
@000009E2 F3
@000009E3 0F
@000009E4 03
@000009E5 F6
@000009E6 FD
@000009E7 03
@000009E8 FD
@000009E9 00
@000009EA FA
@000009EB 14
@000009EC 00
@000009ED 05
@000009EE 02
@000009EF 0A
@000009F0 FF
@000009F1 F8
@000009F2 F3
@000009F3 FC
@000009F4 03
@000009F5 02
@000009F6 F2
@000009F7 F0
@000009F8 F6
@000009F9 00
@000009FA 0E
@000009FB 04
@000009FC 07
@000009FD 08
@000009FE FF
@000009FF FA
@00000A00 F5
@00000A01 FC
@00000A02 FC
@00000A03 FC
@00000A04 F6
@00000A05 EF
@00000A06 EB
@00000A07 FA
@00000A08 F5
@00000A09 FA
@00000A0A F8
@00000A0B FC
@00000A0C FB
@00000A0D F4
@00000A0E EB
@00000A0F 01
@00000A10 FE
@00000A11 02
@00000A12 FD
@00000A13 F5
@00000A14 F9
@00000A15 FE
@00000A16 08
@00000A17 FA
@00000A18 11
@00000A19 F1
@00000A1A 06
@00000A1B 00
@00000A1C 00
@00000A1D F5
@00000A1E 00
@00000A1F 0D
@00000A20 02
@00000A21 F1
@00000A22 F1
@00000A23 E9
@00000A24 F3
@00000A25 F1
@00000A26 F5
@00000A27 F3
@00000A28 0B
@00000A29 03
@00000A2A F6
@00000A2B F3
@00000A2C FE
@00000A2D 04
@00000A2E ED
@00000A2F 07
@00000A30 07
@00000A31 0E
@00000A32 03
@00000A33 FB
@00000A34 08
@00000A35 EF
@00000A36 00
@00000A37 FA
@00000A38 FA
@00000A39 0C
@00000A3A 15
@00000A3B 04
@00000A3C 0D
@00000A3D 09
@00000A3E 07
@00000A3F 11
@00000A40 F9
@00000A41 F8
@00000A42 EF
@00000A43 CD
@00000A44 0A
@00000A45 03
@00000A46 EC
@00000A47 F0
@00000A48 18
@00000A49 FF
@00000A4A 0B
@00000A4B F0
@00000A4C F3
@00000A4D 0F
@00000A4E F5
@00000A4F 01
@00000A50 03
@00000A51 06
@00000A52 F7
@00000A53 12
@00000A54 0D
@00000A55 0C
@00000A56 F2
@00000A57 10
@00000A58 FA
@00000A59 1E
@00000A5A 12
@00000A5B 03
@00000A5C EB
@00000A5D 12
@00000A5E 0E
@00000A5F 0A
@00000A60 07
@00000A61 F8
@00000A62 F7
@00000A63 02
@00000A64 0E
@00000A65 F0
@00000A66 FC
@00000A67 FF
@00000A68 F6
@00000A69 ED
@00000A6A 09
@00000A6B 0C
@00000A6C F2
@00000A6D FD
@00000A6E FB
@00000A6F FB
@00000A70 0E
@00000A71 FF
@00000A72 07
@00000A73 F6
@00000A74 03
@00000A75 E8
@00000A76 F8
@00000A77 EB
@00000A78 03
@00000A79 FD
@00000A7A 05
@00000A7B 0E
@00000A7C 1A
@00000A7D 06
@00000A7E 16
@00000A7F 0F
@00000A80 FE
@00000A81 EA
@00000A82 EF
@00000A83 F2
@00000A84 00
@00000A85 F8
@00000A86 F5
@00000A87 08
@00000A88 01
@00000A89 EC
@00000A8A 08
@00000A8B 00
@00000A8C FD
@00000A8D 01
@00000A8E FF
@00000A8F 18
@00000A90 FF
@00000A91 12
@00000A92 04
@00000A93 1B
@00000A94 03
@00000A95 02
@00000A96 04
@00000A97 04
@00000A98 05
@00000A99 FD
@00000A9A 06
@00000A9B 0F
@00000A9C FE
@00000A9D E0
@00000A9E F8
@00000A9F 0E
@00000AA0 14
@00000AA1 10
@00000AA2 DA
@00000AA3 E8
@00000AA4 09
@00000AA5 02
@00000AA6 F2
@00000AA7 EE
@00000AA8 0F
@00000AA9 12
@00000AAA 0E
@00000AAB 0B
@00000AAC FD
@00000AAD 11
@00000AAE 13
@00000AAF 01
@00000AB0 00
@00000AB1 FE
@00000AB2 03
@00000AB3 06
@00000AB4 F2
@00000AB5 04
@00000AB6 F9
@00000AB7 05
@00000AB8 07
@00000AB9 FC
@00000ABA FF
@00000ABB FE
@00000ABC 04
@00000ABD F7
@00000ABE 02
@00000ABF F4
@00000AC0 F5
@00000AC1 00
@00000AC2 EA
@00000AC3 F6
@00000AC4 F8
@00000AC5 01
@00000AC6 F9
@00000AC7 F5
@00000AC8 16
@00000AC9 0E
@00000ACA F7
@00000ACB F7
@00000ACC F3
@00000ACD 05
@00000ACE 04
@00000ACF F7
@00000AD0 EB
@00000AD1 DA
@00000AD2 F3
@00000AD3 DD
@00000AD4 F1
@00000AD5 EB
@00000AD6 FC
@00000AD7 EC
@00000AD8 05
@00000AD9 FD
@00000ADA EB
@00000ADB F7
@00000ADC 0B
@00000ADD 04
@00000ADE F2
@00000ADF F4
@00000AE0 01
@00000AE1 00
@00000AE2 E8
@00000AE3 08
@00000AE4 0F
@00000AE5 EC
@00000AE6 F5
@00000AE7 12
@00000AE8 F7
@00000AE9 02
@00000AEA FA
@00000AEB 01
@00000AEC F6
@00000AED F4
@00000AEE 02
@00000AEF 10
@00000AF0 F6
@00000AF1 01
@00000AF2 FB
@00000AF3 01
@00000AF4 F1
@00000AF5 F9
@00000AF6 F2
@00000AF7 F9
@00000AF8 0A
@00000AF9 F6
@00000AFA 02
@00000AFB 04
@00000AFC FB
@00000AFD E9
@00000AFE FE
@00000AFF 04
@00000B00 02
@00000B01 0B
@00000B02 15
@00000B03 FE
@00000B04 0A
@00000B05 04
@00000B06 02
@00000B07 FA
@00000B08 04
@00000B09 FF
@00000B0A FD
@00000B0B 0B
@00000B0C FA
@00000B0D 00
@00000B0E 00
@00000B0F 02
@00000B10 EC
@00000B11 F9
@00000B12 FF
@00000B13 F8
@00000B14 08
@00000B15 F5
@00000B16 FF
@00000B17 FE
@00000B18 13
@00000B19 03
@00000B1A 0B
@00000B1B FB
@00000B1C 07
@00000B1D 05
@00000B1E 1A
@00000B1F 0D
@00000B20 09
@00000B21 18
@00000B22 09
@00000B23 0A
@00000B24 F9
@00000B25 15
@00000B26 07
@00000B27 F3
@00000B28 03
@00000B29 0E
@00000B2A 08
@00000B2B 06
@00000B2C FE
@00000B2D F3
@00000B2E 19
@00000B2F 0B
@00000B30 07
@00000B31 01
@00000B32 EF
@00000B33 F7
@00000B34 0B
@00000B35 EA
@00000B36 F8
@00000B37 F6
@00000B38 FA
@00000B39 11
@00000B3A DB
@00000B3B 01
@00000B3C F7
@00000B3D 0D
@00000B3E 10
@00000B3F 10
@00000B40 01
@00000B41 F1
@00000B42 F4
@00000B43 12
@00000B44 F3
@00000B45 F9
@00000B46 0A
@00000B47 F6
@00000B48 02
@00000B49 F8
@00000B4A 01
@00000B4B FC
@00000B4C 09
@00000B4D 05
@00000B4E 18
@00000B4F 10
@00000B50 04
@00000B51 01
@00000B52 EF
@00000B53 E6
@00000B54 F7
@00000B55 F7
@00000B56 F4
@00000B57 F8
@00000B58 03
@00000B59 F6
@00000B5A F3
@00000B5B FA
@00000B5C FA
@00000B5D 09
@00000B5E 03
@00000B5F 0A
@00000B60 F7
@00000B61 00
@00000B62 EA
@00000B63 F7
@00000B64 02
@00000B65 FA
@00000B66 F5
@00000B67 04
@00000B68 11
@00000B69 02
@00000B6A F6
@00000B6B 04
@00000B6C FA
@00000B6D FE
@00000B6E FE
@00000B6F F9
@00000B70 05
@00000B71 F5
@00000B72 00
@00000B73 01
@00000B74 F5
@00000B75 15
@00000B76 02
@00000B77 F4
@00000B78 02
@00000B79 13
@00000B7A 0A
@00000B7B FA
@00000B7C 00
@00000B7D 09
@00000B7E 10
@00000B7F 15
@00000B80 0A
@00000B81 F9
@00000B82 F8
@00000B83 F0
@00000B84 04
@00000B85 F9
@00000B86 F0
@00000B87 F6
@00000B88 09
@00000B89 FA
@00000B8A F1
@00000B8B 02
@00000B8C F9
@00000B8D FD
@00000B8E F6
@00000B8F F7
@00000B90 0D
@00000B91 03
@00000B92 04
@00000B93 03
@00000B94 06
@00000B95 FD
@00000B96 0B
@00000B97 0F
@00000B98 E8
@00000B99 F1
@00000B9A 00
@00000B9B F5
@00000B9C 0E
@00000B9D EB
@00000B9E 03
@00000B9F F8
@00000BA0 1D
@00000BA1 0B
@00000BA2 0C
@00000BA3 17
@00000BA4 03
@00000BA5 04
@00000BA6 03
@00000BA7 00
@00000BA8 FD
@00000BA9 F7
@00000BAA F1
@00000BAB 0A
@00000BAC FB
@00000BAD F2
@00000BAE FD
@00000BAF 07
@00000BB0 FB
@00000BB1 F9
@00000BB2 F5
@00000BB3 F6
@00000BB4 10
@00000BB5 01
@00000BB6 E5
@00000BB7 F8
@00000BB8 FF
@00000BB9 05
@00000BBA 02
@00000BBB F3
@00000BBC FB
@00000BBD F8
@00000BBE 03
@00000BBF 09
@00000BC0 09
@00000BC1 0E
@00000BC2 F5
@00000BC3 00
@00000BC4 04
@00000BC5 00
@00000BC6 F8
@00000BC7 05
@00000BC8 F9
@00000BC9 01
@00000BCA 03
@00000BCB 0F
@00000BCC FD
@00000BCD 05
@00000BCE FF
@00000BCF 0B
@00000BD0 00
@00000BD1 F4
@00000BD2 F1
@00000BD3 00
@00000BD4 FE
@00000BD5 E5
@00000BD6 E8
@00000BD7 FD
@00000BD8 08
@00000BD9 FC
@00000BDA 02
@00000BDB 04
@00000BDC FD
@00000BDD 02
@00000BDE 0A
@00000BDF 03
@00000BE0 0B
@00000BE1 02
@00000BE2 00
@00000BE3 FC
@00000BE4 00
@00000BE5 FC
@00000BE6 00
@00000BE7 F2
@00000BE8 16
@00000BE9 EE
@00000BEA FB
@00000BEB FE
@00000BEC F0
@00000BED 12
@00000BEE 0E
@00000BEF 0B
@00000BF0 FA
@00000BF1 F5
@00000BF2 EA
@00000BF3 EF
@00000BF4 07
@00000BF5 EB
@00000BF6 F3
@00000BF7 E7
@00000BF8 FB
@00000BF9 F3
@00000BFA F6
@00000BFB F6
@00000BFC 04
@00000BFD 0D
@00000BFE F6
@00000BFF 05
@00000C00 FF
@00000C01 EE
@00000C02 E7
@00000C03 0E
@00000C04 FB
@00000C05 FF
@00000C06 0F
@00000C07 00
@00000C08 F7
@00000C09 F2
@00000C0A F3
@00000C0B 09
@00000C0C F6
@00000C0D F7
@00000C0E 02
@00000C0F 0F
@00000C10 FC
@00000C11 0F
@00000C12 08
@00000C13 0A
@00000C14 FB
@00000C15 13
@00000C16 13
@00000C17 FB
@00000C18 FB
@00000C19 F6
@00000C1A FF
@00000C1B 03
@00000C1C FC
@00000C1D 03
@00000C1E E8
@00000C1F F7
@00000C20 E8
@00000C21 0E
@00000C22 08
@00000C23 05
@00000C24 FB
@00000C25 00
@00000C26 FE
@00000C27 03
@00000C28 F5
@00000C29 04
@00000C2A 05
@00000C2B 01
@00000C2C 00
@00000C2D F2
@00000C2E FC
@00000C2F EE
@00000C30 F7
@00000C31 F5
@00000C32 FC
@00000C33 00
@00000C34 FC
@00000C35 F7
@00000C36 0D
@00000C37 00
@00000C38 08
@00000C39 F0
@00000C3A FA
@00000C3B FD
@00000C3C FC
@00000C3D 09
@00000C3E F1
@00000C3F F6
@00000C40 FA
@00000C41 E9
@00000C42 F5
@00000C43 FD
@00000C44 FB
@00000C45 E4
@00000C46 FC
@00000C47 E7
@00000C48 01
@00000C49 EA
@00000C4A E8
@00000C4B F6
@00000C4C 06
@00000C4D E9
@00000C4E F2
@00000C4F FB
@00000C50 F5
@00000C51 FD
@00000C52 0B
@00000C53 FB
@00000C54 F2
@00000C55 05
@00000C56 03
@00000C57 06
@00000C58 09
@00000C59 FE
@00000C5A 00
@00000C5B 02
@00000C5C FE
@00000C5D 07
@00000C5E F5
@00000C5F 0B
@00000C60 E9
@00000C61 E1
@00000C62 00
@00000C63 0B
@00000C64 EA
@00000C65 ED
@00000C66 EF
@00000C67 F9
@00000C68 EF
@00000C69 EF
@00000C6A 00
@00000C6B 01
@00000C6C F1
@00000C6D F7
@00000C6E 09
@00000C6F 00
@00000C70 ED
@00000C71 FD
@00000C72 0D
@00000C73 0C
@00000C74 F6
@00000C75 FA
@00000C76 FF
@00000C77 16
@00000C78 F0
@00000C79 07
@00000C7A 04
@00000C7B 08
@00000C7C FB
@00000C7D F6
@00000C7E 07
@00000C7F 15
@00000C80 F7
@00000C81 08
@00000C82 FB
@00000C83 02
@00000C84 F0
@00000C85 EE
@00000C86 F0
@00000C87 00
@00000C88 F5
@00000C89 03
@00000C8A F8
@00000C8B EF
@00000C8C FA
@00000C8D 01
@00000C8E 08
@00000C8F F8
@00000C90 FA
@00000C91 0B
@00000C92 0B
@00000C93 01
@00000C94 E9
@00000C95 04
@00000C96 0B
@00000C97 06
@00000C98 FB
@00000C99 03
@00000C9A FE
@00000C9B 04
@00000C9C F6
@00000C9D FC
@00000C9E 0A
@00000C9F F7
@00000CA0 0A
@00000CA1 0F
@00000CA2 00
@00000CA3 06
@00000CA4 06
@00000CA5 01
@00000CA6 04
@00000CA7 F7
@00000CA8 03
@00000CA9 02
@00000CAA 06
@00000CAB F1
@00000CAC 03
@00000CAD 00
@00000CAE FE
@00000CAF E8
@00000CB0 04
@00000CB1 F4
@00000CB2 00
@00000CB3 F6
@00000CB4 03
@00000CB5 03
@00000CB6 F2
@00000CB7 E9
@00000CB8 FC
@00000CB9 FD
@00000CBA F0
@00000CBB E9
@00000CBC 06
@00000CBD F1
@00000CBE 08
@00000CBF FD
@00000CC0 04
@00000CC1 1B
@00000CC2 09
@00000CC3 04
@00000CC4 10
@00000CC5 0A
@00000CC6 04
@00000CC7 F7
@00000CC8 0A
@00000CC9 0A
@00000CCA 0B
@00000CCB FB
@00000CCC 0B
@00000CCD 0A
@00000CCE 07
@00000CCF 01
@00000CD0 F9
@00000CD1 20
@00000CD2 08
@00000CD3 12
@00000CD4 FA
@00000CD5 00
@00000CD6 06
@00000CD7 10
@00000CD8 FD
@00000CD9 F6
@00000CDA 08
@00000CDB 0B
@00000CDC 00
@00000CDD F8
@00000CDE FE
@00000CDF 0D
@00000CE0 0A
@00000CE1 14
@00000CE2 FC
@00000CE3 03
@00000CE4 FB
@00000CE5 0A
@00000CE6 FA
@00000CE7 F6
@00000CE8 FC
@00000CE9 FA
@00000CEA 01
@00000CEB F5
@00000CEC 09
@00000CED F9
@00000CEE 05
@00000CEF FC
@00000CF0 EA
@00000CF1 05
@00000CF2 0A
@00000CF3 02
@00000CF4 FF
@00000CF5 0D
@00000CF6 14
@00000CF7 01
@00000CF8 F4
@00000CF9 0D
@00000CFA 02
@00000CFB 0B
@00000CFC 14
@00000CFD 01
@00000CFE 02
@00000CFF 09
@00000D00 02
@00000D01 03
@00000D02 16
@00000D03 07
@00000D04 FA
@00000D05 FF
@00000D06 09
@00000D07 F0
@00000D08 03
@00000D09 FE
@00000D0A EB
@00000D0B EE
@00000D0C F7
@00000D0D FC
@00000D0E 07
@00000D0F ED
@00000D10 EB
@00000D11 F8
@00000D12 FB
@00000D13 FD
@00000D14 E9
@00000D15 EE
@00000D16 EE
@00000D17 F6
@00000D18 FA
@00000D19 E8
@00000D1A F8
@00000D1B F1
@00000D1C 06
@00000D1D FB
@00000D1E FD
@00000D1F F8
@00000D20 03
@00000D21 ED
@00000D22 07
@00000D23 FA
@00000D24 FD
@00000D25 FE
@00000D26 00
@00000D27 F0
@00000D28 01
@00000D29 00
@00000D2A FD
@00000D2B EB
@00000D2C 1E
@00000D2D FD
@00000D2E F5
@00000D2F F6
@00000D30 0B
@00000D31 1A
@00000D32 08
@00000D33 ED
@00000D34 0D
@00000D35 1A
@00000D36 0C
@00000D37 F6
@00000D38 15
@00000D39 1C
@00000D3A F7
@00000D3B F1
@00000D3C 0B
@00000D3D 02
@00000D3E F9
@00000D3F F0
@00000D40 07
@00000D41 F9
@00000D42 0C
@00000D43 1B
@00000D44 F1
@00000D45 0C
@00000D46 04
@00000D47 08
@00000D48 02
@00000D49 06
@00000D4A FD
@00000D4B 0D
@00000D4C F0
@00000D4D 0C
@00000D4E FA
@00000D4F 1A
@00000D50 F3
@00000D51 06
@00000D52 11
@00000D53 16
@00000D54 F6
@00000D55 F0
@00000D56 05
@00000D57 06
@00000D58 06
@00000D59 1D
@00000D5A 05
@00000D5B 08
@00000D5C F0
@00000D5D 05
@00000D5E 0F
@00000D5F 10
@00000D60 06
@00000D61 0A
@00000D62 03
@00000D63 FA
@00000D64 00
@00000D65 09
@00000D66 04
@00000D67 F4
@00000D68 FE
@00000D69 F2
@00000D6A 0B
@00000D6B 06
@00000D6C F4
@00000D6D F6
@00000D6E 01
@00000D6F F0
@00000D70 EF
@00000D71 FB
@00000D72 F7
@00000D73 04
@00000D74 F3
@00000D75 EC
@00000D76 E9
@00000D77 FC
@00000D78 F0
@00000D79 EB
@00000D7A F7
@00000D7B F7
@00000D7C F6
@00000D7D F4
@00000D7E FA
@00000D7F 04
@00000D80 0B
@00000D81 00
@00000D82 F4
@00000D83 F5
@00000D84 EE
@00000D85 04
@00000D86 F0
@00000D87 00
@00000D88 02
@00000D89 E5
@00000D8A F4
@00000D8B F7
@00000D8C 0A
@00000D8D FA
@00000D8E EE
@00000D8F F9
@00000D90 16
@00000D91 0A
@00000D92 0A
@00000D93 FC
@00000D94 0A
@00000D95 04
@00000D96 FA
@00000D97 02
@00000D98 18
@00000D99 0B
@00000D9A 04
@00000D9B 01
@00000D9C 02
@00000D9D FC
@00000D9E F4
@00000D9F FF
@00000DA0 F2
@00000DA1 F8
@00000DA2 FD
@00000DA3 F9
@00000DA4 EB
@00000DA5 F0
@00000DA6 FF
@00000DA7 F0
@00000DA8 F8
@00000DA9 EF
@00000DAA 04
@00000DAB F4
@00000DAC EB
@00000DAD FD
@00000DAE F8
@00000DAF 08
@00000DB0 F8
@00000DB1 FA
@00000DB2 0C
@00000DB3 05
@00000DB4 00
@00000DB5 F9
@00000DB6 FE
@00000DB7 09
@00000DB8 F0
@00000DB9 F0
@00000DBA F5
@00000DBB 1D
@00000DBC 07
@00000DBD 04
@00000DBE FB
@00000DBF 06
@00000DC0 04
@00000DC1 ED
@00000DC2 F2
@00000DC3 0A
@00000DC4 F3
@00000DC5 EB
@00000DC6 05
@00000DC7 FC
@00000DC8 E2
@00000DC9 EC
@00000DCA F4
@00000DCB F8
@00000DCC FF
@00000DCD FC
@00000DCE 0F
@00000DCF 08
@00000DD0 F6
@00000DD1 07
@00000DD2 11
@00000DD3 FC
@00000DD4 03
@00000DD5 0D
@00000DD6 0F
@00000DD7 FF
@00000DD8 00
@00000DD9 13
@00000DDA 00
@00000DDB FC
@00000DDC 00
@00000DDD 07
@00000DDE 01
@00000DDF F8
@00000DE0 F3
@00000DE1 0C
@00000DE2 0D
@00000DE3 FE
@00000DE4 09
@00000DE5 10
@00000DE6 FA
@00000DE7 09
@00000DE8 08
@00000DE9 10
@00000DEA 08
@00000DEB 0E
@00000DEC 02
@00000DED 08
@00000DEE FC
@00000DEF 02
@00000DF0 FE
@00000DF1 0C
@00000DF2 0A
@00000DF3 08
@00000DF4 FC
@00000DF5 F7
@00000DF6 EB
@00000DF7 EF
@00000DF8 00
@00000DF9 FC
@00000DFA 12
@00000DFB F2
@00000DFC 01
@00000DFD 04
@00000DFE 01
@00000DFF F2
@00000E00 FA
@00000E01 F1
@00000E02 08
@00000E03 10
@00000E04 FC
@00000E05 FD
@00000E06 07
@00000E07 03
@00000E08 F1
@00000E09 FA
@00000E0A 00
@00000E0B 0D
@00000E0C FE
@00000E0D 0A
@00000E0E 0E
@00000E0F 1C
@00000E10 0E
@00000E11 09
@00000E12 0F
@00000E13 12
@00000E14 FC
@00000E15 FB
@00000E16 FF
@00000E17 02
@00000E18 03
@00000E19 07
@00000E1A 0D
@00000E1B 0E
@00000E1C 08
@00000E1D 05
@00000E1E F3
@00000E1F 1E
@00000E20 1A
@00000E21 08
@00000E22 FB
@00000E23 FF
@00000E24 0D
@00000E25 FE
@00000E26 F6
@00000E27 08
@00000E28 0B
@00000E29 FE
@00000E2A 0C
@00000E2B F6
@00000E2C 14
@00000E2D 12
@00000E2E 07
@00000E2F 00
@00000E30 FB
@00000E31 0A
@00000E32 02
@00000E33 04
@00000E34 0D
@00000E35 08
@00000E36 0F
@00000E37 F1
@00000E38 FB
@00000E39 08
@00000E3A 05
@00000E3B FD
@00000E3C 05
@00000E3D FB
@00000E3E 0C
@00000E3F 03
@00000E40 0C
@00000E41 15
@00000E42 FB
@00000E43 0C
@00000E44 11
@00000E45 F6
@00000E46 01
@00000E47 F5
@00000E48 0A
@00000E49 0D
@00000E4A 06
@00000E4B 00
@00000E4C 0A
@00000E4D F8
@00000E4E 05
@00000E4F 03
@00000E50 0D
@00000E51 15
@00000E52 04
@00000E53 0B
@00000E54 1A
@00000E55 1B
@00000E56 FE
@00000E57 F6
@00000E58 14
@00000E59 0F
@00000E5A FA
@00000E5B FD
@00000E5C 05
@00000E5D FE
@00000E5E FD
@00000E5F 01
@00000E60 F7
@00000E61 F5
@00000E62 0A
@00000E63 13
@00000E64 F3
@00000E65 FB
@00000E66 12
@00000E67 F7
@00000E68 05
@00000E69 01
@00000E6A 08
@00000E6B FE
@00000E6C F4
@00000E6D FA
@00000E6E 08
@00000E6F FC
@00000E70 03
@00000E71 11
@00000E72 F8
@00000E73 ED
@00000E74 06
@00000E75 F5
@00000E76 03
@00000E77 F5
@00000E78 03
@00000E79 02
@00000E7A 0B
@00000E7B F4
@00000E7C FF
@00000E7D F0
@00000E7E F0
@00000E7F FC
@00000E80 F2
@00000E81 F5
@00000E82 FD
@00000E83 01
@00000E84 F9
@00000E85 FC
@00000E86 F7
@00000E87 FD
@00000E88 00
@00000E89 F9
@00000E8A EB
@00000E8B F7
@00000E8C F3
@00000E8D FD
@00000E8E F9
@00000E8F 03
@00000E90 EE
@00000E91 F3
@00000E92 0E
@00000E93 FA
@00000E94 E6
@00000E95 F0
@00000E96 02
@00000E97 06
@00000E98 F8
@00000E99 00
@00000E9A FF
@00000E9B F9
@00000E9C F0
@00000E9D FB
@00000E9E 12
@00000E9F F9
@00000EA0 0E
@00000EA1 F8
@00000EA2 04
@00000EA3 F0
@00000EA4 FE
@00000EA5 02
@00000EA6 00
@00000EA7 01
@00000EA8 FB
@00000EA9 0F
@00000EAA 0C
@00000EAB 0E
@00000EAC 11
@00000EAD 06
@00000EAE 15
@00000EAF 15
@00000EB0 F8
@00000EB1 FE
@00000EB2 12
@00000EB3 01
@00000EB4 F2
@00000EB5 FA
@00000EB6 07
@00000EB7 FF
@00000EB8 F0
@00000EB9 FD
@00000EBA 09
@00000EBB 06
@00000EBC F1
@00000EBD FA
@00000EBE 08
@00000EBF 01
@00000EC0 F8
@00000EC1 FF
@00000EC2 F6
@00000EC3 FD
@00000EC4 FE
@00000EC5 EE
@00000EC6 FC
@00000EC7 FB
@00000EC8 F8
@00000EC9 F7
@00000ECA 02
@00000ECB F9
@00000ECC F2
@00000ECD EB
@00000ECE F1
@00000ECF F9
@00000ED0 0B
@00000ED1 EF
@00000ED2 FD
@00000ED3 05
@00000ED4 11
@00000ED5 18
@00000ED6 05
@00000ED7 F5
@00000ED8 11
@00000ED9 06
@00000EDA F1
@00000EDB F9
@00000EDC 07
@00000EDD 10
@00000EDE 01
@00000EDF 00
@00000EE0 04
@00000EE1 06
@00000EE2 00
@00000EE3 F8
@00000EE4 F7
@00000EE5 FB
@00000EE6 08
@00000EE7 04
@00000EE8 F5
@00000EE9 03
@00000EEA 04
@00000EEB 07
@00000EEC F4
@00000EED 08
@00000EEE F9
@00000EEF 07
@00000EF0 FC
@00000EF1 04
@00000EF2 F1
@00000EF3 F7
@00000EF4 FF
@00000EF5 F0
@00000EF6 EB
@00000EF7 F1
@00000EF8 F9
@00000EF9 ED
@00000EFA F9
@00000EFB FB
@00000EFC FB
@00000EFD F3
@00000EFE F7
@00000EFF 02
@00000F00 00
@00000F01 01
@00000F02 F5
@00000F03 00
@00000F04 00
@00000F05 F8
@00000F06 FA
@00000F07 09
@00000F08 1A
@00000F09 FD
@00000F0A F2
@00000F0B F6
@00000F0C 0C
@00000F0D EF
@00000F0E FC
@00000F0F 00
@00000F10 FF
@00000F11 FA
@00000F12 03
@00000F13 0E
@00000F14 12
@00000F15 12
@00000F16 10
@00000F17 F9
@00000F18 F4
@00000F19 0A
@00000F1A FD
@00000F1B FD
@00000F1C 13
@00000F1D 01
@00000F1E FD
@00000F1F FD
@00000F20 F9
@00000F21 FC
@00000F22 05
@00000F23 05
@00000F24 03
@00000F25 0A
@00000F26 10
@00000F27 E3
@00000F28 F7
@00000F29 0C
@00000F2A 08
@00000F2B 01
@00000F2C 08
@00000F2D 06
@00000F2E 09
@00000F2F FB
@00000F30 0E
@00000F31 0B
@00000F32 F5
@00000F33 11
@00000F34 09
@00000F35 FC
@00000F36 FD
@00000F37 FA
@00000F38 FE
@00000F39 13
@00000F3A FD
@00000F3B EF
@00000F3C FB
@00000F3D FE
@00000F3E FD
@00000F3F EA
@00000F40 FC
@00000F41 13
@00000F42 0C
@00000F43 02
@00000F44 F3
@00000F45 05
@00000F46 00
@00000F47 F7
@00000F48 FA
@00000F49 0F
@00000F4A 0E
@00000F4B 08
@00000F4C 0C
@00000F4D 0F
@00000F4E 02
@00000F4F 01
@00000F50 08
@00000F51 0D
@00000F52 F1
@00000F53 F8
@00000F54 F6
@00000F55 FA
@00000F56 06
@00000F57 0F
@00000F58 0A
@00000F59 F2
@00000F5A FE
@00000F5B F9
@00000F5C FC
@00000F5D ED
@00000F5E 07
@00000F5F 03
@00000F60 F4
@00000F61 04
@00000F62 F6
@00000F63 07
@00000F64 F7
@00000F65 FE
@00000F66 FC
@00000F67 05
@00000F68 09
@00000F69 F8
@00000F6A 0A
@00000F6B 0E
@00000F6C FF
@00000F6D 08
@00000F6E 14
@00000F6F 0C
@00000F70 06
@00000F71 05
@00000F72 0E
@00000F73 FF
@00000F74 03
@00000F75 02
@00000F76 07
@00000F77 FB
@00000F78 0D
@00000F79 08
@00000F7A FF
@00000F7B F7
@00000F7C 0C
@00000F7D 05
@00000F7E F2
@00000F7F FE
@00000F80 FA
@00000F81 FE
@00000F82 FA
@00000F83 F5
@00000F84 01
@00000F85 F3
@00000F86 04
@00000F87 F6
@00000F88 FB
@00000F89 01
@00000F8A 08
@00000F8B EE
@00000F8C F9
@00000F8D FD
@00000F8E 04
@00000F8F F4
@00000F90 0B
@00000F91 F9
@00000F92 12
@00000F93 F8
@00000F94 02
@00000F95 FE
@00000F96 0B
@00000F97 08
@00000F98 F7
@00000F99 02
@00000F9A FC
@00000F9B FC
@00000F9C 02
@00000F9D 07
@00000F9E 14
@00000F9F F2
@00000FA0 0D
@00000FA1 00
@00000FA2 F6
@00000FA3 14
@00000FA4 11
@00000FA5 19
@00000FA6 FA
@00000FA7 04
@00000FA8 F8
@00000FA9 01
@00000FAA 08
@00000FAB 00
@00000FAC 04
@00000FAD 0C
@00000FAE 0F
@00000FAF 00
@00000FB0 12
@00000FB1 00
@00000FB2 03
@00000FB3 02
@00000FB4 19
@00000FB5 F4
@00000FB6 F2
@00000FB7 E2
@00000FB8 07
@00000FB9 06
@00000FBA EE
@00000FBB 03
@00000FBC 06
@00000FBD EE
@00000FBE 00
@00000FBF FF
@00000FC0 0F
@00000FC1 17
@00000FC2 FD
@00000FC3 0D
@00000FC4 19
@00000FC5 0E
@00000FC6 00
@00000FC7 03
@00000FC8 20
@00000FC9 16
@00000FCA 03
@00000FCB F9
@00000FCC 06
@00000FCD 06
@00000FCE FF
@00000FCF FE
@00000FD0 0D
@00000FD1 FD
@00000FD2 03
@00000FD3 02
@00000FD4 FC
@00000FD5 06
@00000FD6 04
@00000FD7 FA
@00000FD8 06
@00000FD9 F6
@00000FDA FE
@00000FDB 03
@00000FDC 07
@00000FDD FA
@00000FDE 11
@00000FDF 12
@00000FE0 F8
@00000FE1 FE
@00000FE2 05
@00000FE3 00
@00000FE4 F7
@00000FE5 F5
@00000FE6 FE
@00000FE7 08
@00000FE8 02
@00000FE9 FC
@00000FEA F9
@00000FEB FD
@00000FEC 09
@00000FED FD
@00000FEE FD
@00000FEF 07
@00000FF0 12
@00000FF1 0E
@00000FF2 F4
@00000FF3 F5
@00000FF4 03
@00000FF5 FD
@00000FF6 FC
@00000FF7 F3
@00000FF8 07
@00000FF9 FE
@00000FFA FF
@00000FFB DB
@00000FFC 0B
@00000FFD FC
@00000FFE 02
@00000FFF 02
@00001000 0A
@00001001 F8
@00001002 00
@00001003 FE
@00001004 F0
@00001005 F3
@00001006 EB
@00001007 FB
@00001008 FF
@00001009 E9
@0000100A ED
@0000100B F5
@0000100C EC
@0000100D F6
@0000100E F4
@0000100F EB
@00001010 07
@00001011 EE
@00001012 F6
@00001013 F9
@00001014 F6
@00001015 F8
@00001016 08
@00001017 FE
@00001018 F5
@00001019 EC
@0000101A 07
@0000101B 08
@0000101C FD
@0000101D F8
@0000101E FB
@0000101F 03
@00001020 FA
@00001021 04
@00001022 0D
@00001023 08
@00001024 04
@00001025 0B
@00001026 0F
@00001027 04
@00001028 FE
@00001029 07
@0000102A 0E
@0000102B FA
@0000102C EB
@0000102D E8
@0000102E FF
@0000102F E7
@00001030 02
@00001031 00
@00001032 16
@00001033 0E
@00001034 FB
@00001035 04
@00001036 07
@00001037 06
@00001038 FB
@00001039 FC
@0000103A FE
@0000103B FE
@0000103C F7
@0000103D ED
@0000103E F7
@0000103F 01
@00001040 0B
@00001041 0C
@00001042 0D
@00001043 FF
@00001044 00
@00001045 08
@00001046 00
@00001047 FF
@00001048 03
@00001049 0A
@0000104A 04
@0000104B 0D
@0000104C 0B
@0000104D FD
@0000104E 09
@0000104F 02
@00001050 FC
@00001051 FA
@00001052 EE
@00001053 04
@00001054 F2
@00001055 F3
@00001056 EE
@00001057 F6
@00001058 F8
@00001059 F6
@0000105A EA
@0000105B F5
@0000105C FD
@0000105D F8
@0000105E FA
@0000105F FB
@00001060 09
@00001061 13
@00001062 11
@00001063 10
@00001064 0A
@00001065 12
@00001066 11
@00001067 04
@00001068 14
@00001069 1B
@0000106A 11
@0000106B 04
@0000106C 07
@0000106D 19
@0000106E 0E
@0000106F FD
@00001070 FB
@00001071 09
@00001072 F6
@00001073 F9
@00001074 FE
@00001075 02
@00001076 00
@00001077 06
@00001078 F5
@00001079 EE
@0000107A FA
@0000107B F6
@0000107C F7
@0000107D F9
@0000107E 07
@0000107F FA
@00001080 06
@00001081 0E
@00001082 07
@00001083 FF
@00001084 05
@00001085 06
@00001086 03
@00001087 03
@00001088 FF
@00001089 FE
@0000108A 0D
@0000108B 01
@0000108C F8
@0000108D 06
@0000108E 01
@0000108F F8
@00001090 0E
@00001091 0C
@00001092 08
@00001093 0E
@00001094 0B
@00001095 05
@00001096 03
@00001097 FB
@00001098 F4
@00001099 06
@0000109A 03
@0000109B FA
@0000109C F6
@0000109D EF
@0000109E F6
@0000109F FC
@000010A0 06
@000010A1 0A
@000010A2 04
@000010A3 F4
@000010A4 08
@000010A5 07
@000010A6 0A
@000010A7 07
@000010A8 01
@000010A9 05
@000010AA FF
@000010AB F4
@000010AC 02
@000010AD F5
@000010AE FE
@000010AF F1
@000010B0 FD
@000010B1 04
@000010B2 04
@000010B3 FE
@000010B4 FB
@000010B5 0A
@000010B6 04
@000010B7 F6
@000010B8 EE
@000010B9 02
@000010BA 06
@000010BB 02
@000010BC F8
@000010BD F5
@000010BE 08
@000010BF F9
@000010C0 00
@000010C1 02
@000010C2 15
@000010C3 FA
@000010C4 02
@000010C5 F6
@000010C6 08
@000010C7 01
@000010C8 F9
@000010C9 FE
@000010CA FD
@000010CB FA
@000010CC F2
@000010CD F5
@000010CE FB
@000010CF F4
@000010D0 00
@000010D1 F9
@000010D2 09
@000010D3 01
@000010D4 05
@000010D5 FD
@000010D6 09
@000010D7 FE
@000010D8 0B
@000010D9 0E
@000010DA 0A
@000010DB 05
@000010DC F9
@000010DD 02
@000010DE FA
@000010DF F5
@000010E0 01
@000010E1 FF
@000010E2 07
@000010E3 04
@000010E4 01
@000010E5 09
@000010E6 14
@000010E7 01
@000010E8 F7
@000010E9 01
@000010EA 04
@000010EB F4
@000010EC F0
@000010ED FA
@000010EE F9
@000010EF F6
@000010F0 03
@000010F1 03
@000010F2 FB
@000010F3 FD
@000010F4 01
@000010F5 00
@000010F6 10
@000010F7 F7
@000010F8 05
@000010F9 02
@000010FA FE
@000010FB F8
@000010FC F8
@000010FD F8
@000010FE FA
@000010FF F9
@00001100 14
@00001101 0C
@00001102 0D
@00001103 00
@00001104 06
@00001105 0C
@00001106 04
@00001107 0D
@00001108 0F
@00001109 0F
@0000110A 17
@0000110B 02
@0000110C FF
@0000110D 03
@0000110E 04
@0000110F F9
@00001110 0F
@00001111 15
@00001112 18
@00001113 02
@00001114 FD
@00001115 13
@00001116 08
@00001117 07
@00001118 03
@00001119 0E
@0000111A F9
@0000111B 12
@0000111C F2
@0000111D 0E
@0000111E FF
@0000111F 0C
@00001120 05
@00001121 04
@00001122 F7
@00001123 06
@00001124 02
@00001125 03
@00001126 FC
@00001127 FA
@00001128 FE
@00001129 0A
@0000112A FF
@0000112B 00
@0000112C F2
@0000112D FA
@0000112E FA
@0000112F 09
@00001130 F4
@00001131 F4
@00001132 EF
@00001133 F1
@00001134 F2
@00001135 FB
@00001136 EA
@00001137 F5
@00001138 03
@00001139 F7
@0000113A 08
@0000113B FD
@0000113C FE
@0000113D F0
@0000113E FC
@0000113F FC
@00001140 F4
@00001141 F7
@00001142 F4
@00001143 EE
@00001144 F5
@00001145 00
@00001146 00
@00001147 F0
@00001148 FA
@00001149 FE
@0000114A 06
@0000114B FE
@0000114C F8
@0000114D F5
@0000114E FB
@0000114F FB
@00001150 F8
@00001151 06
@00001152 08
@00001153 00
@00001154 05
@00001155 06
@00001156 F7
@00001157 FB
@00001158 FA
@00001159 08
@0000115A 0C
@0000115B FB
@0000115C 03
@0000115D F8
@0000115E FB
@0000115F FE
@00001160 F8
@00001161 08
@00001162 0A
@00001163 02
@00001164 F8
@00001165 06
@00001166 FE
@00001167 09
@00001168 FB
@00001169 FE
@0000116A FE
@0000116B FE
@0000116C EF
@0000116D EE
@0000116E E5
@0000116F ED
@00001170 09
@00001171 03
@00001172 14
@00001173 06
@00001174 01
@00001175 0B
@00001176 05
@00001177 0C
@00001178 F9
@00001179 0C
@0000117A 18
@0000117B 0C
@0000117C 01
@0000117D 07
@0000117E 18
@0000117F FC
@00001180 0A
@00001181 FF
@00001182 FE
@00001183 05
@00001184 06
@00001185 02
@00001186 05
@00001187 03
@00001188 FD
@00001189 F9
@0000118A 01
@0000118B FD
@0000118C F6
@0000118D F8
@0000118E F8
@0000118F F0
@00001190 05
@00001191 07
@00001192 FE
@00001193 F9
@00001194 F1
@00001195 F8
@00001196 00
@00001197 FD
@00001198 F4
@00001199 F9
@0000119A F4
@0000119B 0C
@0000119C 07
@0000119D FF
@0000119E F6
@0000119F 03
@000011A0 F5
@000011A1 0E
@000011A2 F6
@000011A3 10
@000011A4 04
@000011A5 0B
@000011A6 09
@000011A7 0C
@000011A8 0A
@000011A9 22
@000011AA 1B
@000011AB 05
@000011AC 09
@000011AD 11
@000011AE 1C
@000011AF 08
@000011B0 FE
@000011B1 06
@000011B2 FF
@000011B3 01
@000011B4 F8
@000011B5 F8
@000011B6 05
@000011B7 02
@000011B8 03
@000011B9 F4
@000011BA F9
@000011BB 10
@000011BC F9
@000011BD F7
@000011BE 00
@000011BF 01
@000011C0 01
@000011C1 F7
@000011C2 FA
@000011C3 03
@000011C4 03
@000011C5 09
@000011C6 03
@000011C7 0A
@000011C8 08
@000011C9 09
@000011CA FF
@000011CB 06
@000011CC FF
@000011CD F7
@000011CE F8
@000011CF 0D
@000011D0 F7
@000011D1 EE
@000011D2 FB
@000011D3 F2
@000011D4 FD
@000011D5 05
@000011D6 02
@000011D7 FF
@000011D8 04
@000011D9 FC
@000011DA FA
@000011DB 03
@000011DC F8
@000011DD F4
@000011DE FC
@000011DF 08
@000011E0 FD
@000011E1 FE
@000011E2 F9
@000011E3 FB
@000011E4 F1
@000011E5 FE
@000011E6 F9
@000011E7 FC
@000011E8 ED
@000011E9 F3
@000011EA 06
@000011EB FD
@000011EC F0
@000011ED FB
@000011EE FB
@000011EF F4
@000011F0 F5
@000011F1 FA
@000011F2 04
@000011F3 FD
@000011F4 00
@000011F5 FA
@000011F6 F0
@000011F7 F9
@000011F8 03
@000011F9 F9
@000011FA 0C
@000011FB FB
@000011FC FF
@000011FD 0F
@000011FE 03
@000011FF 08
@00001200 0B
@00001201 06
@00001202 FC
@00001203 07
@00001204 EF
@00001205 F3
@00001206 FC
@00001207 01
@00001208 FC
@00001209 FE
@0000120A FE
@0000120B F4
@0000120C 01
@0000120D FA
@0000120E F9
@0000120F 00
@00001210 FD
@00001211 F7
@00001212 EF
@00001213 0A
@00001214 F7
@00001215 F3
@00001216 F9
@00001217 03
@00001218 FA
@00001219 0A
@0000121A 01
@0000121B 07
@0000121C FE
@0000121D F9
@0000121E FD
@0000121F 04
@00001220 04
@00001221 FD
@00001222 F1
@00001223 FF
@00001224 11
@00001225 02
@00001226 00
@00001227 03
@00001228 0F
@00001229 12
@0000122A 09
@0000122B F7
@0000122C 01
@0000122D 08
@0000122E FE
@0000122F FC
@00001230 FD
@00001231 18
@00001232 00
@00001233 07
@00001234 FF
@00001235 FB
@00001236 06
@00001237 FE
@00001238 06
@00001239 01
@0000123A 09
@0000123B 11
@0000123C F9
@0000123D F7
@0000123E 08
@0000123F 00
@00001240 FA
@00001241 F4
@00001242 EE
@00001243 FC
@00001244 F6
@00001245 F4
@00001246 E2
@00001247 F0
@00001248 04
@00001249 FB
@0000124A 0B
@0000124B FA
@0000124C 05
@0000124D FD
@0000124E F5
@0000124F E9
@00001250 F7
@00001251 FA
@00001252 0D
@00001253 EC
@00001254 01
@00001255 00
@00001256 08
@00001257 04
@00001258 12
@00001259 05
@0000125A 03
@0000125B F5
@0000125C 01
@0000125D 07
@0000125E FF
@0000125F FA
@00001260 09
@00001261 F6
@00001262 00
@00001263 FC
@00001264 04
@00001265 F9
@00001266 06
@00001267 FE
@00001268 F9
@00001269 F5
@0000126A 03
@0000126B FC
@0000126C FD
@0000126D F0
@0000126E 02
@0000126F F6
@00001270 07
@00001271 10
@00001272 0D
@00001273 04
@00001274 07
@00001275 11
@00001276 0E
@00001277 03
@00001278 07
@00001279 13
@0000127A 04
@0000127B F9
@0000127C F1
@0000127D F9
@0000127E 01
@0000127F F3
@00001280 05
@00001281 14
@00001282 02
@00001283 0C
@00001284 FD
@00001285 15
@00001286 00
@00001287 F5
@00001288 FA
@00001289 05
@0000128A F9
@0000128B FE
@0000128C F6
@0000128D FE
@0000128E F8
@0000128F F3
@00001290 04
@00001291 09
@00001292 19
@00001293 0B
@00001294 06
@00001295 00
@00001296 0F
@00001297 03
@00001298 FC
@00001299 04
@0000129A FF
@0000129B 06
@0000129C 08
@0000129D 10
@0000129E 0E
@0000129F 02
@000012A0 17
@000012A1 0C
@000012A2 07
@000012A3 0B
@000012A4 08
@000012A5 09
@000012A6 0D
@000012A7 FE
@000012A8 06
@000012A9 03
@000012AA 02
@000012AB 0C
@000012AC 05
@000012AD FA
@000012AE FE
@000012AF FF
@000012B0 FA
@000012B1 00
@000012B2 05
@000012B3 FB
@000012B4 F8
@000012B5 ED
@000012B6 ED
@000012B7 01
@000012B8 F1
@000012B9 05
@000012BA FB
@000012BB FF
@000012BC FE
@000012BD EA
@000012BE F6
@000012BF 06
@000012C0 0B
@000012C1 FA
@000012C2 04
@000012C3 FC
@000012C4 11
@000012C5 14
@000012C6 0E
@000012C7 F8
@000012C8 00
@000012C9 0D
@000012CA 18
@000012CB FB
@000012CC 0D
@000012CD 08
@000012CE 00
@000012CF F6
@000012D0 FF
@000012D1 F8
@000012D2 EF
@000012D3 FE
@000012D4 03
@000012D5 01
@000012D6 FE
@000012D7 F1
@000012D8 02
@000012D9 04
@000012DA F8
@000012DB 00
@000012DC 10
@000012DD F0
@000012DE F7
@000012DF 08
@000012E0 0D
@000012E1 15
@000012E2 05
@000012E3 F8
@000012E4 03
@000012E5 0B
@000012E6 FE
@000012E7 FA
@000012E8 FA
@000012E9 FC
@000012EA FA
@000012EB F9
@000012EC FC
@000012ED EB
@000012EE F1
@000012EF F7
@000012F0 F5
@000012F1 FD
@000012F2 03
@000012F3 12
@000012F4 FD
@000012F5 02
@000012F6 F7
@000012F7 FE
@000012F8 FA
@000012F9 EC
@000012FA FD
@000012FB ED
@000012FC FD
@000012FD F8
@000012FE FD
@000012FF 01
@00001300 FE
@00001301 EF
@00001302 F5
@00001303 EC
@00001304 FF
@00001305 FA
@00001306 FF
@00001307 F6
@00001308 01
@00001309 02
@0000130A ED
@0000130B 04
@0000130C 19
@0000130D 13
@0000130E 03
@0000130F 06
@00001310 F6
@00001311 FF
@00001312 FE
@00001313 09
@00001314 06
@00001315 07
@00001316 05
@00001317 FA
@00001318 0F
@00001319 0A
@0000131A FF
@0000131B 00
@0000131C FE
@0000131D 00
@0000131E FD
@0000131F FE
@00001320 04
@00001321 02
@00001322 FF
@00001323 0B
@00001324 00
@00001325 03
@00001326 03
@00001327 01
@00001328 FE
@00001329 01
@0000132A 14
@0000132B 08
@0000132C 02
@0000132D F4
@0000132E FD
@0000132F F9
@00001330 FE
@00001331 EC
@00001332 0A
@00001333 FD
@00001334 F8
@00001335 00
@00001336 09
@00001337 F6
@00001338 0C
@00001339 FC
@0000133A 0F
@0000133B 00
@0000133C FE
@0000133D 05
@0000133E 09
@0000133F F7
@00001340 FB
@00001341 04
@00001342 03
@00001343 0B
@00001344 F2
@00001345 F9
@00001346 FC
@00001347 0C
@00001348 0A
@00001349 F9
@0000134A 00
@0000134B 02
@0000134C F8
@0000134D FF
@0000134E FE
@0000134F FD
@00001350 01
@00001351 FA
@00001352 04
@00001353 FD
@00001354 01
@00001355 F8
@00001356 04
@00001357 F7
@00001358 01
@00001359 FF
@0000135A 03
@0000135B 09
@0000135C 01
@0000135D F9
@0000135E 01
@0000135F 02
@00001360 F8
@00001361 F8
@00001362 FF
@00001363 EC
@00001364 FC
@00001365 FB
@00001366 F9
@00001367 F0
@00001368 F2
@00001369 F8
@0000136A F0
@0000136B E9
@0000136C F6
@0000136D F9
@0000136E FB
@0000136F FE
@00001370 FA
@00001371 04
@00001372 0F
@00001373 FC
@00001374 01
@00001375 13
@00001376 15
@00001377 06
@00001378 FF
@00001379 F1
@0000137A FF
@0000137B FA
@0000137C F2
@0000137D F4
@0000137E FD
@0000137F F9
@00001380 FF
@00001381 09
@00001382 FF
@00001383 FB
@00001384 F4
@00001385 F7
@00001386 11
@00001387 F9
@00001388 FB
@00001389 01
@0000138A 02
@0000138B 02
@0000138C F5
@0000138D F1
@0000138E 00
@0000138F E9
@00001390 FD
@00001391 F8
@00001392 08
@00001393 04
@00001394 FF
@00001395 05
@00001396 04
@00001397 FD
@00001398 0F
@00001399 0F
@0000139A 05
@0000139B 02
@0000139C F4
@0000139D 0A
@0000139E 09
@0000139F FC
@000013A0 03
@000013A1 0D
@000013A2 FF
@000013A3 FF
@000013A4 00
@000013A5 04
@000013A6 F7
@000013A7 03
@000013A8 0A
@000013A9 FE
@000013AA FD
@000013AB 06
@000013AC FC
@000013AD F3
@000013AE 02
@000013AF 0A
@000013B0 F8
@000013B1 EE
@000013B2 E4
@000013B3 EC
@000013B4 E8
@000013B5 F4
@000013B6 ED
@000013B7 EF
@000013B8 09
@000013B9 F6
@000013BA FE
@000013BB FF
@000013BC 12
@000013BD 06
@000013BE 02
@000013BF 03
@000013C0 F7
@000013C1 F9
@000013C2 0B
@000013C3 F9
@000013C4 FC
@000013C5 0A
@000013C6 04
@000013C7 03
@000013C8 03
@000013C9 04
@000013CA 05
@000013CB F1
@000013CC F9
@000013CD FF
@000013CE FB
@000013CF ED
@000013D0 FA
@000013D1 F8
@000013D2 EA
@000013D3 E4
@000013D4 E9
@000013D5 FD
@000013D6 EE
@000013D7 EB
@000013D8 F3
@000013D9 FD
@000013DA F5
@000013DB F5
@000013DC EA
@000013DD FC
@000013DE 08
@000013DF F5
@000013E0 04
@000013E1 02
@000013E2 FA
@000013E3 F9
@000013E4 13
@000013E5 FE
@000013E6 10
@000013E7 FD
@000013E8 0D
@000013E9 FD
@000013EA 10
@000013EB 07
@000013EC FB
@000013ED 06
@000013EE 05
@000013EF FF
@000013F0 03
@000013F1 02
@000013F2 FC
@000013F3 FE
@000013F4 0E
@000013F5 03
@000013F6 06
@000013F7 FA
@000013F8 04
@000013F9 FA
@000013FA FF
@000013FB F9
@000013FC F8
@000013FD 02
@000013FE EC
@000013FF 02
@00001400 FF
@00001401 0D
@00001402 04
@00001403 F0
@00001404 09
@00001405 14
@00001406 FE
@00001407 00
@00001408 06
@00001409 F5
@0000140A FB
@0000140B F7
@0000140C 06
@0000140D 09
@0000140E 14
@0000140F 10
@00001410 07
@00001411 F4
@00001412 EF
@00001413 ED
@00001414 FE
@00001415 0A
@00001416 04
@00001417 F4
@00001418 04
@00001419 0C
@0000141A FF
@0000141B F4
@0000141C 0A
@0000141D 09
@0000141E 1B
@0000141F 04
@00001420 07
@00001421 F7
@00001422 F8
@00001423 F4
@00001424 EB
@00001425 FE
@00001426 F4
@00001427 F3
@00001428 F6
@00001429 FC
@0000142A F6
@0000142B FB
@0000142C F4
@0000142D 04
@0000142E F5
@0000142F F5
@00001430 FB
@00001431 EE
@00001432 08
@00001433 EC
@00001434 00
@00001435 F8
@00001436 02
@00001437 F8
@00001438 00
@00001439 07
@0000143A F8
@0000143B F9
@0000143C F9
@0000143D 1D
@0000143E F3
@0000143F 00
@00001440 FD
@00001441 03
@00001442 04
@00001443 09
@00001444 0B
@00001445 F6
@00001446 07
@00001447 0A
@00001448 FC
@00001449 02
@0000144A 1F
@0000144B FD
@0000144C EF
@0000144D F9
@0000144E 0D
@0000144F F9
@00001450 07
@00001451 F1
@00001452 FC
@00001453 04
@00001454 05
@00001455 07
@00001456 06
@00001457 F7
@00001458 02
@00001459 F5
@0000145A F9
@0000145B 03
@0000145C 0C
@0000145D EC
@0000145E 05
@0000145F FA
@00001460 07
@00001461 FE
@00001462 F8
@00001463 F9
@00001464 0E
@00001465 FD
@00001466 02
@00001467 E9
@00001468 F7
@00001469 EF
@0000146A 06
@0000146B FC
@0000146C 06
@0000146D FC
@0000146E 14
@0000146F 12
@00001470 05
@00001471 FF
@00001472 FD
@00001473 05
@00001474 F9
@00001475 FD
@00001476 F6
@00001477 F6
@00001478 FB
@00001479 F3
@0000147A FA
@0000147B FA
@0000147C F9
@0000147D 02
@0000147E F6
@0000147F 01
@00001480 06
@00001481 0E
@00001482 04
@00001483 0D
@00001484 00
@00001485 F7
@00001486 05
@00001487 0F
@00001488 FE
@00001489 F9
@0000148A FC
@0000148B 06
@0000148C 00
@0000148D 02
@0000148E FA
@0000148F 0A
@00001490 FF
@00001491 02
@00001492 FA
@00001493 FD
@00001494 01
@00001495 00
@00001496 F1
@00001497 FE
@00001498 EE
@00001499 07
@0000149A FF
@0000149B FA
@0000149C F0
@0000149D F5
@0000149E FB
@0000149F FB
@000014A0 FB
@000014A1 FB
@000014A2 F7
@000014A3 EA
@000014A4 01
@000014A5 F3
@000014A6 FF
@000014A7 FC
@000014A8 E1
@000014A9 F5
@000014AA FC
@000014AB F0
@000014AC ED
@000014AD F2
@000014AE FE
@000014AF 07
@000014B0 0C
@000014B1 FF
@000014B2 F2
@000014B3 F8
@000014B4 04
@000014B5 0F
@000014B6 03
@000014B7 0F
@000014B8 06
@000014B9 F6
@000014BA F7
@000014BB 09
@000014BC 03
@000014BD 02
@000014BE 00
@000014BF F9
@000014C0 06
@000014C1 FA
@000014C2 F1
@000014C3 02
@000014C4 FE
@000014C5 F4
@000014C6 FA
@000014C7 E9
@000014C8 F8
@000014C9 07
@000014CA F1
@000014CB F4
@000014CC 01
@000014CD 12
@000014CE F7
@000014CF F3
@000014D0 01
@000014D1 07
@000014D2 09
@000014D3 0A
@000014D4 15
@000014D5 F9
@000014D6 FF
@000014D7 FD
@000014D8 FA
@000014D9 F4
@000014DA 07
@000014DB F1
@000014DC 14
@000014DD 10
@000014DE 09
@000014DF 02
@000014E0 FA
@000014E1 FF
@000014E2 00
@000014E3 FD
@000014E4 FE
@000014E5 FC
@000014E6 FC
@000014E7 F8
@000014E8 F4
@000014E9 F5
@000014EA FF
@000014EB FE
@000014EC FD
@000014ED 0D
@000014EE 0B
@000014EF 06
@000014F0 00
@000014F1 07
@000014F2 0A
@000014F3 00
@000014F4 02
@000014F5 06
@000014F6 07
@000014F7 FA
@000014F8 0A
@000014F9 F5
@000014FA 05
@000014FB F7
@000014FC FE
@000014FD F6
@000014FE 07
@000014FF F7
@00001500 00
@00001501 FE
@00001502 12
@00001503 F9
@00001504 FE
@00001505 FC
@00001506 E8
@00001507 FE
@00001508 FD
@00001509 0B
@0000150A FC
@0000150B 04
@0000150C F8
@0000150D 06
@0000150E 11
@0000150F 05
@00001510 F6
@00001511 00
@00001512 03
@00001513 F7
@00001514 0A
@00001515 E7
@00001516 F5
@00001517 15
@00001518 04
@00001519 F8
@0000151A 01
@0000151B FD
@0000151C F8
@0000151D EA
@0000151E F3
@0000151F 05
@00001520 02
@00001521 02
@00001522 08
@00001523 0F
@00001524 F4
@00001525 FC
@00001526 05
@00001527 0B
@00001528 F8
@00001529 FA
@0000152A F2
@0000152B 01
@0000152C 04
@0000152D F9
@0000152E 03
@0000152F 06
@00001530 06
@00001531 FE
@00001532 F8
@00001533 01
@00001534 F2
@00001535 F0
@00001536 02
@00001537 08
@00001538 E3
@00001539 F0
@0000153A F6
@0000153B 02
@0000153C 02
@0000153D FB
@0000153E F4
@0000153F 06
@00001540 02
@00001541 06
@00001542 F0
@00001543 FC
@00001544 0D
@00001545 00
@00001546 EF
@00001547 FB
@00001548 F0
@00001549 FC
@0000154A F7
@0000154B FA
@0000154C FB
@0000154D 08
@0000154E 06
@0000154F FF
@00001550 FC
@00001551 F6
@00001552 F3
@00001553 FC
@00001554 0D
@00001555 F6
@00001556 FC
@00001557 ED
@00001558 0D
@00001559 F8
@0000155A 04
@0000155B FE
@0000155C 06
@0000155D 02
@0000155E 09
@0000155F EC
@00001560 F8
@00001561 FF
@00001562 02
@00001563 01
@00001564 FE
@00001565 02
@00001566 FF
@00001567 FD
@00001568 F9
@00001569 0E
@0000156A FF
@0000156B 00
@0000156C 07
@0000156D 05
@0000156E 01
@0000156F 06
@00001570 0B
@00001571 12
@00001572 FD
@00001573 0D
@00001574 02
@00001575 08
@00001576 F8
@00001577 FC
@00001578 FC
@00001579 FE
@0000157A 02
@0000157B 09
@0000157C 08
@0000157D F6
@0000157E F7
@0000157F 09
@00001580 06
@00001581 F2
@00001582 F5
@00001583 F7
@00001584 17
@00001585 05
@00001586 07
@00001587 03
@00001588 09
@00001589 F9
@0000158A 05
@0000158B 06
@0000158C 10
@0000158D 03
@0000158E 07
@0000158F 09
@00001590 02
@00001591 FE
@00001592 03
@00001593 0E
@00001594 F5
@00001595 FC
@00001596 FC
@00001597 02
@00001598 F3
@00001599 E8
@0000159A FD
@0000159B 00
@0000159C E9
@0000159D FA
@0000159E 0A
@0000159F 06
@000015A0 02
@000015A1 05
@000015A2 FB
@000015A3 04
@000015A4 00
@000015A5 0A
@000015A6 F4
@000015A7 0A
@000015A8 04
@000015A9 04
@000015AA FE
@000015AB ED
@000015AC ED
@000015AD FE
@000015AE F9
@000015AF ED
@000015B0 05
@000015B1 F7
@000015B2 05
@000015B3 FE
@000015B4 01
@000015B5 FC
@000015B6 FA
@000015B7 FC
@000015B8 09
@000015B9 0A
@000015BA FD
@000015BB F7
@000015BC 00
@000015BD FD
@000015BE FD
@000015BF F9
@000015C0 07
@000015C1 FA
@000015C2 0E
@000015C3 EE
@000015C4 10
@000015C5 0B
@000015C6 F7
@000015C7 FB
@000015C8 F4
@000015C9 F6
@000015CA F5
@000015CB F4
@000015CC FA
@000015CD F1
@000015CE 07
@000015CF FE
@000015D0 F7
@000015D1 FD
@000015D2 0A
@000015D3 F4
@000015D4 03
@000015D5 FC
@000015D6 09
@000015D7 E9
@000015D8 FB
@000015D9 04
@000015DA F7
@000015DB F9
@000015DC 0F
@000015DD F6
@000015DE 05
@000015DF 03
@000015E0 0E
@000015E1 F2
@000015E2 05
@000015E3 F0
@000015E4 04
@000015E5 F9
@000015E6 F8
@000015E7 17
@000015E8 EE
@000015E9 F2
@000015EA F4
@000015EB F0
@000015EC 00
@000015ED 06
@000015EE 07
@000015EF 13
@000015F0 01
@000015F1 02
@000015F2 07
@000015F3 07
@000015F4 FC
@000015F5 FB
@000015F6 F5
@000015F7 00
@000015F8 0F
@000015F9 FE
@000015FA 08
@000015FB F8
@000015FC F3
@000015FD 08
@000015FE ED
@000015FF 02
@00001600 04
@00001601 02
@00001602 FD
@00001603 05
@00001604 11
@00001605 0A
@00001606 FF
@00001607 01
@00001608 03
@00001609 08
@0000160A 0A
@0000160B 03
@0000160C FE
@0000160D 08
@0000160E FF
@0000160F 0A
@00001610 F3
@00001611 04
@00001612 08
@00001613 FF
@00001614 FD
@00001615 0D
@00001616 F5
@00001617 FD
@00001618 F3
@00001619 FD
@0000161A F3
@0000161B FD
@0000161C EC
@0000161D FC
@0000161E FF
@0000161F 0E
@00001620 F9
@00001621 FA
@00001622 FD
@00001623 F0
@00001624 FB
@00001625 FD
@00001626 04
@00001627 07
@00001628 F8
@00001629 FB
@0000162A 03
@0000162B F7
@0000162C 01
@0000162D 01
@0000162E 08
@0000162F FB
@00001630 E7
@00001631 F3
@00001632 06
@00001633 F5
@00001634 FB
@00001635 06
@00001636 0C
@00001637 04
@00001638 EF
@00001639 01
@0000163A F8
@0000163B 05
@0000163C 01
@0000163D 12
@0000163E 05
@0000163F 13
@00001640 F7
@00001641 FF
@00001642 F7
@00001643 0F
@00001644 F6
@00001645 FA
@00001646 F9
@00001647 01
@00001648 EA
@00001649 07
@0000164A FB
@0000164B FF
@0000164C FD
@0000164D FA
@0000164E 01
@0000164F 07
@00001650 F8
@00001651 E7
@00001652 F2
@00001653 FF
@00001654 EA
@00001655 FA
@00001656 01
@00001657 09
@00001658 F0
@00001659 F5
@0000165A F5
@0000165B FB
@0000165C F9
@0000165D 02
@0000165E 12
@0000165F 06
@00001660 0C
@00001661 FC
@00001662 F4
@00001663 F5
@00001664 07
@00001665 07
@00001666 F1
@00001667 ED
@00001668 FE
@00001669 06
@0000166A 06
@0000166B EF
@0000166C FE
@0000166D 06
@0000166E 09
@0000166F FC
@00001670 01
@00001671 FC
@00001672 F1
@00001673 03
@00001674 FB
@00001675 0C
@00001676 FA
@00001677 FB
@00001678 FF
@00001679 0A
@0000167A FE
@0000167B 17
@0000167C FA
@0000167D 0E
@0000167E 04
@0000167F 06
@00001680 11
@00001681 FE
@00001682 03
@00001683 00
@00001684 02
@00001685 02
@00001686 FD
@00001687 FE
@00001688 FE
@00001689 1B
@0000168A 06
@0000168B 0E
@0000168C 06
@0000168D 15
@0000168E 06
@0000168F 00
@00001690 06
@00001691 08
@00001692 14
@00001693 F7
@00001694 04
@00001695 E7
@00001696 06
@00001697 0E
@00001698 FC
@00001699 F8
@0000169A 02
@0000169B 03
@0000169C 04
@0000169D FB
@0000169E 16
@0000169F FD
@000016A0 F5
@000016A1 0C
@000016A2 05
@000016A3 F9
@000016A4 FF
@000016A5 FD
@000016A6 04
@000016A7 07
@000016A8 03
@000016A9 FE
@000016AA FB
@000016AB 00
@000016AC F0
@000016AD F4
@000016AE FB
@000016AF F9
@000016B0 F6
@000016B1 FB
@000016B2 F6
@000016B3 0C
@000016B4 02
@000016B5 0B
@000016B6 06
@000016B7 01
@000016B8 F9
@000016B9 03
@000016BA 02
@000016BB 0F
@000016BC FA
@000016BD FF
@000016BE 01
@000016BF 00
@000016C0 01
@000016C1 FE
@000016C2 0B
@000016C3 02
@000016C4 1F
@000016C5 FB
@000016C6 04
@000016C7 FE
@000016C8 13
@000016C9 11
@000016CA 14
@000016CB 0B
@000016CC 03
@000016CD 0C
@000016CE 13
@000016CF 0A
@000016D0 03
@000016D1 16
@000016D2 07
@000016D3 FE
@000016D4 08
@000016D5 0B
@000016D6 EB
@000016D7 FF
@000016D8 FF
@000016D9 FC
@000016DA 02
@000016DB 05
@000016DC 00
@000016DD 16
@000016DE 01
@000016DF 06
@000016E0 0B
@000016E1 FE
@000016E2 04
@000016E3 01
@000016E4 0B
@000016E5 04
@000016E6 02
@000016E7 F3
@000016E8 0C
@000016E9 11
@000016EA 0C
@000016EB F7
@000016EC 09
@000016ED 0D
@000016EE 01
@000016EF FF
@000016F0 FA
@000016F1 01
@000016F2 F6
@000016F3 FA
@000016F4 09
@000016F5 04
@000016F6 09
@000016F7 04
@000016F8 03
@000016F9 0C
@000016FA F8
@000016FB 07
@000016FC 01
@000016FD 07
@000016FE FC
@000016FF 03
@00001700 FB
@00001701 FA
@00001702 09
@00001703 FE
@00001704 EF
@00001705 FB
@00001706 FB
@00001707 F2
@00001708 01
@00001709 05
@0000170A FA
@0000170B E6
@0000170C 06
@0000170D 07
@0000170E F4
@0000170F E6
@00001710 FB
@00001711 00
@00001712 FE
@00001713 EE
@00001714 02
@00001715 09
@00001716 EF
@00001717 F3
@00001718 F5
@00001719 0B
@0000171A E6
@0000171B F2
@0000171C F8
@0000171D 01
@0000171E FE
@0000171F FE
@00001720 06
@00001721 EC
@00001722 F3
@00001723 FF
@00001724 F9
@00001725 04
@00001726 01
@00001727 FA
@00001728 0A
@00001729 01
@0000172A FF
@0000172B 0D
@0000172C 05
@0000172D 0E
@0000172E F9
@0000172F FF
@00001730 F6
@00001731 05
@00001732 EF
@00001733 F9
@00001734 FB
@00001735 0B
@00001736 F5
@00001737 07
@00001738 07
@00001739 06
@0000173A 04
@0000173B F1
@0000173C 06
@0000173D 19
@0000173E 09
@0000173F 09
@00001740 FC
@00001741 00
@00001742 03
@00001743 F6
@00001744 01
@00001745 01
@00001746 FA
@00001747 FC
@00001748 06
@00001749 F8
@0000174A F8
@0000174B 00
@0000174C EF
@0000174D FA
@0000174E 00
@0000174F F0
@00001750 FA
@00001751 FE
@00001752 F0
@00001753 00
@00001754 09
@00001755 08
@00001756 F0
@00001757 F6
@00001758 01
@00001759 FF
@0000175A FB
@0000175B 00
@0000175C 0C
@0000175D 12
@0000175E 0E
@0000175F 01
@00001760 FB
@00001761 FB
@00001762 FA
@00001763 05
@00001764 06
@00001765 F9
@00001766 F2
@00001767 02
@00001768 FB
@00001769 FE
@0000176A FC
@0000176B F7
@0000176C 00
@0000176D 08
@0000176E 15
@0000176F 00
@00001770 FE
@00001771 EB
@00001772 F6
@00001773 F0
@00001774 EF
@00001775 05
@00001776 FB
@00001777 FD
@00001778 F7
@00001779 F7
@0000177A F4
@0000177B 09
@0000177C F3
@0000177D F7
@0000177E FB
@0000177F FD
@00001780 06
@00001781 F2
@00001782 F0
@00001783 FB
@00001784 0A
@00001785 02
@00001786 0C
@00001787 F2
@00001788 FA
@00001789 FC
@0000178A 06
@0000178B 15
@0000178C 08
@0000178D 02
@0000178E 08
@0000178F 09
@00001790 F5
@00001791 FD
@00001792 ED
@00001793 F5
@00001794 F0
@00001795 01
@00001796 FA
@00001797 F8
@00001798 F6
@00001799 01
@0000179A F5
@0000179B 0B
@0000179C 07
@0000179D FF
@0000179E F1
@0000179F EF
@000017A0 FA
@000017A1 04
@000017A2 01
@000017A3 F7
@000017A4 FD
@000017A5 09
@000017A6 0E
@000017A7 12
@000017A8 0A
@000017A9 00
@000017AA 06
@000017AB 03
@000017AC 01
@000017AD FB
@000017AE 06
@000017AF FE
@000017B0 FB
@000017B1 FE
@000017B2 0C
@000017B3 F7
@000017B4 03
@000017B5 06
@000017B6 F7
@000017B7 0D
@000017B8 EF
@000017B9 FE
@000017BA 09
@000017BB FE
@000017BC 07
@000017BD 01
@000017BE 10
@000017BF 12
@000017C0 F8
@000017C1 F2
@000017C2 FE
@000017C3 FA
@000017C4 F0
@000017C5 F2
@000017C6 08
@000017C7 FF
@000017C8 EF
@000017C9 FA
@000017CA 02
@000017CB F8
@000017CC F5
@000017CD EA
@000017CE 12
@000017CF 0A
@000017D0 FD
@000017D1 F9
@000017D2 E0
@000017D3 06
@000017D4 07
@000017D5 01
@000017D6 0B
@000017D7 FE
@000017D8 E7
@000017D9 F0
@000017DA E8
@000017DB 01
@000017DC FE
@000017DD 07
@000017DE FB
@000017DF 0D
@000017E0 FB
@000017E1 F4
@000017E2 FD
@000017E3 F0
@000017E4 13
@000017E5 00
@000017E6 09
@000017E7 F6
@000017E8 04
@000017E9 06
@000017EA 08
@000017EB 00
@000017EC 07
@000017ED 0D
@000017EE F8
@000017EF 04
@000017F0 EF
@000017F1 FE
@000017F2 04
@000017F3 07
@000017F4 F0
@000017F5 FF
@000017F6 0A
@000017F7 03
@000017F8 10
@000017F9 FC
@000017FA 15
@000017FB 10
@000017FC 0A
@000017FD 15
@000017FE 11
@000017FF 09
@00001800 FA
@00001801 FC
@00001802 FC
@00001803 03
@00001804 04
@00001805 09
@00001806 01
@00001807 08
@00001808 02
@00001809 02
@0000180A FD
@0000180B 03
@0000180C F7
@0000180D F7
@0000180E FE
@0000180F FF
@00001810 FB
@00001811 FB
@00001812 03
@00001813 FB
@00001814 FC
@00001815 FB
@00001816 FD
@00001817 F7
@00001818 F8
@00001819 F6
@0000181A F6
@0000181B F6
@0000181C F9
@0000181D F6
@0000181E FE
@0000181F 02
@00001820 FE
@00001821 08
@00001822 FF
@00001823 01
@00001824 07
@00001825 FB
@00001826 FF
@00001827 F9
@00001828 FE
@00001829 03
@0000182A FD
@0000182B F8
@0000182C 01
@0000182D FD
@0000182E F8
@0000182F 01
@00001830 F4
@00001831 F9
@00001832 FB
@00001833 EF
@00001834 F1
@00001835 F7
@00001836 F7
@00001837 FA
@00001838 F1
@00001839 F4
@0000183A F8
@0000183B F4
@0000183C F1
@0000183D F3
@0000183E FA
@0000183F F6
@00001840 03
@00001841 00
@00001842 03
@00001843 00
@00001844 03
@00001845 02
@00001846 FE
@00001847 01
@00001848 01
@00001849 FE
@0000184A FB
@0000184B FF
@0000184C 00
@0000184D 01
@0000184E 01
@0000184F 07
@00001850 09
@00001851 05
@00001852 09
@00001853 05
@00001854 01
@00001855 0E
@00001856 01
@00001857 03
@00001858 00
@00001859 06
@0000185A 03
@0000185B 06
@0000185C 0A
@0000185D 01
@0000185E 00
@0000185F FD
@00001860 04
@00001861 F4
@00001862 FB
@00001863 09
@00001864 03
@00001865 FA
@00001866 FE
@00001867 03
@00001868 01
@00001869 FE
@0000186A 01
@0000186B 00
@0000186C 02
@0000186D 05
@0000186E 07
@0000186F 08
@00001870 02
@00001871 01
@00001872 07
@00001873 0A
@00001874 FD
@00001875 FE
@00001876 FC
@00001877 05
@00001878 FF
@00001879 01
@0000187A FE
@0000187B 05
@0000187C 00
@0000187D 03
@0000187E FD
@0000187F 03
@00001880 00
@00001881 02
@00001882 FB
@00001883 05
@00001884 07
@00001885 03
@00001886 03
@00001887 02
@00001888 03
@00001889 01
@0000188A 00
@0000188B 01
@0000188C 01
@0000188D 03
@0000188E 04
@0000188F 08
@00001890 FF
@00001891 FD
@00001892 00
@00001893 01
@00001894 02
@00001895 01
@00001896 02
@00001897 03
@00001898 FA
@00001899 00
@0000189A 02
@0000189B 06
@0000189C F9
@0000189D 01
@0000189E 09
@0000189F FB
@000018A0 04
@000018A1 03
@000018A2 02
@000018A3 FF
@000018A4 F9
@000018A5 FB
@000018A6 F2
@000018A7 F8
@000018A8 F7
@000018A9 F1
@000018AA F5
@000018AB FB
@000018AC F5
@000018AD FA
@000018AE FE
@000018AF F8
@000018B0 04
@000018B1 06
@000018B2 05
@000018B3 00
@000018B4 01
@000018B5 03
@000018B6 F5
@000018B7 00
@000018B8 FD
@000018B9 FD
@000018BA 03
@000018BB 02
@000018BC FE
@000018BD F8
@000018BE 02
@000018BF 0B
@000018C0 F9
@000018C1 FD
@000018C2 FB
@000018C3 03
@000018C4 F3
@000018C5 FA
@000018C6 F4
@000018C7 F3
@000018C8 F1
@000018C9 EC
@000018CA EB
@000018CB F2
@000018CC FD
@000018CD F8
@000018CE 02
@000018CF 00
@000018D0 06
@000018D1 08
@000018D2 01
@000018D3 08
@000018D4 08
@000018D5 04
@000018D6 03
@000018D7 07
@000018D8 01
@000018D9 00
@000018DA 06
@000018DB FD
@000018DC FB
@000018DD FF
@000018DE 04
@000018DF 02
@000018E0 05
@000018E1 FE
@000018E2 FB
@000018E3 FF
@000018E4 03
@000018E5 01
@000018E6 FC
@000018E7 FF
@000018E8 05
@000018E9 00
@000018EA FD
@000018EB 03
@000018EC 00
@000018ED FB
@000018EE 01
@000018EF 04
@000018F0 F9
@000018F1 F6
@000018F2 FB
@000018F3 FB
@000018F4 06
@000018F5 F7
@000018F6 06
@000018F7 02
@000018F8 FA
@000018F9 01
@000018FA F3
@000018FB F9
@000018FC 03
@000018FD FF
@000018FE FA
@000018FF FF
@00001900 01
@00001901 05
@00001902 03
@00001903 0C
@00001904 03
@00001905 FA
@00001906 FF
@00001907 01
@00001908 00
@00001909 00
@0000190A FB
@0000190B FA
@0000190C FE
@0000190D FE
@0000190E FC
@0000190F FF
@00001910 F9
@00001911 04
@00001912 00
@00001913 02
@00001914 FC
@00001915 FC
@00001916 04
@00001917 F8
@00001918 F7
@00001919 FE
@0000191A 01
@0000191B 05
@0000191C 01
@0000191D FF
@0000191E 00
@0000191F FF
@00001920 F7
@00001921 01
@00001922 F8
@00001923 F9
@00001924 F6
@00001925 F7
@00001926 FD
@00001927 F5
@00001928 FF
@00001929 F6
@0000192A F5
@0000192B F9
@0000192C F8
@0000192D FA
@0000192E FA
@0000192F F2
@00001930 FA
@00001931 06
@00001932 00
@00001933 00
@00001934 F9
@00001935 00
@00001936 FB
@00001937 07
@00001938 01
@00001939 03
@0000193A FB
@0000193B 00
@0000193C FF
@0000193D FF
@0000193E FA
@0000193F FF
@00001940 FE
@00001941 FE
@00001942 FC
@00001943 F7
@00001944 FC
@00001945 FE
@00001946 F8
@00001947 03
@00001948 FF
@00001949 FA
@0000194A FA
@0000194B F9
@0000194C 00
@0000194D F9
@0000194E FE
@0000194F FF
@00001950 01
@00001951 03
@00001952 FA
@00001953 FF
@00001954 FE
@00001955 02
@00001956 03
@00001957 00
@00001958 04
@00001959 F8
@0000195A 01
@0000195B 01
@0000195C FF
@0000195D 07
@0000195E 04
@0000195F 05
@00001960 FD
@00001961 02
@00001962 01
@00001963 FB
@00001964 05
@00001965 01
@00001966 06
@00001967 05
@00001968 FC
@00001969 02
@0000196A 02
@0000196B FF
@0000196C F8
@0000196D FF
@0000196E FB
@0000196F F6
@00001970 F9
@00001971 01
@00001972 03
@00001973 FE
@00001974 00
@00001975 00
@00001976 03
@00001977 FE
@00001978 F6
@00001979 FB
@0000197A FC
@0000197B FD
@0000197C FD
@0000197D FB
@0000197E FE
@0000197F F9
@00001980 FF
@00001981 01
@00001982 FB
@00001983 02
@00001984 FC
@00001985 FD
@00001986 FF
@00001987 03
@00001988 F5
@00001989 03
@0000198A 01
@0000198B 03
@0000198C FD
@0000198D F9
@0000198E F9
@0000198F FD
@00001990 FD
@00001991 FD
@00001992 FE
@00001993 FE
@00001994 FF
@00001995 00
@00001996 FB
@00001997 F8
@00001998 FE
@00001999 05
@0000199A 01
@0000199B 03
@0000199C FE
@0000199D 02
@0000199E FF
@0000199F FE
@000019A0 FE
@000019A1 FB
@000019A2 02
@000019A3 F9
@000019A4 04
@000019A5 FB
@000019A6 01
@000019A7 FD
@000019A8 FE
@000019A9 FE
@000019AA FB
@000019AB 00
@000019AC FD
@000019AD FC
@000019AE 03
@000019AF 07
@000019B0 FF
@000019B1 FB
@000019B2 00
@000019B3 03
@000019B4 F8
@000019B5 FE
@000019B6 03
@000019B7 02
@000019B8 FF
@000019B9 FE
@000019BA 03
@000019BB FE
@000019BC FD
@000019BD 04
@000019BE FB
@000019BF 00
@000019C0 FD
@000019C1 F9
@000019C2 FB
@000019C3 FB
@000019C4 05
@000019C5 FA
@000019C6 01
@000019C7 07
@000019C8 00
@000019C9 03
@000019CA 06
@000019CB FB
@000019CC 05
@000019CD FD
@000019CE 0A
@000019CF 03
@000019D0 F9
@000019D1 02
@000019D2 FF
@000019D3 00
@000019D4 F9
@000019D5 FD
@000019D6 FC
@000019D7 00
@000019D8 01
@000019D9 00
@000019DA F7
@000019DB 02
@000019DC FC
@000019DD FA
@000019DE 01
@000019DF FF
@000019E0 FC
@000019E1 FD
@000019E2 05
@000019E3 FB
@000019E4 FC
@000019E5 04
@000019E6 FC
@000019E7 FA
@000019E8 FE
@000019E9 04
@000019EA FF
@000019EB F7
@000019EC FE
@000019ED 0A
@000019EE FE
@000019EF 04
@000019F0 03
@000019F1 FF
@000019F2 FA
@000019F3 FC
@000019F4 FD
@000019F5 F9
@000019F6 FC
@000019F7 F9
@000019F8 F7
@000019F9 F6
@000019FA FB
@000019FB F8
@000019FC FA
@000019FD FC
@000019FE FC
@000019FF FD
@00001A00 FE
@00001A01 FC
@00001A02 FA
@00001A03 FA
@00001A04 FE
@00001A05 00
@00001A06 FC
@00001A07 FA
@00001A08 01
@00001A09 00
@00001A0A 06
@00001A0B FB
@00001A0C FE
@00001A0D FD
@00001A0E FE
@00001A0F 00
@00001A10 01
@00001A11 FC
@00001A12 00
@00001A13 0A
@00001A14 00
@00001A15 00
@00001A16 F9
@00001A17 00
@00001A18 00
@00001A19 FD
@00001A1A FD
@00001A1B 04
@00001A1C FD
@00001A1D FC
@00001A1E 02
@00001A1F FF
@00001A20 F9
@00001A21 FE
@00001A22 02
@00001A23 FD
@00001A24 04
@00001A25 04
@00001A26 FB
@00001A27 01
@00001A28 F9
@00001A29 FA
@00001A2A FF
@00001A2B FA
@00001A2C 08
@00001A2D 07
@00001A2E 0A
@00001A2F 03
@00001A30 06
@00001A31 FD
@00001A32 FC
@00001A33 FE
@00001A34 07
@00001A35 FF
@00001A36 FB
@00001A37 01
@00001A38 07
@00001A39 FE
@00001A3A 03
@00001A3B FA
@00001A3C 01
@00001A3D FC
@00001A3E 02
@00001A3F F8
@00001A40 F9
@00001A41 00
@00001A42 02
@00001A43 F1
@00001A44 FF
@00001A45 FF
@00001A46 F9
@00001A47 FF
@00001A48 F5
@00001A49 F8
@00001A4A F7
@00001A4B FE
@00001A4C FA
@00001A4D F4
@00001A4E F7
@00001A4F F6
@00001A50 F8
@00001A51 FC
@00001A52 F8
@00001A53 FB
@00001A54 F9
@00001A55 F4
@00001A56 EF
@00001A57 00
@00001A58 FB
@00001A59 F7
@00001A5A EE
@00001A5B F4
@00001A5C 02
@00001A5D FA
@00001A5E F4
@00001A5F F7
@00001A60 FB
@00001A61 FB
@00001A62 FB
@00001A63 FC
@00001A64 FC
@00001A65 F6
@00001A66 FC
@00001A67 FF
@00001A68 FB
@00001A69 FB
@00001A6A F5
@00001A6B FC
@00001A6C 00
@00001A6D FE
@00001A6E FE
@00001A6F FD
@00001A70 02
@00001A71 00
@00001A72 04
@00001A73 FF
@00001A74 07
@00001A75 02
@00001A76 F4
@00001A77 FC
@00001A78 01
@00001A79 04
@00001A7A FC
@00001A7B FB
@00001A7C 00
@00001A7D 03
@00001A7E FE
@00001A7F FD
@00001A80 FE
@00001A81 04
@00001A82 FF
@00001A83 09
@00001A84 FD
@00001A85 FC
@00001A86 FC
@00001A87 FC
@00001A88 FC
@00001A89 00
@00001A8A FA
@00001A8B 03
@00001A8C FC
@00001A8D 01
@00001A8E 01
@00001A8F 00
@00001A90 04
@00001A91 FC
@00001A92 FC
@00001A93 FA
@00001A94 FE
@00001A95 04
@00001A96 FD
@00001A97 00
@00001A98 02
@00001A99 00
@00001A9A 01
@00001A9B 03
@00001A9C FC
@00001A9D FC
@00001A9E FC
@00001A9F 07
@00001AA0 03
@00001AA1 FB
@00001AA2 FB
@00001AA3 FF
@00001AA4 00
@00001AA5 FA
@00001AA6 FE
@00001AA7 05
@00001AA8 F9
@00001AA9 F5
@00001AAA FD
@00001AAB 01
@00001AAC 01
@00001AAD FD
@00001AAE 0A
@00001AAF 0B
@00001AB0 00
@00001AB1 00
@00001AB2 05
@00001AB3 09
@00001AB4 03
@00001AB5 01
@00001AB6 0D
@00001AB7 08
@00001AB8 01
@00001AB9 01
@00001ABA 06
@00001ABB 05
@00001ABC F7
@00001ABD 00
@00001ABE FF
@00001ABF FD
@00001AC0 FE
@00001AC1 00
@00001AC2 FB
@00001AC3 FF
@00001AC4 FD
@00001AC5 FB
@00001AC6 05
@00001AC7 FA
@00001AC8 02
@00001AC9 F7
@00001ACA FF
@00001ACB FC
@00001ACC FF
@00001ACD 01
@00001ACE 01
@00001ACF 03
@00001AD0 FC
@00001AD1 F6
@00001AD2 02
@00001AD3 FE
@00001AD4 FD
@00001AD5 FF
@00001AD6 F5
@00001AD7 FE
@00001AD8 05
@00001AD9 FC
@00001ADA F8
@00001ADB FD
@00001ADC F6
@00001ADD FE
@00001ADE FD
@00001ADF 01
@00001AE0 FD
@00001AE1 FB
@00001AE2 FB
@00001AE3 01
@00001AE4 FE
@00001AE5 00
@00001AE6 FD
@00001AE7 FE
@00001AE8 01
@00001AE9 06
@00001AEA 02
@00001AEB 01
@00001AEC 03
@00001AED 01
@00001AEE FA
@00001AEF 01
@00001AF0 FC
@00001AF1 FB
@00001AF2 FE
@00001AF3 00
@00001AF4 00
@00001AF5 03
@00001AF6 0D
@00001AF7 02
@00001AF8 FC
@00001AF9 FE
@00001AFA 02
@00001AFB 00
@00001AFC 02
@00001AFD 06
@00001AFE FB
@00001AFF FD
@00001B00 FE
@00001B01 02
@00001B02 02
@00001B03 0A
@00001B04 03
@00001B05 02
@00001B06 FB
@00001B07 FC
@00001B08 FE
@00001B09 FE
@00001B0A FC
@00001B0B 02
@00001B0C FB
@00001B0D 00
@00001B0E 02
@00001B0F 06
@00001B10 00
@00001B11 02
@00001B12 09
@00001B13 09
@00001B14 01
@00001B15 01
@00001B16 F5
@00001B17 FF
@00001B18 05
@00001B19 00
@00001B1A 04
@00001B1B 05
@00001B1C 03
@00001B1D FE
@00001B1E FE
@00001B1F 02
@00001B20 FC
@00001B21 01
@00001B22 01
@00001B23 03
@00001B24 F5
@00001B25 01
@00001B26 F7
@00001B27 FC
@00001B28 FB
@00001B29 FD
@00001B2A FF
@00001B2B F8
@00001B2C F7
@00001B2D 01
@00001B2E FC
@00001B2F FF
@00001B30 FD
@00001B31 F7
@00001B32 01
@00001B33 00
@00001B34 00
@00001B35 FB
@00001B36 F2
@00001B37 00
@00001B38 FD
@00001B39 F0
@00001B3A FC
@00001B3B F5
@00001B3C FB
@00001B3D F7
@00001B3E 01
@00001B3F FD
@00001B40 08
@00001B41 04
@00001B42 FF
@00001B43 02
@00001B44 03
@00001B45 02
@00001B46 01
@00001B47 F8
@00001B48 01
@00001B49 06
@00001B4A FC
@00001B4B 05
@00001B4C FF
@00001B4D 03
@00001B4E FF
@00001B4F FA
@00001B50 FA
@00001B51 03
@00001B52 FE
@00001B53 FF
@00001B54 02
@00001B55 01
@00001B56 01
@00001B57 FF
@00001B58 00
@00001B59 F8
@00001B5A FC
@00001B5B F4
@00001B5C FE
@00001B5D FF
@00001B5E FE
@00001B5F FD
@00001B60 FD
@00001B61 01
@00001B62 04
@00001B63 01
@00001B64 05
@00001B65 FF
@00001B66 06
@00001B67 0D
@00001B68 01
@00001B69 FF
@00001B6A 07
@00001B6B 03
@00001B6C FE
@00001B6D F3
@00001B6E FD
@00001B6F FF
@00001B70 FE
@00001B71 02
@00001B72 00
@00001B73 03
@00001B74 FE
@00001B75 FB
@00001B76 FA
@00001B77 00
@00001B78 03
@00001B79 03
@00001B7A FC
@00001B7B F9
@00001B7C FC
@00001B7D FF
@00001B7E FA
@00001B7F 02
@00001B80 FF
@00001B81 FC
@00001B82 04
@00001B83 05
@00001B84 04
@00001B85 FF
@00001B86 03
@00001B87 01
@00001B88 FC
@00001B89 03
@00001B8A FD
@00001B8B F9
@00001B8C FC
@00001B8D FC
@00001B8E FE
@00001B8F 07
@00001B90 FA
@00001B91 FF
@00001B92 02
@00001B93 FD
@00001B94 F9
@00001B95 FB
@00001B96 FC
@00001B97 01
@00001B98 02
@00001B99 FE
@00001B9A F2
@00001B9B FC
@00001B9C FC
@00001B9D F9
@00001B9E FB
@00001B9F FF
@00001BA0 FE
@00001BA1 01
@00001BA2 02
@00001BA3 FD
@00001BA4 FD
@00001BA5 FB
@00001BA6 FB
@00001BA7 05
@00001BA8 01
@00001BA9 02
@00001BAA 03
@00001BAB 01
@00001BAC 00
@00001BAD FF
@00001BAE FF
@00001BAF 04
@00001BB0 FC
@00001BB1 FA
@00001BB2 FB
@00001BB3 FE
@00001BB4 FC
@00001BB5 FC
@00001BB6 0A
@00001BB7 06
@00001BB8 03
@00001BB9 FD
@00001BBA FA
@00001BBB FE
@00001BBC F9
@00001BBD FC
@00001BBE FD
@00001BBF F6
@00001BC0 F6
@00001BC1 FC
@00001BC2 FC
@00001BC3 FC
@00001BC4 06
@00001BC5 FB
@00001BC6 F7
@00001BC7 FA
@00001BC8 FA
@00001BC9 01
@00001BCA FA
@00001BCB FE
@00001BCC FB
@00001BCD FE
@00001BCE F6
@00001BCF FD
@00001BD0 F9
@00001BD1 FF
@00001BD2 FB
@00001BD3 F7
@00001BD4 F8
@00001BD5 FE
@00001BD6 FF
@00001BD7 FE
@00001BD8 FF
@00001BD9 02
@00001BDA FC
@00001BDB FC
@00001BDC FD
@00001BDD FE
@00001BDE FF
@00001BDF FA
@00001BE0 04
@00001BE1 FA
@00001BE2 F9
@00001BE3 FA
@00001BE4 07
@00001BE5 00
@00001BE6 04
@00001BE7 02
@00001BE8 01
@00001BE9 05
@00001BEA FE
@00001BEB FC
@00001BEC FF
@00001BED 01
@00001BEE F8
@00001BEF 00
@00001BF0 03
@00001BF1 00
@00001BF2 FC
@00001BF3 02
@00001BF4 00
@00001BF5 03
@00001BF6 08
@00001BF7 03
@00001BF8 00
@00001BF9 05
@00001BFA 00
@00001BFB FC
@00001BFC 01
@00001BFD 09
@00001BFE FE
@00001BFF 03
@00001C00 13
@00001C01 07
@00001C02 07
@00001C03 FA
@00001C04 05
@00001C05 10
@00001C06 14
@00001C07 0F
@00001C08 03
@00001C09 02
@00001C0A 08
@00001C0B FA
@00001C0C F4
@00001C0D F4
@00001C0E F7
@00001C0F F2
@00001C10 F5
@00001C11 03
@00001C12 09
@00001C13 FB
@00001C14 F8
@00001C15 FF
@00001C16 FA
@00001C17 FC
@00001C18 FD
@00001C19 FC
@00001C1A 09
@00001C1B F1
@00001C1C 07
@00001C1D 00
@00001C1E 05
@00001C1F F3
@00001C20 F6
@00001C21 08
@00001C22 EE
@00001C23 05
@00001C24 F3
@00001C25 01
@00001C26 EF
@00001C27 FE
@00001C28 F7
@00001C29 01
@00001C2A F6
@00001C2B 06
@00001C2C FF
@00001C2D FA
@00001C2E 03
@00001C2F F7
@00001C30 FA
@00001C31 01
@00001C32 15
@00001C33 05
@00001C34 11
@00001C35 0C
@00001C36 15
@00001C37 0E
@00001C38 0E
@00001C39 00
@00001C3A 02
@00001C3B FF
@00001C3C 01
@00001C3D FB
@00001C3E EC
@00001C3F FE
@00001C40 06
@00001C41 03
@00001C42 FC
@00001C43 08
@00001C44 04
@00001C45 01
@00001C46 FB
@00001C47 04
@00001C48 0C
@00001C49 03
@00001C4A FD
@00001C4B 04
@00001C4C 04
@00001C4D 03
@00001C4E F6
@00001C4F 02
@00001C50 09
@00001C51 FF
@00001C52 07
@00001C53 03
@00001C54 FE
@00001C55 06
@00001C56 F5
@00001C57 07
@00001C58 03
@00001C59 F3
@00001C5A 0C
@00001C5B 0A
@00001C5C 11
@00001C5D 00
@00001C5E 0B
@00001C5F 02
@00001C60 FD
@00001C61 F8
@00001C62 01
@00001C63 FD
@00001C64 0F
@00001C65 02
@00001C66 FC
@00001C67 F8
@00001C68 0B
@00001C69 FB
@00001C6A F7
@00001C6B FF
@00001C6C 08
@00001C6D 01
@00001C6E 00
@00001C6F 08
@00001C70 12
@00001C71 0D
@00001C72 03
@00001C73 0D
@00001C74 0D
@00001C75 FB
@00001C76 0F
@00001C77 F0
@00001C78 F7
@00001C79 05
@00001C7A FD
@00001C7B 07
@00001C7C 09
@00001C7D 03
@00001C7E 02
@00001C7F FE
@00001C80 FC
@00001C81 FA
@00001C82 06
@00001C83 0A
@00001C84 FE
@00001C85 F1
@00001C86 03
@00001C87 E8
@00001C88 F9
@00001C89 08
@00001C8A 0C
@00001C8B 0C
@00001C8C 08
@00001C8D 04
@00001C8E 15
@00001C8F FC
@00001C90 05
@00001C91 05
@00001C92 03
@00001C93 0B
@00001C94 04
@00001C95 FF
@00001C96 FC
@00001C97 00
@00001C98 04
@00001C99 11
@00001C9A F5
@00001C9B 07
@00001C9C 08
@00001C9D 05
@00001C9E 02
@00001C9F 01
@00001CA0 F3
@00001CA1 EB
@00001CA2 F5
@00001CA3 FC
@00001CA4 00
@00001CA5 EE
@00001CA6 E7
@00001CA7 EF
@00001CA8 03
@00001CA9 F6
@00001CAA FD
@00001CAB E0
@00001CAC EF
@00001CAD F7
@00001CAE FB
@00001CAF F6
@00001CB0 09
@00001CB1 00
@00001CB2 00
@00001CB3 FD
@00001CB4 FB
@00001CB5 07
@00001CB6 0B
@00001CB7 07
@00001CB8 F8
@00001CB9 05
@00001CBA FD
@00001CBB FF
@00001CBC 09
@00001CBD 12
@00001CBE 04
@00001CBF 04
@00001CC0 E2
@00001CC1 00
@00001CC2 02
@00001CC3 FE
@00001CC4 EF
@00001CC5 E1
@00001CC6 F9
@00001CC7 FD
@00001CC8 FF
@00001CC9 F1
@00001CCA DA
@00001CCB 05
@00001CCC 0A
@00001CCD 01
@00001CCE 01
@00001CCF 00
@00001CD0 03
@00001CD1 FE
@00001CD2 FE
@00001CD3 07
@00001CD4 F3
@00001CD5 EF
@00001CD6 01
@00001CD7 0B
@00001CD8 05
@00001CD9 FB
@00001CDA FC
@00001CDB 05
@00001CDC FF
@00001CDD F1
@00001CDE FE
@00001CDF FD
@00001CE0 09
@00001CE1 EF
@00001CE2 03
@00001CE3 FC
@00001CE4 F8
@00001CE5 07
@00001CE6 FE
@00001CE7 EE
@00001CE8 F2
@00001CE9 F5
@00001CEA 02
@00001CEB FC
@00001CEC F5
@00001CED 00
@00001CEE 06
@00001CEF FA
@00001CF0 FA
@00001CF1 FB
@00001CF2 04
@00001CF3 FF
@00001CF4 05
@00001CF5 F4
@00001CF6 FC
@00001CF7 FE
@00001CF8 FC
@00001CF9 03
@00001CFA FF
@00001CFB 08
@00001CFC 07
@00001CFD 06
@00001CFE 09
@00001CFF F9
@00001D00 F7
@00001D01 E2
@00001D02 EE
@00001D03 0A
@00001D04 0A
@00001D05 DE
@00001D06 E8
@00001D07 F0
@00001D08 01
@00001D09 FC
@00001D0A EB
@00001D0B F6
@00001D0C FA
@00001D0D FE
@00001D0E 04
@00001D0F FA
@00001D10 EE
@00001D11 04
@00001D12 E8
@00001D13 07
@00001D14 01
@00001D15 FB
@00001D16 02
@00001D17 F7
@00001D18 12
@00001D19 0F
@00001D1A F9
@00001D1B 0B
@00001D1C 08
@00001D1D 16
@00001D1E 0D
@00001D1F 01
@00001D20 FE
@00001D21 02
@00001D22 EE
@00001D23 FB
@00001D24 11
@00001D25 F7
@00001D26 06
@00001D27 F0
@00001D28 04
@00001D29 FA
@00001D2A F6
@00001D2B FB
@00001D2C 02
@00001D2D 00
@00001D2E 05
@00001D2F F8
@00001D30 00
@00001D31 FD
@00001D32 F8
@00001D33 FB
@00001D34 FB
@00001D35 FE
@00001D36 F9
@00001D37 F8
@00001D38 13
@00001D39 09
@00001D3A 0C
@00001D3B 00
@00001D3C 11
@00001D3D 14
@00001D3E 05
@00001D3F FD
@00001D40 F4
@00001D41 06
@00001D42 0A
@00001D43 06
@00001D44 FB
@00001D45 06
@00001D46 FF
@00001D47 05
@00001D48 09
@00001D49 06
@00001D4A 05
@00001D4B F0
@00001D4C FB
@00001D4D 07
@00001D4E FB
@00001D4F F8
@00001D50 08
@00001D51 01
@00001D52 F3
@00001D53 FF
@00001D54 F7
@00001D55 09
@00001D56 0F
@00001D57 0D
@00001D58 FF
@00001D59 03
@00001D5A F6
@00001D5B FF
@00001D5C FA
@00001D5D F8
@00001D5E 03
@00001D5F 0B
@00001D60 05
@00001D61 07
@00001D62 FD
@00001D63 F1
@00001D64 FF
@00001D65 F9
@00001D66 F9
@00001D67 F8
@00001D68 F3
@00001D69 07
@00001D6A FE
@00001D6B FA
@00001D6C F6
@00001D6D FD
@00001D6E FD
@00001D6F 04
@00001D70 FD
@00001D71 FB
@00001D72 05
@00001D73 06
@00001D74 FF
@00001D75 FC
@00001D76 01
@00001D77 F7
@00001D78 FE
@00001D79 0B
@00001D7A 01
@00001D7B 14
@00001D7C 0F
@00001D7D 03
@00001D7E 07
@00001D7F 06
@00001D80 05
@00001D81 0B
@00001D82 02
@00001D83 04
@00001D84 FC
@00001D85 FC
@00001D86 02
@00001D87 FC
@00001D88 FF
@00001D89 04
@00001D8A 03
@00001D8B 13
@00001D8C FF
@00001D8D 07
@00001D8E 0E
@00001D8F 01
@00001D90 03
@00001D91 01
@00001D92 0B
@00001D93 FB
@00001D94 06
@00001D95 FE
@00001D96 FA
@00001D97 06
@00001D98 05
@00001D99 FE
@00001D9A 09
@00001D9B F1
@00001D9C 00
@00001D9D 02
@00001D9E F8
@00001D9F EB
@00001DA0 F0
@00001DA1 0E
@00001DA2 04
@00001DA3 0A
@00001DA4 FE
@00001DA5 F9
@00001DA6 FF
@00001DA7 F6
@00001DA8 FF
@00001DA9 06
@00001DAA F1
@00001DAB 0A
@00001DAC FF
@00001DAD 02
@00001DAE 01
@00001DAF 05
@00001DB0 0F
@00001DB1 00
@00001DB2 FD
@00001DB3 09
@00001DB4 FA
@00001DB5 03
@00001DB6 08
@00001DB7 FC
@00001DB8 00
@00001DB9 FA
@00001DBA 02
@00001DBB 01
@00001DBC FC
@00001DBD 02
@00001DBE FB
@00001DBF FD
@00001DC0 F8
@00001DC1 09
@00001DC2 04
@00001DC3 10
@00001DC4 0F
@00001DC5 06
@00001DC6 05
@00001DC7 0A
@00001DC8 FC
@00001DC9 F5
@00001DCA FC
@00001DCB F8
@00001DCC 03
@00001DCD 07
@00001DCE 08
@00001DCF 14
@00001DD0 00
@00001DD1 02
@00001DD2 08
@00001DD3 0D
@00001DD4 0B
@00001DD5 FE
@00001DD6 01
@00001DD7 0A
@00001DD8 10
@00001DD9 01
@00001DDA EE
@00001DDB 0B
@00001DDC 14
@00001DDD 00
@00001DDE 0F
@00001DDF F5
@00001DE0 05
@00001DE1 F6
@00001DE2 FE
@00001DE3 0B
@00001DE4 02
@00001DE5 ED
@00001DE6 F7
@00001DE7 F1
@00001DE8 0D
@00001DE9 FE
@00001DEA 10
@00001DEB F6
@00001DEC FF
@00001DED FC
@00001DEE 04
@00001DEF 02
@00001DF0 FE
@00001DF1 FB
@00001DF2 08
@00001DF3 FD
@00001DF4 03
@00001DF5 00
@00001DF6 14
@00001DF7 01
@00001DF8 F5
@00001DF9 0F
@00001DFA EF
@00001DFB 0E
@00001DFC 03
@00001DFD 0E
@00001DFE 09
@00001DFF 06
@00001E00 05
@00001E01 07
@00001E02 09
@00001E03 0B
@00001E04 FA
@00001E05 F5
