// Exported from TinyDetector7Layer
// Shape: (256, 128, 3, 3), Bits: 8
@00000000 09
@00000001 FA
@00000002 04
@00000003 FF
@00000004 F9
@00000005 09
@00000006 02
@00000007 FE
@00000008 FB
@00000009 F5
@0000000A 03
@0000000B 03
@0000000C 01
@0000000D 0D
@0000000E 04
@0000000F 04
@00000010 05
@00000011 02
@00000012 03
@00000013 06
@00000014 07
@00000015 FB
@00000016 00
@00000017 02
@00000018 F8
@00000019 FA
@0000001A 01
@0000001B 03
@0000001C 02
@0000001D 02
@0000001E 05
@0000001F FA
@00000020 02
@00000021 05
@00000022 FB
@00000023 FE
@00000024 F9
@00000025 04
@00000026 01
@00000027 FF
@00000028 0B
@00000029 06
@0000002A F3
@0000002B FA
@0000002C F2
@0000002D F9
@0000002E FD
@0000002F F1
@00000030 FB
@00000031 00
@00000032 07
@00000033 06
@00000034 06
@00000035 08
@00000036 FC
@00000037 FB
@00000038 FF
@00000039 00
@0000003A 02
@0000003B 02
@0000003C 09
@0000003D 07
@0000003E FB
@0000003F 05
@00000040 03
@00000041 FF
@00000042 FE
@00000043 04
@00000044 08
@00000045 01
@00000046 FB
@00000047 FF
@00000048 FB
@00000049 01
@0000004A 08
@0000004B 02
@0000004C FC
@0000004D FE
@0000004E 05
@0000004F 01
@00000050 FB
@00000051 F6
@00000052 05
@00000053 00
@00000054 FB
@00000055 FF
@00000056 FD
@00000057 03
@00000058 02
@00000059 ED
@0000005A 06
@0000005B F4
@0000005C FF
@0000005D 01
@0000005E F2
@0000005F 02
@00000060 05
@00000061 07
@00000062 01
@00000063 FE
@00000064 09
@00000065 FF
@00000066 F8
@00000067 F6
@00000068 FE
@00000069 FF
@0000006A FB
@0000006B 07
@0000006C FD
@0000006D 02
@0000006E F9
@0000006F 04
@00000070 FA
@00000071 F7
@00000072 FF
@00000073 FD
@00000074 06
@00000075 FE
@00000076 FF
@00000077 01
@00000078 03
@00000079 0A
@0000007A FF
@0000007B 00
@0000007C FD
@0000007D 01
@0000007E FE
@0000007F 02
@00000080 F7
@00000081 FF
@00000082 F9
@00000083 02
@00000084 03
@00000085 F0
@00000086 03
@00000087 FE
@00000088 FC
@00000089 FB
@0000008A FB
@0000008B FC
@0000008C 02
@0000008D 05
@0000008E 01
@0000008F 03
@00000090 FC
@00000091 03
@00000092 FE
@00000093 F8
@00000094 F5
@00000095 00
@00000096 FF
@00000097 00
@00000098 06
@00000099 00
@0000009A F4
@0000009B FE
@0000009C 04
@0000009D F6
@0000009E 07
@0000009F F6
@000000A0 01
@000000A1 FF
@000000A2 FF
@000000A3 01
@000000A4 01
@000000A5 01
@000000A6 06
@000000A7 0A
@000000A8 FC
@000000A9 FD
@000000AA F7
@000000AB FC
@000000AC ED
@000000AD 0C
@000000AE 02
@000000AF F9
@000000B0 01
@000000B1 08
@000000B2 07
@000000B3 02
@000000B4 07
@000000B5 03
@000000B6 F6
@000000B7 05
@000000B8 FF
@000000B9 01
@000000BA FB
@000000BB 09
@000000BC FA
@000000BD 02
@000000BE FE
@000000BF 0C
@000000C0 07
@000000C1 01
@000000C2 FF
@000000C3 04
@000000C4 03
@000000C5 FB
@000000C6 FE
@000000C7 FF
@000000C8 FD
@000000C9 FF
@000000CA 06
@000000CB 08
@000000CC 04
@000000CD 03
@000000CE 09
@000000CF FD
@000000D0 0D
@000000D1 FE
@000000D2 FB
@000000D3 FD
@000000D4 04
@000000D5 00
@000000D6 01
@000000D7 FF
@000000D8 02
@000000D9 02
@000000DA 03
@000000DB FB
@000000DC FE
@000000DD 0C
@000000DE FF
@000000DF 01
@000000E0 00
@000000E1 03
@000000E2 01
@000000E3 01
@000000E4 07
@000000E5 08
@000000E6 04
@000000E7 08
@000000E8 0F
@000000E9 04
@000000EA 06
@000000EB FB
@000000EC F8
@000000ED FF
@000000EE FE
@000000EF 0D
@000000F0 FE
@000000F1 F8
@000000F2 0B
@000000F3 F2
@000000F4 FF
@000000F5 00
@000000F6 F9
@000000F7 04
@000000F8 07
@000000F9 FE
@000000FA F9
@000000FB FE
@000000FC FF
@000000FD FC
@000000FE FD
@000000FF 00
@00000100 FB
@00000101 F6
@00000102 FC
@00000103 FC
@00000104 FB
@00000105 05
@00000106 F5
@00000107 F5
@00000108 00
@00000109 FF
@0000010A 03
@0000010B FE
@0000010C FB
@0000010D 01
@0000010E 00
@0000010F FB
@00000110 F7
@00000111 FE
@00000112 04
@00000113 F9
@00000114 06
@00000115 F8
@00000116 FC
@00000117 01
@00000118 FB
@00000119 FF
@0000011A 03
@0000011B F4
@0000011C 0F
@0000011D 08
@0000011E 06
@0000011F 03
@00000120 04
@00000121 02
@00000122 05
@00000123 00
@00000124 FA
@00000125 03
@00000126 03
@00000127 02
@00000128 08
@00000129 02
@0000012A 04
@0000012B FC
@0000012C 02
@0000012D F9
@0000012E FE
@0000012F F9
@00000130 01
@00000131 0A
@00000132 05
@00000133 01
@00000134 00
@00000135 03
@00000136 FF
@00000137 FD
@00000138 06
@00000139 FE
@0000013A ED
@0000013B F1
@0000013C FE
@0000013D 01
@0000013E F4
@0000013F 06
@00000140 F9
@00000141 03
@00000142 01
@00000143 F4
@00000144 04
@00000145 03
@00000146 FE
@00000147 FB
@00000148 F2
@00000149 03
@0000014A F8
@0000014B FE
@0000014C F6
@0000014D FF
@0000014E FE
@0000014F 01
@00000150 F7
@00000151 FC
@00000152 FE
@00000153 0C
@00000154 FE
@00000155 04
@00000156 00
@00000157 F9
@00000158 02
@00000159 F9
@0000015A F8
@0000015B FD
@0000015C 08
@0000015D 08
@0000015E 0B
@0000015F F7
@00000160 01
@00000161 01
@00000162 F8
@00000163 F9
@00000164 F6
@00000165 0B
@00000166 01
@00000167 F7
@00000168 07
@00000169 FD
@0000016A F5
@0000016B FC
@0000016C 03
@0000016D F6
@0000016E F9
@0000016F 05
@00000170 F9
@00000171 04
@00000172 FE
@00000173 02
@00000174 F9
@00000175 00
@00000176 07
@00000177 F2
@00000178 0A
@00000179 0B
@0000017A F6
@0000017B F8
@0000017C 04
@0000017D F6
@0000017E 05
@0000017F FA
@00000180 F6
@00000181 0A
@00000182 FC
@00000183 FC
@00000184 FB
@00000185 06
@00000186 FA
@00000187 08
@00000188 03
@00000189 07
@0000018A FB
@0000018B 04
@0000018C 03
@0000018D F5
@0000018E F9
@0000018F 08
@00000190 F3
@00000191 FB
@00000192 FC
@00000193 F6
@00000194 01
@00000195 F5
@00000196 FE
@00000197 02
@00000198 FD
@00000199 01
@0000019A F7
@0000019B 08
@0000019C F9
@0000019D 00
@0000019E 05
@0000019F 00
@000001A0 00
@000001A1 F2
@000001A2 05
@000001A3 FE
@000001A4 00
@000001A5 02
@000001A6 FD
@000001A7 01
@000001A8 F2
@000001A9 00
@000001AA FB
@000001AB F5
@000001AC FE
@000001AD 03
@000001AE 08
@000001AF F1
@000001B0 FD
@000001B1 02
@000001B2 07
@000001B3 FF
@000001B4 01
@000001B5 06
@000001B6 00
@000001B7 00
@000001B8 05
@000001B9 0D
@000001BA 02
@000001BB 03
@000001BC 0D
@000001BD FA
@000001BE F9
@000001BF 03
@000001C0 FE
@000001C1 FC
@000001C2 07
@000001C3 01
@000001C4 FE
@000001C5 0D
@000001C6 00
@000001C7 00
@000001C8 00
@000001C9 F9
@000001CA 04
@000001CB FB
@000001CC 12
@000001CD 01
@000001CE 02
@000001CF F9
@000001D0 04
@000001D1 01
@000001D2 F3
@000001D3 00
@000001D4 03
@000001D5 04
@000001D6 02
@000001D7 04
@000001D8 F5
@000001D9 02
@000001DA FB
@000001DB 0A
@000001DC FF
@000001DD 07
@000001DE FE
@000001DF FC
@000001E0 04
@000001E1 FC
@000001E2 01
@000001E3 04
@000001E4 03
@000001E5 04
@000001E6 07
@000001E7 FD
@000001E8 FC
@000001E9 01
@000001EA F9
@000001EB 02
@000001EC FD
@000001ED F6
@000001EE 03
@000001EF FD
@000001F0 00
@000001F1 FD
@000001F2 F7
@000001F3 01
@000001F4 00
@000001F5 03
@000001F6 FE
@000001F7 FA
@000001F8 FF
@000001F9 00
@000001FA FE
@000001FB F5
@000001FC 00
@000001FD 0A
@000001FE 03
@000001FF F9
@00000200 09
@00000201 F1
@00000202 07
@00000203 03
@00000204 FE
@00000205 08
@00000206 03
@00000207 09
@00000208 02
@00000209 04
@0000020A 0D
@0000020B 05
@0000020C 02
@0000020D 15
@0000020E F6
@0000020F 07
@00000210 07
@00000211 FA
@00000212 00
@00000213 FD
@00000214 FD
@00000215 05
@00000216 04
@00000217 F1
@00000218 FA
@00000219 00
@0000021A F4
@0000021B 02
@0000021C 0F
@0000021D F3
@0000021E 04
@0000021F FE
@00000220 F8
@00000221 01
@00000222 03
@00000223 05
@00000224 FE
@00000225 FD
@00000226 01
@00000227 0B
@00000228 FF
@00000229 FE
@0000022A 06
@0000022B 01
@0000022C FE
@0000022D 08
@0000022E 06
@0000022F 06
@00000230 06
@00000231 F2
@00000232 03
@00000233 02
@00000234 FF
@00000235 06
@00000236 05
@00000237 06
@00000238 F6
@00000239 F6
@0000023A 05
@0000023B FC
@0000023C 04
@0000023D FA
@0000023E 03
@0000023F F1
@00000240 05
@00000241 03
@00000242 FE
@00000243 FA
@00000244 F7
@00000245 01
@00000246 FE
@00000247 06
@00000248 08
@00000249 02
@0000024A 01
@0000024B 05
@0000024C 06
@0000024D FF
@0000024E 03
@0000024F 02
@00000250 04
@00000251 FA
@00000252 00
@00000253 F0
@00000254 04
@00000255 FF
@00000256 00
@00000257 00
@00000258 FD
@00000259 0F
@0000025A 02
@0000025B 0B
@0000025C F7
@0000025D 0B
@0000025E 00
@0000025F FE
@00000260 FF
@00000261 01
@00000262 01
@00000263 01
@00000264 03
@00000265 09
@00000266 04
@00000267 08
@00000268 F8
@00000269 F4
@0000026A FF
@0000026B FA
@0000026C 07
@0000026D 07
@0000026E 00
@0000026F F8
@00000270 FD
@00000271 06
@00000272 0A
@00000273 0E
@00000274 FE
@00000275 05
@00000276 FB
@00000277 FB
@00000278 06
@00000279 F6
@0000027A F6
@0000027B FC
@0000027C 04
@0000027D 0A
@0000027E FC
@0000027F 07
@00000280 FD
@00000281 0C
@00000282 07
@00000283 F7
@00000284 FF
@00000285 FB
@00000286 FF
@00000287 06
@00000288 FC
@00000289 FB
@0000028A FF
@0000028B FB
@0000028C 06
@0000028D 08
@0000028E F9
@0000028F 07
@00000290 FB
@00000291 FD
@00000292 FF
@00000293 FD
@00000294 FF
@00000295 FC
@00000296 01
@00000297 09
@00000298 0A
@00000299 FE
@0000029A 07
@0000029B 02
@0000029C F6
@0000029D F9
@0000029E FB
@0000029F 02
@000002A0 FA
@000002A1 03
@000002A2 05
@000002A3 03
@000002A4 04
@000002A5 07
@000002A6 02
@000002A7 00
@000002A8 FF
@000002A9 08
@000002AA 00
@000002AB 03
@000002AC 08
@000002AD 00
@000002AE 00
@000002AF 0A
@000002B0 02
@000002B1 0A
@000002B2 06
@000002B3 00
@000002B4 FC
@000002B5 FE
@000002B6 08
@000002B7 09
@000002B8 FD
@000002B9 03
@000002BA 03
@000002BB 04
@000002BC 04
@000002BD 02
@000002BE 05
@000002BF 03
@000002C0 06
@000002C1 01
@000002C2 08
@000002C3 F8
@000002C4 00
@000002C5 F9
@000002C6 F8
@000002C7 FF
@000002C8 02
@000002C9 F9
@000002CA FC
@000002CB 04
@000002CC 02
@000002CD FB
@000002CE FF
@000002CF F6
@000002D0 FC
@000002D1 FD
@000002D2 07
@000002D3 04
@000002D4 05
@000002D5 0C
@000002D6 FD
@000002D7 FC
@000002D8 FA
@000002D9 01
@000002DA FC
@000002DB 05
@000002DC F3
@000002DD FE
@000002DE F3
@000002DF 00
@000002E0 01
@000002E1 06
@000002E2 FB
@000002E3 06
@000002E4 0A
@000002E5 04
@000002E6 01
@000002E7 0A
@000002E8 FE
@000002E9 04
@000002EA 02
@000002EB 06
@000002EC 00
@000002ED FE
@000002EE 04
@000002EF F9
@000002F0 0B
@000002F1 FA
@000002F2 09
@000002F3 02
@000002F4 FE
@000002F5 F6
@000002F6 01
@000002F7 FE
@000002F8 FB
@000002F9 0D
@000002FA FF
@000002FB 02
@000002FC FD
@000002FD FC
@000002FE 02
@000002FF 03
@00000300 F8
@00000301 00
@00000302 02
@00000303 0B
@00000304 FB
@00000305 FD
@00000306 01
@00000307 03
@00000308 04
@00000309 FC
@0000030A F9
@0000030B FF
@0000030C F8
@0000030D FA
@0000030E 10
@0000030F 09
@00000310 05
@00000311 FA
@00000312 09
@00000313 FA
@00000314 FA
@00000315 0D
@00000316 FA
@00000317 FE
@00000318 FB
@00000319 07
@0000031A 01
@0000031B F5
@0000031C F9
@0000031D 0B
@0000031E FD
@0000031F FD
@00000320 FB
@00000321 FD
@00000322 01
@00000323 FD
@00000324 F8
@00000325 F9
@00000326 FD
@00000327 FD
@00000328 07
@00000329 FE
@0000032A 09
@0000032B FF
@0000032C 0F
@0000032D 01
@0000032E FD
@0000032F FE
@00000330 06
@00000331 FA
@00000332 01
@00000333 02
@00000334 F8
@00000335 0E
@00000336 FE
@00000337 F9
@00000338 0A
@00000339 0B
@0000033A 07
@0000033B 02
@0000033C FD
@0000033D 0A
@0000033E 09
@0000033F F9
@00000340 00
@00000341 01
@00000342 02
@00000343 F4
@00000344 FC
@00000345 FF
@00000346 0A
@00000347 06
@00000348 F7
@00000349 F7
@0000034A 0B
@0000034B 02
@0000034C FE
@0000034D F3
@0000034E FD
@0000034F FC
@00000350 F6
@00000351 FF
@00000352 04
@00000353 01
@00000354 FF
@00000355 FA
@00000356 04
@00000357 FC
@00000358 FC
@00000359 FE
@0000035A FC
@0000035B FE
@0000035C 00
@0000035D FA
@0000035E 00
@0000035F FA
@00000360 08
@00000361 FA
@00000362 FC
@00000363 08
@00000364 FD
@00000365 06
@00000366 FC
@00000367 01
@00000368 FA
@00000369 09
@0000036A FE
@0000036B 00
@0000036C 04
@0000036D FF
@0000036E 00
@0000036F 00
@00000370 FF
@00000371 FF
@00000372 09
@00000373 FF
@00000374 FD
@00000375 01
@00000376 01
@00000377 FF
@00000378 05
@00000379 FC
@0000037A 02
@0000037B 0B
@0000037C FD
@0000037D 05
@0000037E 00
@0000037F F9
@00000380 FD
@00000381 FC
@00000382 FF
@00000383 FC
@00000384 F8
@00000385 FF
@00000386 FB
@00000387 06
@00000388 0E
@00000389 09
@0000038A 03
@0000038B 00
@0000038C 05
@0000038D FA
@0000038E 03
@0000038F 06
@00000390 06
@00000391 02
@00000392 00
@00000393 00
@00000394 FC
@00000395 FE
@00000396 FD
@00000397 FE
@00000398 FE
@00000399 FF
@0000039A 03
@0000039B 02
@0000039C 04
@0000039D 01
@0000039E 03
@0000039F FC
@000003A0 FA
@000003A1 F3
@000003A2 06
@000003A3 03
@000003A4 FC
@000003A5 FD
@000003A6 FF
@000003A7 FD
@000003A8 02
@000003A9 F6
@000003AA 07
@000003AB 02
@000003AC 04
@000003AD FB
@000003AE 00
@000003AF FF
@000003B0 FF
@000003B1 FB
@000003B2 04
@000003B3 F6
@000003B4 00
@000003B5 00
@000003B6 FE
@000003B7 0B
@000003B8 FF
@000003B9 FC
@000003BA 08
@000003BB 05
@000003BC 00
@000003BD F4
@000003BE F6
@000003BF 01
@000003C0 04
@000003C1 03
@000003C2 06
@000003C3 04
@000003C4 F8
@000003C5 FB
@000003C6 01
@000003C7 F1
@000003C8 03
@000003C9 08
@000003CA 15
@000003CB 01
@000003CC F7
@000003CD 02
@000003CE 09
@000003CF F8
@000003D0 F6
@000003D1 FE
@000003D2 02
@000003D3 00
@000003D4 00
@000003D5 04
@000003D6 02
@000003D7 FA
@000003D8 FC
@000003D9 F5
@000003DA F6
@000003DB FD
@000003DC 0A
@000003DD F4
@000003DE 04
@000003DF F8
@000003E0 FD
@000003E1 FD
@000003E2 04
@000003E3 EE
@000003E4 06
@000003E5 01
@000003E6 03
@000003E7 00
@000003E8 06
@000003E9 03
@000003EA FC
@000003EB 08
@000003EC FC
@000003ED FD
@000003EE 00
@000003EF 01
@000003F0 04
@000003F1 FA
@000003F2 04
@000003F3 03
@000003F4 00
@000003F5 07
@000003F6 00
@000003F7 00
@000003F8 01
@000003F9 F9
@000003FA 03
@000003FB 0D
@000003FC F1
@000003FD F9
@000003FE 06
@000003FF 0D
@00000400 02
@00000401 10
@00000402 FD
@00000403 03
@00000404 FF
@00000405 F8
@00000406 03
@00000407 06
@00000408 F6
@00000409 02
@0000040A FD
@0000040B 00
@0000040C FC
@0000040D 06
@0000040E FE
@0000040F 01
@00000410 04
@00000411 FD
@00000412 F4
@00000413 F7
@00000414 FE
@00000415 05
@00000416 FE
@00000417 02
@00000418 F7
@00000419 FF
@0000041A 03
@0000041B 0A
@0000041C 09
@0000041D FE
@0000041E F7
@0000041F 02
@00000420 06
@00000421 04
@00000422 02
@00000423 10
@00000424 05
@00000425 FC
@00000426 FE
@00000427 FA
@00000428 05
@00000429 F1
@0000042A 01
@0000042B 0E
@0000042C FF
@0000042D 00
@0000042E F7
@0000042F 02
@00000430 F8
@00000431 08
@00000432 FB
@00000433 FE
@00000434 06
@00000435 FC
@00000436 11
@00000437 01
@00000438 01
@00000439 07
@0000043A 04
@0000043B 00
@0000043C 00
@0000043D 00
@0000043E 06
@0000043F 06
@00000440 F9
@00000441 FF
@00000442 05
@00000443 09
@00000444 00
@00000445 02
@00000446 03
@00000447 02
@00000448 FA
@00000449 08
@0000044A FE
@0000044B 01
@0000044C F4
@0000044D FA
@0000044E FA
@0000044F FE
@00000450 02
@00000451 03
@00000452 FB
@00000453 04
@00000454 FE
@00000455 FA
@00000456 03
@00000457 01
@00000458 FD
@00000459 09
@0000045A F6
@0000045B F7
@0000045C F1
@0000045D F9
@0000045E 02
@0000045F FD
@00000460 FD
@00000461 04
@00000462 02
@00000463 FE
@00000464 04
@00000465 00
@00000466 07
@00000467 FF
@00000468 F3
@00000469 0B
@0000046A 05
@0000046B FA
@0000046C F7
@0000046D 04
@0000046E 06
@0000046F 03
@00000470 FA
@00000471 02
@00000472 FA
@00000473 02
@00000474 04
@00000475 05
@00000476 FE
@00000477 FD
@00000478 01
@00000479 02
@0000047A FB
@0000047B FC
@0000047C F9
@0000047D FF
@0000047E 02
@0000047F FD
@00000480 FE
@00000481 00
@00000482 FD
@00000483 08
@00000484 01
@00000485 03
@00000486 07
@00000487 00
@00000488 04
@00000489 FF
@0000048A F8
@0000048B F6
@0000048C 04
@0000048D FF
@0000048E 07
@0000048F FF
@00000490 05
@00000491 FF
@00000492 0C
@00000493 00
@00000494 FF
@00000495 FF
@00000496 FE
@00000497 09
@00000498 FE
@00000499 F8
@0000049A 01
@0000049B FE
@0000049C 02
@0000049D 00
@0000049E 0B
@0000049F FF
@000004A0 09
@000004A1 0A
@000004A2 F7
@000004A3 FE
@000004A4 FE
@000004A5 F7
@000004A6 FF
@000004A7 F8
@000004A8 FF
@000004A9 F9
@000004AA 09
@000004AB 04
@000004AC 06
@000004AD 00
@000004AE 04
@000004AF F3
@000004B0 04
@000004B1 05
@000004B2 00
@000004B3 04
@000004B4 FE
@000004B5 FC
@000004B6 FE
@000004B7 FD
@000004B8 FA
@000004B9 09
@000004BA FF
@000004BB 00
@000004BC 02
@000004BD 01
@000004BE 03
@000004BF FC
@000004C0 07
@000004C1 01
@000004C2 FD
@000004C3 F8
@000004C4 F5
@000004C5 00
@000004C6 FF
@000004C7 00
@000004C8 FA
@000004C9 F4
@000004CA F8
@000004CB 0D
@000004CC 02
@000004CD 07
@000004CE 04
@000004CF 03
@000004D0 04
@000004D1 FB
@000004D2 07
@000004D3 04
@000004D4 FE
@000004D5 04
@000004D6 FE
@000004D7 04
@000004D8 04
@000004D9 0D
@000004DA 01
@000004DB FE
@000004DC F6
@000004DD FD
@000004DE 02
@000004DF 02
@000004E0 FB
@000004E1 02
@000004E2 03
@000004E3 0A
@000004E4 00
@000004E5 FD
@000004E6 FD
@000004E7 05
@000004E8 F7
@000004E9 F9
@000004EA 00
@000004EB FB
@000004EC 03
@000004ED 00
@000004EE FB
@000004EF FA
@000004F0 FE
@000004F1 FB
@000004F2 FF
@000004F3 F5
@000004F4 FD
@000004F5 FB
@000004F6 FA
@000004F7 FD
@000004F8 FA
@000004F9 EF
@000004FA F3
@000004FB FC
@000004FC 05
@000004FD FE
@000004FE FE
@000004FF 02
@00000500 04
@00000501 FC
@00000502 04
@00000503 FE
@00000504 FE
@00000505 FC
@00000506 FC
@00000507 FB
@00000508 04
@00000509 FF
@0000050A 05
@0000050B 07
@0000050C FF
@0000050D 03
@0000050E 01
@0000050F FC
@00000510 F4
@00000511 05
@00000512 FC
@00000513 FE
@00000514 FC
@00000515 FA
@00000516 07
@00000517 00
@00000518 07
@00000519 FA
@0000051A F6
@0000051B F5
@0000051C 01
@0000051D 03
@0000051E FB
@0000051F FA
@00000520 05
@00000521 00
@00000522 00
@00000523 F3
@00000524 02
@00000525 F4
@00000526 01
@00000527 01
@00000528 FB
@00000529 FF
@0000052A 00
@0000052B 07
@0000052C 00
@0000052D FE
@0000052E 0D
@0000052F 00
@00000530 05
@00000531 FF
@00000532 FC
@00000533 06
@00000534 08
@00000535 05
@00000536 01
@00000537 FA
@00000538 FA
@00000539 FF
@0000053A 00
@0000053B F8
@0000053C FA
@0000053D FF
@0000053E 03
@0000053F FC
@00000540 F6
@00000541 F2
@00000542 F8
@00000543 F6
@00000544 F1
@00000545 EF
@00000546 FF
@00000547 04
@00000548 00
@00000549 03
@0000054A 02
@0000054B 04
@0000054C 02
@0000054D 05
@0000054E F7
@0000054F FE
@00000550 FF
@00000551 FA
@00000552 01
@00000553 08
@00000554 07
@00000555 07
@00000556 02
@00000557 04
@00000558 FF
@00000559 FB
@0000055A F7
@0000055B 00
@0000055C 03
@0000055D 00
@0000055E 01
@0000055F 02
@00000560 FE
@00000561 00
@00000562 02
@00000563 01
@00000564 05
@00000565 02
@00000566 F4
@00000567 06
@00000568 0A
@00000569 00
@0000056A 09
@0000056B 0E
@0000056C 07
@0000056D 00
@0000056E 00
@0000056F 01
@00000570 00
@00000571 03
@00000572 FA
@00000573 00
@00000574 F9
@00000575 FB
@00000576 FC
@00000577 F9
@00000578 FD
@00000579 FD
@0000057A 05
@0000057B 06
@0000057C 08
@0000057D 00
@0000057E FD
@0000057F FF
@00000580 02
@00000581 05
@00000582 FF
@00000583 FD
@00000584 08
@00000585 F7
@00000586 01
@00000587 01
@00000588 FD
@00000589 F8
@0000058A F9
@0000058B FF
@0000058C FC
@0000058D 02
@0000058E FF
@0000058F F7
@00000590 02
@00000591 FD
@00000592 FD
@00000593 01
@00000594 03
@00000595 FE
@00000596 08
@00000597 FB
@00000598 02
@00000599 FD
@0000059A 02
@0000059B 06
@0000059C FE
@0000059D FC
@0000059E FC
@0000059F FB
@000005A0 04
@000005A1 04
@000005A2 FD
@000005A3 01
@000005A4 05
@000005A5 02
@000005A6 05
@000005A7 00
@000005A8 F5
@000005A9 03
@000005AA 03
@000005AB FF
@000005AC FB
@000005AD 02
@000005AE FD
@000005AF FD
@000005B0 FE
@000005B1 FA
@000005B2 07
@000005B3 02
@000005B4 02
@000005B5 05
@000005B6 FC
@000005B7 08
@000005B8 FE
@000005B9 FE
@000005BA 04
@000005BB FA
@000005BC FC
@000005BD 01
@000005BE 01
@000005BF FC
@000005C0 F7
@000005C1 02
@000005C2 04
@000005C3 00
@000005C4 03
@000005C5 04
@000005C6 FD
@000005C7 06
@000005C8 01
@000005C9 FA
@000005CA 04
@000005CB FF
@000005CC 01
@000005CD 08
@000005CE 08
@000005CF FB
@000005D0 00
@000005D1 03
@000005D2 04
@000005D3 00
@000005D4 01
@000005D5 05
@000005D6 FF
@000005D7 FD
@000005D8 FC
@000005D9 FE
@000005DA 00
@000005DB 04
@000005DC 01
@000005DD 07
@000005DE 04
@000005DF FF
@000005E0 FE
@000005E1 01
@000005E2 07
@000005E3 06
@000005E4 05
@000005E5 06
@000005E6 03
@000005E7 01
@000005E8 FE
@000005E9 02
@000005EA 02
@000005EB FF
@000005EC FA
@000005ED FF
@000005EE 00
@000005EF FF
@000005F0 FD
@000005F1 08
@000005F2 02
@000005F3 06
@000005F4 FC
@000005F5 FE
@000005F6 02
@000005F7 02
@000005F8 F2
@000005F9 F8
@000005FA FF
@000005FB 08
@000005FC 05
@000005FD FD
@000005FE FC
@000005FF 01
@00000600 01
@00000601 00
@00000602 F6
@00000603 01
@00000604 01
@00000605 01
@00000606 FE
@00000607 00
@00000608 FD
@00000609 00
@0000060A FF
@0000060B FD
@0000060C FE
@0000060D FD
@0000060E FF
@0000060F FA
@00000610 08
@00000611 04
@00000612 07
@00000613 06
@00000614 FC
@00000615 FD
@00000616 02
@00000617 09
@00000618 0D
@00000619 FE
@0000061A FD
@0000061B 00
@0000061C 02
@0000061D FC
@0000061E 00
@0000061F FD
@00000620 F8
@00000621 00
@00000622 02
@00000623 00
@00000624 FB
@00000625 FE
@00000626 FA
@00000627 FE
@00000628 F8
@00000629 05
@0000062A 09
@0000062B 06
@0000062C FF
@0000062D 03
@0000062E FF
@0000062F FF
@00000630 06
@00000631 04
@00000632 00
@00000633 FA
@00000634 FF
@00000635 F9
@00000636 FD
@00000637 FD
@00000638 FA
@00000639 FE
@0000063A FF
@0000063B 07
@0000063C FB
@0000063D 03
@0000063E F8
@0000063F F6
@00000640 00
@00000641 FC
@00000642 F3
@00000643 F5
@00000644 F7
@00000645 04
@00000646 02
@00000647 05
@00000648 00
@00000649 F9
@0000064A 05
@0000064B FE
@0000064C FC
@0000064D FA
@0000064E FD
@0000064F FF
@00000650 FC
@00000651 FD
@00000652 FE
@00000653 02
@00000654 F9
@00000655 FD
@00000656 FC
@00000657 FD
@00000658 FE
@00000659 FC
@0000065A FE
@0000065B FD
@0000065C F6
@0000065D 01
@0000065E FC
@0000065F FB
@00000660 FF
@00000661 F9
@00000662 FB
@00000663 09
@00000664 00
@00000665 07
@00000666 02
@00000667 FC
@00000668 F5
@00000669 FE
@0000066A 02
@0000066B FE
@0000066C 0A
@0000066D FF
@0000066E 05
@0000066F 04
@00000670 F2
@00000671 FF
@00000672 FA
@00000673 F3
@00000674 F3
@00000675 02
@00000676 02
@00000677 00
@00000678 FE
@00000679 FB
@0000067A FD
@0000067B 02
@0000067C 04
@0000067D FB
@0000067E F6
@0000067F 05
@00000680 FE
@00000681 04
@00000682 F8
@00000683 FC
@00000684 00
@00000685 00
@00000686 FE
@00000687 01
@00000688 00
@00000689 03
@0000068A F9
@0000068B FA
@0000068C 01
@0000068D 02
@0000068E FA
@0000068F 01
@00000690 FC
@00000691 02
@00000692 FE
@00000693 FC
@00000694 01
@00000695 F1
@00000696 01
@00000697 FD
@00000698 FD
@00000699 FF
@0000069A F9
@0000069B F5
@0000069C FA
@0000069D F9
@0000069E F6
@0000069F F8
@000006A0 05
@000006A1 01
@000006A2 FE
@000006A3 05
@000006A4 F9
@000006A5 FD
@000006A6 F9
@000006A7 00
@000006A8 04
@000006A9 03
@000006AA FD
@000006AB 01
@000006AC 07
@000006AD FF
@000006AE FC
@000006AF 02
@000006B0 FF
@000006B1 FD
@000006B2 FC
@000006B3 00
@000006B4 F7
@000006B5 FA
@000006B6 05
@000006B7 09
@000006B8 01
@000006B9 05
@000006BA F6
@000006BB F7
@000006BC FE
@000006BD FF
@000006BE FB
@000006BF FC
@000006C0 0A
@000006C1 06
@000006C2 F8
@000006C3 02
@000006C4 0A
@000006C5 02
@000006C6 F9
@000006C7 00
@000006C8 04
@000006C9 FE
@000006CA FC
@000006CB F7
@000006CC 05
@000006CD FE
@000006CE 02
@000006CF F8
@000006D0 F6
@000006D1 00
@000006D2 FC
@000006D3 FF
@000006D4 F7
@000006D5 01
@000006D6 02
@000006D7 06
@000006D8 02
@000006D9 FA
@000006DA 00
@000006DB FC
@000006DC FF
@000006DD 02
@000006DE F9
@000006DF F9
@000006E0 04
@000006E1 F4
@000006E2 F9
@000006E3 00
@000006E4 FF
@000006E5 FA
@000006E6 00
@000006E7 FE
@000006E8 02
@000006E9 04
@000006EA FE
@000006EB FE
@000006EC FC
@000006ED F3
@000006EE 02
@000006EF 01
@000006F0 07
@000006F1 03
@000006F2 0A
@000006F3 05
@000006F4 0A
@000006F5 FF
@000006F6 01
@000006F7 01
@000006F8 02
@000006F9 FD
@000006FA 04
@000006FB FF
@000006FC FA
@000006FD F8
@000006FE F8
@000006FF 07
@00000700 08
@00000701 01
@00000702 FC
@00000703 FE
@00000704 FE
@00000705 FB
@00000706 F8
@00000707 FB
@00000708 F7
@00000709 F6
@0000070A 00
@0000070B 02
@0000070C FE
@0000070D FA
@0000070E 03
@0000070F F9
@00000710 01
@00000711 F4
@00000712 F5
@00000713 F8
@00000714 00
@00000715 03
@00000716 02
@00000717 02
@00000718 FB
@00000719 FE
@0000071A 0C
@0000071B FE
@0000071C FD
@0000071D 03
@0000071E 05
@0000071F FE
@00000720 06
@00000721 02
@00000722 FD
@00000723 FA
@00000724 FD
@00000725 FA
@00000726 03
@00000727 00
@00000728 FC
@00000729 03
@0000072A FE
@0000072B FB
@0000072C F9
@0000072D FF
@0000072E FE
@0000072F FB
@00000730 FC
@00000731 04
@00000732 FC
@00000733 04
@00000734 00
@00000735 01
@00000736 02
@00000737 07
@00000738 F9
@00000739 F8
@0000073A FD
@0000073B FD
@0000073C FE
@0000073D FD
@0000073E 0C
@0000073F 02
@00000740 FB
@00000741 FC
@00000742 FB
@00000743 F6
@00000744 F8
@00000745 01
@00000746 01
@00000747 F7
@00000748 FD
@00000749 FD
@0000074A F9
@0000074B FC
@0000074C F9
@0000074D 06
@0000074E FE
@0000074F 01
@00000750 FB
@00000751 03
@00000752 FE
@00000753 FB
@00000754 F7
@00000755 02
@00000756 FC
@00000757 F9
@00000758 01
@00000759 F6
@0000075A FB
@0000075B 00
@0000075C FC
@0000075D 04
@0000075E 01
@0000075F F8
@00000760 02
@00000761 03
@00000762 FE
@00000763 02
@00000764 FD
@00000765 04
@00000766 06
@00000767 05
@00000768 02
@00000769 FF
@0000076A 07
@0000076B 00
@0000076C 01
@0000076D 00
@0000076E FE
@0000076F FD
@00000770 F9
@00000771 FE
@00000772 F9
@00000773 FB
@00000774 FC
@00000775 00
@00000776 01
@00000777 FD
@00000778 F7
@00000779 F2
@0000077A F9
@0000077B 00
@0000077C 03
@0000077D FF
@0000077E FF
@0000077F FE
@00000780 07
@00000781 02
@00000782 FD
@00000783 04
@00000784 FB
@00000785 F6
@00000786 04
@00000787 03
@00000788 F6
@00000789 03
@0000078A FB
@0000078B 03
@0000078C 04
@0000078D FF
@0000078E 04
@0000078F F6
@00000790 01
@00000791 02
@00000792 04
@00000793 01
@00000794 FB
@00000795 FD
@00000796 06
@00000797 FB
@00000798 FA
@00000799 F1
@0000079A F8
@0000079B F8
@0000079C FD
@0000079D FD
@0000079E F2
@0000079F FB
@000007A0 02
@000007A1 04
@000007A2 02
@000007A3 FC
@000007A4 FC
@000007A5 FF
@000007A6 FF
@000007A7 F2
@000007A8 FC
@000007A9 FE
@000007AA 00
@000007AB 02
@000007AC FA
@000007AD 01
@000007AE 05
@000007AF 01
@000007B0 F8
@000007B1 FF
@000007B2 07
@000007B3 F8
@000007B4 FD
@000007B5 FB
@000007B6 02
@000007B7 00
@000007B8 01
@000007B9 06
@000007BA 06
@000007BB 08
@000007BC FF
@000007BD FA
@000007BE F4
@000007BF FF
@000007C0 FC
@000007C1 F6
@000007C2 FA
@000007C3 02
@000007C4 FC
@000007C5 02
@000007C6 FE
@000007C7 FB
@000007C8 09
@000007C9 01
@000007CA FE
@000007CB FC
@000007CC FD
@000007CD FB
@000007CE 02
@000007CF 07
@000007D0 06
@000007D1 04
@000007D2 01
@000007D3 06
@000007D4 03
@000007D5 05
@000007D6 02
@000007D7 01
@000007D8 F9
@000007D9 FE
@000007DA FD
@000007DB 03
@000007DC 01
@000007DD FC
@000007DE 04
@000007DF 02
@000007E0 09
@000007E1 FD
@000007E2 F9
@000007E3 FA
@000007E4 F9
@000007E5 F8
@000007E6 FB
@000007E7 F6
@000007E8 01
@000007E9 F4
@000007EA F8
@000007EB 01
@000007EC FD
@000007ED 05
@000007EE F7
@000007EF 04
@000007F0 00
@000007F1 01
@000007F2 FD
@000007F3 FA
@000007F4 FC
@000007F5 05
@000007F6 F6
@000007F7 F2
@000007F8 08
@000007F9 FF
@000007FA F5
@000007FB FA
@000007FC FE
@000007FD 00
@000007FE F8
@000007FF FE
@00000800 F9
@00000801 04
@00000802 FF
@00000803 FB
@00000804 05
@00000805 07
@00000806 00
@00000807 06
@00000808 05
@00000809 02
@0000080A FC
@0000080B 04
@0000080C FD
@0000080D 09
@0000080E 01
@0000080F 04
@00000810 06
@00000811 FE
@00000812 05
@00000813 F9
@00000814 FA
@00000815 FA
@00000816 01
@00000817 F9
@00000818 00
@00000819 00
@0000081A FA
@0000081B F8
@0000081C F9
@0000081D 0B
@0000081E FB
@0000081F 00
@00000820 08
@00000821 07
@00000822 00
@00000823 08
@00000824 04
@00000825 00
@00000826 FD
@00000827 F6
@00000828 FF
@00000829 03
@0000082A 02
@0000082B FF
@0000082C 00
@0000082D 09
@0000082E FE
@0000082F FB
@00000830 FC
@00000831 FE
@00000832 F7
@00000833 FF
@00000834 09
@00000835 FF
@00000836 03
@00000837 02
@00000838 05
@00000839 FF
@0000083A 03
@0000083B 0A
@0000083C F8
@0000083D 02
@0000083E FB
@0000083F 04
@00000840 03
@00000841 04
@00000842 FB
@00000843 FD
@00000844 05
@00000845 02
@00000846 05
@00000847 05
@00000848 0C
@00000849 02
@0000084A 02
@0000084B 02
@0000084C FD
@0000084D 08
@0000084E 02
@0000084F FC
@00000850 02
@00000851 00
@00000852 06
@00000853 06
@00000854 01
@00000855 07
@00000856 06
@00000857 FE
@00000858 FD
@00000859 F6
@0000085A FC
@0000085B 00
@0000085C 07
@0000085D 05
@0000085E F9
@0000085F FB
@00000860 FB
@00000861 02
@00000862 FF
@00000863 F9
@00000864 F8
@00000865 07
@00000866 FC
@00000867 00
@00000868 04
@00000869 FB
@0000086A 09
@0000086B 07
@0000086C 00
@0000086D 03
@0000086E 06
@0000086F FE
@00000870 05
@00000871 FF
@00000872 F9
@00000873 04
@00000874 07
@00000875 F9
@00000876 01
@00000877 05
@00000878 09
@00000879 FD
@0000087A 09
@0000087B 03
@0000087C 00
@0000087D 07
@0000087E FE
@0000087F F8
@00000880 FD
@00000881 03
@00000882 05
@00000883 F7
@00000884 00
@00000885 09
@00000886 07
@00000887 08
@00000888 05
@00000889 09
@0000088A 04
@0000088B FA
@0000088C FC
@0000088D 03
@0000088E FE
@0000088F F7
@00000890 FB
@00000891 F7
@00000892 F7
@00000893 01
@00000894 FE
@00000895 03
@00000896 00
@00000897 FD
@00000898 FE
@00000899 00
@0000089A FE
@0000089B FC
@0000089C 01
@0000089D 06
@0000089E FA
@0000089F FF
@000008A0 FF
@000008A1 FB
@000008A2 00
@000008A3 08
@000008A4 06
@000008A5 02
@000008A6 03
@000008A7 F4
@000008A8 FB
@000008A9 FD
@000008AA 06
@000008AB F9
@000008AC FF
@000008AD 06
@000008AE F3
@000008AF FB
@000008B0 F5
@000008B1 FF
@000008B2 FC
@000008B3 05
@000008B4 F9
@000008B5 FD
@000008B6 FE
@000008B7 00
@000008B8 FB
@000008B9 04
@000008BA FE
@000008BB 03
@000008BC 07
@000008BD 01
@000008BE 07
@000008BF 01
@000008C0 02
@000008C1 FC
@000008C2 F4
@000008C3 F6
@000008C4 01
@000008C5 0A
@000008C6 02
@000008C7 FC
@000008C8 03
@000008C9 FC
@000008CA 0B
@000008CB F9
@000008CC FC
@000008CD FD
@000008CE 01
@000008CF 01
@000008D0 FE
@000008D1 FE
@000008D2 F2
@000008D3 FA
@000008D4 05
@000008D5 FD
@000008D6 06
@000008D7 01
@000008D8 04
@000008D9 F7
@000008DA 05
@000008DB 02
@000008DC 06
@000008DD 03
@000008DE FE
@000008DF 03
@000008E0 FE
@000008E1 00
@000008E2 03
@000008E3 00
@000008E4 FD
@000008E5 FA
@000008E6 03
@000008E7 02
@000008E8 FF
@000008E9 FD
@000008EA 04
@000008EB FC
@000008EC 00
@000008ED 01
@000008EE FE
@000008EF F8
@000008F0 F7
@000008F1 F4
@000008F2 FE
@000008F3 FE
@000008F4 FA
@000008F5 FB
@000008F6 FC
@000008F7 FC
@000008F8 01
@000008F9 FB
@000008FA FE
@000008FB 08
@000008FC 02
@000008FD FE
@000008FE FF
@000008FF F5
@00000900 00
@00000901 FA
@00000902 F9
@00000903 00
@00000904 06
@00000905 04
@00000906 06
@00000907 04
@00000908 06
@00000909 FA
@0000090A 00
@0000090B 06
@0000090C FD
@0000090D FF
@0000090E 03
@0000090F FC
@00000910 FD
@00000911 FD
@00000912 02
@00000913 FF
@00000914 00
@00000915 FF
@00000916 FC
@00000917 FB
@00000918 04
@00000919 08
@0000091A FD
@0000091B FC
@0000091C F9
@0000091D 09
@0000091E 01
@0000091F FB
@00000920 FA
@00000921 02
@00000922 FE
@00000923 FE
@00000924 FA
@00000925 00
@00000926 09
@00000927 FE
@00000928 00
@00000929 02
@0000092A FD
@0000092B FB
@0000092C 06
@0000092D 05
@0000092E 04
@0000092F FF
@00000930 00
@00000931 02
@00000932 F7
@00000933 F8
@00000934 09
@00000935 FF
@00000936 FC
@00000937 F8
@00000938 02
@00000939 F9
@0000093A FF
@0000093B 02
@0000093C FC
@0000093D FF
@0000093E 02
@0000093F 07
@00000940 04
@00000941 02
@00000942 FE
@00000943 FC
@00000944 06
@00000945 FD
@00000946 08
@00000947 02
@00000948 FD
@00000949 FD
@0000094A FB
@0000094B 05
@0000094C FD
@0000094D FD
@0000094E FF
@0000094F FA
@00000950 FF
@00000951 F3
@00000952 02
@00000953 FC
@00000954 05
@00000955 FF
@00000956 04
@00000957 FD
@00000958 F9
@00000959 FA
@0000095A 07
@0000095B 09
@0000095C 07
@0000095D FF
@0000095E 00
@0000095F 03
@00000960 FD
@00000961 FE
@00000962 03
@00000963 01
@00000964 02
@00000965 03
@00000966 FE
@00000967 FB
@00000968 02
@00000969 F8
@0000096A FF
@0000096B 00
@0000096C 02
@0000096D FE
@0000096E 00
@0000096F 09
@00000970 FC
@00000971 F8
@00000972 06
@00000973 F7
@00000974 01
@00000975 03
@00000976 F6
@00000977 FF
@00000978 F6
@00000979 02
@0000097A 01
@0000097B F9
@0000097C F8
@0000097D F8
@0000097E 04
@0000097F FE
@00000980 02
@00000981 06
@00000982 F8
@00000983 FD
@00000984 FD
@00000985 04
@00000986 06
@00000987 03
@00000988 FB
@00000989 FC
@0000098A 03
@0000098B FE
@0000098C FF
@0000098D F9
@0000098E 02
@0000098F 07
@00000990 FD
@00000991 FF
@00000992 03
@00000993 04
@00000994 FE
@00000995 04
@00000996 07
@00000997 F9
@00000998 FE
@00000999 08
@0000099A FC
@0000099B F5
@0000099C FF
@0000099D FF
@0000099E FF
@0000099F FF
@000009A0 03
@000009A1 09
@000009A2 01
@000009A3 FE
@000009A4 F4
@000009A5 FF
@000009A6 01
@000009A7 04
@000009A8 01
@000009A9 FE
@000009AA F5
@000009AB FB
@000009AC F8
@000009AD FB
@000009AE 03
@000009AF 05
@000009B0 03
@000009B1 03
@000009B2 02
@000009B3 FF
@000009B4 F7
@000009B5 F9
@000009B6 07
@000009B7 02
@000009B8 00
@000009B9 02
@000009BA F8
@000009BB F7
@000009BC F8
@000009BD 02
@000009BE FB
@000009BF F2
@000009C0 02
@000009C1 FF
@000009C2 FB
@000009C3 08
@000009C4 04
@000009C5 05
@000009C6 FE
@000009C7 FE
@000009C8 02
@000009C9 07
@000009CA 01
@000009CB 04
@000009CC 03
@000009CD 05
@000009CE 09
@000009CF 00
@000009D0 FD
@000009D1 FD
@000009D2 01
@000009D3 00
@000009D4 08
@000009D5 FE
@000009D6 00
@000009D7 05
@000009D8 03
@000009D9 04
@000009DA FC
@000009DB FD
@000009DC 03
@000009DD FE
@000009DE 08
@000009DF FD
@000009E0 0C
@000009E1 05
@000009E2 03
@000009E3 FA
@000009E4 01
@000009E5 02
@000009E6 01
@000009E7 01
@000009E8 01
@000009E9 06
@000009EA F6
@000009EB FD
@000009EC FD
@000009ED F7
@000009EE FF
@000009EF 03
@000009F0 F8
@000009F1 00
@000009F2 05
@000009F3 FD
@000009F4 FE
@000009F5 FA
@000009F6 02
@000009F7 06
@000009F8 08
@000009F9 FB
@000009FA F9
@000009FB FE
@000009FC 00
@000009FD 04
@000009FE FD
@000009FF 04
@00000A00 F7
@00000A01 05
@00000A02 05
@00000A03 FB
@00000A04 00
@00000A05 FE
@00000A06 FE
@00000A07 03
@00000A08 FA
@00000A09 07
@00000A0A 06
@00000A0B F6
@00000A0C FC
@00000A0D 02
@00000A0E 01
@00000A0F FD
@00000A10 F7
@00000A11 FA
@00000A12 FF
@00000A13 05
@00000A14 06
@00000A15 01
@00000A16 FF
@00000A17 08
@00000A18 02
@00000A19 F7
@00000A1A FE
@00000A1B FE
@00000A1C 04
@00000A1D FE
@00000A1E 00
@00000A1F FD
@00000A20 F4
@00000A21 FD
@00000A22 00
@00000A23 FB
@00000A24 05
@00000A25 06
@00000A26 00
@00000A27 06
@00000A28 FC
@00000A29 09
@00000A2A 02
@00000A2B FE
@00000A2C 09
@00000A2D 02
@00000A2E 03
@00000A2F 00
@00000A30 FE
@00000A31 FD
@00000A32 FB
@00000A33 FD
@00000A34 FE
@00000A35 EF
@00000A36 FC
@00000A37 07
@00000A38 08
@00000A39 02
@00000A3A 08
@00000A3B F7
@00000A3C FB
@00000A3D 02
@00000A3E 04
@00000A3F FB
@00000A40 02
@00000A41 02
@00000A42 F6
@00000A43 FC
@00000A44 FD
@00000A45 FE
@00000A46 FC
@00000A47 08
@00000A48 FE
@00000A49 00
@00000A4A 01
@00000A4B 04
@00000A4C FF
@00000A4D 05
@00000A4E FB
@00000A4F FD
@00000A50 01
@00000A51 03
@00000A52 FF
@00000A53 FB
@00000A54 07
@00000A55 00
@00000A56 01
@00000A57 06
@00000A58 FC
@00000A59 00
@00000A5A FD
@00000A5B 02
@00000A5C 06
@00000A5D 0C
@00000A5E 09
@00000A5F 03
@00000A60 FF
@00000A61 0A
@00000A62 04
@00000A63 FD
@00000A64 FE
@00000A65 09
@00000A66 02
@00000A67 01
@00000A68 0B
@00000A69 FC
@00000A6A FA
@00000A6B 05
@00000A6C 04
@00000A6D 03
@00000A6E 03
@00000A6F 00
@00000A70 00
@00000A71 0A
@00000A72 01
@00000A73 F6
@00000A74 FA
@00000A75 FD
@00000A76 01
@00000A77 F9
@00000A78 06
@00000A79 05
@00000A7A FA
@00000A7B 01
@00000A7C FC
@00000A7D 01
@00000A7E 04
@00000A7F 03
@00000A80 04
@00000A81 00
@00000A82 FA
@00000A83 00
@00000A84 02
@00000A85 00
@00000A86 FC
@00000A87 00
@00000A88 F9
@00000A89 05
@00000A8A 09
@00000A8B FE
@00000A8C 02
@00000A8D 01
@00000A8E FF
@00000A8F 03
@00000A90 05
@00000A91 0B
@00000A92 FE
@00000A93 FC
@00000A94 05
@00000A95 00
@00000A96 FA
@00000A97 FF
@00000A98 04
@00000A99 FD
@00000A9A 02
@00000A9B 08
@00000A9C 00
@00000A9D 03
@00000A9E 02
@00000A9F 02
@00000AA0 FE
@00000AA1 04
@00000AA2 FF
@00000AA3 FE
@00000AA4 FC
@00000AA5 FD
@00000AA6 FD
@00000AA7 FE
@00000AA8 03
@00000AA9 04
@00000AAA 01
@00000AAB 00
@00000AAC 04
@00000AAD 01
@00000AAE 01
@00000AAF 02
@00000AB0 04
@00000AB1 01
@00000AB2 FF
@00000AB3 06
@00000AB4 FA
@00000AB5 FA
@00000AB6 04
@00000AB7 00
@00000AB8 07
@00000AB9 05
@00000ABA FC
@00000ABB 04
@00000ABC 07
@00000ABD FF
@00000ABE 08
@00000ABF 04
@00000AC0 02
@00000AC1 06
@00000AC2 FE
@00000AC3 06
@00000AC4 03
@00000AC5 05
@00000AC6 FF
@00000AC7 06
@00000AC8 F3
@00000AC9 01
@00000ACA FF
@00000ACB 08
@00000ACC 07
@00000ACD 01
@00000ACE 03
@00000ACF 04
@00000AD0 06
@00000AD1 FD
@00000AD2 F9
@00000AD3 02
@00000AD4 04
@00000AD5 08
@00000AD6 FD
@00000AD7 0C
@00000AD8 02
@00000AD9 FF
@00000ADA 01
@00000ADB 00
@00000ADC 04
@00000ADD 05
@00000ADE FC
@00000ADF 09
@00000AE0 FD
@00000AE1 01
@00000AE2 0F
@00000AE3 FD
@00000AE4 FE
@00000AE5 01
@00000AE6 02
@00000AE7 FA
@00000AE8 03
@00000AE9 FD
@00000AEA FD
@00000AEB 05
@00000AEC FB
@00000AED 06
@00000AEE 05
@00000AEF F5
@00000AF0 F7
@00000AF1 02
@00000AF2 FD
@00000AF3 02
@00000AF4 00
@00000AF5 09
@00000AF6 01
@00000AF7 F7
@00000AF8 FC
@00000AF9 01
@00000AFA 00
@00000AFB FE
@00000AFC 01
@00000AFD FF
@00000AFE 03
@00000AFF FB
@00000B00 FC
@00000B01 FE
@00000B02 FC
@00000B03 FC
@00000B04 FE
@00000B05 FB
@00000B06 00
@00000B07 01
@00000B08 FE
@00000B09 03
@00000B0A FD
@00000B0B 00
@00000B0C 0D
@00000B0D F7
@00000B0E FF
@00000B0F 0B
@00000B10 FE
@00000B11 FA
@00000B12 01
@00000B13 11
@00000B14 05
@00000B15 05
@00000B16 FB
@00000B17 FE
@00000B18 0C
@00000B19 F2
@00000B1A FC
@00000B1B 02
@00000B1C FF
@00000B1D FC
@00000B1E FF
@00000B1F 06
@00000B20 02
@00000B21 FE
@00000B22 04
@00000B23 07
@00000B24 00
@00000B25 02
@00000B26 03
@00000B27 00
@00000B28 05
@00000B29 FA
@00000B2A F9
@00000B2B 04
@00000B2C FC
@00000B2D 00
@00000B2E F5
@00000B2F 0A
@00000B30 01
@00000B31 0C
@00000B32 03
@00000B33 FD
@00000B34 F7
@00000B35 F7
@00000B36 F9
@00000B37 08
@00000B38 FE
@00000B39 07
@00000B3A 03
@00000B3B 02
@00000B3C 04
@00000B3D 04
@00000B3E 03
@00000B3F FA
@00000B40 05
@00000B41 FE
@00000B42 FD
@00000B43 05
@00000B44 F8
@00000B45 06
@00000B46 04
@00000B47 07
@00000B48 03
@00000B49 F6
@00000B4A FB
@00000B4B 02
@00000B4C 08
@00000B4D 02
@00000B4E F9
@00000B4F 01
@00000B50 05
@00000B51 04
@00000B52 05
@00000B53 05
@00000B54 FB
@00000B55 FD
@00000B56 01
@00000B57 05
@00000B58 F8
@00000B59 FD
@00000B5A F6
@00000B5B FF
@00000B5C 01
@00000B5D 05
@00000B5E 03
@00000B5F F9
@00000B60 04
@00000B61 FE
@00000B62 04
@00000B63 FF
@00000B64 02
@00000B65 08
@00000B66 FD
@00000B67 08
@00000B68 FE
@00000B69 FC
@00000B6A 01
@00000B6B FC
@00000B6C 0B
@00000B6D 03
@00000B6E FC
@00000B6F 00
@00000B70 FA
@00000B71 FA
@00000B72 06
@00000B73 FF
@00000B74 03
@00000B75 04
@00000B76 01
@00000B77 07
@00000B78 01
@00000B79 06
@00000B7A 05
@00000B7B 01
@00000B7C 01
@00000B7D FC
@00000B7E FC
@00000B7F FF
@00000B80 FB
@00000B81 F7
@00000B82 00
@00000B83 FE
@00000B84 02
@00000B85 0B
@00000B86 FA
@00000B87 08
@00000B88 FA
@00000B89 FA
@00000B8A 06
@00000B8B 00
@00000B8C FF
@00000B8D 0B
@00000B8E 00
@00000B8F 02
@00000B90 00
@00000B91 07
@00000B92 FB
@00000B93 F9
@00000B94 FB
@00000B95 F6
@00000B96 FE
@00000B97 FF
@00000B98 00
@00000B99 04
@00000B9A 04
@00000B9B 02
@00000B9C 03
@00000B9D F3
@00000B9E 07
@00000B9F 05
@00000BA0 F3
@00000BA1 04
@00000BA2 F7
@00000BA3 FC
@00000BA4 F7
@00000BA5 01
@00000BA6 01
@00000BA7 00
@00000BA8 02
@00000BA9 FB
@00000BAA 02
@00000BAB FB
@00000BAC 05
@00000BAD 03
@00000BAE FD
@00000BAF 01
@00000BB0 FA
@00000BB1 04
@00000BB2 FB
@00000BB3 06
@00000BB4 FC
@00000BB5 02
@00000BB6 FA
@00000BB7 F2
@00000BB8 08
@00000BB9 FF
@00000BBA F9
@00000BBB FC
@00000BBC FB
@00000BBD F6
@00000BBE 04
@00000BBF FA
@00000BC0 FF
@00000BC1 03
@00000BC2 01
@00000BC3 00
@00000BC4 FE
@00000BC5 FB
@00000BC6 03
@00000BC7 07
@00000BC8 02
@00000BC9 FB
@00000BCA FF
@00000BCB FA
@00000BCC 04
@00000BCD FF
@00000BCE 01
@00000BCF 04
@00000BD0 01
@00000BD1 FD
@00000BD2 03
@00000BD3 02
@00000BD4 06
@00000BD5 05
@00000BD6 FD
@00000BD7 03
@00000BD8 03
@00000BD9 08
@00000BDA 03
@00000BDB FF
@00000BDC 0C
@00000BDD FA
@00000BDE 05
@00000BDF 01
@00000BE0 00
@00000BE1 01
@00000BE2 FC
@00000BE3 02
@00000BE4 05
@00000BE5 FF
@00000BE6 01
@00000BE7 FD
@00000BE8 09
@00000BE9 03
@00000BEA 00
@00000BEB 03
@00000BEC 0B
@00000BED FD
@00000BEE 06
@00000BEF F9
@00000BF0 FB
@00000BF1 FB
@00000BF2 FD
@00000BF3 FD
@00000BF4 02
@00000BF5 00
@00000BF6 FE
@00000BF7 FF
@00000BF8 02
@00000BF9 07
@00000BFA FF
@00000BFB FC
@00000BFC FF
@00000BFD FC
@00000BFE FD
@00000BFF FF
@00000C00 01
@00000C01 F8
@00000C02 FC
@00000C03 02
@00000C04 FC
@00000C05 06
@00000C06 09
@00000C07 07
@00000C08 FD
@00000C09 01
@00000C0A 01
@00000C0B 02
@00000C0C FE
@00000C0D F8
@00000C0E FE
@00000C0F FB
@00000C10 01
@00000C11 08
@00000C12 FA
@00000C13 01
@00000C14 FE
@00000C15 00
@00000C16 F7
@00000C17 01
@00000C18 FA
@00000C19 08
@00000C1A F6
@00000C1B FF
@00000C1C FD
@00000C1D 03
@00000C1E F7
@00000C1F FD
@00000C20 FE
@00000C21 F6
@00000C22 FC
@00000C23 01
@00000C24 00
@00000C25 FE
@00000C26 F6
@00000C27 03
@00000C28 FD
@00000C29 FC
@00000C2A 01
@00000C2B 0D
@00000C2C FB
@00000C2D 03
@00000C2E 01
@00000C2F FC
@00000C30 05
@00000C31 06
@00000C32 FF
@00000C33 01
@00000C34 05
@00000C35 00
@00000C36 03
@00000C37 02
@00000C38 FF
@00000C39 03
@00000C3A 01
@00000C3B 02
@00000C3C 07
@00000C3D 06
@00000C3E 06
@00000C3F 05
@00000C40 03
@00000C41 FB
@00000C42 F9
@00000C43 FA
@00000C44 F7
@00000C45 04
@00000C46 00
@00000C47 08
@00000C48 FD
@00000C49 07
@00000C4A 04
@00000C4B 01
@00000C4C 08
@00000C4D FE
@00000C4E FC
@00000C4F FC
@00000C50 02
@00000C51 01
@00000C52 02
@00000C53 02
@00000C54 08
@00000C55 FE
@00000C56 06
@00000C57 FF
@00000C58 02
@00000C59 00
@00000C5A 05
@00000C5B FE
@00000C5C 01
@00000C5D F8
@00000C5E FE
@00000C5F 00
@00000C60 02
@00000C61 FC
@00000C62 09
@00000C63 F7
@00000C64 F8
@00000C65 07
@00000C66 FE
@00000C67 FB
@00000C68 FE
@00000C69 FF
@00000C6A 09
@00000C6B 01
@00000C6C 03
@00000C6D FA
@00000C6E 05
@00000C6F 09
@00000C70 01
@00000C71 01
@00000C72 FA
@00000C73 FC
@00000C74 06
@00000C75 05
@00000C76 01
@00000C77 04
@00000C78 FE
@00000C79 03
@00000C7A F8
@00000C7B 05
@00000C7C 07
@00000C7D FC
@00000C7E FA
@00000C7F 05
@00000C80 FE
@00000C81 FF
@00000C82 FF
@00000C83 FD
@00000C84 02
@00000C85 FF
@00000C86 FF
@00000C87 F9
@00000C88 FE
@00000C89 02
@00000C8A 05
@00000C8B F7
@00000C8C 03
@00000C8D FC
@00000C8E FE
@00000C8F 04
@00000C90 F2
@00000C91 FE
@00000C92 08
@00000C93 00
@00000C94 03
@00000C95 03
@00000C96 FF
@00000C97 00
@00000C98 FE
@00000C99 01
@00000C9A 05
@00000C9B FE
@00000C9C 00
@00000C9D F6
@00000C9E FA
@00000C9F FD
@00000CA0 02
@00000CA1 FE
@00000CA2 06
@00000CA3 FC
@00000CA4 04
@00000CA5 05
@00000CA6 00
@00000CA7 03
@00000CA8 FD
@00000CA9 02
@00000CAA 09
@00000CAB 05
@00000CAC FF
@00000CAD 03
@00000CAE FA
@00000CAF F9
@00000CB0 06
@00000CB1 FF
@00000CB2 FF
@00000CB3 FE
@00000CB4 F3
@00000CB5 F3
@00000CB6 03
@00000CB7 04
@00000CB8 01
@00000CB9 F5
@00000CBA FE
@00000CBB F4
@00000CBC FF
@00000CBD 01
@00000CBE FA
@00000CBF FC
@00000CC0 00
@00000CC1 08
@00000CC2 FE
@00000CC3 03
@00000CC4 FF
@00000CC5 FD
@00000CC6 FA
@00000CC7 F0
@00000CC8 01
@00000CC9 F7
@00000CCA FD
@00000CCB FF
@00000CCC 03
@00000CCD 02
@00000CCE FE
@00000CCF 03
@00000CD0 FD
@00000CD1 02
@00000CD2 FF
@00000CD3 FE
@00000CD4 FA
@00000CD5 03
@00000CD6 04
@00000CD7 04
@00000CD8 05
@00000CD9 FD
@00000CDA FB
@00000CDB 04
@00000CDC 02
@00000CDD 04
@00000CDE 05
@00000CDF FA
@00000CE0 02
@00000CE1 03
@00000CE2 F3
@00000CE3 00
@00000CE4 F9
@00000CE5 FD
@00000CE6 FF
@00000CE7 00
@00000CE8 07
@00000CE9 01
@00000CEA 09
@00000CEB FE
@00000CEC FE
@00000CED FC
@00000CEE FE
@00000CEF 01
@00000CF0 FF
@00000CF1 03
@00000CF2 05
@00000CF3 01
@00000CF4 05
@00000CF5 0B
@00000CF6 05
@00000CF7 07
@00000CF8 F9
@00000CF9 FE
@00000CFA 02
@00000CFB FA
@00000CFC 00
@00000CFD FF
@00000CFE F7
@00000CFF FB
@00000D00 FE
@00000D01 F5
@00000D02 01
@00000D03 FD
@00000D04 FF
@00000D05 00
@00000D06 06
@00000D07 FD
@00000D08 F6
@00000D09 FC
@00000D0A F4
@00000D0B FA
@00000D0C FF
@00000D0D F9
@00000D0E 03
@00000D0F 03
@00000D10 00
@00000D11 00
@00000D12 FC
@00000D13 02
@00000D14 03
@00000D15 FD
@00000D16 FD
@00000D17 02
@00000D18 FF
@00000D19 FA
@00000D1A FC
@00000D1B FF
@00000D1C FE
@00000D1D 0E
@00000D1E FC
@00000D1F F9
@00000D20 00
@00000D21 08
@00000D22 FE
@00000D23 06
@00000D24 FF
@00000D25 02
@00000D26 FF
@00000D27 05
@00000D28 F9
@00000D29 01
@00000D2A FD
@00000D2B 02
@00000D2C 03
@00000D2D FB
@00000D2E 02
@00000D2F 03
@00000D30 FE
@00000D31 01
@00000D32 01
@00000D33 02
@00000D34 FC
@00000D35 03
@00000D36 00
@00000D37 05
@00000D38 FD
@00000D39 00
@00000D3A FE
@00000D3B 00
@00000D3C FF
@00000D3D 06
@00000D3E FE
@00000D3F FE
@00000D40 03
@00000D41 07
@00000D42 FB
@00000D43 00
@00000D44 07
@00000D45 00
@00000D46 F9
@00000D47 08
@00000D48 0B
@00000D49 FE
@00000D4A 0B
@00000D4B FC
@00000D4C FB
@00000D4D 0B
@00000D4E 04
@00000D4F FD
@00000D50 01
@00000D51 07
@00000D52 03
@00000D53 FB
@00000D54 FF
@00000D55 FF
@00000D56 04
@00000D57 0D
@00000D58 05
@00000D59 FC
@00000D5A FC
@00000D5B FF
@00000D5C FA
@00000D5D 01
@00000D5E FF
@00000D5F FE
@00000D60 F9
@00000D61 FA
@00000D62 05
@00000D63 06
@00000D64 FD
@00000D65 F6
@00000D66 06
@00000D67 00
@00000D68 06
@00000D69 02
@00000D6A F9
@00000D6B FF
@00000D6C 01
@00000D6D 02
@00000D6E FD
@00000D6F FF
@00000D70 FE
@00000D71 02
@00000D72 F8
@00000D73 00
@00000D74 04
@00000D75 08
@00000D76 01
@00000D77 03
@00000D78 06
@00000D79 02
@00000D7A FB
@00000D7B F6
@00000D7C FA
@00000D7D F9
@00000D7E FF
@00000D7F FD
@00000D80 04
@00000D81 12
@00000D82 00
@00000D83 03
@00000D84 FF
@00000D85 0A
@00000D86 FA
@00000D87 FB
@00000D88 F8
@00000D89 0A
@00000D8A 01
@00000D8B 01
@00000D8C FB
@00000D8D 04
@00000D8E FC
@00000D8F FF
@00000D90 F7
@00000D91 03
@00000D92 FF
@00000D93 07
@00000D94 FF
@00000D95 F6
@00000D96 04
@00000D97 08
@00000D98 03
@00000D99 ED
@00000D9A 03
@00000D9B 02
@00000D9C 03
@00000D9D FC
@00000D9E 03
@00000D9F FF
@00000DA0 FE
@00000DA1 05
@00000DA2 FA
@00000DA3 FC
@00000DA4 02
@00000DA5 F8
@00000DA6 F3
@00000DA7 F5
@00000DA8 FF
@00000DA9 05
@00000DAA FC
@00000DAB F6
@00000DAC 05
@00000DAD FD
@00000DAE 03
@00000DAF FA
@00000DB0 FB
@00000DB1 FC
@00000DB2 01
@00000DB3 04
@00000DB4 06
@00000DB5 F5
@00000DB6 01
@00000DB7 FE
@00000DB8 01
@00000DB9 FE
@00000DBA FC
@00000DBB FD
@00000DBC FF
@00000DBD FE
@00000DBE F9
@00000DBF FF
@00000DC0 FE
@00000DC1 19
@00000DC2 04
@00000DC3 FA
@00000DC4 06
@00000DC5 FD
@00000DC6 03
@00000DC7 F7
@00000DC8 04
@00000DC9 04
@00000DCA 02
@00000DCB 00
@00000DCC 04
@00000DCD FE
@00000DCE 05
@00000DCF 05
@00000DD0 00
@00000DD1 05
@00000DD2 F5
@00000DD3 FF
@00000DD4 09
@00000DD5 07
@00000DD6 FA
@00000DD7 F6
@00000DD8 06
@00000DD9 F8
@00000DDA FF
@00000DDB F1
@00000DDC 03
@00000DDD 03
@00000DDE F3
@00000DDF F6
@00000DE0 FE
@00000DE1 0A
@00000DE2 FD
@00000DE3 03
@00000DE4 F6
@00000DE5 FE
@00000DE6 F6
@00000DE7 FF
@00000DE8 06
@00000DE9 04
@00000DEA 02
@00000DEB 07
@00000DEC F1
@00000DED FF
@00000DEE FC
@00000DEF FA
@00000DF0 01
@00000DF1 05
@00000DF2 F5
@00000DF3 00
@00000DF4 FF
@00000DF5 F9
@00000DF6 05
@00000DF7 03
@00000DF8 08
@00000DF9 F8
@00000DFA 05
@00000DFB FB
@00000DFC 0A
@00000DFD 03
@00000DFE 06
@00000DFF F6
@00000E00 03
@00000E01 FD
@00000E02 FE
@00000E03 15
@00000E04 05
@00000E05 FC
@00000E06 03
@00000E07 00
@00000E08 00
@00000E09 04
@00000E0A 01
@00000E0B 02
@00000E0C F7
@00000E0D FF
@00000E0E 00
@00000E0F FB
@00000E10 FE
@00000E11 00
@00000E12 02
@00000E13 02
@00000E14 F6
@00000E15 FF
@00000E16 FE
@00000E17 F1
@00000E18 F5
@00000E19 07
@00000E1A F6
@00000E1B 06
@00000E1C 07
@00000E1D FE
@00000E1E FC
@00000E1F 07
@00000E20 03
@00000E21 F9
@00000E22 FC
@00000E23 FC
@00000E24 07
@00000E25 FD
@00000E26 07
@00000E27 0D
@00000E28 F1
@00000E29 FC
@00000E2A FA
@00000E2B 05
@00000E2C FB
@00000E2D FE
@00000E2E FC
@00000E2F F3
@00000E30 F7
@00000E31 FD
@00000E32 01
@00000E33 F5
@00000E34 F7
@00000E35 F3
@00000E36 00
@00000E37 FA
@00000E38 0D
@00000E39 08
@00000E3A FF
@00000E3B 01
@00000E3C F0
@00000E3D F7
@00000E3E 13
@00000E3F 03
@00000E40 01
@00000E41 FE
@00000E42 F8
@00000E43 12
@00000E44 FD
@00000E45 EF
@00000E46 01
@00000E47 04
@00000E48 08
@00000E49 F8
@00000E4A 07
@00000E4B 02
@00000E4C FD
@00000E4D 0B
@00000E4E 01
@00000E4F FB
@00000E50 02
@00000E51 0B
@00000E52 F8
@00000E53 F6
@00000E54 FE
@00000E55 09
@00000E56 00
@00000E57 FB
@00000E58 FF
@00000E59 F7
@00000E5A FE
@00000E5B 00
@00000E5C 08
@00000E5D FE
@00000E5E 05
@00000E5F FE
@00000E60 00
@00000E61 03
@00000E62 0F
@00000E63 03
@00000E64 05
@00000E65 FC
@00000E66 F6
@00000E67 08
@00000E68 FB
@00000E69 F0
@00000E6A F8
@00000E6B 06
@00000E6C 01
@00000E6D FD
@00000E6E 0D
@00000E6F FB
@00000E70 00
@00000E71 02
@00000E72 00
@00000E73 FB
@00000E74 04
@00000E75 01
@00000E76 FC
@00000E77 0F
@00000E78 02
@00000E79 FD
@00000E7A FC
@00000E7B 03
@00000E7C FD
@00000E7D FF
@00000E7E 00
@00000E7F FE
@00000E80 09
@00000E81 F4
@00000E82 08
@00000E83 00
@00000E84 FB
@00000E85 FE
@00000E86 02
@00000E87 F9
@00000E88 FF
@00000E89 F8
@00000E8A 0C
@00000E8B 0A
@00000E8C 02
@00000E8D 01
@00000E8E FD
@00000E8F FF
@00000E90 FC
@00000E91 FB
@00000E92 F8
@00000E93 01
@00000E94 FB
@00000E95 FE
@00000E96 FE
@00000E97 F9
@00000E98 FC
@00000E99 07
@00000E9A FF
@00000E9B FA
@00000E9C 05
@00000E9D F8
@00000E9E FD
@00000E9F 04
@00000EA0 FC
@00000EA1 FE
@00000EA2 FD
@00000EA3 F8
@00000EA4 02
@00000EA5 F7
@00000EA6 08
@00000EA7 02
@00000EA8 F5
@00000EA9 01
@00000EAA 04
@00000EAB 08
@00000EAC FC
@00000EAD F5
@00000EAE F6
@00000EAF 00
@00000EB0 F9
@00000EB1 F7
@00000EB2 06
@00000EB3 05
@00000EB4 0B
@00000EB5 FA
@00000EB6 07
@00000EB7 02
@00000EB8 FF
@00000EB9 08
@00000EBA F7
@00000EBB 06
@00000EBC 03
@00000EBD FC
@00000EBE 05
@00000EBF 08
@00000EC0 04
@00000EC1 FA
@00000EC2 FD
@00000EC3 06
@00000EC4 04
@00000EC5 F9
@00000EC6 02
@00000EC7 05
@00000EC8 06
@00000EC9 F4
@00000ECA 01
@00000ECB 00
@00000ECC FE
@00000ECD FC
@00000ECE F9
@00000ECF 01
@00000ED0 F4
@00000ED1 F4
@00000ED2 05
@00000ED3 02
@00000ED4 F9
@00000ED5 01
@00000ED6 FA
@00000ED7 02
@00000ED8 04
@00000ED9 FD
@00000EDA 00
@00000EDB FA
@00000EDC 06
@00000EDD F7
@00000EDE F7
@00000EDF FE
@00000EE0 07
@00000EE1 FB
@00000EE2 05
@00000EE3 09
@00000EE4 07
@00000EE5 04
@00000EE6 FF
@00000EE7 04
@00000EE8 06
@00000EE9 0C
@00000EEA 01
@00000EEB 02
@00000EEC FC
@00000EED 02
@00000EEE 04
@00000EEF FD
@00000EF0 06
@00000EF1 0B
@00000EF2 FF
@00000EF3 00
@00000EF4 02
@00000EF5 05
@00000EF6 ED
@00000EF7 00
@00000EF8 03
@00000EF9 F8
@00000EFA 0C
@00000EFB 08
@00000EFC 06
@00000EFD FC
@00000EFE F2
@00000EFF F2
@00000F00 04
@00000F01 05
@00000F02 08
@00000F03 04
@00000F04 0A
@00000F05 0A
@00000F06 FC
@00000F07 F7
@00000F08 06
@00000F09 00
@00000F0A FD
@00000F0B F7
@00000F0C FF
@00000F0D 07
@00000F0E 02
@00000F0F FA
@00000F10 FE
@00000F11 FA
@00000F12 06
@00000F13 04
@00000F14 F5
@00000F15 F8
@00000F16 09
@00000F17 03
@00000F18 FD
@00000F19 09
@00000F1A FB
@00000F1B 03
@00000F1C FC
@00000F1D FA
@00000F1E FF
@00000F1F 00
@00000F20 06
@00000F21 FA
@00000F22 FA
@00000F23 FE
@00000F24 04
@00000F25 F6
@00000F26 06
@00000F27 00
@00000F28 01
@00000F29 06
@00000F2A FC
@00000F2B F8
@00000F2C FF
@00000F2D 06
@00000F2E F9
@00000F2F FA
@00000F30 07
@00000F31 06
@00000F32 03
@00000F33 08
@00000F34 F6
@00000F35 F8
@00000F36 0A
@00000F37 00
@00000F38 F6
@00000F39 0E
@00000F3A 02
@00000F3B FB
@00000F3C 02
@00000F3D 02
@00000F3E FE
@00000F3F 05
@00000F40 00
@00000F41 FE
@00000F42 FF
@00000F43 00
@00000F44 F6
@00000F45 03
@00000F46 02
@00000F47 F9
@00000F48 FA
@00000F49 03
@00000F4A FC
@00000F4B 02
@00000F4C FC
@00000F4D F7
@00000F4E FD
@00000F4F 00
@00000F50 06
@00000F51 01
@00000F52 FD
@00000F53 0B
@00000F54 00
@00000F55 08
@00000F56 04
@00000F57 F9
@00000F58 02
@00000F59 08
@00000F5A 02
@00000F5B F8
@00000F5C 04
@00000F5D 12
@00000F5E FA
@00000F5F FA
@00000F60 FF
@00000F61 F7
@00000F62 FB
@00000F63 05
@00000F64 FF
@00000F65 ED
@00000F66 FF
@00000F67 06
@00000F68 02
@00000F69 05
@00000F6A FD
@00000F6B F6
@00000F6C 08
@00000F6D 07
@00000F6E 04
@00000F6F FC
@00000F70 03
@00000F71 FA
@00000F72 FC
@00000F73 FE
@00000F74 FC
@00000F75 F5
@00000F76 04
@00000F77 05
@00000F78 FB
@00000F79 FC
@00000F7A 05
@00000F7B 00
@00000F7C F2
@00000F7D F8
@00000F7E FC
@00000F7F 05
@00000F80 06
@00000F81 F9
@00000F82 03
@00000F83 FF
@00000F84 01
@00000F85 F5
@00000F86 FC
@00000F87 F9
@00000F88 F9
@00000F89 FC
@00000F8A 08
@00000F8B F9
@00000F8C FE
@00000F8D F3
@00000F8E F7
@00000F8F 06
@00000F90 F9
@00000F91 FE
@00000F92 FA
@00000F93 04
@00000F94 FB
@00000F95 FB
@00000F96 FD
@00000F97 F8
@00000F98 FA
@00000F99 F4
@00000F9A 01
@00000F9B FA
@00000F9C FF
@00000F9D 06
@00000F9E 0C
@00000F9F 03
@00000FA0 09
@00000FA1 F6
@00000FA2 0A
@00000FA3 03
@00000FA4 F0
@00000FA5 FE
@00000FA6 FD
@00000FA7 00
@00000FA8 03
@00000FA9 03
@00000FAA FB
@00000FAB 05
@00000FAC FE
@00000FAD 05
@00000FAE 0A
@00000FAF FD
@00000FB0 06
@00000FB1 FF
@00000FB2 FC
@00000FB3 FC
@00000FB4 FC
@00000FB5 01
@00000FB6 08
@00000FB7 04
@00000FB8 12
@00000FB9 FA
@00000FBA FB
@00000FBB F7
@00000FBC FB
@00000FBD F8
@00000FBE F6
@00000FBF F8
@00000FC0 02
@00000FC1 FA
@00000FC2 0A
@00000FC3 06
@00000FC4 07
@00000FC5 07
@00000FC6 0C
@00000FC7 05
@00000FC8 FC
@00000FC9 00
@00000FCA 07
@00000FCB 00
@00000FCC F9
@00000FCD FF
@00000FCE 04
@00000FCF FE
@00000FD0 08
@00000FD1 06
@00000FD2 02
@00000FD3 02
@00000FD4 05
@00000FD5 05
@00000FD6 02
@00000FD7 FB
@00000FD8 FB
@00000FD9 F6
@00000FDA 00
@00000FDB 06
@00000FDC FB
@00000FDD FD
@00000FDE 02
@00000FDF 04
@00000FE0 04
@00000FE1 0D
@00000FE2 FB
@00000FE3 03
@00000FE4 FD
@00000FE5 08
@00000FE6 0B
@00000FE7 FB
@00000FE8 01
@00000FE9 00
@00000FEA FE
@00000FEB 0B
@00000FEC FF
@00000FED FF
@00000FEE 02
@00000FEF 09
@00000FF0 01
@00000FF1 FD
@00000FF2 F9
@00000FF3 05
@00000FF4 04
@00000FF5 09
@00000FF6 F8
@00000FF7 03
@00000FF8 0C
@00000FF9 05
@00000FFA 0A
@00000FFB F4
@00000FFC 03
@00000FFD F9
@00000FFE F2
@00000FFF 05
@00001000 FA
@00001001 00
@00001002 06
@00001003 02
@00001004 FF
@00001005 FC
@00001006 FE
@00001007 F5
@00001008 02
@00001009 FE
@0000100A FA
@0000100B 01
@0000100C F7
@0000100D 00
@0000100E FD
@0000100F 01
@00001010 04
@00001011 FD
@00001012 01
@00001013 04
@00001014 02
@00001015 02
@00001016 FF
@00001017 0B
@00001018 01
@00001019 F0
@0000101A FE
@0000101B 02
@0000101C F8
@0000101D 04
@0000101E F7
@0000101F 02
@00001020 0C
@00001021 F5
@00001022 F7
@00001023 FC
@00001024 0C
@00001025 03
@00001026 FD
@00001027 08
@00001028 0A
@00001029 0A
@0000102A 00
@0000102B 0A
@0000102C 01
@0000102D F9
@0000102E 0B
@0000102F FB
@00001030 FF
@00001031 F7
@00001032 FC
@00001033 F9
@00001034 FB
@00001035 FB
@00001036 04
@00001037 FD
@00001038 EF
@00001039 F6
@0000103A F8
@0000103B 11
@0000103C FF
@0000103D 06
@0000103E 06
@0000103F 03
@00001040 02
@00001041 01
@00001042 0E
@00001043 F7
@00001044 04
@00001045 FE
@00001046 FC
@00001047 02
@00001048 F5
@00001049 02
@0000104A 00
@0000104B FC
@0000104C 08
@0000104D F6
@0000104E FE
@0000104F 0A
@00001050 FE
@00001051 02
@00001052 00
@00001053 04
@00001054 F7
@00001055 0C
@00001056 08
@00001057 FE
@00001058 F9
@00001059 FC
@0000105A FE
@0000105B 07
@0000105C F8
@0000105D 06
@0000105E F4
@0000105F 06
@00001060 00
@00001061 06
@00001062 06
@00001063 FF
@00001064 04
@00001065 03
@00001066 FA
@00001067 FD
@00001068 07
@00001069 FE
@0000106A FE
@0000106B 02
@0000106C FA
@0000106D FC
@0000106E 04
@0000106F FE
@00001070 FD
@00001071 02
@00001072 05
@00001073 F2
@00001074 01
@00001075 06
@00001076 FC
@00001077 02
@00001078 10
@00001079 F9
@0000107A FF
@0000107B 03
@0000107C F1
@0000107D 06
@0000107E FF
@0000107F FB
@00001080 0A
@00001081 02
@00001082 F7
@00001083 09
@00001084 FF
@00001085 FA
@00001086 0A
@00001087 FF
@00001088 04
@00001089 FD
@0000108A F8
@0000108B F4
@0000108C 05
@0000108D FD
@0000108E 02
@0000108F 02
@00001090 FF
@00001091 FE
@00001092 EB
@00001093 F3
@00001094 00
@00001095 02
@00001096 FF
@00001097 06
@00001098 0B
@00001099 FA
@0000109A F6
@0000109B F8
@0000109C 03
@0000109D FE
@0000109E F9
@0000109F 00
@000010A0 00
@000010A1 F4
@000010A2 01
@000010A3 00
@000010A4 F8
@000010A5 07
@000010A6 FD
@000010A7 FC
@000010A8 F3
@000010A9 FD
@000010AA 0B
@000010AB 07
@000010AC FB
@000010AD 08
@000010AE 01
@000010AF FF
@000010B0 00
@000010B1 EF
@000010B2 FE
@000010B3 0C
@000010B4 0B
@000010B5 05
@000010B6 FC
@000010B7 07
@000010B8 F9
@000010B9 F9
@000010BA FC
@000010BB 02
@000010BC FC
@000010BD FB
@000010BE FF
@000010BF 09
@000010C0 FF
@000010C1 00
@000010C2 00
@000010C3 08
@000010C4 03
@000010C5 F8
@000010C6 FB
@000010C7 04
@000010C8 04
@000010C9 F3
@000010CA 0C
@000010CB 05
@000010CC F8
@000010CD F6
@000010CE 03
@000010CF FE
@000010D0 01
@000010D1 F5
@000010D2 F2
@000010D3 01
@000010D4 04
@000010D5 02
@000010D6 06
@000010D7 01
@000010D8 01
@000010D9 07
@000010DA FC
@000010DB 11
@000010DC F5
@000010DD 04
@000010DE 02
@000010DF FD
@000010E0 04
@000010E1 09
@000010E2 FC
@000010E3 05
@000010E4 FF
@000010E5 EB
@000010E6 FC
@000010E7 05
@000010E8 F5
@000010E9 FE
@000010EA 05
@000010EB FF
@000010EC FA
@000010ED FA
@000010EE FF
@000010EF FD
@000010F0 FE
@000010F1 FB
@000010F2 FB
@000010F3 0E
@000010F4 05
@000010F5 F9
@000010F6 02
@000010F7 FC
@000010F8 05
@000010F9 FD
@000010FA 06
@000010FB 08
@000010FC FD
@000010FD 00
@000010FE FE
@000010FF EF
@00001100 F3
@00001101 02
@00001102 07
@00001103 FA
@00001104 00
@00001105 01
@00001106 FD
@00001107 FA
@00001108 09
@00001109 00
@0000110A FE
@0000110B FC
@0000110C FC
@0000110D 00
@0000110E F7
@0000110F FD
@00001110 FD
@00001111 06
@00001112 F7
@00001113 FE
@00001114 01
@00001115 F9
@00001116 00
@00001117 FE
@00001118 F1
@00001119 04
@0000111A FD
@0000111B 01
@0000111C FC
@0000111D F5
@0000111E 01
@0000111F F4
@00001120 FF
@00001121 06
@00001122 F4
@00001123 FF
@00001124 FE
@00001125 FC
@00001126 0B
@00001127 00
@00001128 06
@00001129 FE
@0000112A 07
@0000112B FE
@0000112C FF
@0000112D F7
@0000112E 01
@0000112F FC
@00001130 F7
@00001131 01
@00001132 02
@00001133 FA
@00001134 F8
@00001135 06
@00001136 0A
@00001137 01
@00001138 F7
@00001139 0F
@0000113A 07
@0000113B 04
@0000113C 08
@0000113D 0A
@0000113E 01
@0000113F 11
@00001140 04
@00001141 00
@00001142 02
@00001143 FB
@00001144 04
@00001145 05
@00001146 FC
@00001147 00
@00001148 FC
@00001149 03
@0000114A F4
@0000114B 0C
@0000114C F9
@0000114D 03
@0000114E 0B
@0000114F FA
@00001150 0A
@00001151 00
@00001152 06
@00001153 07
@00001154 F8
@00001155 F5
@00001156 FE
@00001157 F7
@00001158 01
@00001159 FA
@0000115A FE
@0000115B F4
@0000115C 07
@0000115D F7
@0000115E 0C
@0000115F 09
@00001160 06
@00001161 06
@00001162 04
@00001163 00
@00001164 08
@00001165 00
@00001166 04
@00001167 F8
@00001168 F9
@00001169 00
@0000116A FD
@0000116B F7
@0000116C F8
@0000116D 02
@0000116E FB
@0000116F FF
@00001170 05
@00001171 FE
@00001172 08
@00001173 04
@00001174 F7
@00001175 FF
@00001176 02
@00001177 06
@00001178 FD
@00001179 FA
@0000117A F8
@0000117B F8
@0000117C 09
@0000117D F6
@0000117E 04
@0000117F 01
@00001180 FD
@00001181 06
@00001182 FE
@00001183 FD
@00001184 FA
@00001185 02
@00001186 F5
@00001187 F7
@00001188 FA
@00001189 FC
@0000118A 04
@0000118B 01
@0000118C FA
@0000118D 04
@0000118E FB
@0000118F F7
@00001190 F9
@00001191 00
@00001192 FD
@00001193 0D
@00001194 FB
@00001195 FC
@00001196 13
@00001197 04
@00001198 FD
@00001199 06
@0000119A FF
@0000119B F3
@0000119C F8
@0000119D FD
@0000119E 06
@0000119F 09
@000011A0 01
@000011A1 F3
@000011A2 F8
@000011A3 06
@000011A4 F8
@000011A5 F8
@000011A6 FD
@000011A7 FF
@000011A8 04
@000011A9 FC
@000011AA FC
@000011AB FF
@000011AC 01
@000011AD FD
@000011AE 0A
@000011AF FB
@000011B0 04
@000011B1 02
@000011B2 00
@000011B3 00
@000011B4 F9
@000011B5 03
@000011B6 02
@000011B7 F8
@000011B8 09
@000011B9 02
@000011BA 07
@000011BB 04
@000011BC FA
@000011BD 08
@000011BE 01
@000011BF 02
@000011C0 FE
@000011C1 FD
@000011C2 F6
@000011C3 00
@000011C4 00
@000011C5 FE
@000011C6 01
@000011C7 01
@000011C8 FA
@000011C9 0D
@000011CA 00
@000011CB FA
@000011CC F8
@000011CD 03
@000011CE 05
@000011CF 09
@000011D0 05
@000011D1 FF
@000011D2 02
@000011D3 F3
@000011D4 F0
@000011D5 F7
@000011D6 FF
@000011D7 F4
@000011D8 F6
@000011D9 FF
@000011DA 05
@000011DB 0A
@000011DC FA
@000011DD 01
@000011DE FC
@000011DF 0D
@000011E0 0A
@000011E1 FD
@000011E2 F7
@000011E3 06
@000011E4 FF
@000011E5 FF
@000011E6 04
@000011E7 FC
@000011E8 07
@000011E9 F6
@000011EA FE
@000011EB F6
@000011EC FF
@000011ED 0C
@000011EE 08
@000011EF F8
@000011F0 F6
@000011F1 09
@000011F2 01
@000011F3 FA
@000011F4 0B
@000011F5 01
@000011F6 F4
@000011F7 03
@000011F8 F8
@000011F9 00
@000011FA 01
@000011FB FD
@000011FC FB
@000011FD 04
@000011FE F8
@000011FF FA
@00001200 FB
@00001201 F8
@00001202 FA
@00001203 06
@00001204 FF
@00001205 FC
@00001206 01
@00001207 03
@00001208 03
@00001209 01
@0000120A F9
@0000120B F9
@0000120C 06
@0000120D F8
@0000120E FF
@0000120F 00
@00001210 00
@00001211 02
@00001212 01
@00001213 F8
@00001214 FD
@00001215 FE
@00001216 FC
@00001217 00
@00001218 FC
@00001219 FF
@0000121A 02
@0000121B 01
@0000121C 03
@0000121D FF
@0000121E 04
@0000121F F9
@00001220 FD
@00001221 FA
@00001222 00
@00001223 01
@00001224 00
@00001225 07
@00001226 01
@00001227 FE
@00001228 FF
@00001229 01
@0000122A 01
@0000122B FA
@0000122C 0B
@0000122D FC
@0000122E 03
@0000122F F8
@00001230 FB
@00001231 F9
@00001232 FD
@00001233 04
@00001234 03
@00001235 FD
@00001236 FB
@00001237 FF
@00001238 FB
@00001239 05
@0000123A 00
@0000123B FD
@0000123C 04
@0000123D 02
@0000123E 01
@0000123F FB
@00001240 F8
@00001241 F9
@00001242 05
@00001243 F8
@00001244 03
@00001245 F5
@00001246 00
@00001247 FC
@00001248 F6
@00001249 05
@0000124A FA
@0000124B 07
@0000124C 01
@0000124D 07
@0000124E FD
@0000124F 02
@00001250 06
@00001251 FA
@00001252 03
@00001253 F8
@00001254 F9
@00001255 FE
@00001256 FF
@00001257 FA
@00001258 03
@00001259 FA
@0000125A F3
@0000125B 00
@0000125C FB
@0000125D 06
@0000125E FF
@0000125F 03
@00001260 09
@00001261 00
@00001262 F7
@00001263 07
@00001264 FB
@00001265 11
@00001266 07
@00001267 FF
@00001268 00
@00001269 FA
@0000126A 00
@0000126B 04
@0000126C FA
@0000126D FD
@0000126E 04
@0000126F FD
@00001270 02
@00001271 00
@00001272 FA
@00001273 FC
@00001274 00
@00001275 FB
@00001276 FC
@00001277 FD
@00001278 FC
@00001279 04
@0000127A FD
@0000127B 04
@0000127C FC
@0000127D FF
@0000127E F5
@0000127F 03
@00001280 03
@00001281 03
@00001282 05
@00001283 05
@00001284 FD
@00001285 0B
@00001286 05
@00001287 FC
@00001288 FA
@00001289 F6
@0000128A 04
@0000128B FA
@0000128C 00
@0000128D F8
@0000128E FC
@0000128F 00
@00001290 00
@00001291 FE
@00001292 03
@00001293 05
@00001294 00
@00001295 FB
@00001296 FE
@00001297 FF
@00001298 FC
@00001299 F9
@0000129A FB
@0000129B F8
@0000129C 06
@0000129D 03
@0000129E 02
@0000129F 0D
@000012A0 03
@000012A1 01
@000012A2 08
@000012A3 FF
@000012A4 01
@000012A5 F9
@000012A6 F8
@000012A7 FD
@000012A8 FF
@000012A9 00
@000012AA FE
@000012AB 09
@000012AC FB
@000012AD 04
@000012AE 00
@000012AF FF
@000012B0 00
@000012B1 03
@000012B2 03
@000012B3 FE
@000012B4 05
@000012B5 06
@000012B6 09
@000012B7 F6
@000012B8 05
@000012B9 04
@000012BA 03
@000012BB 02
@000012BC 00
@000012BD FE
@000012BE 03
@000012BF FF
@000012C0 FB
@000012C1 FE
@000012C2 FC
@000012C3 01
@000012C4 0C
@000012C5 FD
@000012C6 02
@000012C7 06
@000012C8 02
@000012C9 F9
@000012CA 04
@000012CB FF
@000012CC FA
@000012CD FD
@000012CE FE
@000012CF FA
@000012D0 F9
@000012D1 FF
@000012D2 FE
@000012D3 07
@000012D4 01
@000012D5 02
@000012D6 04
@000012D7 04
@000012D8 00
@000012D9 04
@000012DA 06
@000012DB 01
@000012DC FD
@000012DD F7
@000012DE F8
@000012DF FB
@000012E0 FB
@000012E1 FA
@000012E2 00
@000012E3 03
@000012E4 FD
@000012E5 02
@000012E6 FC
@000012E7 FD
@000012E8 08
@000012E9 00
@000012EA 02
@000012EB 07
@000012EC 02
@000012ED FC
@000012EE 05
@000012EF 00
@000012F0 04
@000012F1 FD
@000012F2 01
@000012F3 FE
@000012F4 06
@000012F5 FF
@000012F6 02
@000012F7 01
@000012F8 04
@000012F9 01
@000012FA 07
@000012FB F5
@000012FC FE
@000012FD 06
@000012FE 01
@000012FF FE
@00001300 05
@00001301 F8
@00001302 FB
@00001303 FD
@00001304 FA
@00001305 00
@00001306 F8
@00001307 05
@00001308 0B
@00001309 FE
@0000130A FF
@0000130B F5
@0000130C FC
@0000130D FE
@0000130E FF
@0000130F FB
@00001310 FD
@00001311 FF
@00001312 FA
@00001313 00
@00001314 02
@00001315 00
@00001316 01
@00001317 FD
@00001318 F7
@00001319 02
@0000131A 05
@0000131B 08
@0000131C 00
@0000131D FF
@0000131E 02
@0000131F 01
@00001320 FC
@00001321 02
@00001322 FE
@00001323 FE
@00001324 06
@00001325 08
@00001326 FD
@00001327 00
@00001328 FC
@00001329 04
@0000132A 05
@0000132B 07
@0000132C 0B
@0000132D FB
@0000132E 03
@0000132F 00
@00001330 FF
@00001331 FE
@00001332 03
@00001333 F9
@00001334 07
@00001335 00
@00001336 F9
@00001337 FE
@00001338 09
@00001339 00
@0000133A 06
@0000133B 06
@0000133C 09
@0000133D FC
@0000133E FD
@0000133F 09
@00001340 03
@00001341 FE
@00001342 05
@00001343 03
@00001344 F3
@00001345 01
@00001346 FE
@00001347 08
@00001348 04
@00001349 FF
@0000134A 00
@0000134B 06
@0000134C 01
@0000134D FA
@0000134E 04
@0000134F FC
@00001350 FC
@00001351 04
@00001352 FE
@00001353 05
@00001354 01
@00001355 FE
@00001356 FE
@00001357 03
@00001358 03
@00001359 03
@0000135A FF
@0000135B FE
@0000135C 01
@0000135D FD
@0000135E FD
@0000135F FD
@00001360 FE
@00001361 FE
@00001362 07
@00001363 00
@00001364 02
@00001365 05
@00001366 00
@00001367 05
@00001368 04
@00001369 04
@0000136A 05
@0000136B 02
@0000136C 00
@0000136D 04
@0000136E 01
@0000136F FE
@00001370 00
@00001371 FD
@00001372 04
@00001373 F9
@00001374 FC
@00001375 FB
@00001376 01
@00001377 02
@00001378 FB
@00001379 FA
@0000137A FD
@0000137B 06
@0000137C 04
@0000137D 06
@0000137E 01
@0000137F 03
@00001380 07
@00001381 05
@00001382 FD
@00001383 FF
@00001384 03
@00001385 03
@00001386 FF
@00001387 01
@00001388 00
@00001389 FD
@0000138A FD
@0000138B FC
@0000138C F9
@0000138D 01
@0000138E 00
@0000138F 00
@00001390 00
@00001391 04
@00001392 02
@00001393 FF
@00001394 FC
@00001395 F9
@00001396 00
@00001397 04
@00001398 F6
@00001399 FE
@0000139A FE
@0000139B FB
@0000139C 04
@0000139D FE
@0000139E FA
@0000139F FE
@000013A0 07
@000013A1 00
@000013A2 01
@000013A3 FF
@000013A4 00
@000013A5 05
@000013A6 00
@000013A7 00
@000013A8 05
@000013A9 05
@000013AA 05
@000013AB 06
@000013AC 01
@000013AD FA
@000013AE FB
@000013AF FE
@000013B0 FB
@000013B1 FF
@000013B2 02
@000013B3 04
@000013B4 03
@000013B5 03
@000013B6 01
@000013B7 03
@000013B8 02
@000013B9 0A
@000013BA 03
@000013BB 06
@000013BC 0A
@000013BD 04
@000013BE 05
@000013BF 02
@000013C0 FF
@000013C1 06
@000013C2 02
@000013C3 FB
@000013C4 FC
@000013C5 FD
@000013C6 03
@000013C7 01
@000013C8 04
@000013C9 FE
@000013CA 05
@000013CB F6
@000013CC 06
@000013CD 04
@000013CE FD
@000013CF F7
@000013D0 01
@000013D1 0C
@000013D2 03
@000013D3 04
@000013D4 F4
@000013D5 01
@000013D6 FC
@000013D7 FD
@000013D8 07
@000013D9 03
@000013DA 05
@000013DB 02
@000013DC 06
@000013DD 0A
@000013DE FE
@000013DF 05
@000013E0 01
@000013E1 FA
@000013E2 FB
@000013E3 01
@000013E4 07
@000013E5 04
@000013E6 FE
@000013E7 03
@000013E8 07
@000013E9 FE
@000013EA 02
@000013EB FD
@000013EC FD
@000013ED FB
@000013EE FB
@000013EF FF
@000013F0 FB
@000013F1 02
@000013F2 F4
@000013F3 FD
@000013F4 FB
@000013F5 FA
@000013F6 FE
@000013F7 FD
@000013F8 05
@000013F9 F5
@000013FA F8
@000013FB 02
@000013FC 01
@000013FD 05
@000013FE 00
@000013FF FD
@00001400 F8
@00001401 01
@00001402 FE
@00001403 FE
@00001404 FF
@00001405 02
@00001406 01
@00001407 04
@00001408 0C
@00001409 05
@0000140A 0E
@0000140B 06
@0000140C FE
@0000140D 04
@0000140E 00
@0000140F F8
@00001410 FC
@00001411 FE
@00001412 FE
@00001413 01
@00001414 05
@00001415 0A
@00001416 07
@00001417 F5
@00001418 03
@00001419 01
@0000141A F7
@0000141B FF
@0000141C FA
@0000141D 01
@0000141E F5
@0000141F FC
@00001420 FC
@00001421 F8
@00001422 02
@00001423 F8
@00001424 FC
@00001425 FC
@00001426 F7
@00001427 00
@00001428 FC
@00001429 FA
@0000142A 06
@0000142B 01
@0000142C 00
@0000142D 0B
@0000142E 00
@0000142F 01
@00001430 F7
@00001431 F4
@00001432 04
@00001433 FA
@00001434 FE
@00001435 04
@00001436 FF
@00001437 FE
@00001438 FF
@00001439 01
@0000143A 08
@0000143B FD
@0000143C 0B
@0000143D 01
@0000143E 03
@0000143F 01
@00001440 FC
@00001441 01
@00001442 FC
@00001443 FF
@00001444 08
@00001445 0B
@00001446 00
@00001447 06
@00001448 02
@00001449 FB
@0000144A FF
@0000144B 00
@0000144C F9
@0000144D 00
@0000144E 00
@0000144F FC
@00001450 F7
@00001451 00
@00001452 F7
@00001453 FA
@00001454 FC
@00001455 06
@00001456 02
@00001457 FF
@00001458 01
@00001459 02
@0000145A 04
@0000145B 00
@0000145C FA
@0000145D 00
@0000145E FE
@0000145F 05
@00001460 0A
@00001461 00
@00001462 02
@00001463 04
@00001464 01
@00001465 02
@00001466 FF
@00001467 01
@00001468 02
@00001469 07
@0000146A F7
@0000146B F9
@0000146C FC
@0000146D 03
@0000146E 02
@0000146F 0B
@00001470 FD
@00001471 F9
@00001472 FA
@00001473 FD
@00001474 07
@00001475 FF
@00001476 F4
@00001477 00
@00001478 00
@00001479 07
@0000147A 04
@0000147B 03
@0000147C 00
@0000147D FF
@0000147E 06
@0000147F 04
@00001480 00
@00001481 03
@00001482 01
@00001483 07
@00001484 06
@00001485 05
@00001486 06
@00001487 03
@00001488 F9
@00001489 0A
@0000148A FB
@0000148B F7
@0000148C FC
@0000148D FA
@0000148E F6
@0000148F F9
@00001490 00
@00001491 F6
@00001492 01
@00001493 00
@00001494 FB
@00001495 02
@00001496 FC
@00001497 FD
@00001498 FD
@00001499 00
@0000149A 05
@0000149B FE
@0000149C 02
@0000149D FE
@0000149E FD
@0000149F FD
@000014A0 F9
@000014A1 04
@000014A2 02
@000014A3 FA
@000014A4 FA
@000014A5 02
@000014A6 FE
@000014A7 FE
@000014A8 FB
@000014A9 F8
@000014AA F7
@000014AB 04
@000014AC 01
@000014AD F5
@000014AE FC
@000014AF 06
@000014B0 FF
@000014B1 01
@000014B2 01
@000014B3 FC
@000014B4 FC
@000014B5 FA
@000014B6 04
@000014B7 F8
@000014B8 00
@000014B9 FF
@000014BA 06
@000014BB FE
@000014BC FE
@000014BD F9
@000014BE F9
@000014BF FA
@000014C0 00
@000014C1 FE
@000014C2 04
@000014C3 FE
@000014C4 02
@000014C5 F8
@000014C6 FE
@000014C7 FE
@000014C8 00
@000014C9 FA
@000014CA 00
@000014CB 01
@000014CC 05
@000014CD F4
@000014CE 01
@000014CF 04
@000014D0 04
@000014D1 02
@000014D2 FF
@000014D3 02
@000014D4 FE
@000014D5 FC
@000014D6 05
@000014D7 04
@000014D8 08
@000014D9 FF
@000014DA 01
@000014DB FF
@000014DC 02
@000014DD FF
@000014DE 0B
@000014DF FD
@000014E0 03
@000014E1 01
@000014E2 F1
@000014E3 FD
@000014E4 FB
@000014E5 FD
@000014E6 FE
@000014E7 01
@000014E8 F6
@000014E9 FF
@000014EA 03
@000014EB 00
@000014EC 02
@000014ED F9
@000014EE 04
@000014EF 02
@000014F0 FC
@000014F1 02
@000014F2 06
@000014F3 01
@000014F4 F7
@000014F5 05
@000014F6 02
@000014F7 06
@000014F8 05
@000014F9 06
@000014FA FA
@000014FB FD
@000014FC F9
@000014FD FC
@000014FE FB
@000014FF 01
@00001500 FA
@00001501 FC
@00001502 FF
@00001503 F8
@00001504 FD
@00001505 06
@00001506 FC
@00001507 03
@00001508 02
@00001509 01
@0000150A FC
@0000150B 03
@0000150C 00
@0000150D FE
@0000150E FF
@0000150F 00
@00001510 01
@00001511 00
@00001512 03
@00001513 02
@00001514 FF
@00001515 FB
@00001516 FC
@00001517 FD
@00001518 07
@00001519 09
@0000151A 05
@0000151B 01
@0000151C FD
@0000151D FF
@0000151E 01
@0000151F 00
@00001520 FD
@00001521 00
@00001522 FF
@00001523 FB
@00001524 FD
@00001525 FC
@00001526 FC
@00001527 FF
@00001528 FE
@00001529 06
@0000152A 01
@0000152B 07
@0000152C 00
@0000152D FD
@0000152E 01
@0000152F 00
@00001530 05
@00001531 FD
@00001532 FE
@00001533 00
@00001534 F9
@00001535 FF
@00001536 FD
@00001537 FF
@00001538 FD
@00001539 FF
@0000153A 07
@0000153B FE
@0000153C FE
@0000153D FD
@0000153E FC
@0000153F FF
@00001540 F8
@00001541 FC
@00001542 F7
@00001543 00
@00001544 06
@00001545 FE
@00001546 FA
@00001547 01
@00001548 00
@00001549 05
@0000154A 04
@0000154B 02
@0000154C 06
@0000154D FF
@0000154E FF
@0000154F 01
@00001550 00
@00001551 F9
@00001552 F8
@00001553 04
@00001554 FB
@00001555 FB
@00001556 FE
@00001557 FD
@00001558 00
@00001559 00
@0000155A 08
@0000155B 08
@0000155C 03
@0000155D 05
@0000155E 02
@0000155F 05
@00001560 01
@00001561 02
@00001562 01
@00001563 FF
@00001564 05
@00001565 FF
@00001566 FD
@00001567 FC
@00001568 FF
@00001569 01
@0000156A FE
@0000156B FB
@0000156C 02
@0000156D 04
@0000156E 0D
@0000156F 03
@00001570 00
@00001571 03
@00001572 08
@00001573 FF
@00001574 0A
@00001575 FF
@00001576 F5
@00001577 04
@00001578 F7
@00001579 F9
@0000157A 02
@0000157B 07
@0000157C F4
@0000157D 06
@0000157E 07
@0000157F F9
@00001580 02
@00001581 FF
@00001582 02
@00001583 FD
@00001584 03
@00001585 03
@00001586 F7
@00001587 F9
@00001588 FE
@00001589 F7
@0000158A F3
@0000158B F6
@0000158C F8
@0000158D FB
@0000158E F8
@0000158F 05
@00001590 FE
@00001591 FF
@00001592 FB
@00001593 FB
@00001594 F3
@00001595 F9
@00001596 08
@00001597 FC
@00001598 00
@00001599 FC
@0000159A 00
@0000159B F5
@0000159C 05
@0000159D 00
@0000159E 06
@0000159F FC
@000015A0 FB
@000015A1 F4
@000015A2 FC
@000015A3 02
@000015A4 06
@000015A5 FC
@000015A6 05
@000015A7 05
@000015A8 FE
@000015A9 F9
@000015AA 03
@000015AB 07
@000015AC 00
@000015AD 00
@000015AE 05
@000015AF 04
@000015B0 05
@000015B1 00
@000015B2 06
@000015B3 00
@000015B4 FB
@000015B5 FE
@000015B6 F9
@000015B7 FF
@000015B8 FC
@000015B9 FE
@000015BA 07
@000015BB 00
@000015BC 03
@000015BD 01
@000015BE 00
@000015BF 00
@000015C0 FD
@000015C1 07
@000015C2 07
@000015C3 FE
@000015C4 F9
@000015C5 FF
@000015C6 0A
@000015C7 03
@000015C8 05
@000015C9 02
@000015CA 00
@000015CB FA
@000015CC FD
@000015CD F9
@000015CE 04
@000015CF FE
@000015D0 FB
@000015D1 07
@000015D2 F9
@000015D3 FD
@000015D4 FE
@000015D5 FB
@000015D6 0A
@000015D7 F7
@000015D8 FA
@000015D9 05
@000015DA 02
@000015DB F9
@000015DC FF
@000015DD 05
@000015DE 05
@000015DF FF
@000015E0 FD
@000015E1 02
@000015E2 02
@000015E3 FE
@000015E4 02
@000015E5 F8
@000015E6 05
@000015E7 FB
@000015E8 F8
@000015E9 F9
@000015EA 06
@000015EB FC
@000015EC 08
@000015ED 02
@000015EE 03
@000015EF 06
@000015F0 07
@000015F1 01
@000015F2 06
@000015F3 01
@000015F4 FB
@000015F5 00
@000015F6 FD
@000015F7 01
@000015F8 F7
@000015F9 FD
@000015FA 05
@000015FB F8
@000015FC 05
@000015FD 00
@000015FE 00
@000015FF 00
@00001600 02
@00001601 FD
@00001602 02
@00001603 FD
@00001604 03
@00001605 02
@00001606 02
@00001607 06
@00001608 FF
@00001609 02
@0000160A 06
@0000160B FC
@0000160C 07
@0000160D FB
@0000160E FC
@0000160F 00
@00001610 02
@00001611 FF
@00001612 FC
@00001613 00
@00001614 FC
@00001615 FF
@00001616 05
@00001617 07
@00001618 03
@00001619 FC
@0000161A FE
@0000161B 03
@0000161C FF
@0000161D F7
@0000161E F5
@0000161F 02
@00001620 FF
@00001621 00
@00001622 FB
@00001623 F7
@00001624 F9
@00001625 03
@00001626 F8
@00001627 04
@00001628 FA
@00001629 F8
@0000162A FC
@0000162B 05
@0000162C FC
@0000162D FE
@0000162E 06
@0000162F FB
@00001630 FC
@00001631 00
@00001632 00
@00001633 FD
@00001634 F8
@00001635 05
@00001636 04
@00001637 FE
@00001638 03
@00001639 03
@0000163A FD
@0000163B 02
@0000163C 03
@0000163D 03
@0000163E 01
@0000163F 01
@00001640 09
@00001641 FF
@00001642 05
@00001643 04
@00001644 FF
@00001645 03
@00001646 FB
@00001647 FE
@00001648 FF
@00001649 FE
@0000164A FA
@0000164B FB
@0000164C 03
@0000164D FF
@0000164E FF
@0000164F 03
@00001650 00
@00001651 FE
@00001652 05
@00001653 FF
@00001654 FB
@00001655 FE
@00001656 04
@00001657 00
@00001658 FC
@00001659 01
@0000165A 00
@0000165B 03
@0000165C 00
@0000165D 00
@0000165E FE
@0000165F 07
@00001660 FB
@00001661 01
@00001662 FE
@00001663 05
@00001664 04
@00001665 03
@00001666 04
@00001667 FD
@00001668 FC
@00001669 03
@0000166A 09
@0000166B FC
@0000166C FE
@0000166D FA
@0000166E 00
@0000166F 01
@00001670 00
@00001671 F5
@00001672 FF
@00001673 F7
@00001674 01
@00001675 FF
@00001676 03
@00001677 FC
@00001678 04
@00001679 03
@0000167A 02
@0000167B 07
@0000167C 05
@0000167D 07
@0000167E FB
@0000167F 03
@00001680 05
@00001681 F9
@00001682 01
@00001683 FD
@00001684 FD
@00001685 FF
@00001686 FA
@00001687 04
@00001688 02
@00001689 F9
@0000168A 02
@0000168B 06
@0000168C FE
@0000168D FD
@0000168E 00
@0000168F FF
@00001690 F9
@00001691 FF
@00001692 03
@00001693 03
@00001694 FE
@00001695 0B
@00001696 03
@00001697 FE
@00001698 F7
@00001699 F9
@0000169A F7
@0000169B 06
@0000169C 0C
@0000169D FE
@0000169E FF
@0000169F 05
@000016A0 01
@000016A1 FC
@000016A2 FC
@000016A3 FA
@000016A4 F6
@000016A5 F7
@000016A6 02
@000016A7 F9
@000016A8 F6
@000016A9 F9
@000016AA EC
@000016AB 01
@000016AC F4
@000016AD 11
@000016AE 00
@000016AF 02
@000016B0 F7
@000016B1 00
@000016B2 06
@000016B3 FE
@000016B4 FE
@000016B5 0B
@000016B6 01
@000016B7 08
@000016B8 FE
@000016B9 04
@000016BA F8
@000016BB FB
@000016BC 04
@000016BD 03
@000016BE 05
@000016BF 02
@000016C0 FF
@000016C1 00
@000016C2 07
@000016C3 02
@000016C4 FE
@000016C5 06
@000016C6 03
@000016C7 07
@000016C8 01
@000016C9 07
@000016CA F9
@000016CB FD
@000016CC FB
@000016CD F6
@000016CE 01
@000016CF F8
@000016D0 FE
@000016D1 04
@000016D2 0B
@000016D3 F9
@000016D4 FB
@000016D5 0A
@000016D6 02
@000016D7 FF
@000016D8 01
@000016D9 FA
@000016DA FA
@000016DB FD
@000016DC FE
@000016DD 07
@000016DE FA
@000016DF 02
@000016E0 05
@000016E1 F8
@000016E2 03
@000016E3 0D
@000016E4 04
@000016E5 FF
@000016E6 FE
@000016E7 F9
@000016E8 F6
@000016E9 FA
@000016EA 04
@000016EB 00
@000016EC F4
@000016ED F6
@000016EE 09
@000016EF 00
@000016F0 FE
@000016F1 FB
@000016F2 0C
@000016F3 01
@000016F4 02
@000016F5 EF
@000016F6 FC
@000016F7 FB
@000016F8 FC
@000016F9 FF
@000016FA FB
@000016FB F8
@000016FC 05
@000016FD 02
@000016FE 09
@000016FF 06
@00001700 FA
@00001701 F8
@00001702 01
@00001703 FB
@00001704 F6
@00001705 FA
@00001706 FC
@00001707 08
@00001708 0E
@00001709 03
@0000170A 00
@0000170B FB
@0000170C FE
@0000170D FE
@0000170E 07
@0000170F 0A
@00001710 00
@00001711 F1
@00001712 F6
@00001713 F8
@00001714 00
@00001715 FF
@00001716 FE
@00001717 05
@00001718 06
@00001719 00
@0000171A 0C
@0000171B F9
@0000171C F7
@0000171D F9
@0000171E F4
@0000171F 02
@00001720 02
@00001721 02
@00001722 01
@00001723 09
@00001724 F0
@00001725 05
@00001726 06
@00001727 09
@00001728 F7
@00001729 00
@0000172A F6
@0000172B F6
@0000172C 02
@0000172D 01
@0000172E FB
@0000172F 00
@00001730 03
@00001731 05
@00001732 F7
@00001733 04
@00001734 00
@00001735 07
@00001736 FF
@00001737 FC
@00001738 FB
@00001739 02
@0000173A 0C
@0000173B 07
@0000173C 02
@0000173D 05
@0000173E FC
@0000173F 06
@00001740 01
@00001741 F8
@00001742 F9
@00001743 0C
@00001744 03
@00001745 04
@00001746 F8
@00001747 15
@00001748 00
@00001749 FD
@0000174A 00
@0000174B F4
@0000174C 0A
@0000174D 06
@0000174E 0D
@0000174F FC
@00001750 F1
@00001751 FE
@00001752 FF
@00001753 FF
@00001754 FE
@00001755 F7
@00001756 FC
@00001757 F6
@00001758 04
@00001759 F6
@0000175A 00
@0000175B FA
@0000175C 00
@0000175D F8
@0000175E FD
@0000175F F0
@00001760 FF
@00001761 05
@00001762 08
@00001763 0A
@00001764 04
@00001765 F9
@00001766 FF
@00001767 05
@00001768 09
@00001769 FD
@0000176A F4
@0000176B FC
@0000176C 03
@0000176D 05
@0000176E 03
@0000176F 05
@00001770 02
@00001771 02
@00001772 F9
@00001773 F7
@00001774 FB
@00001775 FD
@00001776 07
@00001777 FF
@00001778 07
@00001779 FA
@0000177A F6
@0000177B FD
@0000177C FF
@0000177D 05
@0000177E 08
@0000177F 05
@00001780 04
@00001781 04
@00001782 02
@00001783 F7
@00001784 00
@00001785 03
@00001786 00
@00001787 F3
@00001788 FF
@00001789 F8
@0000178A 02
@0000178B FC
@0000178C FC
@0000178D 06
@0000178E F7
@0000178F FE
@00001790 FA
@00001791 00
@00001792 01
@00001793 F5
@00001794 F6
@00001795 01
@00001796 00
@00001797 02
@00001798 F5
@00001799 FF
@0000179A FB
@0000179B FD
@0000179C F6
@0000179D FC
@0000179E 02
@0000179F 0A
@000017A0 09
@000017A1 10
@000017A2 03
@000017A3 FC
@000017A4 03
@000017A5 FD
@000017A6 05
@000017A7 FA
@000017A8 FE
@000017A9 05
@000017AA FA
@000017AB 03
@000017AC 09
@000017AD FC
@000017AE 01
@000017AF FF
@000017B0 00
@000017B1 FA
@000017B2 F4
@000017B3 FF
@000017B4 02
@000017B5 F4
@000017B6 0B
@000017B7 FF
@000017B8 FE
@000017B9 FC
@000017BA 02
@000017BB 03
@000017BC 01
@000017BD FC
@000017BE 07
@000017BF 0D
@000017C0 02
@000017C1 07
@000017C2 01
@000017C3 00
@000017C4 02
@000017C5 06
@000017C6 04
@000017C7 FD
@000017C8 01
@000017C9 01
@000017CA F5
@000017CB 04
@000017CC 05
@000017CD FF
@000017CE 00
@000017CF FB
@000017D0 01
@000017D1 FF
@000017D2 F5
@000017D3 03
@000017D4 FF
@000017D5 05
@000017D6 FF
@000017D7 0B
@000017D8 0D
@000017D9 04
@000017DA FC
@000017DB FD
@000017DC 03
@000017DD 06
@000017DE 03
@000017DF F9
@000017E0 FA
@000017E1 07
@000017E2 07
@000017E3 FF
@000017E4 05
@000017E5 FA
@000017E6 FD
@000017E7 FC
@000017E8 11
@000017E9 03
@000017EA 04
@000017EB 03
@000017EC F2
@000017ED 09
@000017EE FD
@000017EF 02
@000017F0 03
@000017F1 06
@000017F2 FF
@000017F3 FD
@000017F4 02
@000017F5 F8
@000017F6 FD
@000017F7 F8
@000017F8 06
@000017F9 08
@000017FA 02
@000017FB FE
@000017FC 0D
@000017FD FC
@000017FE FB
@000017FF FE
@00001800 0A
@00001801 03
@00001802 03
@00001803 00
@00001804 08
@00001805 FC
@00001806 05
@00001807 EF
@00001808 0F
@00001809 05
@0000180A FF
@0000180B FE
@0000180C FA
@0000180D 07
@0000180E 08
@0000180F F3
@00001810 F6
@00001811 F8
@00001812 F9
@00001813 05
@00001814 01
@00001815 FD
@00001816 03
@00001817 0B
@00001818 01
@00001819 05
@0000181A 0B
@0000181B F9
@0000181C 05
@0000181D 04
@0000181E FE
@0000181F 07
@00001820 FE
@00001821 FE
@00001822 F5
@00001823 F9
@00001824 01
@00001825 FA
@00001826 09
@00001827 FF
@00001828 09
@00001829 FE
@0000182A 04
@0000182B 02
@0000182C 00
@0000182D 0A
@0000182E 05
@0000182F FC
@00001830 0A
@00001831 FA
@00001832 FB
@00001833 00
@00001834 FD
@00001835 FF
@00001836 F8
@00001837 01
@00001838 FA
@00001839 00
@0000183A 00
@0000183B FF
@0000183C FC
@0000183D FD
@0000183E 02
@0000183F 03
@00001840 FB
@00001841 FF
@00001842 02
@00001843 FD
@00001844 F8
@00001845 05
@00001846 05
@00001847 07
@00001848 00
@00001849 F8
@0000184A 01
@0000184B 09
@0000184C 02
@0000184D 08
@0000184E 00
@0000184F FD
@00001850 0B
@00001851 01
@00001852 F8
@00001853 F9
@00001854 00
@00001855 01
@00001856 02
@00001857 08
@00001858 04
@00001859 FF
@0000185A 01
@0000185B FC
@0000185C 01
@0000185D 09
@0000185E 0B
@0000185F 0A
@00001860 02
@00001861 FD
@00001862 09
@00001863 F9
@00001864 F3
@00001865 FF
@00001866 09
@00001867 02
@00001868 01
@00001869 03
@0000186A F7
@0000186B 09
@0000186C F1
@0000186D 04
@0000186E F9
@0000186F FD
@00001870 FF
@00001871 0C
@00001872 06
@00001873 FB
@00001874 03
@00001875 0D
@00001876 12
@00001877 02
@00001878 FC
@00001879 FB
@0000187A FE
@0000187B 04
@0000187C FF
@0000187D 03
@0000187E FD
@0000187F 0A
@00001880 04
@00001881 05
@00001882 01
@00001883 04
@00001884 FA
@00001885 06
@00001886 04
@00001887 F1
@00001888 FF
@00001889 03
@0000188A F4
@0000188B F8
@0000188C 05
@0000188D 01
@0000188E 01
@0000188F F8
@00001890 F9
@00001891 F5
@00001892 F6
@00001893 FC
@00001894 F9
@00001895 03
@00001896 06
@00001897 02
@00001898 05
@00001899 FC
@0000189A 00
@0000189B FE
@0000189C 03
@0000189D 03
@0000189E FB
@0000189F FE
@000018A0 FB
@000018A1 02
@000018A2 03
@000018A3 06
@000018A4 06
@000018A5 00
@000018A6 FD
@000018A7 02
@000018A8 F7
@000018A9 F9
@000018AA FC
@000018AB 06
@000018AC F9
@000018AD F9
@000018AE F8
@000018AF 06
@000018B0 08
@000018B1 FB
@000018B2 05
@000018B3 FF
@000018B4 FA
@000018B5 F5
@000018B6 F6
@000018B7 07
@000018B8 F9
@000018B9 01
@000018BA 00
@000018BB F5
@000018BC FE
@000018BD 04
@000018BE 03
@000018BF 03
@000018C0 02
@000018C1 FF
@000018C2 06
@000018C3 01
@000018C4 FB
@000018C5 03
@000018C6 F4
@000018C7 FE
@000018C8 F6
@000018C9 FC
@000018CA FD
@000018CB FD
@000018CC F6
@000018CD FF
@000018CE FA
@000018CF 00
@000018D0 00
@000018D1 01
@000018D2 06
@000018D3 FA
@000018D4 01
@000018D5 06
@000018D6 FD
@000018D7 04
@000018D8 03
@000018D9 02
@000018DA 05
@000018DB 09
@000018DC FD
@000018DD 07
@000018DE FE
@000018DF 00
@000018E0 08
@000018E1 00
@000018E2 00
@000018E3 01
@000018E4 0A
@000018E5 FD
@000018E6 F1
@000018E7 FC
@000018E8 09
@000018E9 03
@000018EA 01
@000018EB FB
@000018EC 04
@000018ED 08
@000018EE F8
@000018EF FE
@000018F0 01
@000018F1 F8
@000018F2 F9
@000018F3 07
@000018F4 07
@000018F5 06
@000018F6 07
@000018F7 0E
@000018F8 02
@000018F9 FA
@000018FA FA
@000018FB FE
@000018FC 01
@000018FD 05
@000018FE 07
@000018FF FC
@00001900 FC
@00001901 02
@00001902 F4
@00001903 FD
@00001904 F7
@00001905 01
@00001906 FD
@00001907 FC
@00001908 FD
@00001909 06
@0000190A F2
@0000190B 01
@0000190C 04
@0000190D 0A
@0000190E F8
@0000190F 03
@00001910 02
@00001911 0C
@00001912 01
@00001913 F8
@00001914 02
@00001915 FC
@00001916 F7
@00001917 09
@00001918 FD
@00001919 03
@0000191A 03
@0000191B FE
@0000191C FC
@0000191D 00
@0000191E F6
@0000191F 05
@00001920 FE
@00001921 04
@00001922 05
@00001923 01
@00001924 04
@00001925 06
@00001926 FE
@00001927 F8
@00001928 FC
@00001929 03
@0000192A 07
@0000192B FB
@0000192C 04
@0000192D 04
@0000192E 07
@0000192F 00
@00001930 01
@00001931 FB
@00001932 FC
@00001933 FC
@00001934 FB
@00001935 F2
@00001936 F8
@00001937 05
@00001938 09
@00001939 FD
@0000193A 0E
@0000193B FC
@0000193C F8
@0000193D FF
@0000193E 07
@0000193F FF
@00001940 FF
@00001941 08
@00001942 FE
@00001943 08
@00001944 03
@00001945 03
@00001946 01
@00001947 F7
@00001948 F4
@00001949 F9
@0000194A FF
@0000194B FF
@0000194C FC
@0000194D FE
@0000194E FF
@0000194F 08
@00001950 05
@00001951 FC
@00001952 FA
@00001953 FF
@00001954 F9
@00001955 03
@00001956 FD
@00001957 FC
@00001958 01
@00001959 0B
@0000195A FD
@0000195B 02
@0000195C 05
@0000195D FF
@0000195E 09
@0000195F 05
@00001960 01
@00001961 F9
@00001962 00
@00001963 FC
@00001964 05
@00001965 FF
@00001966 04
@00001967 FF
@00001968 FF
@00001969 05
@0000196A FF
@0000196B 05
@0000196C 07
@0000196D 05
@0000196E 00
@0000196F 05
@00001970 FC
@00001971 08
@00001972 FD
@00001973 09
@00001974 FB
@00001975 FB
@00001976 05
@00001977 01
@00001978 08
@00001979 05
@0000197A F3
@0000197B F1
@0000197C F7
@0000197D 0C
@0000197E FC
@0000197F 09
@00001980 FE
@00001981 F5
@00001982 F4
@00001983 FC
@00001984 FB
@00001985 02
@00001986 FD
@00001987 02
@00001988 FE
@00001989 FE
@0000198A 02
@0000198B FB
@0000198C FC
@0000198D FE
@0000198E F7
@0000198F FF
@00001990 0A
@00001991 FD
@00001992 04
@00001993 01
@00001994 00
@00001995 02
@00001996 F6
@00001997 F8
@00001998 F4
@00001999 04
@0000199A 05
@0000199B 01
@0000199C FC
@0000199D 06
@0000199E FF
@0000199F FD
@000019A0 03
@000019A1 FA
@000019A2 04
@000019A3 FD
@000019A4 FF
@000019A5 FB
@000019A6 FE
@000019A7 07
@000019A8 FF
@000019A9 00
@000019AA 04
@000019AB F8
@000019AC 04
@000019AD 07
@000019AE FD
@000019AF F4
@000019B0 F7
@000019B1 F8
@000019B2 FB
@000019B3 05
@000019B4 09
@000019B5 07
@000019B6 0D
@000019B7 03
@000019B8 FB
@000019B9 FF
@000019BA FE
@000019BB F5
@000019BC 05
@000019BD FB
@000019BE F5
@000019BF 03
@000019C0 00
@000019C1 06
@000019C2 F9
@000019C3 FE
@000019C4 0B
@000019C5 FF
@000019C6 00
@000019C7 F8
@000019C8 00
@000019C9 00
@000019CA 06
@000019CB F9
@000019CC FC
@000019CD FE
@000019CE 05
@000019CF 01
@000019D0 F5
@000019D1 FE
@000019D2 FC
@000019D3 FB
@000019D4 F5
@000019D5 02
@000019D6 FD
@000019D7 07
@000019D8 03
@000019D9 FC
@000019DA F7
@000019DB FF
@000019DC F8
@000019DD F5
@000019DE FD
@000019DF 01
@000019E0 FC
@000019E1 05
@000019E2 F5
@000019E3 FA
@000019E4 F7
@000019E5 00
@000019E6 FA
@000019E7 FC
@000019E8 F6
@000019E9 04
@000019EA 07
@000019EB 00
@000019EC FC
@000019ED FE
@000019EE FD
@000019EF 04
@000019F0 F9
@000019F1 EF
@000019F2 04
@000019F3 05
@000019F4 05
@000019F5 07
@000019F6 03
@000019F7 FA
@000019F8 01
@000019F9 08
@000019FA 08
@000019FB 05
@000019FC FF
@000019FD 09
@000019FE 01
@000019FF 00
@00001A00 0C
@00001A01 02
@00001A02 F4
@00001A03 01
@00001A04 FC
@00001A05 03
@00001A06 F7
@00001A07 05
@00001A08 FA
@00001A09 F9
@00001A0A 0B
@00001A0B FA
@00001A0C 02
@00001A0D 05
@00001A0E 03
@00001A0F F8
@00001A10 FF
@00001A11 FC
@00001A12 0E
@00001A13 00
@00001A14 0E
@00001A15 02
@00001A16 00
@00001A17 F8
@00001A18 02
@00001A19 05
@00001A1A FB
@00001A1B 01
@00001A1C 01
@00001A1D 00
@00001A1E 09
@00001A1F FE
@00001A20 01
@00001A21 FE
@00001A22 01
@00001A23 03
@00001A24 FD
@00001A25 F5
@00001A26 FC
@00001A27 04
@00001A28 04
@00001A29 FF
@00001A2A FF
@00001A2B 08
@00001A2C F9
@00001A2D 00
@00001A2E F8
@00001A2F F5
@00001A30 00
@00001A31 05
@00001A32 00
@00001A33 FE
@00001A34 F6
@00001A35 FE
@00001A36 FF
@00001A37 F9
@00001A38 05
@00001A39 FC
@00001A3A 0A
@00001A3B 06
@00001A3C 07
@00001A3D FC
@00001A3E FE
@00001A3F 02
@00001A40 FE
@00001A41 FE
@00001A42 FE
@00001A43 03
@00001A44 08
@00001A45 FF
@00001A46 00
@00001A47 04
@00001A48 03
@00001A49 0A
@00001A4A 06
@00001A4B FF
@00001A4C 04
@00001A4D 13
@00001A4E 06
@00001A4F 08
@00001A50 FF
@00001A51 FE
@00001A52 05
@00001A53 FD
@00001A54 03
@00001A55 F7
@00001A56 09
@00001A57 01
@00001A58 0C
@00001A59 FD
@00001A5A 02
@00001A5B 00
@00001A5C F1
@00001A5D 04
@00001A5E 0A
@00001A5F 06
@00001A60 00
@00001A61 03
@00001A62 06
@00001A63 0B
@00001A64 FC
@00001A65 FB
@00001A66 FD
@00001A67 01
@00001A68 09
@00001A69 03
@00001A6A F7
@00001A6B 01
@00001A6C 00
@00001A6D 0E
@00001A6E 04
@00001A6F 08
@00001A70 FE
@00001A71 FE
@00001A72 FC
@00001A73 FC
@00001A74 01
@00001A75 04
@00001A76 09
@00001A77 F1
@00001A78 FD
@00001A79 FD
@00001A7A 01
@00001A7B 00
@00001A7C 07
@00001A7D 01
@00001A7E F9
@00001A7F F7
@00001A80 F5
@00001A81 01
@00001A82 F9
@00001A83 01
@00001A84 02
@00001A85 FF
@00001A86 FA
@00001A87 FD
@00001A88 04
@00001A89 03
@00001A8A 00
@00001A8B FF
@00001A8C FA
@00001A8D F7
@00001A8E 01
@00001A8F FD
@00001A90 00
@00001A91 FD
@00001A92 FD
@00001A93 F7
@00001A94 FA
@00001A95 00
@00001A96 F8
@00001A97 00
@00001A98 07
@00001A99 00
@00001A9A F8
@00001A9B 0F
@00001A9C 03
@00001A9D 00
@00001A9E 07
@00001A9F 02
@00001AA0 F9
@00001AA1 03
@00001AA2 0C
@00001AA3 F8
@00001AA4 02
@00001AA5 FC
@00001AA6 FC
@00001AA7 08
@00001AA8 FC
@00001AA9 F9
@00001AAA 02
@00001AAB 08
@00001AAC F9
@00001AAD 05
@00001AAE 05
@00001AAF 01
@00001AB0 03
@00001AB1 06
@00001AB2 00
@00001AB3 02
@00001AB4 01
@00001AB5 F7
@00001AB6 03
@00001AB7 FB
@00001AB8 00
@00001AB9 00
@00001ABA 01
@00001ABB 00
@00001ABC 00
@00001ABD 04
@00001ABE F7
@00001ABF 0A
@00001AC0 FE
@00001AC1 0E
@00001AC2 EF
@00001AC3 FD
@00001AC4 04
@00001AC5 FD
@00001AC6 FC
@00001AC7 01
@00001AC8 F8
@00001AC9 FF
@00001ACA 00
@00001ACB FA
@00001ACC FA
@00001ACD 0A
@00001ACE F2
@00001ACF 07
@00001AD0 FE
@00001AD1 FD
@00001AD2 FA
@00001AD3 06
@00001AD4 FA
@00001AD5 FF
@00001AD6 01
@00001AD7 07
@00001AD8 00
@00001AD9 F6
@00001ADA 05
@00001ADB 00
@00001ADC FD
@00001ADD F5
@00001ADE FE
@00001ADF 04
@00001AE0 09
@00001AE1 06
@00001AE2 F7
@00001AE3 FB
@00001AE4 F6
@00001AE5 FD
@00001AE6 F9
@00001AE7 FE
@00001AE8 FD
@00001AE9 00
@00001AEA 0A
@00001AEB FE
@00001AEC 0B
@00001AED 07
@00001AEE 0D
@00001AEF 07
@00001AF0 04
@00001AF1 FA
@00001AF2 F8
@00001AF3 F1
@00001AF4 F6
@00001AF5 FA
@00001AF6 04
@00001AF7 FD
@00001AF8 04
@00001AF9 07
@00001AFA 05
@00001AFB 01
@00001AFC FA
@00001AFD FB
@00001AFE FC
@00001AFF FE
@00001B00 F9
@00001B01 01
@00001B02 02
@00001B03 04
@00001B04 01
@00001B05 01
@00001B06 FE
@00001B07 F7
@00001B08 03
@00001B09 FE
@00001B0A 00
@00001B0B 01
@00001B0C F9
@00001B0D 06
@00001B0E FC
@00001B0F FA
@00001B10 FA
@00001B11 00
@00001B12 04
@00001B13 01
@00001B14 01
@00001B15 FF
@00001B16 FA
@00001B17 FC
@00001B18 FA
@00001B19 09
@00001B1A 00
@00001B1B 08
@00001B1C 10
@00001B1D FE
@00001B1E FF
@00001B1F 06
@00001B20 03
@00001B21 FA
@00001B22 FE
@00001B23 F9
@00001B24 04
@00001B25 FB
@00001B26 FA
@00001B27 04
@00001B28 F8
@00001B29 01
@00001B2A 06
@00001B2B FE
@00001B2C 0A
@00001B2D 05
@00001B2E 03
@00001B2F F8
@00001B30 07
@00001B31 FF
@00001B32 FA
@00001B33 FD
@00001B34 FA
@00001B35 F6
@00001B36 FE
@00001B37 09
@00001B38 FB
@00001B39 04
@00001B3A FD
@00001B3B FD
@00001B3C 01
@00001B3D FB
@00001B3E FA
@00001B3F 06
@00001B40 0E
@00001B41 FC
@00001B42 02
@00001B43 FD
@00001B44 F7
@00001B45 07
@00001B46 0A
@00001B47 FC
@00001B48 FD
@00001B49 00
@00001B4A 09
@00001B4B FE
@00001B4C 02
@00001B4D 02
@00001B4E FE
@00001B4F 07
@00001B50 04
@00001B51 F6
@00001B52 08
@00001B53 03
@00001B54 F4
@00001B55 FE
@00001B56 F4
@00001B57 F3
@00001B58 F6
@00001B59 0A
@00001B5A 0A
@00001B5B F8
@00001B5C FB
@00001B5D F4
@00001B5E 04
@00001B5F FF
@00001B60 FC
@00001B61 09
@00001B62 01
@00001B63 07
@00001B64 02
@00001B65 03
@00001B66 0B
@00001B67 FA
@00001B68 FF
@00001B69 04
@00001B6A FF
@00001B6B 02
@00001B6C 03
@00001B6D FB
@00001B6E 02
@00001B6F 01
@00001B70 EE
@00001B71 F6
@00001B72 F7
@00001B73 05
@00001B74 F9
@00001B75 03
@00001B76 FA
@00001B77 F9
@00001B78 F9
@00001B79 F4
@00001B7A FF
@00001B7B 01
@00001B7C 05
@00001B7D FB
@00001B7E 03
@00001B7F F7
@00001B80 01
@00001B81 FD
@00001B82 07
@00001B83 F6
@00001B84 F6
@00001B85 09
@00001B86 06
@00001B87 F9
@00001B88 F5
@00001B89 01
@00001B8A 0B
@00001B8B FF
@00001B8C 04
@00001B8D 05
@00001B8E 08
@00001B8F FE
@00001B90 FB
@00001B91 F6
@00001B92 05
@00001B93 FC
@00001B94 0B
@00001B95 FA
@00001B96 FC
@00001B97 FD
@00001B98 0B
@00001B99 FD
@00001B9A FF
@00001B9B 08
@00001B9C FC
@00001B9D 09
@00001B9E 00
@00001B9F 04
@00001BA0 0D
@00001BA1 00
@00001BA2 03
@00001BA3 FD
@00001BA4 FD
@00001BA5 FD
@00001BA6 00
@00001BA7 ED
@00001BA8 F6
@00001BA9 F8
@00001BAA F8
@00001BAB 06
@00001BAC 0B
@00001BAD FD
@00001BAE 05
@00001BAF 02
@00001BB0 04
@00001BB1 09
@00001BB2 FB
@00001BB3 F7
@00001BB4 05
@00001BB5 03
@00001BB6 03
@00001BB7 0E
@00001BB8 07
@00001BB9 FB
@00001BBA 01
@00001BBB FA
@00001BBC 00
@00001BBD 06
@00001BBE 07
@00001BBF F7
@00001BC0 07
@00001BC1 07
@00001BC2 FE
@00001BC3 06
@00001BC4 0A
@00001BC5 FB
@00001BC6 F7
@00001BC7 FB
@00001BC8 FA
@00001BC9 07
@00001BCA 05
@00001BCB F6
@00001BCC 0E
@00001BCD FF
@00001BCE 09
@00001BCF FA
@00001BD0 FD
@00001BD1 03
@00001BD2 01
@00001BD3 05
@00001BD4 FE
@00001BD5 FC
@00001BD6 01
@00001BD7 01
@00001BD8 F9
@00001BD9 FC
@00001BDA F9
@00001BDB 05
@00001BDC 07
@00001BDD 0A
@00001BDE F6
@00001BDF FB
@00001BE0 0B
@00001BE1 FF
@00001BE2 0A
@00001BE3 FC
@00001BE4 08
@00001BE5 03
@00001BE6 03
@00001BE7 06
@00001BE8 FE
@00001BE9 04
@00001BEA 01
@00001BEB F9
@00001BEC 00
@00001BED F7
@00001BEE 06
@00001BEF 07
@00001BF0 FE
@00001BF1 F9
@00001BF2 F8
@00001BF3 FD
@00001BF4 F2
@00001BF5 01
@00001BF6 FD
@00001BF7 0A
@00001BF8 02
@00001BF9 F5
@00001BFA FC
@00001BFB F8
@00001BFC 00
@00001BFD 0E
@00001BFE 06
@00001BFF FB
@00001C00 FD
@00001C01 01
@00001C02 F9
@00001C03 04
@00001C04 07
@00001C05 08
@00001C06 00
@00001C07 FF
@00001C08 01
@00001C09 02
@00001C0A FA
@00001C0B FD
@00001C0C 02
@00001C0D FF
@00001C0E 03
@00001C0F FE
@00001C10 05
@00001C11 FC
@00001C12 01
@00001C13 08
@00001C14 03
@00001C15 00
@00001C16 F9
@00001C17 F9
@00001C18 06
@00001C19 F7
@00001C1A FC
@00001C1B 04
@00001C1C FA
@00001C1D FE
@00001C1E FB
@00001C1F 05
@00001C20 FA
@00001C21 02
@00001C22 FF
@00001C23 04
@00001C24 07
@00001C25 02
@00001C26 01
@00001C27 04
@00001C28 FE
@00001C29 FC
@00001C2A 04
@00001C2B FE
@00001C2C 07
@00001C2D 04
@00001C2E 02
@00001C2F 01
@00001C30 03
@00001C31 FA
@00001C32 02
@00001C33 F7
@00001C34 04
@00001C35 FB
@00001C36 FE
@00001C37 F8
@00001C38 FC
@00001C39 02
@00001C3A 0B
@00001C3B E7
@00001C3C FD
@00001C3D 00
@00001C3E 01
@00001C3F F7
@00001C40 F6
@00001C41 02
@00001C42 09
@00001C43 03
@00001C44 FD
@00001C45 05
@00001C46 FA
@00001C47 07
@00001C48 04
@00001C49 F9
@00001C4A 04
@00001C4B 00
@00001C4C 01
@00001C4D FC
@00001C4E FD
@00001C4F FF
@00001C50 01
@00001C51 01
@00001C52 03
@00001C53 04
@00001C54 04
@00001C55 05
@00001C56 FF
@00001C57 FE
@00001C58 F5
@00001C59 03
@00001C5A 05
@00001C5B 01
@00001C5C 05
@00001C5D 0B
@00001C5E 06
@00001C5F F9
@00001C60 FA
@00001C61 F9
@00001C62 02
@00001C63 0A
@00001C64 05
@00001C65 FD
@00001C66 FD
@00001C67 FA
@00001C68 EE
@00001C69 F9
@00001C6A F8
@00001C6B FB
@00001C6C FA
@00001C6D 04
@00001C6E F8
@00001C6F FB
@00001C70 F3
@00001C71 05
@00001C72 04
@00001C73 03
@00001C74 01
@00001C75 07
@00001C76 F9
@00001C77 01
@00001C78 0A
@00001C79 F7
@00001C7A F8
@00001C7B F9
@00001C7C FC
@00001C7D FD
@00001C7E FE
@00001C7F FC
@00001C80 04
@00001C81 0C
@00001C82 F8
@00001C83 01
@00001C84 01
@00001C85 07
@00001C86 08
@00001C87 F9
@00001C88 00
@00001C89 F7
@00001C8A FB
@00001C8B FE
@00001C8C F8
@00001C8D FF
@00001C8E F8
@00001C8F 03
@00001C90 00
@00001C91 0A
@00001C92 01
@00001C93 05
@00001C94 00
@00001C95 FA
@00001C96 06
@00001C97 01
@00001C98 FC
@00001C99 06
@00001C9A F6
@00001C9B 05
@00001C9C 01
@00001C9D F4
@00001C9E FB
@00001C9F F2
@00001CA0 FE
@00001CA1 00
@00001CA2 01
@00001CA3 02
@00001CA4 FB
@00001CA5 FE
@00001CA6 04
@00001CA7 01
@00001CA8 05
@00001CA9 F5
@00001CAA 01
@00001CAB FE
@00001CAC F8
@00001CAD FA
@00001CAE 08
@00001CAF FE
@00001CB0 FB
@00001CB1 00
@00001CB2 F3
@00001CB3 FC
@00001CB4 07
@00001CB5 02
@00001CB6 FF
@00001CB7 FB
@00001CB8 FA
@00001CB9 05
@00001CBA 03
@00001CBB 07
@00001CBC 03
@00001CBD 02
@00001CBE 02
@00001CBF 07
@00001CC0 0B
@00001CC1 FD
@00001CC2 01
@00001CC3 F9
@00001CC4 F6
@00001CC5 05
@00001CC6 07
@00001CC7 05
@00001CC8 03
@00001CC9 05
@00001CCA FA
@00001CCB F9
@00001CCC FB
@00001CCD FF
@00001CCE 00
@00001CCF F7
@00001CD0 F4
@00001CD1 FD
@00001CD2 FD
@00001CD3 03
@00001CD4 FD
@00001CD5 0B
@00001CD6 FC
@00001CD7 F6
@00001CD8 07
@00001CD9 00
@00001CDA FA
@00001CDB 02
@00001CDC 02
@00001CDD 11
@00001CDE 03
@00001CDF 04
@00001CE0 07
@00001CE1 FB
@00001CE2 FF
@00001CE3 0E
@00001CE4 FA
@00001CE5 F8
@00001CE6 0A
@00001CE7 07
@00001CE8 FC
@00001CE9 04
@00001CEA 00
@00001CEB 06
@00001CEC F5
@00001CED 02
@00001CEE F9
@00001CEF FC
@00001CF0 F6
@00001CF1 F8
@00001CF2 F8
@00001CF3 01
@00001CF4 FB
@00001CF5 03
@00001CF6 FB
@00001CF7 F4
@00001CF8 00
@00001CF9 01
@00001CFA 02
@00001CFB FE
@00001CFC 07
@00001CFD 0A
@00001CFE FF
@00001CFF F5
@00001D00 05
@00001D01 F2
@00001D02 FF
@00001D03 F6
@00001D04 09
@00001D05 0C
@00001D06 0B
@00001D07 FA
@00001D08 FA
@00001D09 FD
@00001D0A 04
@00001D0B 05
@00001D0C FE
@00001D0D FB
@00001D0E FD
@00001D0F FC
@00001D10 08
@00001D11 12
@00001D12 00
@00001D13 05
@00001D14 FC
@00001D15 02
@00001D16 FC
@00001D17 F6
@00001D18 09
@00001D19 0E
@00001D1A 06
@00001D1B FE
@00001D1C FD
@00001D1D FA
@00001D1E FC
@00001D1F 06
@00001D20 01
@00001D21 F3
@00001D22 01
@00001D23 08
@00001D24 01
@00001D25 03
@00001D26 F8
@00001D27 F9
@00001D28 FD
@00001D29 FD
@00001D2A 02
@00001D2B FF
@00001D2C F5
@00001D2D FC
@00001D2E FF
@00001D2F FE
@00001D30 04
@00001D31 FC
@00001D32 FD
@00001D33 FF
@00001D34 FB
@00001D35 F9
@00001D36 09
@00001D37 0B
@00001D38 F8
@00001D39 F9
@00001D3A 00
@00001D3B FD
@00001D3C FA
@00001D3D 02
@00001D3E 01
@00001D3F FF
@00001D40 02
@00001D41 FD
@00001D42 F8
@00001D43 07
@00001D44 08
@00001D45 04
@00001D46 01
@00001D47 07
@00001D48 F9
@00001D49 FF
@00001D4A 03
@00001D4B 01
@00001D4C 01
@00001D4D FF
@00001D4E FE
@00001D4F 03
@00001D50 FD
@00001D51 F8
@00001D52 0A
@00001D53 02
@00001D54 01
@00001D55 03
@00001D56 06
@00001D57 FE
@00001D58 01
@00001D59 03
@00001D5A FA
@00001D5B FE
@00001D5C F5
@00001D5D FC
@00001D5E 06
@00001D5F FE
@00001D60 0D
@00001D61 0D
@00001D62 00
@00001D63 FD
@00001D64 02
@00001D65 F7
@00001D66 01
@00001D67 01
@00001D68 01
@00001D69 F9
@00001D6A 0C
@00001D6B 02
@00001D6C F8
@00001D6D F6
@00001D6E 04
@00001D6F FD
@00001D70 FC
@00001D71 01
@00001D72 F9
@00001D73 07
@00001D74 02
@00001D75 F9
@00001D76 FD
@00001D77 00
@00001D78 F5
@00001D79 FE
@00001D7A 03
@00001D7B 07
@00001D7C FB
@00001D7D 08
@00001D7E 01
@00001D7F 06
@00001D80 07
@00001D81 07
@00001D82 03
@00001D83 FF
@00001D84 09
@00001D85 07
@00001D86 FF
@00001D87 FD
@00001D88 F9
@00001D89 FA
@00001D8A 07
@00001D8B F5
@00001D8C 00
@00001D8D 02
@00001D8E F6
@00001D8F F9
@00001D90 04
@00001D91 F5
@00001D92 04
@00001D93 FB
@00001D94 F9
@00001D95 03
@00001D96 01
@00001D97 F7
@00001D98 FD
@00001D99 00
@00001D9A 0F
@00001D9B F9
@00001D9C FA
@00001D9D 07
@00001D9E FB
@00001D9F FC
@00001DA0 08
@00001DA1 FB
@00001DA2 F6
@00001DA3 FF
@00001DA4 FF
@00001DA5 FC
@00001DA6 09
@00001DA7 02
@00001DA8 01
@00001DA9 FF
@00001DAA F9
@00001DAB F7
@00001DAC 0A
@00001DAD FA
@00001DAE F8
@00001DAF 0C
@00001DB0 01
@00001DB1 F9
@00001DB2 01
@00001DB3 FF
@00001DB4 F8
@00001DB5 FC
@00001DB6 FF
@00001DB7 F9
@00001DB8 FC
@00001DB9 F7
@00001DBA F3
@00001DBB FC
@00001DBC F8
@00001DBD F9
@00001DBE 09
@00001DBF 03
@00001DC0 FC
@00001DC1 00
@00001DC2 01
@00001DC3 02
@00001DC4 FC
@00001DC5 05
@00001DC6 01
@00001DC7 F4
@00001DC8 03
@00001DC9 FE
@00001DCA F8
@00001DCB 0B
@00001DCC 08
@00001DCD FF
@00001DCE 01
@00001DCF 04
@00001DD0 0C
@00001DD1 02
@00001DD2 FE
@00001DD3 02
@00001DD4 FA
@00001DD5 01
@00001DD6 FE
@00001DD7 FB
@00001DD8 00
@00001DD9 02
@00001DDA FC
@00001DDB FF
@00001DDC 06
@00001DDD FC
@00001DDE FF
@00001DDF 01
@00001DE0 09
@00001DE1 EB
@00001DE2 F6
@00001DE3 F5
@00001DE4 F9
@00001DE5 01
@00001DE6 FD
@00001DE7 08
@00001DE8 FE
@00001DE9 07
@00001DEA FE
@00001DEB 0F
@00001DEC 0B
@00001DED F8
@00001DEE 03
@00001DEF 03
@00001DF0 01
@00001DF1 11
@00001DF2 00
@00001DF3 02
@00001DF4 01
@00001DF5 F9
@00001DF6 FA
@00001DF7 F9
@00001DF8 FE
@00001DF9 FE
@00001DFA 04
@00001DFB F4
@00001DFC F5
@00001DFD F7
@00001DFE 03
@00001DFF 07
@00001E00 07
@00001E01 0C
@00001E02 00
@00001E03 05
@00001E04 FE
@00001E05 F7
