// Exported from TinyDetector7Layer
// Shape: (64,), Bits: 16
@00000000 00BD
@00000001 0002
@00000002 0045
@00000003 0106
@00000004 0040
@00000005 0066
@00000006 00A0
@00000007 00F3
@00000008 0073
@00000009 0087
@0000000A FFD9
@0000000B 0005
@0000000C 000A
@0000000D 0083
@0000000E FFD1
@0000000F 000E
@00000010 001B
@00000011 00E1
@00000012 0084
@00000013 0084
@00000014 004B
@00000015 0096
@00000016 006B
@00000017 0066
@00000018 0084
@00000019 00FF
@0000001A FFFF
@0000001B 00B0
@0000001C 0058
@0000001D 004E
@0000001E 00C2
@0000001F 005E
@00000020 0019
@00000021 00A7
@00000022 0039
@00000023 0028
@00000024 003B
@00000025 0093
@00000026 0013
@00000027 FFE2
@00000028 FF1A
@00000029 00D2
@0000002A 0031
@0000002B 00E3
@0000002C FFF9
@0000002D 007A
@0000002E 005D
@0000002F 00A7
@00000030 0089
@00000031 007A
@00000032 00A6
@00000033 002A
@00000034 00E5
@00000035 000C
@00000036 FFC3
@00000037 0076
@00000038 FEAC
@00000039 0081
@0000003A 00EF
@0000003B FFDF
@0000003C 0063
@0000003D FF90
@0000003E 0058
@0000003F FFFA
