// Exported from TinyDetector7Layer
// Shape: (32,), Bits: 16
@00000000 FDAF
@00000001 10AE
@00000002 CEB3
@00000003 4B1C
@00000004 EBFF
@00000005 0D4C
@00000006 B29D
@00000007 37AB
@00000008 1612
@00000009 E8AB
@0000000A DFB3
@0000000B 1EAC
@0000000C 21B2
@0000000D 1C3C
@0000000E 53E6
@0000000F DBAA
@00000010 18B4
@00000011 02C2
@00000012 FAF5
@00000013 08F2
@00000014 03C6
@00000015 17A0
@00000016 181A
@00000017 17A7
@00000018 CD8D
@00000019 C016
@0000001A 2A78
@0000001B FD69
@0000001C 07E8
@0000001D D97D
@0000001E 00F4
@0000001F E18D
