// Exported from TinyDetector7Layer
// Shape: (256,), Bits: 16
@00000000 FFF2
@00000001 00FD
@00000002 FFEC
@00000003 0088
@00000004 003E
@00000005 0026
@00000006 006F
@00000007 0086
@00000008 00E7
@00000009 FFA7
@0000000A 00A6
@0000000B 0086
@0000000C FF92
@0000000D 00F3
@0000000E 0049
@0000000F FFF6
@00000010 FFD2
@00000011 000F
@00000012 0089
@00000013 FFA5
@00000014 00AC
@00000015 000B
@00000016 0070
@00000017 0019
@00000018 FF6C
@00000019 0121
@0000001A 0095
@0000001B 003F
@0000001C FF9D
@0000001D 00A0
@0000001E 0047
@0000001F 008F
@00000020 0061
@00000021 000D
@00000022 001C
@00000023 0028
@00000024 0065
@00000025 0035
@00000026 0155
@00000027 00AB
@00000028 0076
@00000029 006E
@0000002A 007E
@0000002B 007F
@0000002C FFAE
@0000002D 0040
@0000002E 0045
@0000002F 00D8
@00000030 FFC7
@00000031 0038
@00000032 005F
@00000033 002A
@00000034 0060
@00000035 FFB6
@00000036 0019
@00000037 FFBE
@00000038 FF82
@00000039 FFCD
@0000003A 001F
@0000003B FFB7
@0000003C 0044
@0000003D 00B1
@0000003E 002F
@0000003F 0005
@00000040 FFE8
@00000041 002A
@00000042 00FC
@00000043 000C
@00000044 003E
@00000045 00A1
@00000046 FF80
@00000047 FFBF
@00000048 0097
@00000049 000C
@0000004A FFE1
@0000004B 0021
@0000004C FFF9
@0000004D 001D
@0000004E 00CC
@0000004F FF67
@00000050 0068
@00000051 0017
@00000052 00D2
@00000053 0008
@00000054 003C
@00000055 00BD
@00000056 FFB3
@00000057 FFEB
@00000058 007D
@00000059 0041
@0000005A 0036
@0000005B 0058
@0000005C 007F
@0000005D 0011
@0000005E 003B
@0000005F FF8A
@00000060 0062
@00000061 0088
@00000062 FFE6
@00000063 FF89
@00000064 FFC4
@00000065 FFC9
@00000066 00A5
@00000067 0060
@00000068 FFBB
@00000069 0053
@0000006A 0071
@0000006B FFF4
@0000006C 00E0
@0000006D FF99
@0000006E 00A5
@0000006F 0065
@00000070 0025
@00000071 006D
@00000072 001D
@00000073 FF5D
@00000074 00A8
@00000075 0015
@00000076 0049
@00000077 00DC
@00000078 FF71
@00000079 FFE9
@0000007A 0081
@0000007B FFFE
@0000007C FFC5
@0000007D 00BE
@0000007E 004A
@0000007F FFF0
@00000080 0039
@00000081 003E
@00000082 00A2
@00000083 005F
@00000084 FF56
@00000085 00DC
@00000086 0078
@00000087 0007
@00000088 0081
@00000089 0069
@0000008A FFAB
@0000008B FFF9
@0000008C FFD2
@0000008D 0026
@0000008E 00DB
@0000008F 006C
@00000090 FFDA
@00000091 0088
@00000092 005C
@00000093 0050
@00000094 FFA8
@00000095 FFE5
@00000096 001F
@00000097 FFA0
@00000098 0077
@00000099 FFE7
@0000009A FFDA
@0000009B 00C5
@0000009C 008B
@0000009D FFBA
@0000009E 002A
@0000009F FF9F
@000000A0 0012
@000000A1 FFE9
@000000A2 FFF8
@000000A3 FFC6
@000000A4 00AA
@000000A5 0053
@000000A6 0056
@000000A7 0037
@000000A8 001F
@000000A9 005F
@000000AA FFB3
@000000AB 003E
@000000AC FFDE
@000000AD 005A
@000000AE 006D
@000000AF 0026
@000000B0 FFC4
@000000B1 00D8
@000000B2 006A
@000000B3 FFBD
@000000B4 000D
@000000B5 FF8D
@000000B6 00B7
@000000B7 00EA
@000000B8 0033
@000000B9 0097
@000000BA 0029
@000000BB 010C
@000000BC 00F5
@000000BD 0076
@000000BE 0076
@000000BF 00D1
@000000C0 FFD1
@000000C1 009A
@000000C2 FF7F
@000000C3 0021
@000000C4 0044
@000000C5 007E
@000000C6 003E
@000000C7 0112
@000000C8 FFBD
@000000C9 FFE9
@000000CA 0103
@000000CB 0056
@000000CC 00AD
@000000CD FFD6
@000000CE 0001
@000000CF 00AE
@000000D0 FFC5
@000000D1 0041
@000000D2 FF5A
@000000D3 0016
@000000D4 FF9C
@000000D5 0099
@000000D6 0030
@000000D7 FFB0
@000000D8 010A
@000000D9 FFBA
@000000DA 0013
@000000DB 0076
@000000DC FFCB
@000000DD 0085
@000000DE 0037
@000000DF 001F
@000000E0 0058
@000000E1 00B6
@000000E2 FFC8
@000000E3 FF84
@000000E4 FFAA
@000000E5 0031
@000000E6 FFA3
@000000E7 001D
@000000E8 0042
@000000E9 005A
@000000EA 010A
@000000EB FFEC
@000000EC 00CD
@000000ED 0070
@000000EE FFAF
@000000EF 005B
@000000F0 00F3
@000000F1 FFD9
@000000F2 0017
@000000F3 0001
@000000F4 0070
@000000F5 FFF0
@000000F6 FFA0
@000000F7 001C
@000000F8 FF1B
@000000F9 FFC5
@000000FA 00C1
@000000FB 0055
@000000FC 00D8
@000000FD 013A
@000000FE FFE1
@000000FF 0061
