; Exported from TinyDetector7Layer
; Shape: (32,), Bits: 16
memory_initialization_radix=16;
memory_initialization_vector=
FDAF,
10AE,
CEB3,
4B1C,
EBFF,
0D4C,
B29D,
37AB,
1612,
E8AB,
DFB3,
1EAC,
21B2,
1C3C,
53E6,
DBAA,
18B4,
02C2,
FAF5,
08F2,
03C6,
17A0,
181A,
17A7,
CD8D,
C016,
2A78,
FD69,
07E8,
D97D,
00F4,
E18D;
