// Exported from TinyDetector7Layer
// Shape: (6, 128, 1, 1), Bits: 8
@00000000 04
@00000001 05
@00000002 F7
@00000003 05
@00000004 F5
@00000005 F9
@00000006 0A
@00000007 04
@00000008 F8
@00000009 06
@0000000A F2
@0000000B 07
@0000000C F3
@0000000D FB
@0000000E 02
@0000000F F2
@00000010 03
@00000011 FD
@00000012 11
@00000013 FE
@00000014 F4
@00000015 01
@00000016 FF
@00000017 06
@00000018 F6
@00000019 05
@0000001A FA
@0000001B FB
@0000001C 04
@0000001D 10
@0000001E F6
@0000001F 0C
@00000020 00
@00000021 04
@00000022 F8
@00000023 09
@00000024 F1
@00000025 03
@00000026 FF
@00000027 00
@00000028 FF
@00000029 FA
@0000002A F8
@0000002B 03
@0000002C F7
@0000002D 11
@0000002E FE
@0000002F 02
@00000030 F3
@00000031 FF
@00000032 F7
@00000033 0A
@00000034 08
@00000035 FF
@00000036 F6
@00000037 FD
@00000038 01
@00000039 04
@0000003A 01
@0000003B F6
@0000003C 09
@0000003D 03
@0000003E FD
@0000003F 02
@00000040 F5
@00000041 0B
@00000042 0D
@00000043 FB
@00000044 05
@00000045 02
@00000046 F2
@00000047 01
@00000048 05
@00000049 00
@0000004A 00
@0000004B FD
@0000004C 07
@0000004D F6
@0000004E 11
@0000004F 09
@00000050 02
@00000051 05
@00000052 0D
@00000053 FA
@00000054 F7
@00000055 0A
@00000056 07
@00000057 04
@00000058 FC
@00000059 F6
@0000005A 10
@0000005B 0B
@0000005C 07
@0000005D F8
@0000005E 0B
@0000005F 07
@00000060 F0
@00000061 0A
@00000062 F5
@00000063 F9
@00000064 FE
@00000065 04
@00000066 0A
@00000067 04
@00000068 F7
@00000069 F7
@0000006A FE
@0000006B EF
@0000006C FA
@0000006D F9
@0000006E F8
@0000006F F9
@00000070 F9
@00000071 02
@00000072 12
@00000073 00
@00000074 F7
@00000075 FE
@00000076 06
@00000077 02
@00000078 06
@00000079 FE
@0000007A 16
@0000007B FC
@0000007C 05
@0000007D 0A
@0000007E FF
@0000007F 05
@00000080 06
@00000081 FD
@00000082 00
@00000083 0A
@00000084 04
@00000085 13
@00000086 F8
@00000087 FC
@00000088 05
@00000089 0F
@0000008A 07
@0000008B 06
@0000008C 03
@0000008D 05
@0000008E 09
@0000008F 10
@00000090 04
@00000091 F8
@00000092 F4
@00000093 F9
@00000094 06
@00000095 FA
@00000096 02
@00000097 00
@00000098 05
@00000099 05
@0000009A FB
@0000009B F8
@0000009C 01
@0000009D F1
@0000009E ED
@0000009F 08
@000000A0 F5
@000000A1 0A
@000000A2 00
@000000A3 FE
@000000A4 FB
@000000A5 07
@000000A6 08
@000000A7 F0
@000000A8 FD
@000000A9 FB
@000000AA FE
@000000AB 00
@000000AC FE
@000000AD 0D
@000000AE FB
@000000AF 12
@000000B0 FF
@000000B1 02
@000000B2 FD
@000000B3 F2
@000000B4 04
@000000B5 01
@000000B6 03
@000000B7 02
@000000B8 EA
@000000B9 FD
@000000BA 09
@000000BB FE
@000000BC FC
@000000BD FA
@000000BE FB
@000000BF F7
@000000C0 03
@000000C1 FB
@000000C2 02
@000000C3 F9
@000000C4 04
@000000C5 F7
@000000C6 FE
@000000C7 07
@000000C8 EE
@000000C9 05
@000000CA 0D
@000000CB 12
@000000CC EA
@000000CD 07
@000000CE F2
@000000CF F6
@000000D0 19
@000000D1 FB
@000000D2 09
@000000D3 FE
@000000D4 FE
@000000D5 F8
@000000D6 03
@000000D7 FF
@000000D8 F4
@000000D9 10
@000000DA FA
@000000DB 00
@000000DC 06
@000000DD 02
@000000DE F6
@000000DF 07
@000000E0 03
@000000E1 FB
@000000E2 0B
@000000E3 05
@000000E4 F8
@000000E5 F7
@000000E6 FD
@000000E7 00
@000000E8 00
@000000E9 0A
@000000EA 06
@000000EB FF
@000000EC FF
@000000ED 02
@000000EE FE
@000000EF 10
@000000F0 00
@000000F1 05
@000000F2 F7
@000000F3 02
@000000F4 02
@000000F5 03
@000000F6 06
@000000F7 05
@000000F8 E9
@000000F9 FC
@000000FA FD
@000000FB 02
@000000FC FC
@000000FD 04
@000000FE 05
@000000FF 1A
@00000100 FF
@00000101 F9
@00000102 07
@00000103 01
@00000104 F7
@00000105 FE
@00000106 04
@00000107 12
@00000108 00
@00000109 0A
@0000010A FB
@0000010B 01
@0000010C F4
@0000010D 05
@0000010E F9
@0000010F FE
@00000110 09
@00000111 00
@00000112 F9
@00000113 00
@00000114 FD
@00000115 F9
@00000116 07
@00000117 07
@00000118 08
@00000119 F7
@0000011A 0F
@0000011B 00
@0000011C 02
@0000011D 06
@0000011E 00
@0000011F 04
@00000120 0A
@00000121 03
@00000122 06
@00000123 FC
@00000124 04
@00000125 F9
@00000126 FA
@00000127 F7
@00000128 F8
@00000129 FE
@0000012A 06
@0000012B FC
@0000012C 09
@0000012D ED
@0000012E 0B
@0000012F FF
@00000130 02
@00000131 FF
@00000132 ED
@00000133 FB
@00000134 06
@00000135 FB
@00000136 03
@00000137 EC
@00000138 0A
@00000139 FF
@0000013A F8
@0000013B 07
@0000013C 09
@0000013D 06
@0000013E FD
@0000013F 03
@00000140 FA
@00000141 FC
@00000142 FD
@00000143 01
@00000144 03
@00000145 F7
@00000146 FB
@00000147 FE
@00000148 01
@00000149 02
@0000014A F8
@0000014B 07
@0000014C FD
@0000014D F8
@0000014E F9
@0000014F 04
@00000150 08
@00000151 FE
@00000152 F5
@00000153 05
@00000154 F3
@00000155 05
@00000156 09
@00000157 F8
@00000158 0E
@00000159 06
@0000015A FD
@0000015B FD
@0000015C 08
@0000015D 0A
@0000015E 06
@0000015F 14
@00000160 01
@00000161 0A
@00000162 F1
@00000163 FE
@00000164 04
@00000165 01
@00000166 02
@00000167 0B
@00000168 F8
@00000169 00
@0000016A F9
@0000016B 05
@0000016C 0F
@0000016D FF
@0000016E 0E
@0000016F FF
@00000170 EC
@00000171 05
@00000172 FF
@00000173 02
@00000174 01
@00000175 00
@00000176 EB
@00000177 0A
@00000178 02
@00000179 00
@0000017A F8
@0000017B 08
@0000017C F0
@0000017D 0E
@0000017E FD
@0000017F 0D
@00000180 FE
@00000181 F3
@00000182 F3
@00000183 F2
@00000184 03
@00000185 06
@00000186 F7
@00000187 0B
@00000188 06
@00000189 06
@0000018A 06
@0000018B F5
@0000018C 0D
@0000018D F9
@0000018E 0E
@0000018F 04
@00000190 F6
@00000191 F3
@00000192 05
@00000193 FE
@00000194 1B
@00000195 02
@00000196 0B
@00000197 FB
@00000198 06
@00000199 05
@0000019A 15
@0000019B 0D
@0000019C FE
@0000019D 05
@0000019E 07
@0000019F 03
@000001A0 F6
@000001A1 EC
@000001A2 EF
@000001A3 00
@000001A4 06
@000001A5 FC
@000001A6 FE
@000001A7 06
@000001A8 F3
@000001A9 03
@000001AA F4
@000001AB FE
@000001AC 08
@000001AD F9
@000001AE F2
@000001AF 01
@000001B0 00
@000001B1 08
@000001B2 08
@000001B3 FB
@000001B4 01
@000001B5 F8
@000001B6 07
@000001B7 ED
@000001B8 04
@000001B9 05
@000001BA F5
@000001BB 01
@000001BC FC
@000001BD 0C
@000001BE 15
@000001BF F0
@000001C0 FF
@000001C1 11
@000001C2 10
@000001C3 F9
@000001C4 F9
@000001C5 FD
@000001C6 F2
@000001C7 0C
@000001C8 0C
@000001C9 0B
@000001CA F8
@000001CB F6
@000001CC 00
@000001CD FF
@000001CE 07
@000001CF FC
@000001D0 01
@000001D1 F9
@000001D2 F5
@000001D3 F9
@000001D4 F8
@000001D5 0E
@000001D6 F9
@000001D7 06
@000001D8 F3
@000001D9 0B
@000001DA 0F
@000001DB FA
@000001DC 00
@000001DD EF
@000001DE 0C
@000001DF F9
@000001E0 07
@000001E1 FE
@000001E2 06
@000001E3 03
@000001E4 FB
@000001E5 05
@000001E6 02
@000001E7 FF
@000001E8 F9
@000001E9 F2
@000001EA FF
@000001EB 12
@000001EC 10
@000001ED F7
@000001EE 02
@000001EF FF
@000001F0 03
@000001F1 FD
@000001F2 FE
@000001F3 03
@000001F4 12
@000001F5 F1
@000001F6 FB
@000001F7 0F
@000001F8 F9
@000001F9 F8
@000001FA 0E
@000001FB 02
@000001FC F7
@000001FD 08
@000001FE FA
@000001FF 03
@00000200 FF
@00000201 EA
@00000202 0E
@00000203 04
@00000204 0D
@00000205 F5
@00000206 FE
@00000207 07
@00000208 FE
@00000209 04
@0000020A 02
@0000020B 05
@0000020C F0
@0000020D F9
@0000020E 03
@0000020F 03
@00000210 FD
@00000211 0B
@00000212 18
@00000213 0B
@00000214 FE
@00000215 EF
@00000216 09
@00000217 05
@00000218 00
@00000219 FA
@0000021A 03
@0000021B 06
@0000021C 0C
@0000021D 03
@0000021E F6
@0000021F 07
@00000220 F6
@00000221 FD
@00000222 0E
@00000223 10
@00000224 07
@00000225 F4
@00000226 08
@00000227 0B
@00000228 E6
@00000229 F5
@0000022A FB
@0000022B FA
@0000022C FC
@0000022D 02
@0000022E 0C
@0000022F 09
@00000230 01
@00000231 08
@00000232 00
@00000233 FD
@00000234 FE
@00000235 02
@00000236 00
@00000237 F7
@00000238 0A
@00000239 FA
@0000023A 00
@0000023B 0C
@0000023C 05
@0000023D EA
@0000023E 00
@0000023F 04
@00000240 0C
@00000241 F8
@00000242 FB
@00000243 FD
@00000244 FB
@00000245 0F
@00000246 FA
@00000247 EE
@00000248 FD
@00000249 EE
@0000024A 00
@0000024B EF
@0000024C 07
@0000024D 05
@0000024E FC
@0000024F F5
@00000250 FA
@00000251 F9
@00000252 0C
@00000253 FC
@00000254 01
@00000255 10
@00000256 08
@00000257 F7
@00000258 FF
@00000259 05
@0000025A FB
@0000025B FF
@0000025C F9
@0000025D ED
@0000025E FE
@0000025F 05
@00000260 0F
@00000261 FE
@00000262 FD
@00000263 06
@00000264 04
@00000265 FB
@00000266 F7
@00000267 02
@00000268 01
@00000269 01
@0000026A FA
@0000026B F7
@0000026C 0E
@0000026D 02
@0000026E 02
@0000026F 03
@00000270 FF
@00000271 FC
@00000272 ED
@00000273 F8
@00000274 ED
@00000275 05
@00000276 F3
@00000277 06
@00000278 FF
@00000279 F6
@0000027A F8
@0000027B FE
@0000027C 02
@0000027D 08
@0000027E FF
@0000027F 0B
@00000280 08
@00000281 FD
@00000282 03
@00000283 00
@00000284 0B
@00000285 F8
@00000286 0C
@00000287 02
@00000288 0B
@00000289 F7
@0000028A 0D
@0000028B 0A
@0000028C FD
@0000028D 00
@0000028E F3
@0000028F 00
@00000290 F6
@00000291 FF
@00000292 05
@00000293 0A
@00000294 06
@00000295 FB
@00000296 07
@00000297 F4
@00000298 EA
@00000299 08
@0000029A 07
@0000029B 04
@0000029C 00
@0000029D 04
@0000029E F9
@0000029F FF
@000002A0 05
@000002A1 11
@000002A2 FB
@000002A3 FD
@000002A4 06
@000002A5 F6
@000002A6 08
@000002A7 FD
@000002A8 0A
@000002A9 01
@000002AA F1
@000002AB 04
@000002AC FE
@000002AD 0D
@000002AE 04
@000002AF EC
@000002B0 05
@000002B1 00
@000002B2 08
@000002B3 01
@000002B4 0E
@000002B5 0A
@000002B6 F8
@000002B7 0D
@000002B8 0A
@000002B9 04
@000002BA FB
@000002BB 05
@000002BC 10
@000002BD F2
@000002BE 04
@000002BF 02
@000002C0 0E
@000002C1 F9
@000002C2 F7
@000002C3 12
@000002C4 12
@000002C5 03
@000002C6 FF
@000002C7 05
@000002C8 0D
@000002C9 03
@000002CA FD
@000002CB 0C
@000002CC 0A
@000002CD 09
@000002CE E0
@000002CF 09
@000002D0 0D
@000002D1 FE
@000002D2 F4
@000002D3 0C
@000002D4 06
@000002D5 0B
@000002D6 08
@000002D7 03
@000002D8 F5
@000002D9 03
@000002DA 03
@000002DB 02
@000002DC 09
@000002DD FC
@000002DE EA
@000002DF 06
@000002E0 0C
@000002E1 FB
@000002E2 0D
@000002E3 F7
@000002E4 FB
@000002E5 F7
@000002E6 07
@000002E7 02
@000002E8 06
@000002E9 0B
@000002EA 01
@000002EB 00
@000002EC F9
@000002ED F6
@000002EE EE
@000002EF F3
@000002F0 08
@000002F1 FC
@000002F2 06
@000002F3 02
@000002F4 03
@000002F5 FD
@000002F6 F2
@000002F7 FB
@000002F8 F9
@000002F9 FB
@000002FA FA
@000002FB EA
@000002FC 09
@000002FD F4
@000002FE 0A
@000002FF EE
