// Exported from TinyDetector7Layer
// Shape: (32, 3, 4, 4), Bits: 8
@00000000 03
@00000001 F6
@00000002 E7
@00000003 20
@00000004 00
@00000005 FA
@00000006 DF
@00000007 0F
@00000008 E4
@00000009 DC
@0000000A 0C
@0000000B 02
@0000000C D8
@0000000D C2
@0000000E E2
@0000000F C7
@00000010 23
@00000011 0F
@00000012 EC
@00000013 2C
@00000014 38
@00000015 0B
@00000016 0C
@00000017 04
@00000018 01
@00000019 12
@0000001A 2B
@0000001B 29
@0000001C 24
@0000001D 24
@0000001E FF
@0000001F FC
@00000020 20
@00000021 F7
@00000022 E7
@00000023 19
@00000024 20
@00000025 EF
@00000026 ED
@00000027 E2
@00000028 4B
@00000029 E6
@0000002A F8
@0000002B F4
@0000002C 2C
@0000002D 0B
@0000002E DB
@0000002F B5
@00000030 0B
@00000031 18
@00000032 E5
@00000033 F5
@00000034 21
@00000035 33
@00000036 04
@00000037 F4
@00000038 1E
@00000039 38
@0000003A 06
@0000003B CB
@0000003C FA
@0000003D 21
@0000003E E1
@0000003F EF
@00000040 22
@00000041 2C
@00000042 0F
@00000043 EE
@00000044 17
@00000045 12
@00000046 15
@00000047 F9
@00000048 07
@00000049 12
@0000004A EA
@0000004B C3
@0000004C 01
@0000004D EB
@0000004E C3
@0000004F D7
@00000050 0D
@00000051 2E
@00000052 FB
@00000053 E7
@00000054 F6
@00000055 16
@00000056 F4
@00000057 CE
@00000058 13
@00000059 10
@0000005A D6
@0000005B F1
@0000005C 2D
@0000005D 04
@0000005E D8
@0000005F D6
@00000060 1D
@00000061 EC
@00000062 ED
@00000063 E6
@00000064 F4
@00000065 ED
@00000066 EF
@00000067 E2
@00000068 FE
@00000069 0E
@0000006A 05
@0000006B F9
@0000006C F4
@0000006D 08
@0000006E FC
@0000006F 02
@00000070 00
@00000071 22
@00000072 FE
@00000073 F3
@00000074 00
@00000075 DA
@00000076 15
@00000077 04
@00000078 00
@00000079 26
@0000007A F6
@0000007B EE
@0000007C EE
@0000007D 00
@0000007E 10
@0000007F FD
@00000080 15
@00000081 0E
@00000082 31
@00000083 01
@00000084 12
@00000085 0C
@00000086 06
@00000087 17
@00000088 08
@00000089 11
@0000008A 24
@0000008B 0E
@0000008C EE
@0000008D 0A
@0000008E FF
@0000008F 0D
@00000090 FC
@00000091 00
@00000092 E9
@00000093 F0
@00000094 F5
@00000095 EB
@00000096 D1
@00000097 E4
@00000098 FF
@00000099 F7
@0000009A DC
@0000009B EB
@0000009C FF
@0000009D F5
@0000009E E9
@0000009F 05
@000000A0 F7
@000000A1 F4
@000000A2 F5
@000000A3 00
@000000A4 FD
@000000A5 FD
@000000A6 F4
@000000A7 F2
@000000A8 01
@000000A9 08
@000000AA EF
@000000AB FD
@000000AC FD
@000000AD 03
@000000AE FE
@000000AF 09
@000000B0 0F
@000000B1 10
@000000B2 0C
@000000B3 08
@000000B4 02
@000000B5 09
@000000B6 06
@000000B7 08
@000000B8 15
@000000B9 10
@000000BA FF
@000000BB FD
@000000BC 0E
@000000BD 0F
@000000BE 07
@000000BF 08
@000000C0 D9
@000000C1 DD
@000000C2 07
@000000C3 F1
@000000C4 F2
@000000C5 FC
@000000C6 07
@000000C7 F1
@000000C8 E9
@000000C9 F6
@000000CA F8
@000000CB F0
@000000CC F7
@000000CD 0C
@000000CE FA
@000000CF F3
@000000D0 ED
@000000D1 F2
@000000D2 1C
@000000D3 E8
@000000D4 F3
@000000D5 28
@000000D6 1D
@000000D7 15
@000000D8 E1
@000000D9 FD
@000000DA 03
@000000DB 12
@000000DC E9
@000000DD 14
@000000DE F8
@000000DF FE
@000000E0 E2
@000000E1 FC
@000000E2 0C
@000000E3 05
@000000E4 F4
@000000E5 0A
@000000E6 39
@000000E7 1A
@000000E8 F3
@000000E9 27
@000000EA 33
@000000EB 2B
@000000EC 06
@000000ED 14
@000000EE 03
@000000EF 0F
@000000F0 DD
@000000F1 FA
@000000F2 00
@000000F3 07
@000000F4 FF
@000000F5 2A
@000000F6 D3
@000000F7 0A
@000000F8 18
@000000F9 29
@000000FA DB
@000000FB C2
@000000FC EE
@000000FD 01
@000000FE F0
@000000FF FE
@00000100 05
@00000101 E9
@00000102 EA
@00000103 CA
@00000104 F5
@00000105 0F
@00000106 E3
@00000107 E1
@00000108 F7
@00000109 E3
@0000010A 21
@0000010B C7
@0000010C 09
@0000010D 38
@0000010E 21
@0000010F BC
@00000110 2C
@00000111 05
@00000112 1C
@00000113 2F
@00000114 0F
@00000115 22
@00000116 F0
@00000117 F0
@00000118 25
@00000119 2B
@0000011A 19
@0000011B 11
@0000011C 1C
@0000011D 22
@0000011E 10
@0000011F C2
@00000120 03
@00000121 04
@00000122 F1
@00000123 0B
@00000124 01
@00000125 1D
@00000126 02
@00000127 0F
@00000128 04
@00000129 FA
@0000012A 23
@0000012B 0B
@0000012C 04
@0000012D 21
@0000012E 13
@0000012F 10
@00000130 EC
@00000131 F7
@00000132 F1
@00000133 13
@00000134 05
@00000135 FF
@00000136 13
@00000137 D9
@00000138 0C
@00000139 05
@0000013A FB
@0000013B FC
@0000013C 0E
@0000013D 02
@0000013E 14
@0000013F FB
@00000140 FB
@00000141 04
@00000142 EF
@00000143 FF
@00000144 EF
@00000145 02
@00000146 E6
@00000147 03
@00000148 F5
@00000149 F9
@0000014A 10
@0000014B 00
@0000014C EC
@0000014D 2B
@0000014E 09
@0000014F 1A
@00000150 25
@00000151 F0
@00000152 FC
@00000153 1C
@00000154 12
@00000155 E9
@00000156 07
@00000157 0D
@00000158 08
@00000159 E7
@0000015A E7
@0000015B FE
@0000015C F0
@0000015D BC
@0000015E E1
@0000015F F1
@00000160 31
@00000161 08
@00000162 FC
@00000163 FD
@00000164 1A
@00000165 F6
@00000166 11
@00000167 2E
@00000168 1D
@00000169 E9
@0000016A F3
@0000016B 0A
@0000016C 04
@0000016D D3
@0000016E FF
@0000016F FD
@00000170 37
@00000171 FD
@00000172 07
@00000173 EF
@00000174 0E
@00000175 DD
@00000176 F2
@00000177 1A
@00000178 09
@00000179 DC
@0000017A F3
@0000017B 01
@0000017C F8
@0000017D D2
@0000017E EB
@0000017F E2
@00000180 C7
@00000181 F2
@00000182 0B
@00000183 22
@00000184 05
@00000185 C3
@00000186 02
@00000187 30
@00000188 FA
@00000189 DC
@0000018A 13
@0000018B 3D
@0000018C DA
@0000018D EF
@0000018E 2E
@0000018F 39
@00000190 15
@00000191 ED
@00000192 FC
@00000193 1C
@00000194 E8
@00000195 E3
@00000196 18
@00000197 2C
@00000198 DF
@00000199 D6
@0000019A F5
@0000019B 22
@0000019C F5
@0000019D C3
@0000019E 03
@0000019F 1A
@000001A0 10
@000001A1 DA
@000001A2 01
@000001A3 13
@000001A4 EF
@000001A5 E3
@000001A6 E4
@000001A7 2D
@000001A8 F0
@000001A9 D4
@000001AA F9
@000001AB 26
@000001AC E0
@000001AD F6
@000001AE 13
@000001AF 36
@000001B0 0C
@000001B1 FC
@000001B2 DD
@000001B3 D5
@000001B4 02
@000001B5 F9
@000001B6 F6
@000001B7 DD
@000001B8 24
@000001B9 0B
@000001BA 0A
@000001BB E1
@000001BC 0C
@000001BD F0
@000001BE F8
@000001BF E0
@000001C0 1C
@000001C1 D9
@000001C2 2A
@000001C3 F0
@000001C4 12
@000001C5 FA
@000001C6 FD
@000001C7 01
@000001C8 46
@000001C9 3B
@000001CA 0A
@000001CB 0A
@000001CC 25
@000001CD 26
@000001CE 3F
@000001CF E5
@000001D0 EE
@000001D1 F6
@000001D2 F0
@000001D3 FB
@000001D4 17
@000001D5 00
@000001D6 FE
@000001D7 ED
@000001D8 0F
@000001D9 01
@000001DA F0
@000001DB DF
@000001DC F8
@000001DD 04
@000001DE 09
@000001DF EF
@000001E0 F2
@000001E1 EB
@000001E2 1C
@000001E3 0F
@000001E4 03
@000001E5 EA
@000001E6 EF
@000001E7 E7
@000001E8 0E
@000001E9 FD
@000001EA 11
@000001EB 21
@000001EC 09
@000001ED 0E
@000001EE 49
@000001EF 11
@000001F0 1B
@000001F1 DA
@000001F2 FA
@000001F3 E1
@000001F4 1C
@000001F5 FF
@000001F6 F4
@000001F7 FA
@000001F8 27
@000001F9 E9
@000001FA E7
@000001FB DD
@000001FC 18
@000001FD 2B
@000001FE F0
@000001FF 0C
@00000200 19
@00000201 F5
@00000202 E5
@00000203 DC
@00000204 26
@00000205 FC
@00000206 E3
@00000207 D4
@00000208 20
@00000209 0B
@0000020A FD
@0000020B D8
@0000020C 0F
@0000020D 0A
@0000020E 10
@0000020F 01
@00000210 F5
@00000211 18
@00000212 02
@00000213 C0
@00000214 FA
@00000215 1C
@00000216 C9
@00000217 E2
@00000218 91
@00000219 01
@0000021A E5
@0000021B C5
@0000021C EF
@0000021D 05
@0000021E FF
@0000021F 09
@00000220 EC
@00000221 23
@00000222 4E
@00000223 2F
@00000224 F4
@00000225 2C
@00000226 01
@00000227 33
@00000228 46
@00000229 EF
@0000022A F4
@0000022B F6
@0000022C 25
@0000022D 2B
@0000022E 1C
@0000022F 29
@00000230 F8
@00000231 20
@00000232 E7
@00000233 DD
@00000234 CB
@00000235 0E
@00000236 E2
@00000237 D1
@00000238 FB
@00000239 F7
@0000023A 01
@0000023B E9
@0000023C 11
@0000023D 2A
@0000023E 0D
@0000023F DE
@00000240 3B
@00000241 1B
@00000242 F5
@00000243 DB
@00000244 34
@00000245 03
@00000246 FA
@00000247 D2
@00000248 1E
@00000249 4C
@0000024A DF
@0000024B F5
@0000024C 34
@0000024D 34
@0000024E D6
@0000024F F1
@00000250 03
@00000251 18
@00000252 CB
@00000253 FF
@00000254 12
@00000255 0C
@00000256 C2
@00000257 E9
@00000258 14
@00000259 D9
@0000025A CE
@0000025B DC
@0000025C 04
@0000025D 02
@0000025E DC
@0000025F F7
@00000260 24
@00000261 FA
@00000262 E6
@00000263 DF
@00000264 1F
@00000265 1B
@00000266 C3
@00000267 EB
@00000268 1C
@00000269 1C
@0000026A F1
@0000026B F1
@0000026C 17
@0000026D 22
@0000026E FE
@0000026F FB
@00000270 03
@00000271 13
@00000272 31
@00000273 06
@00000274 EC
@00000275 26
@00000276 1C
@00000277 2A
@00000278 E4
@00000279 E0
@0000027A F7
@0000027B 07
@0000027C E1
@0000027D DD
@0000027E F0
@0000027F EA
@00000280 FB
@00000281 13
@00000282 35
@00000283 0B
@00000284 DE
@00000285 1E
@00000286 27
@00000287 3A
@00000288 C4
@00000289 EF
@0000028A 0D
@0000028B EE
@0000028C D1
@0000028D C9
@0000028E FD
@0000028F FF
@00000290 F4
@00000291 27
@00000292 2F
@00000293 04
@00000294 F2
@00000295 15
@00000296 1C
@00000297 26
@00000298 E4
@00000299 D2
@0000029A 15
@0000029B 08
@0000029C C6
@0000029D CA
@0000029E FA
@0000029F FC
@000002A0 FF
@000002A1 04
@000002A2 04
@000002A3 13
@000002A4 EF
@000002A5 F0
@000002A6 F4
@000002A7 12
@000002A8 FC
@000002A9 D6
@000002AA F2
@000002AB 0E
@000002AC FF
@000002AD F2
@000002AE F8
@000002AF 09
@000002B0 F9
@000002B1 F2
@000002B2 FC
@000002B3 0A
@000002B4 F1
@000002B5 EC
@000002B6 EF
@000002B7 FC
@000002B8 02
@000002B9 D5
@000002BA EB
@000002BB F9
@000002BC 0A
@000002BD F6
@000002BE F2
@000002BF 02
@000002C0 FC
@000002C1 FE
@000002C2 0C
@000002C3 19
@000002C4 06
@000002C5 FA
@000002C6 03
@000002C7 05
@000002C8 F4
@000002C9 E3
@000002CA FD
@000002CB 11
@000002CC 09
@000002CD F9
@000002CE 09
@000002CF FC
@000002D0 EA
@000002D1 E0
@000002D2 26
@000002D3 22
@000002D4 E7
@000002D5 EF
@000002D6 1D
@000002D7 21
@000002D8 FA
@000002D9 0D
@000002DA 16
@000002DB 15
@000002DC EB
@000002DD F5
@000002DE 1E
@000002DF 32
@000002E0 0A
@000002E1 ED
@000002E2 13
@000002E3 1F
@000002E4 EC
@000002E5 F9
@000002E6 08
@000002E7 1B
@000002E8 D5
@000002E9 D7
@000002EA 09
@000002EB 09
@000002EC 00
@000002ED 13
@000002EE 0A
@000002EF 0E
@000002F0 D0
@000002F1 EB
@000002F2 1C
@000002F3 1C
@000002F4 FC
@000002F5 ED
@000002F6 0B
@000002F7 00
@000002F8 DF
@000002F9 EA
@000002FA FA
@000002FB 23
@000002FC EE
@000002FD E7
@000002FE 06
@000002FF 00
@00000300 D6
@00000301 F1
@00000302 35
@00000303 00
@00000304 E2
@00000305 08
@00000306 47
@00000307 1E
@00000308 D7
@00000309 2A
@0000030A 38
@0000030B 2B
@0000030C F8
@0000030D 0A
@0000030E 1E
@0000030F F8
@00000310 C4
@00000311 AF
@00000312 0D
@00000313 EF
@00000314 C4
@00000315 F1
@00000316 F9
@00000317 0A
@00000318 E0
@00000319 E3
@0000031A 31
@0000031B 06
@0000031C CF
@0000031D DA
@0000031E F1
@0000031F D6
@00000320 E2
@00000321 D2
@00000322 24
@00000323 1A
@00000324 D2
@00000325 14
@00000326 2D
@00000327 02
@00000328 FA
@00000329 23
@0000032A 38
@0000032B 09
@0000032C 12
@0000032D 08
@0000032E 15
@0000032F FB
@00000330 DF
@00000331 16
@00000332 E7
@00000333 D0
@00000334 F5
@00000335 E5
@00000336 F9
@00000337 C9
@00000338 EE
@00000339 18
@0000033A E3
@0000033B 0B
@0000033C DF
@0000033D E4
@0000033E 14
@0000033F D0
@00000340 17
@00000341 08
@00000342 FD
@00000343 D5
@00000344 F8
@00000345 F3
@00000346 0B
@00000347 19
@00000348 2F
@00000349 29
@0000034A 41
@0000034B 2B
@0000034C FB
@0000034D 12
@0000034E F6
@0000034F F0
@00000350 D4
@00000351 02
@00000352 0A
@00000353 F9
@00000354 F3
@00000355 19
@00000356 F6
@00000357 F2
@00000358 17
@00000359 0F
@0000035A F1
@0000035B 04
@0000035C 21
@0000035D 20
@0000035E 37
@0000035F 19
@00000360 DD
@00000361 D4
@00000362 4E
@00000363 71
@00000364 18
@00000365 1B
@00000366 CE
@00000367 8A
@00000368 D9
@00000369 E7
@0000036A 1D
@0000036B E9
@0000036C 00
@0000036D D7
@0000036E 30
@0000036F 4C
@00000370 18
@00000371 F8
@00000372 B0
@00000373 81
@00000374 09
@00000375 3C
@00000376 28
@00000377 48
@00000378 E5
@00000379 E4
@0000037A E8
@0000037B 22
@0000037C D2
@0000037D 45
@0000037E 1B
@0000037F CC
@00000380 CD
@00000381 C3
@00000382 2F
@00000383 D9
@00000384 8F
@00000385 AF
@00000386 40
@00000387 27
@00000388 05
@00000389 49
@0000038A 25
@0000038B D8
@0000038C 3D
@0000038D 1F
@0000038E FF
@0000038F 39
@00000390 05
@00000391 F0
@00000392 E9
@00000393 FC
@00000394 F7
@00000395 E8
@00000396 13
@00000397 F4
@00000398 F5
@00000399 E4
@0000039A EE
@0000039B 00
@0000039C E8
@0000039D D1
@0000039E E6
@0000039F ED
@000003A0 E7
@000003A1 FB
@000003A2 07
@000003A3 0D
@000003A4 02
@000003A5 01
@000003A6 17
@000003A7 1C
@000003A8 03
@000003A9 EA
@000003AA FD
@000003AB 23
@000003AC DE
@000003AD E8
@000003AE F7
@000003AF FE
@000003B0 EB
@000003B1 04
@000003B2 F9
@000003B3 2A
@000003B4 03
@000003B5 05
@000003B6 45
@000003B7 51
@000003B8 03
@000003B9 0C
@000003BA 1B
@000003BB 2F
@000003BC 06
@000003BD E8
@000003BE 01
@000003BF 20
@000003C0 F5
@000003C1 E9
@000003C2 F5
@000003C3 F4
@000003C4 10
@000003C5 FC
@000003C6 01
@000003C7 F0
@000003C8 FA
@000003C9 E7
@000003CA F3
@000003CB DD
@000003CC F1
@000003CD E0
@000003CE E1
@000003CF DA
@000003D0 1B
@000003D1 11
@000003D2 16
@000003D3 FE
@000003D4 10
@000003D5 1A
@000003D6 04
@000003D7 E4
@000003D8 F2
@000003D9 18
@000003DA E8
@000003DB E6
@000003DC 02
@000003DD F2
@000003DE F0
@000003DF EB
@000003E0 1E
@000003E1 2B
@000003E2 13
@000003E3 F3
@000003E4 05
@000003E5 22
@000003E6 0F
@000003E7 1B
@000003E8 0F
@000003E9 0D
@000003EA 1A
@000003EB 0E
@000003EC 0C
@000003ED 2A
@000003EE 0D
@000003EF 02
@000003F0 01
@000003F1 F5
@000003F2 DC
@000003F3 C1
@000003F4 DF
@000003F5 CE
@000003F6 EF
@000003F7 FF
@000003F8 EC
@000003F9 07
@000003FA 17
@000003FB 15
@000003FC 0B
@000003FD 1C
@000003FE 40
@000003FF 41
@00000400 F2
@00000401 DF
@00000402 01
@00000403 E3
@00000404 D0
@00000405 D4
@00000406 04
@00000407 02
@00000408 E0
@00000409 07
@0000040A 1D
@0000040B 04
@0000040C 0C
@0000040D 0F
@0000040E 31
@0000040F 2C
@00000410 13
@00000411 FF
@00000412 E8
@00000413 D4
@00000414 EB
@00000415 D9
@00000416 DD
@00000417 03
@00000418 F3
@00000419 FB
@0000041A 18
@0000041B 1B
@0000041C F1
@0000041D 2A
@0000041E 43
@0000041F 0B
@00000420 F3
@00000421 E5
@00000422 BF
@00000423 E6
@00000424 02
@00000425 22
@00000426 02
@00000427 C6
@00000428 1D
@00000429 39
@0000042A 09
@0000042B E0
@0000042C 09
@0000042D 1A
@0000042E 32
@0000042F 0E
@00000430 EC
@00000431 D1
@00000432 CA
@00000433 C9
@00000434 09
@00000435 0B
@00000436 F2
@00000437 D4
@00000438 1C
@00000439 1B
@0000043A F8
@0000043B F0
@0000043C 03
@0000043D 11
@0000043E 0B
@0000043F 0E
@00000440 EF
@00000441 D6
@00000442 EE
@00000443 DE
@00000444 1B
@00000445 27
@00000446 15
@00000447 F1
@00000448 1D
@00000449 25
@0000044A 21
@0000044B EF
@0000044C 07
@0000044D 14
@0000044E 0D
@0000044F 0B
@00000450 E9
@00000451 1D
@00000452 1E
@00000453 09
@00000454 FA
@00000455 1A
@00000456 2D
@00000457 09
@00000458 01
@00000459 2C
@0000045A 36
@0000045B 05
@0000045C FD
@0000045D 14
@0000045E 22
@0000045F 0E
@00000460 F3
@00000461 11
@00000462 FF
@00000463 FF
@00000464 FD
@00000465 EB
@00000466 0C
@00000467 EA
@00000468 FB
@00000469 E8
@0000046A 03
@0000046B 02
@0000046C 01
@0000046D 04
@0000046E FD
@0000046F F8
@00000470 0C
@00000471 F7
@00000472 FB
@00000473 E2
@00000474 E9
@00000475 F8
@00000476 C6
@00000477 E7
@00000478 D6
@00000479 ED
@0000047A EA
@0000047B E2
@0000047C 03
@0000047D F3
@0000047E F0
@0000047F EC
@00000480 0E
@00000481 1A
@00000482 0F
@00000483 13
@00000484 1E
@00000485 12
@00000486 EB
@00000487 ED
@00000488 13
@00000489 FE
@0000048A E7
@0000048B D6
@0000048C 03
@0000048D E9
@0000048E DA
@0000048F EC
@00000490 13
@00000491 21
@00000492 14
@00000493 0D
@00000494 1A
@00000495 0C
@00000496 FD
@00000497 FF
@00000498 22
@00000499 ED
@0000049A F6
@0000049B DD
@0000049C 0D
@0000049D 06
@0000049E E8
@0000049F FF
@000004A0 14
@000004A1 17
@000004A2 20
@000004A3 17
@000004A4 0B
@000004A5 0F
@000004A6 FC
@000004A7 05
@000004A8 11
@000004A9 F9
@000004AA FA
@000004AB FC
@000004AC 05
@000004AD E9
@000004AE EC
@000004AF 01
@000004B0 13
@000004B1 FF
@000004B2 F4
@000004B3 06
@000004B4 04
@000004B5 1E
@000004B6 0B
@000004B7 07
@000004B8 FA
@000004B9 1D
@000004BA 09
@000004BB DF
@000004BC F4
@000004BD E1
@000004BE 15
@000004BF 0F
@000004C0 F9
@000004C1 F5
@000004C2 15
@000004C3 02
@000004C4 DB
@000004C5 D8
@000004C6 FB
@000004C7 20
@000004C8 FE
@000004C9 1F
@000004CA CB
@000004CB FF
@000004CC 0F
@000004CD E6
@000004CE 03
@000004CF C4
@000004D0 17
@000004D1 F9
@000004D2 11
@000004D3 0B
@000004D4 2A
@000004D5 09
@000004D6 2D
@000004D7 F4
@000004D8 ED
@000004D9 06
@000004DA 26
@000004DB 17
@000004DC 0E
@000004DD 27
@000004DE 22
@000004DF E7
@000004E0 00
@000004E1 F0
@000004E2 F3
@000004E3 F2
@000004E4 2F
@000004E5 05
@000004E6 D1
@000004E7 D8
@000004E8 38
@000004E9 EC
@000004EA BD
@000004EB E8
@000004EC 26
@000004ED E4
@000004EE E4
@000004EF D6
@000004F0 11
@000004F1 07
@000004F2 F9
@000004F3 F0
@000004F4 25
@000004F5 15
@000004F6 EF
@000004F7 E4
@000004F8 3A
@000004F9 34
@000004FA E6
@000004FB F3
@000004FC 1E
@000004FD 09
@000004FE C4
@000004FF E0
@00000500 F0
@00000501 07
@00000502 F2
@00000503 0E
@00000504 22
@00000505 06
@00000506 05
@00000507 19
@00000508 25
@00000509 13
@0000050A EC
@0000050B F4
@0000050C 1F
@0000050D 0A
@0000050E E7
@0000050F 04
@00000510 0B
@00000511 11
@00000512 1A
@00000513 0E
@00000514 F8
@00000515 EA
@00000516 00
@00000517 F9
@00000518 36
@00000519 C3
@0000051A F8
@0000051B 0D
@0000051C FD
@0000051D 1B
@0000051E 46
@0000051F D7
@00000520 6E
@00000521 37
@00000522 32
@00000523 E5
@00000524 D7
@00000525 E2
@00000526 51
@00000527 F2
@00000528 FB
@00000529 D7
@0000052A F3
@0000052B 1D
@0000052C FC
@0000052D E3
@0000052E C6
@0000052F 1F
@00000530 D5
@00000531 2E
@00000532 2C
@00000533 F3
@00000534 0C
@00000535 00
@00000536 0E
@00000537 D6
@00000538 C6
@00000539 E6
@0000053A B6
@0000053B 0C
@0000053C D6
@0000053D 06
@0000053E 01
@0000053F E8
@00000540 11
@00000541 34
@00000542 0A
@00000543 D2
@00000544 F6
@00000545 23
@00000546 24
@00000547 D0
@00000548 EE
@00000549 19
@0000054A 31
@0000054B CD
@0000054C E8
@0000054D 28
@0000054E 47
@0000054F F4
@00000550 23
@00000551 18
@00000552 11
@00000553 B3
@00000554 EF
@00000555 22
@00000556 20
@00000557 B7
@00000558 B5
@00000559 0F
@0000055A 29
@0000055B C1
@0000055C EB
@0000055D 24
@0000055E 36
@0000055F E4
@00000560 01
@00000561 12
@00000562 02
@00000563 E7
@00000564 FB
@00000565 06
@00000566 1C
@00000567 D4
@00000568 DE
@00000569 F9
@0000056A 02
@0000056B BC
@0000056C E8
@0000056D 2C
@0000056E 30
@0000056F E5
@00000570 F3
@00000571 E6
@00000572 E1
@00000573 F1
@00000574 EC
@00000575 03
@00000576 EE
@00000577 ED
@00000578 EC
@00000579 F7
@0000057A FA
@0000057B FC
@0000057C EF
@0000057D 05
@0000057E 02
@0000057F 03
@00000580 FA
@00000581 FD
@00000582 F9
@00000583 E8
@00000584 05
@00000585 19
@00000586 02
@00000587 F9
@00000588 F5
@00000589 23
@0000058A FC
@0000058B F4
@0000058C 09
@0000058D 2D
@0000058E 19
@0000058F 1D
@00000590 01
@00000591 00
@00000592 13
@00000593 EE
@00000594 08
@00000595 11
@00000596 06
@00000597 F3
@00000598 13
@00000599 21
@0000059A 0C
@0000059B F0
@0000059C 19
@0000059D 2E
@0000059E 1B
@0000059F 13
@000005A0 19
@000005A1 2B
@000005A2 07
@000005A3 F4
@000005A4 39
@000005A5 3D
@000005A6 41
@000005A7 16
@000005A8 12
@000005A9 FB
@000005AA F8
@000005AB F2
@000005AC F2
@000005AD E1
@000005AE C7
@000005AF E1
@000005B0 08
@000005B1 12
@000005B2 DB
@000005B3 C5
@000005B4 20
@000005B5 FC
@000005B6 31
@000005B7 2F
@000005B8 02
@000005B9 D8
@000005BA F1
@000005BB 0C
@000005BC CD
@000005BD C2
@000005BE C6
@000005BF F8
@000005C0 1E
@000005C1 03
@000005C2 F6
@000005C3 EB
@000005C4 15
@000005C5 26
@000005C6 3E
@000005C7 20
@000005C8 F5
@000005C9 02
@000005CA 14
@000005CB 05
@000005CC ED
@000005CD DC
@000005CE DB
@000005CF EC
@000005D0 06
@000005D1 F4
@000005D2 CB
@000005D3 FE
@000005D4 0F
@000005D5 E6
@000005D6 DA
@000005D7 01
@000005D8 0C
@000005D9 16
@000005DA 08
@000005DB FA
@000005DC 15
@000005DD 0F
@000005DE 08
@000005DF E4
@000005E0 D6
@000005E1 F3
@000005E2 DF
@000005E3 FF
@000005E4 F3
@000005E5 ED
@000005E6 01
@000005E7 18
@000005E8 EF
@000005E9 03
@000005EA 0F
@000005EB F7
@000005EC 1F
@000005ED 09
@000005EE F0
@000005EF F9
@000005F0 FD
@000005F1 07
@000005F2 E2
@000005F3 F9
@000005F4 FE
@000005F5 00
@000005F6 F2
@000005F7 00
@000005F8 2E
@000005F9 41
@000005FA 15
@000005FB 16
@000005FC 30
@000005FD 26
@000005FE 2C
@000005FF F9
