// Exported from TinyDetector7Layer
// Shape: (128, 256, 3, 3), Bits: 8
@00000000 FF
@00000001 03
@00000002 FF
@00000003 FF
@00000004 FD
@00000005 02
@00000006 01
@00000007 FE
@00000008 FE
@00000009 03
@0000000A FF
@0000000B 05
@0000000C FF
@0000000D 00
@0000000E 00
@0000000F F7
@00000010 00
@00000011 FC
@00000012 01
@00000013 00
@00000014 FD
@00000015 FE
@00000016 FF
@00000017 01
@00000018 01
@00000019 FF
@0000001A FD
@0000001B 03
@0000001C FF
@0000001D FE
@0000001E 01
@0000001F FF
@00000020 FF
@00000021 01
@00000022 03
@00000023 00
@00000024 FF
@00000025 05
@00000026 FE
@00000027 02
@00000028 FF
@00000029 FD
@0000002A FD
@0000002B FE
@0000002C 02
@0000002D FD
@0000002E FF
@0000002F 04
@00000030 FD
@00000031 01
@00000032 01
@00000033 FF
@00000034 FE
@00000035 FD
@00000036 02
@00000037 FC
@00000038 FE
@00000039 FF
@0000003A 00
@0000003B FD
@0000003C 03
@0000003D 06
@0000003E 01
@0000003F FF
@00000040 02
@00000041 FE
@00000042 FD
@00000043 01
@00000044 00
@00000045 00
@00000046 04
@00000047 FD
@00000048 FE
@00000049 00
@0000004A FD
@0000004B 01
@0000004C 00
@0000004D 01
@0000004E 02
@0000004F 00
@00000050 FF
@00000051 03
@00000052 FD
@00000053 03
@00000054 FC
@00000055 02
@00000056 FC
@00000057 02
@00000058 01
@00000059 00
@0000005A 07
@0000005B FD
@0000005C 01
@0000005D 00
@0000005E 04
@0000005F FF
@00000060 00
@00000061 02
@00000062 02
@00000063 00
@00000064 FE
@00000065 FF
@00000066 00
@00000067 03
@00000068 FD
@00000069 FD
@0000006A 01
@0000006B FF
@0000006C 00
@0000006D FE
@0000006E FD
@0000006F FF
@00000070 FF
@00000071 FE
@00000072 FD
@00000073 FF
@00000074 FF
@00000075 FF
@00000076 01
@00000077 FF
@00000078 02
@00000079 03
@0000007A FD
@0000007B 00
@0000007C FD
@0000007D FF
@0000007E FF
@0000007F FD
@00000080 02
@00000081 FF
@00000082 00
@00000083 00
@00000084 01
@00000085 FF
@00000086 01
@00000087 04
@00000088 00
@00000089 00
@0000008A FF
@0000008B FF
@0000008C 00
@0000008D 04
@0000008E 02
@0000008F 02
@00000090 02
@00000091 01
@00000092 01
@00000093 02
@00000094 00
@00000095 FF
@00000096 01
@00000097 02
@00000098 00
@00000099 FF
@0000009A 03
@0000009B 01
@0000009C FE
@0000009D FE
@0000009E FD
@0000009F 01
@000000A0 02
@000000A1 03
@000000A2 01
@000000A3 FD
@000000A4 04
@000000A5 FF
@000000A6 FE
@000000A7 01
@000000A8 FF
@000000A9 00
@000000AA FF
@000000AB FE
@000000AC 01
@000000AD 02
@000000AE 00
@000000AF 00
@000000B0 00
@000000B1 00
@000000B2 01
@000000B3 01
@000000B4 FF
@000000B5 FE
@000000B6 FE
@000000B7 00
@000000B8 00
@000000B9 FD
@000000BA FE
@000000BB FF
@000000BC 01
@000000BD FF
@000000BE 03
@000000BF FB
@000000C0 FF
@000000C1 FF
@000000C2 FE
@000000C3 03
@000000C4 02
@000000C5 FF
@000000C6 03
@000000C7 00
@000000C8 FD
@000000C9 01
@000000CA 00
@000000CB FB
@000000CC 04
@000000CD 04
@000000CE FF
@000000CF 04
@000000D0 03
@000000D1 05
@000000D2 02
@000000D3 02
@000000D4 06
@000000D5 FC
@000000D6 FB
@000000D7 02
@000000D8 FF
@000000D9 FF
@000000DA 04
@000000DB 03
@000000DC FF
@000000DD 01
@000000DE FE
@000000DF 03
@000000E0 FD
@000000E1 FE
@000000E2 02
@000000E3 02
@000000E4 FC
@000000E5 FE
@000000E6 01
@000000E7 01
@000000E8 FE
@000000E9 F9
@000000EA FD
@000000EB 01
@000000EC FC
@000000ED 04
@000000EE FE
@000000EF FA
@000000F0 01
@000000F1 FD
@000000F2 02
@000000F3 FF
@000000F4 FF
@000000F5 FF
@000000F6 01
@000000F7 FC
@000000F8 FC
@000000F9 03
@000000FA FF
@000000FB FC
@000000FC 02
@000000FD FE
@000000FE FF
@000000FF 00
@00000100 FC
@00000101 00
@00000102 02
@00000103 00
@00000104 FE
@00000105 FE
@00000106 02
@00000107 FF
@00000108 FF
@00000109 FD
@0000010A FF
@0000010B 03
@0000010C 04
@0000010D FF
@0000010E FD
@0000010F FF
@00000110 FF
@00000111 03
@00000112 FE
@00000113 00
@00000114 00
@00000115 02
@00000116 FE
@00000117 FE
@00000118 00
@00000119 02
@0000011A 01
@0000011B FF
@0000011C FE
@0000011D FF
@0000011E 00
@0000011F FF
@00000120 03
@00000121 00
@00000122 FE
@00000123 01
@00000124 02
@00000125 03
@00000126 03
@00000127 05
@00000128 FC
@00000129 01
@0000012A 00
@0000012B FD
@0000012C FF
@0000012D FF
@0000012E FF
@0000012F FF
@00000130 03
@00000131 01
@00000132 01
@00000133 FF
@00000134 FE
@00000135 00
@00000136 05
@00000137 03
@00000138 02
@00000139 FF
@0000013A 01
@0000013B 01
@0000013C 00
@0000013D 00
@0000013E 00
@0000013F 01
@00000140 00
@00000141 FE
@00000142 FF
@00000143 FF
@00000144 01
@00000145 00
@00000146 05
@00000147 FC
@00000148 03
@00000149 FD
@0000014A 01
@0000014B FE
@0000014C FB
@0000014D FF
@0000014E FD
@0000014F FE
@00000150 00
@00000151 00
@00000152 FF
@00000153 FF
@00000154 00
@00000155 FE
@00000156 02
@00000157 FD
@00000158 FD
@00000159 00
@0000015A 01
@0000015B FE
@0000015C 05
@0000015D FF
@0000015E FD
@0000015F 04
@00000160 02
@00000161 03
@00000162 01
@00000163 00
@00000164 FC
@00000165 02
@00000166 FF
@00000167 FE
@00000168 FE
@00000169 FF
@0000016A FA
@0000016B 01
@0000016C FF
@0000016D FC
@0000016E 01
@0000016F 04
@00000170 FF
@00000171 03
@00000172 FE
@00000173 FE
@00000174 01
@00000175 03
@00000176 FD
@00000177 00
@00000178 02
@00000179 FF
@0000017A 04
@0000017B 02
@0000017C 00
@0000017D 00
@0000017E 01
@0000017F FF
@00000180 01
@00000181 03
@00000182 FF
@00000183 00
@00000184 FE
@00000185 FE
@00000186 04
@00000187 FF
@00000188 01
@00000189 01
@0000018A 03
@0000018B FC
@0000018C FF
@0000018D 02
@0000018E 01
@0000018F FE
@00000190 FD
@00000191 FE
@00000192 04
@00000193 03
@00000194 02
@00000195 FF
@00000196 FE
@00000197 FD
@00000198 FF
@00000199 00
@0000019A FC
@0000019B 02
@0000019C FE
@0000019D FE
@0000019E 01
@0000019F 01
@000001A0 00
@000001A1 03
@000001A2 FD
@000001A3 FA
@000001A4 04
@000001A5 00
@000001A6 02
@000001A7 FF
@000001A8 04
@000001A9 FE
@000001AA 01
@000001AB FD
@000001AC FD
@000001AD 07
@000001AE 01
@000001AF FA
@000001B0 FD
@000001B1 00
@000001B2 FD
@000001B3 00
@000001B4 00
@000001B5 01
@000001B6 01
@000001B7 FE
@000001B8 00
@000001B9 FF
@000001BA FE
@000001BB FF
@000001BC 02
@000001BD 01
@000001BE FE
@000001BF 00
@000001C0 FE
@000001C1 FF
@000001C2 FE
@000001C3 FF
@000001C4 FD
@000001C5 FF
@000001C6 FD
@000001C7 00
@000001C8 01
@000001C9 FF
@000001CA 05
@000001CB 00
@000001CC 04
@000001CD 01
@000001CE FE
@000001CF 02
@000001D0 FE
@000001D1 FE
@000001D2 FF
@000001D3 FD
@000001D4 01
@000001D5 FB
@000001D6 00
@000001D7 03
@000001D8 FF
@000001D9 FE
@000001DA 02
@000001DB 04
@000001DC FD
@000001DD FD
@000001DE 03
@000001DF FE
@000001E0 FF
@000001E1 FA
@000001E2 01
@000001E3 FE
@000001E4 FF
@000001E5 FE
@000001E6 02
@000001E7 01
@000001E8 02
@000001E9 FF
@000001EA FE
@000001EB FE
@000001EC FD
@000001ED FD
@000001EE 04
@000001EF 02
@000001F0 FE
@000001F1 FA
@000001F2 01
@000001F3 F7
@000001F4 00
@000001F5 00
@000001F6 FF
@000001F7 04
@000001F8 03
@000001F9 FF
@000001FA 00
@000001FB 04
@000001FC FE
@000001FD FC
@000001FE 00
@000001FF 04
@00000200 04
@00000201 FF
@00000202 04
@00000203 FF
@00000204 00
@00000205 FC
@00000206 01
@00000207 01
@00000208 FE
@00000209 03
@0000020A 00
@0000020B 03
@0000020C 02
@0000020D 00
@0000020E FE
@0000020F 00
@00000210 FC
@00000211 02
@00000212 02
@00000213 04
@00000214 FE
@00000215 00
@00000216 02
@00000217 00
@00000218 FC
@00000219 FD
@0000021A 02
@0000021B FE
@0000021C 02
@0000021D 01
@0000021E 01
@0000021F FE
@00000220 03
@00000221 02
@00000222 03
@00000223 02
@00000224 01
@00000225 FE
@00000226 02
@00000227 FF
@00000228 00
@00000229 01
@0000022A F9
@0000022B 00
@0000022C 01
@0000022D FB
@0000022E FF
@0000022F 00
@00000230 FD
@00000231 FB
@00000232 00
@00000233 00
@00000234 FE
@00000235 01
@00000236 00
@00000237 FF
@00000238 FF
@00000239 FE
@0000023A FD
@0000023B 00
@0000023C 04
@0000023D 02
@0000023E F9
@0000023F 00
@00000240 FF
@00000241 03
@00000242 02
@00000243 FF
@00000244 FD
@00000245 FE
@00000246 01
@00000247 FC
@00000248 FE
@00000249 00
@0000024A 04
@0000024B 01
@0000024C 02
@0000024D FD
@0000024E FE
@0000024F 01
@00000250 04
@00000251 FF
@00000252 02
@00000253 02
@00000254 FF
@00000255 00
@00000256 01
@00000257 FF
@00000258 FF
@00000259 FF
@0000025A FE
@0000025B 00
@0000025C FF
@0000025D 02
@0000025E FD
@0000025F 03
@00000260 FD
@00000261 FE
@00000262 FE
@00000263 03
@00000264 FF
@00000265 04
@00000266 FF
@00000267 FD
@00000268 FF
@00000269 FC
@0000026A 01
@0000026B 01
@0000026C 01
@0000026D 03
@0000026E 00
@0000026F 00
@00000270 FF
@00000271 00
@00000272 00
@00000273 06
@00000274 FF
@00000275 FF
@00000276 02
@00000277 FF
@00000278 05
@00000279 FD
@0000027A FF
@0000027B 01
@0000027C 00
@0000027D 02
@0000027E 00
@0000027F 05
@00000280 00
@00000281 FE
@00000282 00
@00000283 02
@00000284 FE
@00000285 01
@00000286 01
@00000287 00
@00000288 03
@00000289 00
@0000028A FC
@0000028B 00
@0000028C 02
@0000028D 00
@0000028E 02
@0000028F 00
@00000290 FB
@00000291 FE
@00000292 FF
@00000293 FE
@00000294 FF
@00000295 FE
@00000296 FB
@00000297 01
@00000298 FE
@00000299 FC
@0000029A FF
@0000029B 01
@0000029C FC
@0000029D 00
@0000029E FC
@0000029F FC
@000002A0 FF
@000002A1 02
@000002A2 FF
@000002A3 01
@000002A4 03
@000002A5 FF
@000002A6 FF
@000002A7 04
@000002A8 04
@000002A9 FF
@000002AA FF
@000002AB FF
@000002AC 02
@000002AD 00
@000002AE FB
@000002AF 00
@000002B0 00
@000002B1 FC
@000002B2 02
@000002B3 03
@000002B4 00
@000002B5 FA
@000002B6 00
@000002B7 00
@000002B8 FE
@000002B9 FF
@000002BA 00
@000002BB 03
@000002BC 01
@000002BD 02
@000002BE 01
@000002BF FF
@000002C0 00
@000002C1 00
@000002C2 00
@000002C3 FC
@000002C4 00
@000002C5 02
@000002C6 FD
@000002C7 01
@000002C8 FE
@000002C9 00
@000002CA FF
@000002CB 01
@000002CC 03
@000002CD FE
@000002CE FF
@000002CF FF
@000002D0 FF
@000002D1 FE
@000002D2 FF
@000002D3 01
@000002D4 FD
@000002D5 FF
@000002D6 FE
@000002D7 02
@000002D8 F9
@000002D9 FF
@000002DA 02
@000002DB FD
@000002DC FC
@000002DD 00
@000002DE FF
@000002DF FE
@000002E0 02
@000002E1 FF
@000002E2 02
@000002E3 FF
@000002E4 FE
@000002E5 00
@000002E6 00
@000002E7 00
@000002E8 FD
@000002E9 FC
@000002EA 01
@000002EB 01
@000002EC FE
@000002ED FF
@000002EE FF
@000002EF FF
@000002F0 02
@000002F1 00
@000002F2 00
@000002F3 FD
@000002F4 01
@000002F5 01
@000002F6 FD
@000002F7 00
@000002F8 FE
@000002F9 FB
@000002FA 02
@000002FB FF
@000002FC 00
@000002FD 02
@000002FE 01
@000002FF 00
@00000300 FF
@00000301 01
@00000302 FE
@00000303 02
@00000304 00
@00000305 FD
@00000306 02
@00000307 01
@00000308 01
@00000309 FF
@0000030A FE
@0000030B 05
@0000030C FF
@0000030D FF
@0000030E 00
@0000030F 03
@00000310 FD
@00000311 02
@00000312 01
@00000313 FE
@00000314 FC
@00000315 01
@00000316 FE
@00000317 FF
@00000318 00
@00000319 FC
@0000031A FB
@0000031B 00
@0000031C FD
@0000031D FE
@0000031E FF
@0000031F 02
@00000320 00
@00000321 02
@00000322 FF
@00000323 01
@00000324 04
@00000325 00
@00000326 01
@00000327 02
@00000328 00
@00000329 FF
@0000032A FD
@0000032B 01
@0000032C FF
@0000032D 01
@0000032E 00
@0000032F FF
@00000330 02
@00000331 FE
@00000332 00
@00000333 01
@00000334 FF
@00000335 03
@00000336 01
@00000337 01
@00000338 FD
@00000339 FD
@0000033A FC
@0000033B FD
@0000033C 03
@0000033D 00
@0000033E FF
@0000033F 02
@00000340 FF
@00000341 FD
@00000342 03
@00000343 04
@00000344 FD
@00000345 FB
@00000346 01
@00000347 01
@00000348 00
@00000349 00
@0000034A FE
@0000034B FF
@0000034C 01
@0000034D 00
@0000034E 05
@0000034F 02
@00000350 FD
@00000351 02
@00000352 FD
@00000353 FE
@00000354 03
@00000355 01
@00000356 00
@00000357 04
@00000358 FF
@00000359 FF
@0000035A 02
@0000035B FD
@0000035C FC
@0000035D FE
@0000035E FC
@0000035F 00
@00000360 00
@00000361 FC
@00000362 FC
@00000363 01
@00000364 00
@00000365 FD
@00000366 01
@00000367 01
@00000368 FE
@00000369 02
@0000036A 02
@0000036B FF
@0000036C 00
@0000036D 00
@0000036E FC
@0000036F 02
@00000370 03
@00000371 FE
@00000372 01
@00000373 FF
@00000374 01
@00000375 03
@00000376 FB
@00000377 FE
@00000378 00
@00000379 FF
@0000037A 01
@0000037B 01
@0000037C FF
@0000037D FC
@0000037E FF
@0000037F FD
@00000380 FF
@00000381 01
@00000382 03
@00000383 FD
@00000384 00
@00000385 02
@00000386 FF
@00000387 FF
@00000388 FC
@00000389 00
@0000038A 02
@0000038B 00
@0000038C FF
@0000038D FF
@0000038E 00
@0000038F 02
@00000390 FF
@00000391 FD
@00000392 02
@00000393 00
@00000394 03
@00000395 FD
@00000396 02
@00000397 FF
@00000398 FF
@00000399 04
@0000039A FD
@0000039B FD
@0000039C FE
@0000039D 01
@0000039E FF
@0000039F 00
@000003A0 00
@000003A1 FE
@000003A2 02
@000003A3 FC
@000003A4 FD
@000003A5 FF
@000003A6 02
@000003A7 FF
@000003A8 FD
@000003A9 FE
@000003AA FC
@000003AB 00
@000003AC FE
@000003AD FB
@000003AE 01
@000003AF 03
@000003B0 FC
@000003B1 FE
@000003B2 00
@000003B3 FE
@000003B4 02
@000003B5 02
@000003B6 FD
@000003B7 02
@000003B8 FE
@000003B9 FF
@000003BA FD
@000003BB 01
@000003BC FE
@000003BD 02
@000003BE 01
@000003BF FD
@000003C0 02
@000003C1 FE
@000003C2 FE
@000003C3 FE
@000003C4 FF
@000003C5 03
@000003C6 FD
@000003C7 02
@000003C8 00
@000003C9 00
@000003CA FF
@000003CB FF
@000003CC FF
@000003CD 03
@000003CE 02
@000003CF 00
@000003D0 FF
@000003D1 FE
@000003D2 FE
@000003D3 01
@000003D4 FF
@000003D5 FC
@000003D6 02
@000003D7 FD
@000003D8 01
@000003D9 02
@000003DA FE
@000003DB FF
@000003DC 00
@000003DD FF
@000003DE 02
@000003DF 00
@000003E0 01
@000003E1 02
@000003E2 FE
@000003E3 FA
@000003E4 00
@000003E5 02
@000003E6 02
@000003E7 00
@000003E8 02
@000003E9 FF
@000003EA 03
@000003EB 02
@000003EC FF
@000003ED 03
@000003EE 01
@000003EF FF
@000003F0 02
@000003F1 01
@000003F2 FF
@000003F3 04
@000003F4 FF
@000003F5 01
@000003F6 FD
@000003F7 FE
@000003F8 00
@000003F9 00
@000003FA 02
@000003FB FF
@000003FC 03
@000003FD FC
@000003FE FF
@000003FF FF
@00000400 FF
@00000401 FE
@00000402 FD
@00000403 02
@00000404 FE
@00000405 00
@00000406 FF
@00000407 03
@00000408 FD
@00000409 01
@0000040A 02
@0000040B 02
@0000040C 01
@0000040D FC
@0000040E 02
@0000040F FF
@00000410 FE
@00000411 02
@00000412 01
@00000413 FE
@00000414 01
@00000415 02
@00000416 03
@00000417 02
@00000418 02
@00000419 FE
@0000041A FD
@0000041B 03
@0000041C FA
@0000041D FE
@0000041E 06
@0000041F 02
@00000420 05
@00000421 FE
@00000422 FB
@00000423 01
@00000424 FC
@00000425 FE
@00000426 02
@00000427 FE
@00000428 FD
@00000429 02
@0000042A FF
@0000042B FF
@0000042C FD
@0000042D 00
@0000042E 02
@0000042F FF
@00000430 02
@00000431 00
@00000432 FB
@00000433 01
@00000434 00
@00000435 04
@00000436 00
@00000437 01
@00000438 FF
@00000439 FF
@0000043A 03
@0000043B 03
@0000043C FF
@0000043D FB
@0000043E 00
@0000043F FD
@00000440 FE
@00000441 FF
@00000442 FD
@00000443 FF
@00000444 01
@00000445 FD
@00000446 FC
@00000447 00
@00000448 FF
@00000449 00
@0000044A FF
@0000044B 01
@0000044C FE
@0000044D FD
@0000044E 00
@0000044F 00
@00000450 FF
@00000451 01
@00000452 FE
@00000453 01
@00000454 05
@00000455 FB
@00000456 00
@00000457 FA
@00000458 FE
@00000459 01
@0000045A FF
@0000045B 02
@0000045C FF
@0000045D FB
@0000045E FF
@0000045F FF
@00000460 FF
@00000461 00
@00000462 FE
@00000463 01
@00000464 FD
@00000465 01
@00000466 01
@00000467 FE
@00000468 FF
@00000469 05
@0000046A 01
@0000046B 01
@0000046C 00
@0000046D FD
@0000046E 01
@0000046F 02
@00000470 FE
@00000471 FF
@00000472 FE
@00000473 03
@00000474 FE
@00000475 FF
@00000476 01
@00000477 02
@00000478 00
@00000479 FE
@0000047A 00
@0000047B 00
@0000047C FD
@0000047D 02
@0000047E 01
@0000047F FF
@00000480 02
@00000481 02
@00000482 FD
@00000483 03
@00000484 02
@00000485 FD
@00000486 02
@00000487 FE
@00000488 02
@00000489 02
@0000048A 00
@0000048B 01
@0000048C 00
@0000048D 00
@0000048E FE
@0000048F FF
@00000490 00
@00000491 FE
@00000492 06
@00000493 03
@00000494 00
@00000495 02
@00000496 03
@00000497 F8
@00000498 00
@00000499 01
@0000049A FF
@0000049B 00
@0000049C FD
@0000049D 00
@0000049E 01
@0000049F 04
@000004A0 00
@000004A1 01
@000004A2 02
@000004A3 00
@000004A4 01
@000004A5 01
@000004A6 01
@000004A7 01
@000004A8 01
@000004A9 FE
@000004AA 00
@000004AB 01
@000004AC 00
@000004AD FC
@000004AE 05
@000004AF 01
@000004B0 00
@000004B1 FC
@000004B2 FB
@000004B3 01
@000004B4 01
@000004B5 04
@000004B6 FE
@000004B7 FD
@000004B8 FE
@000004B9 FA
@000004BA FD
@000004BB FC
@000004BC 02
@000004BD 03
@000004BE FF
@000004BF FF
@000004C0 FF
@000004C1 01
@000004C2 FF
@000004C3 FF
@000004C4 FF
@000004C5 00
@000004C6 04
@000004C7 FB
@000004C8 FE
@000004C9 FC
@000004CA FF
@000004CB FE
@000004CC FE
@000004CD FD
@000004CE FD
@000004CF 01
@000004D0 04
@000004D1 03
@000004D2 01
@000004D3 02
@000004D4 FF
@000004D5 FF
@000004D6 02
@000004D7 FF
@000004D8 FF
@000004D9 FF
@000004DA 01
@000004DB FF
@000004DC FC
@000004DD FE
@000004DE 03
@000004DF FD
@000004E0 00
@000004E1 FD
@000004E2 FC
@000004E3 FF
@000004E4 00
@000004E5 FF
@000004E6 00
@000004E7 02
@000004E8 FD
@000004E9 03
@000004EA FD
@000004EB 00
@000004EC FE
@000004ED FF
@000004EE 02
@000004EF 01
@000004F0 01
@000004F1 00
@000004F2 00
@000004F3 00
@000004F4 FF
@000004F5 00
@000004F6 FE
@000004F7 FE
@000004F8 04
@000004F9 FA
@000004FA FB
@000004FB 04
@000004FC 00
@000004FD FD
@000004FE 04
@000004FF FE
@00000500 03
@00000501 02
@00000502 00
@00000503 00
@00000504 05
@00000505 01
@00000506 01
@00000507 00
@00000508 00
@00000509 02
@0000050A FF
@0000050B FE
@0000050C 01
@0000050D 00
@0000050E FF
@0000050F 02
@00000510 00
@00000511 01
@00000512 00
@00000513 02
@00000514 03
@00000515 FF
@00000516 FF
@00000517 00
@00000518 00
@00000519 01
@0000051A FF
@0000051B FD
@0000051C 00
@0000051D FF
@0000051E FB
@0000051F FE
@00000520 FC
@00000521 FD
@00000522 FB
@00000523 05
@00000524 00
@00000525 FE
@00000526 FF
@00000527 02
@00000528 00
@00000529 02
@0000052A FB
@0000052B 02
@0000052C 00
@0000052D FF
@0000052E 00
@0000052F 03
@00000530 FD
@00000531 01
@00000532 FD
@00000533 FE
@00000534 01
@00000535 01
@00000536 FF
@00000537 00
@00000538 01
@00000539 FD
@0000053A FD
@0000053B 01
@0000053C FF
@0000053D FF
@0000053E 00
@0000053F FE
@00000540 00
@00000541 FE
@00000542 FC
@00000543 FF
@00000544 01
@00000545 00
@00000546 01
@00000547 FE
@00000548 FE
@00000549 FC
@0000054A FC
@0000054B 01
@0000054C 01
@0000054D 01
@0000054E 02
@0000054F 03
@00000550 FF
@00000551 02
@00000552 00
@00000553 02
@00000554 01
@00000555 05
@00000556 03
@00000557 FA
@00000558 00
@00000559 02
@0000055A FD
@0000055B 02
@0000055C 03
@0000055D FD
@0000055E 00
@0000055F 02
@00000560 01
@00000561 01
@00000562 FC
@00000563 02
@00000564 FD
@00000565 FF
@00000566 FF
@00000567 FF
@00000568 00
@00000569 FE
@0000056A FE
@0000056B 00
@0000056C 02
@0000056D FF
@0000056E FE
@0000056F 00
@00000570 00
@00000571 FF
@00000572 FE
@00000573 00
@00000574 FE
@00000575 00
@00000576 FF
@00000577 FE
@00000578 FF
@00000579 02
@0000057A FE
@0000057B 02
@0000057C 01
@0000057D 02
@0000057E 00
@0000057F FF
@00000580 FE
@00000581 04
@00000582 01
@00000583 FD
@00000584 00
@00000585 FE
@00000586 03
@00000587 FE
@00000588 FE
@00000589 00
@0000058A FE
@0000058B FD
@0000058C FE
@0000058D 01
@0000058E 01
@0000058F FD
@00000590 02
@00000591 02
@00000592 02
@00000593 FF
@00000594 00
@00000595 03
@00000596 FD
@00000597 01
@00000598 FF
@00000599 FF
@0000059A FD
@0000059B FF
@0000059C FF
@0000059D FE
@0000059E FF
@0000059F FC
@000005A0 01
@000005A1 03
@000005A2 00
@000005A3 FF
@000005A4 00
@000005A5 FD
@000005A6 01
@000005A7 01
@000005A8 FD
@000005A9 00
@000005AA FE
@000005AB FF
@000005AC 00
@000005AD 00
@000005AE 02
@000005AF 00
@000005B0 FF
@000005B1 03
@000005B2 FD
@000005B3 00
@000005B4 00
@000005B5 FF
@000005B6 FC
@000005B7 FF
@000005B8 01
@000005B9 FF
@000005BA 00
@000005BB 02
@000005BC 00
@000005BD 01
@000005BE 00
@000005BF 00
@000005C0 FD
@000005C1 FD
@000005C2 FB
@000005C3 00
@000005C4 FE
@000005C5 FF
@000005C6 02
@000005C7 00
@000005C8 FE
@000005C9 FE
@000005CA 03
@000005CB 00
@000005CC FF
@000005CD FF
@000005CE FD
@000005CF 00
@000005D0 01
@000005D1 FE
@000005D2 02
@000005D3 FB
@000005D4 01
@000005D5 FE
@000005D6 01
@000005D7 01
@000005D8 04
@000005D9 FE
@000005DA 00
@000005DB 01
@000005DC FD
@000005DD 01
@000005DE 02
@000005DF 00
@000005E0 01
@000005E1 00
@000005E2 02
@000005E3 01
@000005E4 FD
@000005E5 FE
@000005E6 00
@000005E7 01
@000005E8 00
@000005E9 05
@000005EA 01
@000005EB FF
@000005EC 02
@000005ED FF
@000005EE 02
@000005EF FF
@000005F0 00
@000005F1 FF
@000005F2 02
@000005F3 F9
@000005F4 02
@000005F5 02
@000005F6 FC
@000005F7 F9
@000005F8 FB
@000005F9 00
@000005FA 03
@000005FB FF
@000005FC 03
@000005FD FC
@000005FE 00
@000005FF 00
@00000600 FF
@00000601 01
@00000602 01
@00000603 FF
@00000604 03
@00000605 00
@00000606 FE
@00000607 FF
@00000608 01
@00000609 FE
@0000060A 00
@0000060B FF
@0000060C 02
@0000060D FF
@0000060E 00
@0000060F FF
@00000610 FA
@00000611 FD
@00000612 02
@00000613 01
@00000614 FE
@00000615 04
@00000616 03
@00000617 FF
@00000618 01
@00000619 FF
@0000061A 00
@0000061B 00
@0000061C 00
@0000061D 01
@0000061E 02
@0000061F 01
@00000620 00
@00000621 01
@00000622 02
@00000623 FE
@00000624 00
@00000625 FF
@00000626 00
@00000627 04
@00000628 01
@00000629 FE
@0000062A 03
@0000062B FF
@0000062C 00
@0000062D 01
@0000062E 01
@0000062F 01
@00000630 00
@00000631 FF
@00000632 FD
@00000633 01
@00000634 02
@00000635 FD
@00000636 03
@00000637 00
@00000638 FD
@00000639 FE
@0000063A 00
@0000063B 03
@0000063C 02
@0000063D 00
@0000063E 02
@0000063F 01
@00000640 00
@00000641 FE
@00000642 04
@00000643 FF
@00000644 02
@00000645 FD
@00000646 01
@00000647 FF
@00000648 FF
@00000649 00
@0000064A 05
@0000064B 02
@0000064C FF
@0000064D 00
@0000064E 02
@0000064F FE
@00000650 FE
@00000651 FE
@00000652 01
@00000653 FE
@00000654 04
@00000655 00
@00000656 01
@00000657 03
@00000658 00
@00000659 FF
@0000065A 01
@0000065B FE
@0000065C 02
@0000065D 02
@0000065E 00
@0000065F FE
@00000660 00
@00000661 FF
@00000662 FF
@00000663 02
@00000664 01
@00000665 FF
@00000666 02
@00000667 00
@00000668 03
@00000669 03
@0000066A FE
@0000066B 01
@0000066C FD
@0000066D 01
@0000066E 00
@0000066F FC
@00000670 FF
@00000671 01
@00000672 01
@00000673 FD
@00000674 03
@00000675 FD
@00000676 FB
@00000677 02
@00000678 FE
@00000679 03
@0000067A FE
@0000067B 00
@0000067C FD
@0000067D FE
@0000067E 01
@0000067F 03
@00000680 FE
@00000681 02
@00000682 00
@00000683 02
@00000684 00
@00000685 FD
@00000686 FC
@00000687 02
@00000688 FF
@00000689 FA
@0000068A FF
@0000068B 00
@0000068C FD
@0000068D FF
@0000068E FC
@0000068F 02
@00000690 02
@00000691 02
@00000692 FF
@00000693 FF
@00000694 02
@00000695 FB
@00000696 02
@00000697 FD
@00000698 F8
@00000699 01
@0000069A FD
@0000069B 01
@0000069C 03
@0000069D 01
@0000069E FE
@0000069F 05
@000006A0 FF
@000006A1 FF
@000006A2 01
@000006A3 01
@000006A4 FF
@000006A5 02
@000006A6 FE
@000006A7 FD
@000006A8 00
@000006A9 00
@000006AA FF
@000006AB FD
@000006AC 00
@000006AD FF
@000006AE 02
@000006AF FD
@000006B0 FF
@000006B1 01
@000006B2 FF
@000006B3 03
@000006B4 00
@000006B5 02
@000006B6 02
@000006B7 00
@000006B8 01
@000006B9 00
@000006BA 02
@000006BB 00
@000006BC FB
@000006BD FE
@000006BE 01
@000006BF 02
@000006C0 03
@000006C1 FE
@000006C2 00
@000006C3 FE
@000006C4 00
@000006C5 FE
@000006C6 FE
@000006C7 00
@000006C8 04
@000006C9 00
@000006CA 03
@000006CB 04
@000006CC 01
@000006CD 00
@000006CE 02
@000006CF 01
@000006D0 00
@000006D1 00
@000006D2 01
@000006D3 00
@000006D4 00
@000006D5 01
@000006D6 FE
@000006D7 FD
@000006D8 02
@000006D9 06
@000006DA 02
@000006DB 05
@000006DC FF
@000006DD FE
@000006DE 01
@000006DF FF
@000006E0 FF
@000006E1 00
@000006E2 FF
@000006E3 FE
@000006E4 01
@000006E5 01
@000006E6 03
@000006E7 04
@000006E8 00
@000006E9 02
@000006EA 05
@000006EB 00
@000006EC 00
@000006ED 04
@000006EE 03
@000006EF 03
@000006F0 FE
@000006F1 01
@000006F2 FC
@000006F3 FF
@000006F4 FF
@000006F5 02
@000006F6 FF
@000006F7 FD
@000006F8 FA
@000006F9 00
@000006FA 03
@000006FB FA
@000006FC 02
@000006FD FD
@000006FE F8
@000006FF 02
@00000700 03
@00000701 FD
@00000702 01
@00000703 00
@00000704 FD
@00000705 01
@00000706 FE
@00000707 F7
@00000708 02
@00000709 FE
@0000070A FF
@0000070B 00
@0000070C FD
@0000070D FF
@0000070E 04
@0000070F 02
@00000710 FF
@00000711 FF
@00000712 03
@00000713 00
@00000714 00
@00000715 FE
@00000716 FC
@00000717 01
@00000718 FF
@00000719 FC
@0000071A 00
@0000071B 03
@0000071C 00
@0000071D 03
@0000071E FE
@0000071F 01
@00000720 01
@00000721 01
@00000722 01
@00000723 05
@00000724 00
@00000725 FF
@00000726 FF
@00000727 01
@00000728 F7
@00000729 01
@0000072A 00
@0000072B 02
@0000072C FF
@0000072D FF
@0000072E 01
@0000072F FE
@00000730 FD
@00000731 02
@00000732 01
@00000733 FF
@00000734 01
@00000735 00
@00000736 FD
@00000737 FE
@00000738 FF
@00000739 FF
@0000073A FE
@0000073B FE
@0000073C 02
@0000073D FF
@0000073E FC
@0000073F 00
@00000740 FE
@00000741 FF
@00000742 FF
@00000743 FE
@00000744 FE
@00000745 00
@00000746 01
@00000747 03
@00000748 FD
@00000749 FE
@0000074A 03
@0000074B 02
@0000074C FF
@0000074D 05
@0000074E FF
@0000074F FF
@00000750 03
@00000751 03
@00000752 00
@00000753 00
@00000754 01
@00000755 FE
@00000756 02
@00000757 FD
@00000758 FE
@00000759 FF
@0000075A FF
@0000075B 01
@0000075C 06
@0000075D FF
@0000075E FF
@0000075F 03
@00000760 04
@00000761 04
@00000762 FE
@00000763 FF
@00000764 02
@00000765 FE
@00000766 02
@00000767 02
@00000768 02
@00000769 04
@0000076A FF
@0000076B FF
@0000076C 00
@0000076D FE
@0000076E 01
@0000076F 02
@00000770 00
@00000771 03
@00000772 FE
@00000773 00
@00000774 02
@00000775 FF
@00000776 00
@00000777 03
@00000778 FF
@00000779 01
@0000077A 01
@0000077B 00
@0000077C 02
@0000077D 01
@0000077E 01
@0000077F 00
@00000780 FD
@00000781 03
@00000782 01
@00000783 00
@00000784 FE
@00000785 00
@00000786 05
@00000787 00
@00000788 00
@00000789 FF
@0000078A FE
@0000078B 00
@0000078C 02
@0000078D 00
@0000078E 00
@0000078F FD
@00000790 FC
@00000791 FB
@00000792 03
@00000793 00
@00000794 02
@00000795 FD
@00000796 01
@00000797 FF
@00000798 04
@00000799 00
@0000079A 01
@0000079B FE
@0000079C FF
@0000079D FE
@0000079E FE
@0000079F 01
@000007A0 00
@000007A1 01
@000007A2 00
@000007A3 03
@000007A4 FF
@000007A5 FF
@000007A6 FF
@000007A7 00
@000007A8 05
@000007A9 03
@000007AA FF
@000007AB FD
@000007AC 01
@000007AD FE
@000007AE 02
@000007AF FC
@000007B0 00
@000007B1 01
@000007B2 04
@000007B3 00
@000007B4 02
@000007B5 FF
@000007B6 01
@000007B7 00
@000007B8 FF
@000007B9 03
@000007BA FE
@000007BB FF
@000007BC FE
@000007BD FC
@000007BE 00
@000007BF FF
@000007C0 02
@000007C1 00
@000007C2 00
@000007C3 01
@000007C4 FF
@000007C5 02
@000007C6 00
@000007C7 FE
@000007C8 04
@000007C9 00
@000007CA FF
@000007CB 01
@000007CC 01
@000007CD 01
@000007CE 01
@000007CF FF
@000007D0 FE
@000007D1 FF
@000007D2 02
@000007D3 FE
@000007D4 04
@000007D5 FE
@000007D6 01
@000007D7 03
@000007D8 FF
@000007D9 FF
@000007DA 02
@000007DB FE
@000007DC FF
@000007DD 00
@000007DE 01
@000007DF 00
@000007E0 00
@000007E1 02
@000007E2 FE
@000007E3 00
@000007E4 FC
@000007E5 FC
@000007E6 FF
@000007E7 04
@000007E8 FE
@000007E9 00
@000007EA 03
@000007EB 01
@000007EC 03
@000007ED 01
@000007EE 02
@000007EF 03
@000007F0 02
@000007F1 00
@000007F2 02
@000007F3 01
@000007F4 01
@000007F5 00
@000007F6 01
@000007F7 FF
@000007F8 01
@000007F9 04
@000007FA FF
@000007FB 01
@000007FC FF
@000007FD FF
@000007FE 01
@000007FF FE
@00000800 03
@00000801 FF
@00000802 01
@00000803 02
@00000804 FA
@00000805 FD
@00000806 FD
@00000807 03
@00000808 02
@00000809 FF
@0000080A 01
@0000080B FE
@0000080C FD
@0000080D 04
@0000080E 00
@0000080F 02
@00000810 01
@00000811 FE
@00000812 FC
@00000813 01
@00000814 FF
@00000815 00
@00000816 FF
@00000817 05
@00000818 FF
@00000819 02
@0000081A 02
@0000081B 02
@0000081C 00
@0000081D 01
@0000081E 00
@0000081F 01
@00000820 05
@00000821 FE
@00000822 03
@00000823 00
@00000824 FF
@00000825 00
@00000826 01
@00000827 FF
@00000828 00
@00000829 02
@0000082A 05
@0000082B FB
@0000082C 05
@0000082D FF
@0000082E 01
@0000082F 06
@00000830 00
@00000831 02
@00000832 01
@00000833 FF
@00000834 01
@00000835 00
@00000836 FE
@00000837 04
@00000838 03
@00000839 FE
@0000083A 00
@0000083B 04
@0000083C 02
@0000083D 04
@0000083E 00
@0000083F FB
@00000840 01
@00000841 01
@00000842 FD
@00000843 FD
@00000844 04
@00000845 00
@00000846 01
@00000847 04
@00000848 FE
@00000849 FE
@0000084A 03
@0000084B 02
@0000084C FC
@0000084D 05
@0000084E 00
@0000084F 00
@00000850 FE
@00000851 05
@00000852 00
@00000853 00
@00000854 01
@00000855 FF
@00000856 01
@00000857 FD
@00000858 FE
@00000859 04
@0000085A FE
@0000085B 00
@0000085C FE
@0000085D FF
@0000085E 01
@0000085F FA
@00000860 FD
@00000861 00
@00000862 03
@00000863 FD
@00000864 00
@00000865 02
@00000866 FF
@00000867 01
@00000868 01
@00000869 FF
@0000086A FD
@0000086B FD
@0000086C FF
@0000086D FE
@0000086E FF
@0000086F 00
@00000870 00
@00000871 FF
@00000872 00
@00000873 00
@00000874 01
@00000875 FD
@00000876 02
@00000877 00
@00000878 FE
@00000879 FF
@0000087A FE
@0000087B FE
@0000087C 01
@0000087D FF
@0000087E 00
@0000087F 00
@00000880 00
@00000881 05
@00000882 04
@00000883 00
@00000884 00
@00000885 01
@00000886 FE
@00000887 02
@00000888 02
@00000889 FC
@0000088A FF
@0000088B 03
@0000088C FF
@0000088D 00
@0000088E FE
@0000088F FE
@00000890 02
@00000891 FF
@00000892 00
@00000893 FF
@00000894 FF
@00000895 FE
@00000896 00
@00000897 FF
@00000898 01
@00000899 FD
@0000089A 01
@0000089B FF
@0000089C 01
@0000089D 03
@0000089E 01
@0000089F FF
@000008A0 01
@000008A1 01
@000008A2 FF
@000008A3 FC
@000008A4 FF
@000008A5 00
@000008A6 FF
@000008A7 00
@000008A8 FE
@000008A9 FF
@000008AA 01
@000008AB FC
@000008AC 04
@000008AD FF
@000008AE FA
@000008AF 03
@000008B0 04
@000008B1 FD
@000008B2 FE
@000008B3 03
@000008B4 FD
@000008B5 02
@000008B6 FF
@000008B7 FE
@000008B8 03
@000008B9 04
@000008BA FF
@000008BB FF
@000008BC 00
@000008BD FD
@000008BE 02
@000008BF 00
@000008C0 FD
@000008C1 04
@000008C2 03
@000008C3 00
@000008C4 02
@000008C5 02
@000008C6 FE
@000008C7 01
@000008C8 FE
@000008C9 FD
@000008CA FF
@000008CB 02
@000008CC 00
@000008CD 01
@000008CE FC
@000008CF FF
@000008D0 FE
@000008D1 02
@000008D2 FF
@000008D3 01
@000008D4 FF
@000008D5 FD
@000008D6 02
@000008D7 FC
@000008D8 00
@000008D9 00
@000008DA 03
@000008DB 03
@000008DC 04
@000008DD FF
@000008DE FF
@000008DF FF
@000008E0 03
@000008E1 03
@000008E2 FF
@000008E3 03
@000008E4 FC
@000008E5 FF
@000008E6 FF
@000008E7 FE
@000008E8 FB
@000008E9 00
@000008EA 00
@000008EB 02
@000008EC FF
@000008ED 00
@000008EE 02
@000008EF FE
@000008F0 FB
@000008F1 FE
@000008F2 01
@000008F3 FC
@000008F4 02
@000008F5 01
@000008F6 FE
@000008F7 01
@000008F8 00
@000008F9 02
@000008FA 02
@000008FB 02
@000008FC FE
@000008FD FE
@000008FE 01
@000008FF FF
@00000900 01
@00000901 00
@00000902 00
@00000903 00
@00000904 01
@00000905 00
@00000906 01
@00000907 01
@00000908 00
@00000909 FF
@0000090A FF
@0000090B 00
@0000090C FF
@0000090D FE
@0000090E FE
@0000090F FF
@00000910 00
@00000911 02
@00000912 FF
@00000913 01
@00000914 01
@00000915 00
@00000916 FF
@00000917 01
@00000918 FF
@00000919 FE
@0000091A 01
@0000091B 01
@0000091C 01
@0000091D 01
@0000091E FF
@0000091F FF
@00000920 01
@00000921 FE
@00000922 00
@00000923 00
@00000924 01
@00000925 00
@00000926 02
@00000927 01
@00000928 01
@00000929 FF
@0000092A 00
@0000092B 00
@0000092C FF
@0000092D 00
@0000092E 00
@0000092F FF
@00000930 01
@00000931 00
@00000932 FF
@00000933 00
@00000934 01
@00000935 01
@00000936 01
@00000937 00
@00000938 02
@00000939 00
@0000093A 00
@0000093B FF
@0000093C 02
@0000093D 00
@0000093E FF
@0000093F 00
@00000940 01
@00000941 00
@00000942 00
@00000943 00
@00000944 01
@00000945 01
@00000946 02
@00000947 00
@00000948 01
@00000949 01
@0000094A FF
@0000094B 01
@0000094C 02
@0000094D 00
@0000094E 00
@0000094F 01
@00000950 00
@00000951 FF
@00000952 00
@00000953 00
@00000954 FF
@00000955 00
@00000956 01
@00000957 00
@00000958 02
@00000959 FF
@0000095A 01
@0000095B 01
@0000095C FE
@0000095D 00
@0000095E FF
@0000095F 00
@00000960 00
@00000961 00
@00000962 FF
@00000963 00
@00000964 FF
@00000965 02
@00000966 00
@00000967 01
@00000968 FF
@00000969 02
@0000096A 01
@0000096B 00
@0000096C 02
@0000096D 01
@0000096E 01
@0000096F 03
@00000970 01
@00000971 02
@00000972 00
@00000973 01
@00000974 FE
@00000975 01
@00000976 FF
@00000977 02
@00000978 00
@00000979 02
@0000097A 01
@0000097B 01
@0000097C FF
@0000097D FF
@0000097E 00
@0000097F 00
@00000980 00
@00000981 01
@00000982 FE
@00000983 00
@00000984 00
@00000985 FF
@00000986 FE
@00000987 FF
@00000988 FE
@00000989 FF
@0000098A 01
@0000098B 03
@0000098C 00
@0000098D FF
@0000098E 02
@0000098F 00
@00000990 01
@00000991 02
@00000992 00
@00000993 01
@00000994 01
@00000995 01
@00000996 FF
@00000997 00
@00000998 00
@00000999 FF
@0000099A FF
@0000099B 01
@0000099C FF
@0000099D 01
@0000099E 00
@0000099F 00
@000009A0 02
@000009A1 FF
@000009A2 02
@000009A3 FF
@000009A4 02
@000009A5 02
@000009A6 FE
@000009A7 FF
@000009A8 01
@000009A9 00
@000009AA 01
@000009AB 01
@000009AC 00
@000009AD 00
@000009AE FF
@000009AF 00
@000009B0 00
@000009B1 01
@000009B2 00
@000009B3 FF
@000009B4 00
@000009B5 01
@000009B6 00
@000009B7 00
@000009B8 01
@000009B9 FF
@000009BA FF
@000009BB FF
@000009BC 01
@000009BD 00
@000009BE 03
@000009BF FF
@000009C0 01
@000009C1 01
@000009C2 01
@000009C3 00
@000009C4 00
@000009C5 01
@000009C6 02
@000009C7 00
@000009C8 02
@000009C9 FF
@000009CA 00
@000009CB 00
@000009CC 00
@000009CD 00
@000009CE 01
@000009CF 00
@000009D0 01
@000009D1 02
@000009D2 00
@000009D3 00
@000009D4 01
@000009D5 00
@000009D6 02
@000009D7 01
@000009D8 FF
@000009D9 00
@000009DA 00
@000009DB FF
@000009DC FF
@000009DD 00
@000009DE 00
@000009DF 00
@000009E0 00
@000009E1 00
@000009E2 FF
@000009E3 FF
@000009E4 00
@000009E5 00
@000009E6 FF
@000009E7 00
@000009E8 00
@000009E9 01
@000009EA 01
@000009EB 02
@000009EC 03
@000009ED FF
@000009EE FE
@000009EF 01
@000009F0 01
@000009F1 00
@000009F2 00
@000009F3 01
@000009F4 00
@000009F5 02
@000009F6 02
@000009F7 FF
@000009F8 00
@000009F9 01
@000009FA 01
@000009FB 02
@000009FC 00
@000009FD 01
@000009FE 00
@000009FF 02
@00000A00 01
@00000A01 00
@00000A02 01
@00000A03 01
@00000A04 02
@00000A05 FF
@00000A06 FF
@00000A07 00
@00000A08 01
@00000A09 00
@00000A0A 02
@00000A0B 00
@00000A0C FF
@00000A0D 00
@00000A0E 01
@00000A0F FF
@00000A10 FF
@00000A11 FE
@00000A12 01
@00000A13 FE
@00000A14 01
@00000A15 00
@00000A16 00
@00000A17 01
@00000A18 02
@00000A19 01
@00000A1A 01
@00000A1B 00
@00000A1C 00
@00000A1D 00
@00000A1E FF
@00000A1F 00
@00000A20 01
@00000A21 01
@00000A22 FF
@00000A23 00
@00000A24 00
@00000A25 01
@00000A26 00
@00000A27 01
@00000A28 00
@00000A29 00
@00000A2A 00
@00000A2B 01
@00000A2C FF
@00000A2D 03
@00000A2E 00
@00000A2F 01
@00000A30 01
@00000A31 00
@00000A32 00
@00000A33 FF
@00000A34 01
@00000A35 FF
@00000A36 00
@00000A37 01
@00000A38 00
@00000A39 FF
@00000A3A FE
@00000A3B FE
@00000A3C 00
@00000A3D FF
@00000A3E FE
@00000A3F FD
@00000A40 00
@00000A41 01
@00000A42 FF
@00000A43 FF
@00000A44 02
@00000A45 01
@00000A46 00
@00000A47 00
@00000A48 01
@00000A49 00
@00000A4A FF
@00000A4B 03
@00000A4C 01
@00000A4D 00
@00000A4E 00
@00000A4F 00
@00000A50 01
@00000A51 01
@00000A52 01
@00000A53 01
@00000A54 FF
@00000A55 00
@00000A56 FF
@00000A57 00
@00000A58 FF
@00000A59 FF
@00000A5A 01
@00000A5B 02
@00000A5C FF
@00000A5D 00
@00000A5E 00
@00000A5F 00
@00000A60 01
@00000A61 00
@00000A62 01
@00000A63 01
@00000A64 01
@00000A65 00
@00000A66 01
@00000A67 00
@00000A68 00
@00000A69 01
@00000A6A 01
@00000A6B FF
@00000A6C 00
@00000A6D FF
@00000A6E 00
@00000A6F FF
@00000A70 FE
@00000A71 01
@00000A72 01
@00000A73 01
@00000A74 00
@00000A75 01
@00000A76 03
@00000A77 01
@00000A78 01
@00000A79 00
@00000A7A 01
@00000A7B 01
@00000A7C 01
@00000A7D 00
@00000A7E 02
@00000A7F 01
@00000A80 01
@00000A81 00
@00000A82 02
@00000A83 02
@00000A84 00
@00000A85 01
@00000A86 01
@00000A87 01
@00000A88 00
@00000A89 01
@00000A8A 02
@00000A8B FF
@00000A8C 01
@00000A8D FF
@00000A8E FF
@00000A8F 00
@00000A90 00
@00000A91 02
@00000A92 FF
@00000A93 02
@00000A94 02
@00000A95 01
@00000A96 00
@00000A97 00
@00000A98 01
@00000A99 00
@00000A9A FF
@00000A9B 02
@00000A9C 00
@00000A9D 01
@00000A9E 01
@00000A9F FF
@00000AA0 00
@00000AA1 00
@00000AA2 01
@00000AA3 FF
@00000AA4 01
@00000AA5 00
@00000AA6 FF
@00000AA7 00
@00000AA8 FF
@00000AA9 00
@00000AAA 02
@00000AAB 01
@00000AAC 00
@00000AAD 00
@00000AAE 01
@00000AAF 01
@00000AB0 FF
@00000AB1 FF
@00000AB2 FF
@00000AB3 02
@00000AB4 00
@00000AB5 FE
@00000AB6 00
@00000AB7 00
@00000AB8 00
@00000AB9 02
@00000ABA 01
@00000ABB 01
@00000ABC 01
@00000ABD 01
@00000ABE 02
@00000ABF 00
@00000AC0 00
@00000AC1 00
@00000AC2 00
@00000AC3 FF
@00000AC4 FF
@00000AC5 00
@00000AC6 01
@00000AC7 FF
@00000AC8 01
@00000AC9 00
@00000ACA FF
@00000ACB 00
@00000ACC FE
@00000ACD 00
@00000ACE 00
@00000ACF 00
@00000AD0 FE
@00000AD1 FF
@00000AD2 FF
@00000AD3 01
@00000AD4 01
@00000AD5 02
@00000AD6 FF
@00000AD7 02
@00000AD8 01
@00000AD9 00
@00000ADA FF
@00000ADB 01
@00000ADC 01
@00000ADD FE
@00000ADE FD
@00000ADF FF
@00000AE0 FE
@00000AE1 FE
@00000AE2 FF
@00000AE3 02
@00000AE4 01
@00000AE5 FF
@00000AE6 FE
@00000AE7 00
@00000AE8 FF
@00000AE9 01
@00000AEA FF
@00000AEB 00
@00000AEC 00
@00000AED 00
@00000AEE FF
@00000AEF 01
@00000AF0 02
@00000AF1 00
@00000AF2 01
@00000AF3 00
@00000AF4 FF
@00000AF5 FF
@00000AF6 FF
@00000AF7 00
@00000AF8 FF
@00000AF9 00
@00000AFA 00
@00000AFB 00
@00000AFC FF
@00000AFD 01
@00000AFE 01
@00000AFF FF
@00000B00 00
@00000B01 01
@00000B02 00
@00000B03 02
@00000B04 03
@00000B05 01
@00000B06 FF
@00000B07 02
@00000B08 00
@00000B09 01
@00000B0A 00
@00000B0B FE
@00000B0C FF
@00000B0D 00
@00000B0E 00
@00000B0F 00
@00000B10 00
@00000B11 00
@00000B12 02
@00000B13 00
@00000B14 01
@00000B15 00
@00000B16 00
@00000B17 02
@00000B18 01
@00000B19 FF
@00000B1A 00
@00000B1B 00
@00000B1C 00
@00000B1D 02
@00000B1E 00
@00000B1F 00
@00000B20 FF
@00000B21 00
@00000B22 FF
@00000B23 00
@00000B24 01
@00000B25 01
@00000B26 01
@00000B27 FF
@00000B28 00
@00000B29 01
@00000B2A FF
@00000B2B 00
@00000B2C 01
@00000B2D 00
@00000B2E FF
@00000B2F 00
@00000B30 01
@00000B31 FE
@00000B32 00
@00000B33 00
@00000B34 00
@00000B35 FF
@00000B36 01
@00000B37 01
@00000B38 00
@00000B39 00
@00000B3A 01
@00000B3B 01
@00000B3C 00
@00000B3D 00
@00000B3E 00
@00000B3F 00
@00000B40 01
@00000B41 01
@00000B42 FF
@00000B43 00
@00000B44 FE
@00000B45 00
@00000B46 00
@00000B47 00
@00000B48 01
@00000B49 02
@00000B4A 01
@00000B4B 00
@00000B4C 02
@00000B4D 01
@00000B4E FE
@00000B4F 00
@00000B50 00
@00000B51 00
@00000B52 00
@00000B53 02
@00000B54 01
@00000B55 00
@00000B56 02
@00000B57 FF
@00000B58 FF
@00000B59 00
@00000B5A 00
@00000B5B 00
@00000B5C FF
@00000B5D 00
@00000B5E 01
@00000B5F 01
@00000B60 00
@00000B61 FD
@00000B62 01
@00000B63 00
@00000B64 00
@00000B65 FF
@00000B66 00
@00000B67 FF
@00000B68 00
@00000B69 FF
@00000B6A 00
@00000B6B 01
@00000B6C 01
@00000B6D 00
@00000B6E 00
@00000B6F 00
@00000B70 01
@00000B71 01
@00000B72 01
@00000B73 00
@00000B74 00
@00000B75 01
@00000B76 01
@00000B77 01
@00000B78 FF
@00000B79 00
@00000B7A FF
@00000B7B 00
@00000B7C FF
@00000B7D FF
@00000B7E 00
@00000B7F 01
@00000B80 00
@00000B81 00
@00000B82 00
@00000B83 01
@00000B84 01
@00000B85 FF
@00000B86 FE
@00000B87 FF
@00000B88 02
@00000B89 01
@00000B8A FF
@00000B8B 00
@00000B8C 00
@00000B8D 00
@00000B8E 01
@00000B8F 00
@00000B90 01
@00000B91 01
@00000B92 01
@00000B93 FF
@00000B94 02
@00000B95 00
@00000B96 00
@00000B97 02
@00000B98 00
@00000B99 01
@00000B9A FF
@00000B9B 01
@00000B9C 01
@00000B9D 00
@00000B9E 00
@00000B9F FF
@00000BA0 FF
@00000BA1 00
@00000BA2 00
@00000BA3 00
@00000BA4 01
@00000BA5 00
@00000BA6 FF
@00000BA7 FF
@00000BA8 FF
@00000BA9 01
@00000BAA 00
@00000BAB FF
@00000BAC 00
@00000BAD 02
@00000BAE 02
@00000BAF 01
@00000BB0 01
@00000BB1 01
@00000BB2 FF
@00000BB3 00
@00000BB4 01
@00000BB5 00
@00000BB6 00
@00000BB7 00
@00000BB8 00
@00000BB9 00
@00000BBA 01
@00000BBB 00
@00000BBC FF
@00000BBD FF
@00000BBE 00
@00000BBF 01
@00000BC0 01
@00000BC1 01
@00000BC2 00
@00000BC3 01
@00000BC4 00
@00000BC5 FF
@00000BC6 FF
@00000BC7 01
@00000BC8 01
@00000BC9 00
@00000BCA FF
@00000BCB FF
@00000BCC FF
@00000BCD 01
@00000BCE 00
@00000BCF 00
@00000BD0 01
@00000BD1 00
@00000BD2 00
@00000BD3 00
@00000BD4 01
@00000BD5 00
@00000BD6 00
@00000BD7 02
@00000BD8 00
@00000BD9 00
@00000BDA 02
@00000BDB 02
@00000BDC FE
@00000BDD 01
@00000BDE 01
@00000BDF 00
@00000BE0 00
@00000BE1 00
@00000BE2 01
@00000BE3 01
@00000BE4 01
@00000BE5 01
@00000BE6 FE
@00000BE7 00
@00000BE8 02
@00000BE9 01
@00000BEA 00
@00000BEB 01
@00000BEC 01
@00000BED FF
@00000BEE 00
@00000BEF FF
@00000BF0 00
@00000BF1 01
@00000BF2 00
@00000BF3 01
@00000BF4 03
@00000BF5 01
@00000BF6 01
@00000BF7 00
@00000BF8 01
@00000BF9 01
@00000BFA 01
@00000BFB FF
@00000BFC FF
@00000BFD FF
@00000BFE 02
@00000BFF 00
@00000C00 01
@00000C01 00
@00000C02 00
@00000C03 01
@00000C04 01
@00000C05 01
@00000C06 01
@00000C07 00
@00000C08 00
@00000C09 01
@00000C0A 01
@00000C0B 00
@00000C0C FF
@00000C0D FF
@00000C0E FF
@00000C0F FF
@00000C10 01
@00000C11 01
@00000C12 FF
@00000C13 01
@00000C14 00
@00000C15 00
@00000C16 01
@00000C17 01
@00000C18 01
@00000C19 01
@00000C1A 01
@00000C1B 00
@00000C1C 01
@00000C1D FF
@00000C1E 01
@00000C1F 00
@00000C20 FF
@00000C21 01
@00000C22 01
@00000C23 00
@00000C24 00
@00000C25 FF
@00000C26 00
@00000C27 FF
@00000C28 01
@00000C29 02
@00000C2A 01
@00000C2B 02
@00000C2C 01
@00000C2D 01
@00000C2E 00
@00000C2F 01
@00000C30 00
@00000C31 02
@00000C32 00
@00000C33 00
@00000C34 01
@00000C35 00
@00000C36 01
@00000C37 02
@00000C38 01
@00000C39 01
@00000C3A 01
@00000C3B 00
@00000C3C FF
@00000C3D 01
@00000C3E 03
@00000C3F 02
@00000C40 00
@00000C41 00
@00000C42 00
@00000C43 FF
@00000C44 00
@00000C45 02
@00000C46 02
@00000C47 01
@00000C48 00
@00000C49 00
@00000C4A 01
@00000C4B FF
@00000C4C 00
@00000C4D 01
@00000C4E 00
@00000C4F 02
@00000C50 FF
@00000C51 00
@00000C52 02
@00000C53 00
@00000C54 00
@00000C55 00
@00000C56 00
@00000C57 01
@00000C58 FF
@00000C59 01
@00000C5A FF
@00000C5B 01
@00000C5C 01
@00000C5D 00
@00000C5E 00
@00000C5F 00
@00000C60 01
@00000C61 02
@00000C62 00
@00000C63 00
@00000C64 01
@00000C65 00
@00000C66 FE
@00000C67 FF
@00000C68 00
@00000C69 00
@00000C6A 00
@00000C6B 00
@00000C6C 01
@00000C6D 01
@00000C6E 01
@00000C6F FF
@00000C70 00
@00000C71 FF
@00000C72 00
@00000C73 02
@00000C74 01
@00000C75 00
@00000C76 00
@00000C77 00
@00000C78 FF
@00000C79 01
@00000C7A 00
@00000C7B 02
@00000C7C 03
@00000C7D 02
@00000C7E 00
@00000C7F 00
@00000C80 FF
@00000C81 01
@00000C82 FF
@00000C83 01
@00000C84 02
@00000C85 01
@00000C86 03
@00000C87 00
@00000C88 00
@00000C89 01
@00000C8A 01
@00000C8B 02
@00000C8C 01
@00000C8D 01
@00000C8E FF
@00000C8F FF
@00000C90 01
@00000C91 00
@00000C92 01
@00000C93 00
@00000C94 00
@00000C95 FF
@00000C96 02
@00000C97 02
@00000C98 00
@00000C99 00
@00000C9A 00
@00000C9B 00
@00000C9C 00
@00000C9D FE
@00000C9E FE
@00000C9F FF
@00000CA0 00
@00000CA1 00
@00000CA2 00
@00000CA3 01
@00000CA4 01
@00000CA5 00
@00000CA6 01
@00000CA7 01
@00000CA8 01
@00000CA9 00
@00000CAA 02
@00000CAB FF
@00000CAC 00
@00000CAD 00
@00000CAE FF
@00000CAF FF
@00000CB0 FF
@00000CB1 FF
@00000CB2 00
@00000CB3 00
@00000CB4 01
@00000CB5 01
@00000CB6 FE
@00000CB7 01
@00000CB8 03
@00000CB9 FF
@00000CBA 00
@00000CBB 01
@00000CBC 01
@00000CBD 01
@00000CBE 02
@00000CBF 00
@00000CC0 00
@00000CC1 FF
@00000CC2 00
@00000CC3 01
@00000CC4 01
@00000CC5 00
@00000CC6 02
@00000CC7 01
@00000CC8 01
@00000CC9 00
@00000CCA FE
@00000CCB FF
@00000CCC 01
@00000CCD 01
@00000CCE 02
@00000CCF 00
@00000CD0 00
@00000CD1 00
@00000CD2 00
@00000CD3 FF
@00000CD4 01
@00000CD5 FF
@00000CD6 01
@00000CD7 02
@00000CD8 00
@00000CD9 00
@00000CDA 00
@00000CDB 01
@00000CDC 00
@00000CDD FF
@00000CDE 00
@00000CDF FF
@00000CE0 00
@00000CE1 01
@00000CE2 02
@00000CE3 00
@00000CE4 FF
@00000CE5 02
@00000CE6 01
@00000CE7 00
@00000CE8 00
@00000CE9 01
@00000CEA FF
@00000CEB 01
@00000CEC 00
@00000CED FF
@00000CEE 01
@00000CEF 01
@00000CF0 00
@00000CF1 01
@00000CF2 FF
@00000CF3 00
@00000CF4 FF
@00000CF5 01
@00000CF6 01
@00000CF7 00
@00000CF8 00
@00000CF9 02
@00000CFA 01
@00000CFB 02
@00000CFC FF
@00000CFD FF
@00000CFE 01
@00000CFF 01
@00000D00 01
@00000D01 00
@00000D02 FE
@00000D03 01
@00000D04 01
@00000D05 01
@00000D06 00
@00000D07 00
@00000D08 01
@00000D09 FF
@00000D0A FF
@00000D0B FF
@00000D0C 01
@00000D0D 01
@00000D0E 00
@00000D0F 01
@00000D10 00
@00000D11 00
@00000D12 01
@00000D13 00
@00000D14 01
@00000D15 01
@00000D16 00
@00000D17 00
@00000D18 00
@00000D19 01
@00000D1A FF
@00000D1B FE
@00000D1C 00
@00000D1D 01
@00000D1E 02
@00000D1F FF
@00000D20 01
@00000D21 00
@00000D22 00
@00000D23 00
@00000D24 00
@00000D25 01
@00000D26 00
@00000D27 02
@00000D28 02
@00000D29 FF
@00000D2A 00
@00000D2B FE
@00000D2C 00
@00000D2D 01
@00000D2E 00
@00000D2F FE
@00000D30 00
@00000D31 FF
@00000D32 00
@00000D33 FF
@00000D34 FF
@00000D35 00
@00000D36 FE
@00000D37 FF
@00000D38 01
@00000D39 00
@00000D3A 00
@00000D3B 00
@00000D3C 02
@00000D3D 01
@00000D3E 00
@00000D3F 01
@00000D40 FF
@00000D41 FF
@00000D42 00
@00000D43 03
@00000D44 00
@00000D45 00
@00000D46 01
@00000D47 FE
@00000D48 00
@00000D49 00
@00000D4A 01
@00000D4B 01
@00000D4C 00
@00000D4D 01
@00000D4E 01
@00000D4F FF
@00000D50 FF
@00000D51 01
@00000D52 01
@00000D53 FF
@00000D54 01
@00000D55 00
@00000D56 00
@00000D57 FD
@00000D58 FF
@00000D59 01
@00000D5A FF
@00000D5B FF
@00000D5C FF
@00000D5D 02
@00000D5E FF
@00000D5F FF
@00000D60 02
@00000D61 FE
@00000D62 00
@00000D63 00
@00000D64 FF
@00000D65 01
@00000D66 00
@00000D67 FF
@00000D68 FF
@00000D69 FE
@00000D6A FF
@00000D6B 01
@00000D6C 02
@00000D6D 01
@00000D6E 01
@00000D6F 01
@00000D70 01
@00000D71 01
@00000D72 FF
@00000D73 FF
@00000D74 00
@00000D75 00
@00000D76 01
@00000D77 01
@00000D78 00
@00000D79 01
@00000D7A 00
@00000D7B 02
@00000D7C 01
@00000D7D 01
@00000D7E 00
@00000D7F 00
@00000D80 01
@00000D81 01
@00000D82 00
@00000D83 01
@00000D84 00
@00000D85 00
@00000D86 00
@00000D87 FF
@00000D88 FF
@00000D89 00
@00000D8A 00
@00000D8B 01
@00000D8C FF
@00000D8D 01
@00000D8E 00
@00000D8F 00
@00000D90 FF
@00000D91 00
@00000D92 02
@00000D93 02
@00000D94 02
@00000D95 01
@00000D96 FF
@00000D97 00
@00000D98 01
@00000D99 01
@00000D9A 00
@00000D9B 01
@00000D9C 02
@00000D9D 01
@00000D9E 00
@00000D9F 00
@00000DA0 00
@00000DA1 FE
@00000DA2 02
@00000DA3 01
@00000DA4 02
@00000DA5 01
@00000DA6 01
@00000DA7 03
@00000DA8 01
@00000DA9 00
@00000DAA 01
@00000DAB 00
@00000DAC 00
@00000DAD 00
@00000DAE 00
@00000DAF 01
@00000DB0 01
@00000DB1 00
@00000DB2 00
@00000DB3 02
@00000DB4 FF
@00000DB5 01
@00000DB6 02
@00000DB7 FF
@00000DB8 00
@00000DB9 FF
@00000DBA FF
@00000DBB FF
@00000DBC 00
@00000DBD FE
@00000DBE FF
@00000DBF 01
@00000DC0 02
@00000DC1 FF
@00000DC2 FF
@00000DC3 02
@00000DC4 00
@00000DC5 00
@00000DC6 00
@00000DC7 01
@00000DC8 01
@00000DC9 00
@00000DCA 01
@00000DCB 01
@00000DCC 02
@00000DCD 03
@00000DCE FF
@00000DCF 03
@00000DD0 01
@00000DD1 01
@00000DD2 00
@00000DD3 00
@00000DD4 00
@00000DD5 00
@00000DD6 00
@00000DD7 00
@00000DD8 FF
@00000DD9 00
@00000DDA FF
@00000DDB 00
@00000DDC 02
@00000DDD 01
@00000DDE 01
@00000DDF 00
@00000DE0 00
@00000DE1 02
@00000DE2 00
@00000DE3 02
@00000DE4 02
@00000DE5 02
@00000DE6 00
@00000DE7 01
@00000DE8 01
@00000DE9 00
@00000DEA FF
@00000DEB FF
@00000DEC 00
@00000DED 01
@00000DEE 00
@00000DEF 00
@00000DF0 00
@00000DF1 00
@00000DF2 00
@00000DF3 FF
@00000DF4 FF
@00000DF5 00
@00000DF6 01
@00000DF7 00
@00000DF8 00
@00000DF9 02
@00000DFA 01
@00000DFB 00
@00000DFC 01
@00000DFD FF
@00000DFE FF
@00000DFF 01
@00000E00 00
@00000E01 00
@00000E02 00
@00000E03 FE
@00000E04 FF
@00000E05 FF
@00000E06 00
@00000E07 FF
@00000E08 00
@00000E09 00
@00000E0A FF
@00000E0B 00
@00000E0C FF
@00000E0D FF
@00000E0E FF
@00000E0F FE
@00000E10 00
@00000E11 FF
@00000E12 FF
@00000E13 00
@00000E14 FF
@00000E15 00
@00000E16 00
@00000E17 00
@00000E18 01
@00000E19 00
@00000E1A 02
@00000E1B 02
@00000E1C 02
@00000E1D 00
@00000E1E 01
@00000E1F 01
@00000E20 00
@00000E21 01
@00000E22 00
@00000E23 02
@00000E24 00
@00000E25 00
@00000E26 02
@00000E27 FF
@00000E28 FF
@00000E29 FF
@00000E2A FE
@00000E2B 00
@00000E2C 01
@00000E2D 00
@00000E2E 00
@00000E2F 00
@00000E30 00
@00000E31 FF
@00000E32 00
@00000E33 FF
@00000E34 00
@00000E35 00
@00000E36 00
@00000E37 00
@00000E38 00
@00000E39 01
@00000E3A 00
@00000E3B 00
@00000E3C FF
@00000E3D FF
@00000E3E 02
@00000E3F FF
@00000E40 01
@00000E41 00
@00000E42 FE
@00000E43 00
@00000E44 FF
@00000E45 00
@00000E46 00
@00000E47 00
@00000E48 FF
@00000E49 FF
@00000E4A 01
@00000E4B FE
@00000E4C 02
@00000E4D 00
@00000E4E 01
@00000E4F 00
@00000E50 01
@00000E51 00
@00000E52 FF
@00000E53 00
@00000E54 FF
@00000E55 00
@00000E56 FF
@00000E57 01
@00000E58 00
@00000E59 00
@00000E5A 00
@00000E5B 00
@00000E5C 01
@00000E5D 01
@00000E5E 01
@00000E5F 00
@00000E60 01
@00000E61 01
@00000E62 00
@00000E63 02
@00000E64 00
@00000E65 00
@00000E66 00
@00000E67 00
@00000E68 01
@00000E69 01
@00000E6A 01
@00000E6B 00
@00000E6C 00
@00000E6D FF
@00000E6E FF
@00000E6F 00
@00000E70 00
@00000E71 FF
@00000E72 00
@00000E73 00
@00000E74 FF
@00000E75 FF
@00000E76 FF
@00000E77 00
@00000E78 00
@00000E79 FF
@00000E7A FF
@00000E7B 01
@00000E7C 00
@00000E7D 00
@00000E7E 00
@00000E7F 00
@00000E80 FF
@00000E81 01
@00000E82 00
@00000E83 01
@00000E84 FF
@00000E85 01
@00000E86 02
@00000E87 01
@00000E88 01
@00000E89 00
@00000E8A 01
@00000E8B 00
@00000E8C 01
@00000E8D 01
@00000E8E 02
@00000E8F 00
@00000E90 01
@00000E91 FF
@00000E92 00
@00000E93 00
@00000E94 00
@00000E95 02
@00000E96 01
@00000E97 01
@00000E98 02
@00000E99 01
@00000E9A 00
@00000E9B 01
@00000E9C 01
@00000E9D FF
@00000E9E 01
@00000E9F 01
@00000EA0 01
@00000EA1 00
@00000EA2 01
@00000EA3 00
@00000EA4 02
@00000EA5 00
@00000EA6 FE
@00000EA7 01
@00000EA8 FF
@00000EA9 03
@00000EAA 00
@00000EAB 01
@00000EAC 01
@00000EAD 00
@00000EAE FF
@00000EAF 01
@00000EB0 02
@00000EB1 FE
@00000EB2 00
@00000EB3 01
@00000EB4 00
@00000EB5 FF
@00000EB6 00
@00000EB7 FE
@00000EB8 00
@00000EB9 02
@00000EBA 00
@00000EBB 01
@00000EBC 01
@00000EBD 02
@00000EBE 01
@00000EBF FF
@00000EC0 01
@00000EC1 01
@00000EC2 01
@00000EC3 01
@00000EC4 00
@00000EC5 00
@00000EC6 00
@00000EC7 FF
@00000EC8 00
@00000EC9 FF
@00000ECA 01
@00000ECB 00
@00000ECC FF
@00000ECD 01
@00000ECE FE
@00000ECF FF
@00000ED0 FE
@00000ED1 00
@00000ED2 FF
@00000ED3 FF
@00000ED4 FF
@00000ED5 01
@00000ED6 00
@00000ED7 FF
@00000ED8 FF
@00000ED9 00
@00000EDA 00
@00000EDB 00
@00000EDC FE
@00000EDD FF
@00000EDE FE
@00000EDF 01
@00000EE0 01
@00000EE1 01
@00000EE2 FF
@00000EE3 02
@00000EE4 FF
@00000EE5 00
@00000EE6 00
@00000EE7 01
@00000EE8 00
@00000EE9 00
@00000EEA 01
@00000EEB 00
@00000EEC 01
@00000EED 01
@00000EEE 00
@00000EEF 01
@00000EF0 01
@00000EF1 00
@00000EF2 02
@00000EF3 01
@00000EF4 00
@00000EF5 02
@00000EF6 01
@00000EF7 00
@00000EF8 FF
@00000EF9 00
@00000EFA 01
@00000EFB 01
@00000EFC 00
@00000EFD 01
@00000EFE 00
@00000EFF 00
@00000F00 FF
@00000F01 01
@00000F02 FF
@00000F03 00
@00000F04 01
@00000F05 FF
@00000F06 00
@00000F07 00
@00000F08 00
@00000F09 00
@00000F0A 01
@00000F0B 01
@00000F0C 00
@00000F0D 01
@00000F0E 01
@00000F0F FF
@00000F10 02
@00000F11 01
@00000F12 00
@00000F13 00
@00000F14 FF
@00000F15 01
@00000F16 02
@00000F17 FF
@00000F18 FE
@00000F19 00
@00000F1A 00
@00000F1B 00
@00000F1C FF
@00000F1D FE
@00000F1E FF
@00000F1F 03
@00000F20 00
@00000F21 01
@00000F22 02
@00000F23 01
@00000F24 00
@00000F25 00
@00000F26 01
@00000F27 01
@00000F28 00
@00000F29 02
@00000F2A 00
@00000F2B 03
@00000F2C 00
@00000F2D 01
@00000F2E 02
@00000F2F 02
@00000F30 01
@00000F31 01
@00000F32 02
@00000F33 01
@00000F34 01
@00000F35 00
@00000F36 00
@00000F37 01
@00000F38 00
@00000F39 02
@00000F3A 00
@00000F3B 02
@00000F3C 01
@00000F3D 01
@00000F3E 00
@00000F3F 00
@00000F40 02
@00000F41 FE
@00000F42 FF
@00000F43 00
@00000F44 01
@00000F45 01
@00000F46 FF
@00000F47 FE
@00000F48 02
@00000F49 00
@00000F4A 00
@00000F4B 02
@00000F4C 01
@00000F4D 01
@00000F4E FF
@00000F4F 02
@00000F50 01
@00000F51 00
@00000F52 00
@00000F53 02
@00000F54 01
@00000F55 00
@00000F56 01
@00000F57 01
@00000F58 02
@00000F59 FF
@00000F5A 00
@00000F5B 00
@00000F5C 00
@00000F5D 01
@00000F5E 01
@00000F5F 00
@00000F60 00
@00000F61 00
@00000F62 01
@00000F63 FF
@00000F64 00
@00000F65 00
@00000F66 00
@00000F67 01
@00000F68 01
@00000F69 00
@00000F6A FE
@00000F6B FF
@00000F6C 00
@00000F6D 01
@00000F6E FF
@00000F6F 01
@00000F70 00
@00000F71 01
@00000F72 FF
@00000F73 FF
@00000F74 FF
@00000F75 02
@00000F76 FE
@00000F77 FF
@00000F78 00
@00000F79 01
@00000F7A 00
@00000F7B 00
@00000F7C 01
@00000F7D 01
@00000F7E 00
@00000F7F 02
@00000F80 01
@00000F81 00
@00000F82 00
@00000F83 01
@00000F84 01
@00000F85 00
@00000F86 01
@00000F87 01
@00000F88 00
@00000F89 FF
@00000F8A 00
@00000F8B 00
@00000F8C 00
@00000F8D 00
@00000F8E FF
@00000F8F 00
@00000F90 00
@00000F91 FF
@00000F92 00
@00000F93 FF
@00000F94 FF
@00000F95 02
@00000F96 00
@00000F97 02
@00000F98 01
@00000F99 FF
@00000F9A 01
@00000F9B FF
@00000F9C 01
@00000F9D FF
@00000F9E 00
@00000F9F 00
@00000FA0 02
@00000FA1 03
@00000FA2 00
@00000FA3 00
@00000FA4 01
@00000FA5 02
@00000FA6 01
@00000FA7 01
@00000FA8 00
@00000FA9 FF
@00000FAA FE
@00000FAB FD
@00000FAC 00
@00000FAD FF
@00000FAE 00
@00000FAF 00
@00000FB0 01
@00000FB1 FF
@00000FB2 FF
@00000FB3 FF
@00000FB4 00
@00000FB5 FF
@00000FB6 00
@00000FB7 01
@00000FB8 00
@00000FB9 01
@00000FBA 01
@00000FBB 01
@00000FBC 01
@00000FBD 02
@00000FBE 00
@00000FBF 00
@00000FC0 00
@00000FC1 FF
@00000FC2 FF
@00000FC3 01
@00000FC4 00
@00000FC5 01
@00000FC6 01
@00000FC7 FF
@00000FC8 FF
@00000FC9 01
@00000FCA 00
@00000FCB 00
@00000FCC FF
@00000FCD 01
@00000FCE 01
@00000FCF 00
@00000FD0 00
@00000FD1 01
@00000FD2 02
@00000FD3 02
@00000FD4 00
@00000FD5 00
@00000FD6 00
@00000FD7 01
@00000FD8 01
@00000FD9 00
@00000FDA FF
@00000FDB 00
@00000FDC FF
@00000FDD 02
@00000FDE 01
@00000FDF 01
@00000FE0 00
@00000FE1 00
@00000FE2 FF
@00000FE3 00
@00000FE4 FF
@00000FE5 01
@00000FE6 00
@00000FE7 00
@00000FE8 04
@00000FE9 01
@00000FEA 01
@00000FEB 01
@00000FEC 00
@00000FED FF
@00000FEE 00
@00000FEF 02
@00000FF0 02
@00000FF1 01
@00000FF2 00
@00000FF3 01
@00000FF4 01
@00000FF5 02
@00000FF6 02
@00000FF7 FF
@00000FF8 02
@00000FF9 FF
@00000FFA 01
@00000FFB 00
@00000FFC 00
@00000FFD 00
@00000FFE 00
@00000FFF 01
@00001000 01
@00001001 01
@00001002 01
@00001003 01
@00001004 00
@00001005 01
@00001006 FF
@00001007 00
@00001008 01
@00001009 00
@0000100A 02
@0000100B 01
@0000100C 00
@0000100D 01
@0000100E FF
@0000100F 01
@00001010 01
@00001011 00
@00001012 01
@00001013 02
@00001014 01
@00001015 03
@00001016 00
@00001017 01
@00001018 00
@00001019 01
@0000101A 00
@0000101B FF
@0000101C FF
@0000101D 01
@0000101E 00
@0000101F 00
@00001020 00
@00001021 02
@00001022 01
@00001023 02
@00001024 01
@00001025 01
@00001026 00
@00001027 FF
@00001028 00
@00001029 FF
@0000102A FF
@0000102B 02
@0000102C 01
@0000102D 02
@0000102E 00
@0000102F 00
@00001030 FF
@00001031 00
@00001032 01
@00001033 00
@00001034 01
@00001035 FF
@00001036 01
@00001037 00
@00001038 00
@00001039 01
@0000103A 01
@0000103B FF
@0000103C 02
@0000103D 01
@0000103E 00
@0000103F 01
@00001040 00
@00001041 01
@00001042 FF
@00001043 01
@00001044 00
@00001045 01
@00001046 00
@00001047 00
@00001048 01
@00001049 00
@0000104A 00
@0000104B FF
@0000104C 00
@0000104D 00
@0000104E 01
@0000104F 01
@00001050 00
@00001051 00
@00001052 01
@00001053 00
@00001054 02
@00001055 02
@00001056 01
@00001057 00
@00001058 00
@00001059 00
@0000105A 01
@0000105B 01
@0000105C FF
@0000105D FF
@0000105E 00
@0000105F 00
@00001060 02
@00001061 01
@00001062 01
@00001063 00
@00001064 00
@00001065 FF
@00001066 00
@00001067 00
@00001068 01
@00001069 01
@0000106A 01
@0000106B 01
@0000106C 00
@0000106D 00
@0000106E FE
@0000106F FF
@00001070 00
@00001071 00
@00001072 00
@00001073 00
@00001074 FF
@00001075 FF
@00001076 00
@00001077 00
@00001078 00
@00001079 00
@0000107A 01
@0000107B 00
@0000107C FE
@0000107D 01
@0000107E FF
@0000107F 00
@00001080 01
@00001081 FE
@00001082 00
@00001083 02
@00001084 02
@00001085 00
@00001086 00
@00001087 01
@00001088 00
@00001089 00
@0000108A 00
@0000108B FF
@0000108C 02
@0000108D 01
@0000108E 00
@0000108F 00
@00001090 FF
@00001091 00
@00001092 FF
@00001093 FF
@00001094 00
@00001095 00
@00001096 00
@00001097 FF
@00001098 00
@00001099 00
@0000109A 00
@0000109B 01
@0000109C 00
@0000109D 00
@0000109E FF
@0000109F FF
@000010A0 FF
@000010A1 00
@000010A2 FE
@000010A3 01
@000010A4 00
@000010A5 02
@000010A6 FF
@000010A7 02
@000010A8 00
@000010A9 01
@000010AA FF
@000010AB 01
@000010AC 01
@000010AD 00
@000010AE 01
@000010AF 02
@000010B0 01
@000010B1 FF
@000010B2 01
@000010B3 00
@000010B4 FE
@000010B5 01
@000010B6 FF
@000010B7 00
@000010B8 00
@000010B9 FF
@000010BA 00
@000010BB 00
@000010BC 01
@000010BD 01
@000010BE 02
@000010BF 01
@000010C0 00
@000010C1 01
@000010C2 FF
@000010C3 02
@000010C4 FF
@000010C5 01
@000010C6 01
@000010C7 01
@000010C8 00
@000010C9 00
@000010CA 00
@000010CB 00
@000010CC 01
@000010CD 02
@000010CE 01
@000010CF 00
@000010D0 02
@000010D1 00
@000010D2 FF
@000010D3 00
@000010D4 FF
@000010D5 02
@000010D6 01
@000010D7 02
@000010D8 01
@000010D9 01
@000010DA 00
@000010DB 00
@000010DC 01
@000010DD FF
@000010DE 01
@000010DF FF
@000010E0 02
@000010E1 01
@000010E2 03
@000010E3 FF
@000010E4 01
@000010E5 02
@000010E6 00
@000010E7 00
@000010E8 02
@000010E9 01
@000010EA 00
@000010EB 00
@000010EC FF
@000010ED 02
@000010EE 00
@000010EF 02
@000010F0 00
@000010F1 FF
@000010F2 FF
@000010F3 02
@000010F4 00
@000010F5 FF
@000010F6 00
@000010F7 01
@000010F8 01
@000010F9 FF
@000010FA 00
@000010FB FF
@000010FC 01
@000010FD 02
@000010FE 00
@000010FF 00
@00001100 01
@00001101 00
@00001102 01
@00001103 01
@00001104 00
@00001105 00
@00001106 00
@00001107 00
@00001108 01
@00001109 00
@0000110A 01
@0000110B 00
@0000110C FF
@0000110D 02
@0000110E 01
@0000110F 00
@00001110 FF
@00001111 FE
@00001112 00
@00001113 00
@00001114 01
@00001115 FF
@00001116 FE
@00001117 01
@00001118 01
@00001119 FF
@0000111A 00
@0000111B FF
@0000111C 01
@0000111D FF
@0000111E 01
@0000111F 00
@00001120 FF
@00001121 00
@00001122 01
@00001123 00
@00001124 00
@00001125 01
@00001126 00
@00001127 00
@00001128 FF
@00001129 FF
@0000112A 01
@0000112B FF
@0000112C FF
@0000112D 01
@0000112E 00
@0000112F 00
@00001130 02
@00001131 FF
@00001132 FF
@00001133 00
@00001134 02
@00001135 02
@00001136 01
@00001137 FF
@00001138 00
@00001139 01
@0000113A 01
@0000113B 01
@0000113C 00
@0000113D 00
@0000113E 02
@0000113F 00
@00001140 02
@00001141 02
@00001142 FF
@00001143 01
@00001144 00
@00001145 00
@00001146 FF
@00001147 00
@00001148 00
@00001149 02
@0000114A 02
@0000114B 01
@0000114C 00
@0000114D 01
@0000114E 00
@0000114F 00
@00001150 00
@00001151 00
@00001152 FF
@00001153 00
@00001154 01
@00001155 01
@00001156 00
@00001157 00
@00001158 00
@00001159 00
@0000115A 01
@0000115B 01
@0000115C 01
@0000115D 02
@0000115E 00
@0000115F 02
@00001160 00
@00001161 01
@00001162 01
@00001163 00
@00001164 FE
@00001165 FF
@00001166 02
@00001167 00
@00001168 00
@00001169 01
@0000116A 01
@0000116B 01
@0000116C 00
@0000116D 00
@0000116E 00
@0000116F 00
@00001170 01
@00001171 02
@00001172 01
@00001173 00
@00001174 00
@00001175 00
@00001176 FF
@00001177 00
@00001178 00
@00001179 FF
@0000117A 00
@0000117B 00
@0000117C 00
@0000117D 02
@0000117E 00
@0000117F 00
@00001180 01
@00001181 01
@00001182 00
@00001183 00
@00001184 00
@00001185 00
@00001186 00
@00001187 01
@00001188 02
@00001189 00
@0000118A 00
@0000118B 01
@0000118C 00
@0000118D 01
@0000118E 01
@0000118F FF
@00001190 02
@00001191 01
@00001192 01
@00001193 FF
@00001194 01
@00001195 00
@00001196 00
@00001197 01
@00001198 00
@00001199 00
@0000119A FF
@0000119B 02
@0000119C FF
@0000119D 00
@0000119E FF
@0000119F 00
@000011A0 FF
@000011A1 00
@000011A2 FF
@000011A3 01
@000011A4 01
@000011A5 00
@000011A6 02
@000011A7 01
@000011A8 00
@000011A9 00
@000011AA 01
@000011AB 01
@000011AC FF
@000011AD 00
@000011AE 01
@000011AF FF
@000011B0 01
@000011B1 02
@000011B2 01
@000011B3 00
@000011B4 01
@000011B5 00
@000011B6 01
@000011B7 00
@000011B8 00
@000011B9 00
@000011BA 02
@000011BB 01
@000011BC 01
@000011BD 01
@000011BE 00
@000011BF FF
@000011C0 00
@000011C1 00
@000011C2 00
@000011C3 00
@000011C4 02
@000011C5 00
@000011C6 01
@000011C7 00
@000011C8 FF
@000011C9 00
@000011CA 00
@000011CB 01
@000011CC FF
@000011CD FF
@000011CE 00
@000011CF 01
@000011D0 FE
@000011D1 00
@000011D2 00
@000011D3 00
@000011D4 FF
@000011D5 00
@000011D6 FF
@000011D7 00
@000011D8 01
@000011D9 FF
@000011DA FF
@000011DB 02
@000011DC FE
@000011DD FD
@000011DE 00
@000011DF 00
@000011E0 FF
@000011E1 00
@000011E2 FF
@000011E3 01
@000011E4 00
@000011E5 00
@000011E6 01
@000011E7 01
@000011E8 00
@000011E9 00
@000011EA 00
@000011EB 01
@000011EC 01
@000011ED 03
@000011EE 00
@000011EF 02
@000011F0 02
@000011F1 00
@000011F2 00
@000011F3 00
@000011F4 FF
@000011F5 FF
@000011F6 FF
@000011F7 FF
@000011F8 01
@000011F9 00
@000011FA 01
@000011FB 01
@000011FC FF
@000011FD 00
@000011FE 00
@000011FF 00
@00001200 01
@00001201 00
@00001202 02
@00001203 01
@00001204 FF
@00001205 FF
@00001206 00
@00001207 02
@00001208 FF
@00001209 00
@0000120A 01
@0000120B 02
@0000120C FE
@0000120D FF
@0000120E 01
@0000120F FD
@00001210 00
@00001211 00
@00001212 FF
@00001213 FF
@00001214 FE
@00001215 FF
@00001216 FF
@00001217 FF
@00001218 FE
@00001219 00
@0000121A 00
@0000121B FE
@0000121C 02
@0000121D 01
@0000121E 02
@0000121F 01
@00001220 00
@00001221 01
@00001222 02
@00001223 FF
@00001224 00
@00001225 01
@00001226 02
@00001227 01
@00001228 01
@00001229 FF
@0000122A FC
@0000122B 01
@0000122C 00
@0000122D 00
@0000122E 00
@0000122F FF
@00001230 FF
@00001231 00
@00001232 FF
@00001233 FF
@00001234 00
@00001235 00
@00001236 01
@00001237 00
@00001238 00
@00001239 01
@0000123A 01
@0000123B 01
@0000123C 01
@0000123D 01
@0000123E 00
@0000123F FF
@00001240 00
@00001241 02
@00001242 FF
@00001243 00
@00001244 FF
@00001245 01
@00001246 FF
@00001247 01
@00001248 01
@00001249 00
@0000124A 01
@0000124B 03
@0000124C 02
@0000124D 01
@0000124E 01
@0000124F 00
@00001250 00
@00001251 00
@00001252 02
@00001253 01
@00001254 00
@00001255 01
@00001256 01
@00001257 01
@00001258 01
@00001259 00
@0000125A FF
@0000125B FE
@0000125C 01
@0000125D 00
@0000125E 00
@0000125F FF
@00001260 00
@00001261 01
@00001262 01
@00001263 01
@00001264 FF
@00001265 02
@00001266 FE
@00001267 01
@00001268 00
@00001269 01
@0000126A 00
@0000126B 02
@0000126C 00
@0000126D 01
@0000126E 01
@0000126F 01
@00001270 00
@00001271 00
@00001272 01
@00001273 01
@00001274 02
@00001275 01
@00001276 01
@00001277 00
@00001278 02
@00001279 01
@0000127A 02
@0000127B FF
@0000127C FF
@0000127D 02
@0000127E 00
@0000127F 00
@00001280 FE
@00001281 02
@00001282 01
@00001283 FF
@00001284 00
@00001285 00
@00001286 FE
@00001287 00
@00001288 00
@00001289 FF
@0000128A FE
@0000128B FF
@0000128C 00
@0000128D 00
@0000128E FF
@0000128F 01
@00001290 00
@00001291 00
@00001292 02
@00001293 00
@00001294 01
@00001295 01
@00001296 00
@00001297 01
@00001298 01
@00001299 FF
@0000129A 00
@0000129B 00
@0000129C 01
@0000129D 00
@0000129E FE
@0000129F 00
@000012A0 00
@000012A1 FF
@000012A2 FE
@000012A3 01
@000012A4 00
@000012A5 00
@000012A6 01
@000012A7 FF
@000012A8 FF
@000012A9 00
@000012AA FF
@000012AB FF
@000012AC FF
@000012AD FF
@000012AE 01
@000012AF 00
@000012B0 01
@000012B1 00
@000012B2 FF
@000012B3 FF
@000012B4 00
@000012B5 00
@000012B6 00
@000012B7 00
@000012B8 00
@000012B9 01
@000012BA FF
@000012BB FF
@000012BC FF
@000012BD 00
@000012BE 00
@000012BF 01
@000012C0 FF
@000012C1 00
@000012C2 01
@000012C3 01
@000012C4 00
@000012C5 00
@000012C6 00
@000012C7 02
@000012C8 01
@000012C9 00
@000012CA 01
@000012CB 01
@000012CC FF
@000012CD 01
@000012CE FE
@000012CF 01
@000012D0 00
@000012D1 01
@000012D2 01
@000012D3 00
@000012D4 FF
@000012D5 FF
@000012D6 FF
@000012D7 FF
@000012D8 01
@000012D9 FE
@000012DA 01
@000012DB 00
@000012DC 01
@000012DD FE
@000012DE FF
@000012DF 01
@000012E0 FE
@000012E1 FE
@000012E2 FF
@000012E3 FF
@000012E4 01
@000012E5 00
@000012E6 00
@000012E7 FE
@000012E8 00
@000012E9 00
@000012EA 01
@000012EB 01
@000012EC 01
@000012ED 00
@000012EE 01
@000012EF 02
@000012F0 00
@000012F1 00
@000012F2 00
@000012F3 01
@000012F4 01
@000012F5 FE
@000012F6 00
@000012F7 01
@000012F8 00
@000012F9 00
@000012FA 02
@000012FB FF
@000012FC 00
@000012FD 00
@000012FE FF
@000012FF FF
@00001300 01
@00001301 03
@00001302 00
@00001303 00
@00001304 00
@00001305 FF
@00001306 FF
@00001307 00
@00001308 FE
@00001309 00
@0000130A FF
@0000130B FF
@0000130C 01
@0000130D 00
@0000130E 00
@0000130F FF
@00001310 FF
@00001311 00
@00001312 FE
@00001313 01
@00001314 FF
@00001315 00
@00001316 FF
@00001317 01
@00001318 00
@00001319 00
@0000131A 03
@0000131B 01
@0000131C 01
@0000131D 00
@0000131E 00
@0000131F 01
@00001320 00
@00001321 00
@00001322 02
@00001323 01
@00001324 01
@00001325 00
@00001326 FF
@00001327 00
@00001328 02
@00001329 00
@0000132A 01
@0000132B 00
@0000132C 02
@0000132D 01
@0000132E 00
@0000132F 00
@00001330 00
@00001331 FF
@00001332 FE
@00001333 02
@00001334 00
@00001335 00
@00001336 00
@00001337 02
@00001338 FF
@00001339 FF
@0000133A 01
@0000133B 00
@0000133C FF
@0000133D 00
@0000133E FF
@0000133F 01
@00001340 00
@00001341 FF
@00001342 00
@00001343 01
@00001344 01
@00001345 FF
@00001346 FF
@00001347 01
@00001348 FF
@00001349 00
@0000134A 01
@0000134B FF
@0000134C 00
@0000134D FF
@0000134E 00
@0000134F 00
@00001350 00
@00001351 01
@00001352 01
@00001353 00
@00001354 01
@00001355 00
@00001356 00
@00001357 FF
@00001358 01
@00001359 FE
@0000135A 02
@0000135B 02
@0000135C 00
@0000135D 00
@0000135E 00
@0000135F 00
@00001360 01
@00001361 00
@00001362 FF
@00001363 01
@00001364 02
@00001365 01
@00001366 00
@00001367 00
@00001368 00
@00001369 00
@0000136A 00
@0000136B 00
@0000136C 00
@0000136D 01
@0000136E 01
@0000136F 02
@00001370 00
@00001371 00
@00001372 00
@00001373 FF
@00001374 01
@00001375 01
@00001376 02
@00001377 FE
@00001378 01
@00001379 01
@0000137A 02
@0000137B 00
@0000137C 00
@0000137D 02
@0000137E 01
@0000137F 01
@00001380 FF
@00001381 00
@00001382 00
@00001383 00
@00001384 01
@00001385 00
@00001386 01
@00001387 FD
@00001388 01
@00001389 01
@0000138A 00
@0000138B 00
@0000138C 00
@0000138D 00
@0000138E 01
@0000138F 01
@00001390 00
@00001391 FE
@00001392 01
@00001393 00
@00001394 00
@00001395 00
@00001396 00
@00001397 FF
@00001398 02
@00001399 02
@0000139A 00
@0000139B 01
@0000139C FF
@0000139D FF
@0000139E 00
@0000139F 01
@000013A0 00
@000013A1 00
@000013A2 00
@000013A3 01
@000013A4 00
@000013A5 01
@000013A6 00
@000013A7 00
@000013A8 01
@000013A9 00
@000013AA 01
@000013AB 01
@000013AC 01
@000013AD 00
@000013AE 00
@000013AF 00
@000013B0 FF
@000013B1 FF
@000013B2 FE
@000013B3 01
@000013B4 00
@000013B5 00
@000013B6 FF
@000013B7 00
@000013B8 00
@000013B9 FF
@000013BA 01
@000013BB 00
@000013BC 01
@000013BD 02
@000013BE 01
@000013BF 02
@000013C0 FF
@000013C1 FF
@000013C2 01
@000013C3 FF
@000013C4 FF
@000013C5 FE
@000013C6 00
@000013C7 FF
@000013C8 FE
@000013C9 00
@000013CA FF
@000013CB 00
@000013CC 00
@000013CD FE
@000013CE FF
@000013CF 00
@000013D0 FE
@000013D1 FF
@000013D2 00
@000013D3 FF
@000013D4 01
@000013D5 00
@000013D6 00
@000013D7 01
@000013D8 01
@000013D9 00
@000013DA 00
@000013DB 02
@000013DC 00
@000013DD FF
@000013DE 03
@000013DF 00
@000013E0 00
@000013E1 FF
@000013E2 00
@000013E3 FF
@000013E4 FE
@000013E5 00
@000013E6 00
@000013E7 FF
@000013E8 00
@000013E9 00
@000013EA FF
@000013EB FE
@000013EC FF
@000013ED 00
@000013EE FF
@000013EF 00
@000013F0 01
@000013F1 01
@000013F2 00
@000013F3 01
@000013F4 00
@000013F5 00
@000013F6 01
@000013F7 00
@000013F8 01
@000013F9 01
@000013FA 00
@000013FB 01
@000013FC 00
@000013FD 01
@000013FE FF
@000013FF FF
@00001400 FF
@00001401 01
@00001402 00
@00001403 00
@00001404 01
@00001405 00
@00001406 00
@00001407 00
@00001408 00
@00001409 00
@0000140A FF
@0000140B FF
@0000140C FF
@0000140D FF
@0000140E 00
@0000140F FF
@00001410 FD
@00001411 FF
@00001412 FE
@00001413 00
@00001414 02
@00001415 02
@00001416 01
@00001417 FF
@00001418 01
@00001419 00
@0000141A 00
@0000141B 01
@0000141C 00
@0000141D FF
@0000141E 01
@0000141F 00
@00001420 00
@00001421 01
@00001422 01
@00001423 01
@00001424 FE
@00001425 00
@00001426 00
@00001427 00
@00001428 00
@00001429 00
@0000142A 01
@0000142B 02
@0000142C 01
@0000142D FF
@0000142E 01
@0000142F 01
@00001430 00
@00001431 01
@00001432 00
@00001433 02
@00001434 00
@00001435 FF
@00001436 02
@00001437 00
@00001438 01
@00001439 00
@0000143A 00
@0000143B 02
@0000143C 00
@0000143D 02
@0000143E 04
@0000143F 00
@00001440 00
@00001441 FF
@00001442 01
@00001443 00
@00001444 00
@00001445 00
@00001446 00
@00001447 01
@00001448 00
@00001449 00
@0000144A 00
@0000144B 01
@0000144C 02
@0000144D 02
@0000144E 01
@0000144F 01
@00001450 00
@00001451 00
@00001452 01
@00001453 01
@00001454 01
@00001455 01
@00001456 01
@00001457 00
@00001458 01
@00001459 00
@0000145A 02
@0000145B FF
@0000145C FE
@0000145D 02
@0000145E 01
@0000145F FF
@00001460 00
@00001461 00
@00001462 FE
@00001463 FF
@00001464 00
@00001465 FE
@00001466 00
@00001467 00
@00001468 FF
@00001469 01
@0000146A 00
@0000146B 00
@0000146C 01
@0000146D 00
@0000146E 01
@0000146F 01
@00001470 01
@00001471 01
@00001472 00
@00001473 00
@00001474 00
@00001475 00
@00001476 00
@00001477 00
@00001478 00
@00001479 00
@0000147A 00
@0000147B 00
@0000147C FF
@0000147D 00
@0000147E 00
@0000147F 01
@00001480 00
@00001481 FF
@00001482 01
@00001483 FF
@00001484 01
@00001485 00
@00001486 02
@00001487 02
@00001488 00
@00001489 01
@0000148A FF
@0000148B 00
@0000148C FF
@0000148D 01
@0000148E 01
@0000148F 00
@00001490 FE
@00001491 FF
@00001492 00
@00001493 01
@00001494 FF
@00001495 00
@00001496 02
@00001497 00
@00001498 00
@00001499 02
@0000149A 00
@0000149B 01
@0000149C 01
@0000149D 01
@0000149E 00
@0000149F 00
@000014A0 00
@000014A1 01
@000014A2 00
@000014A3 00
@000014A4 00
@000014A5 00
@000014A6 02
@000014A7 00
@000014A8 00
@000014A9 00
@000014AA FF
@000014AB FF
@000014AC 00
@000014AD 00
@000014AE 01
@000014AF 01
@000014B0 00
@000014B1 00
@000014B2 00
@000014B3 00
@000014B4 01
@000014B5 FF
@000014B6 00
@000014B7 FF
@000014B8 01
@000014B9 00
@000014BA FF
@000014BB 02
@000014BC 00
@000014BD 00
@000014BE 00
@000014BF 00
@000014C0 00
@000014C1 01
@000014C2 00
@000014C3 00
@000014C4 01
@000014C5 02
@000014C6 02
@000014C7 FF
@000014C8 FE
@000014C9 FF
@000014CA 03
@000014CB FF
@000014CC 00
@000014CD FF
@000014CE FE
@000014CF FF
@000014D0 00
@000014D1 00
@000014D2 00
@000014D3 00
@000014D4 01
@000014D5 00
@000014D6 01
@000014D7 01
@000014D8 00
@000014D9 00
@000014DA 00
@000014DB 00
@000014DC 01
@000014DD 01
@000014DE 00
@000014DF 02
@000014E0 01
@000014E1 00
@000014E2 00
@000014E3 00
@000014E4 00
@000014E5 00
@000014E6 00
@000014E7 00
@000014E8 01
@000014E9 01
@000014EA 01
@000014EB 01
@000014EC FF
@000014ED 01
@000014EE 00
@000014EF 01
@000014F0 01
@000014F1 FF
@000014F2 FF
@000014F3 00
@000014F4 FF
@000014F5 00
@000014F6 02
@000014F7 00
@000014F8 01
@000014F9 00
@000014FA 00
@000014FB FF
@000014FC 00
@000014FD 01
@000014FE 00
@000014FF 01
@00001500 01
@00001501 03
@00001502 02
@00001503 00
@00001504 01
@00001505 FF
@00001506 03
@00001507 FF
@00001508 00
@00001509 00
@0000150A 02
@0000150B 00
@0000150C 01
@0000150D 01
@0000150E 01
@0000150F FF
@00001510 02
@00001511 00
@00001512 01
@00001513 01
@00001514 00
@00001515 01
@00001516 00
@00001517 01
@00001518 01
@00001519 00
@0000151A 01
@0000151B 01
@0000151C 01
@0000151D 01
@0000151E 00
@0000151F 01
@00001520 01
@00001521 FE
@00001522 00
@00001523 FC
@00001524 02
@00001525 00
@00001526 01
@00001527 FF
@00001528 02
@00001529 01
@0000152A 02
@0000152B 02
@0000152C 01
@0000152D 01
@0000152E 01
@0000152F 01
@00001530 01
@00001531 00
@00001532 FF
@00001533 01
@00001534 01
@00001535 00
@00001536 01
@00001537 00
@00001538 01
@00001539 01
@0000153A FF
@0000153B 01
@0000153C 00
@0000153D 01
@0000153E 01
@0000153F 01
@00001540 01
@00001541 01
@00001542 01
@00001543 FE
@00001544 01
@00001545 01
@00001546 01
@00001547 00
@00001548 01
@00001549 00
@0000154A 00
@0000154B 02
@0000154C 02
@0000154D 01
@0000154E 00
@0000154F 01
@00001550 01
@00001551 01
@00001552 03
@00001553 01
@00001554 00
@00001555 00
@00001556 FF
@00001557 02
@00001558 01
@00001559 00
@0000155A 02
@0000155B 01
@0000155C 02
@0000155D FF
@0000155E 01
@0000155F 01
@00001560 01
@00001561 00
@00001562 00
@00001563 FF
@00001564 00
@00001565 00
@00001566 00
@00001567 FD
@00001568 01
@00001569 00
@0000156A FF
@0000156B 00
@0000156C 01
@0000156D 01
@0000156E FF
@0000156F 02
@00001570 02
@00001571 00
@00001572 01
@00001573 01
@00001574 00
@00001575 01
@00001576 02
@00001577 00
@00001578 00
@00001579 02
@0000157A 00
@0000157B FF
@0000157C 01
@0000157D 00
@0000157E 01
@0000157F 00
@00001580 00
@00001581 00
@00001582 00
@00001583 01
@00001584 01
@00001585 00
@00001586 FF
@00001587 00
@00001588 00
@00001589 01
@0000158A 01
@0000158B 01
@0000158C 00
@0000158D 00
@0000158E 02
@0000158F FE
@00001590 FF
@00001591 FE
@00001592 00
@00001593 FE
@00001594 FF
@00001595 02
@00001596 FF
@00001597 FF
@00001598 00
@00001599 00
@0000159A FF
@0000159B FF
@0000159C 00
@0000159D 01
@0000159E 02
@0000159F 00
@000015A0 00
@000015A1 00
@000015A2 01
@000015A3 02
@000015A4 00
@000015A5 01
@000015A6 01
@000015A7 01
@000015A8 01
@000015A9 00
@000015AA 00
@000015AB 00
@000015AC 02
@000015AD 01
@000015AE 00
@000015AF 00
@000015B0 FF
@000015B1 00
@000015B2 00
@000015B3 00
@000015B4 FF
@000015B5 00
@000015B6 FF
@000015B7 FF
@000015B8 00
@000015B9 FF
@000015BA 01
@000015BB 01
@000015BC 00
@000015BD 02
@000015BE FF
@000015BF 00
@000015C0 00
@000015C1 01
@000015C2 FF
@000015C3 00
@000015C4 00
@000015C5 00
@000015C6 FF
@000015C7 00
@000015C8 FF
@000015C9 FE
@000015CA 01
@000015CB 00
@000015CC 00
@000015CD 01
@000015CE 03
@000015CF 00
@000015D0 FF
@000015D1 FF
@000015D2 00
@000015D3 00
@000015D4 FF
@000015D5 01
@000015D6 00
@000015D7 02
@000015D8 FF
@000015D9 00
@000015DA 02
@000015DB 02
@000015DC 02
@000015DD 00
@000015DE 02
@000015DF FF
@000015E0 00
@000015E1 02
@000015E2 02
@000015E3 00
@000015E4 01
@000015E5 00
@000015E6 01
@000015E7 00
@000015E8 01
@000015E9 FF
@000015EA 00
@000015EB FE
@000015EC 01
@000015ED 00
@000015EE 00
@000015EF 01
@000015F0 00
@000015F1 00
@000015F2 00
@000015F3 00
@000015F4 FF
@000015F5 00
@000015F6 FE
@000015F7 FF
@000015F8 FF
@000015F9 01
@000015FA 00
@000015FB 01
@000015FC FF
@000015FD 03
@000015FE 00
@000015FF FF
@00001600 00
@00001601 00
@00001602 FF
@00001603 01
@00001604 00
@00001605 00
@00001606 FF
@00001607 01
@00001608 00
@00001609 01
@0000160A 00
@0000160B 01
@0000160C 01
@0000160D 01
@0000160E 01
@0000160F 00
@00001610 00
@00001611 02
@00001612 FF
@00001613 00
@00001614 FF
@00001615 FF
@00001616 FF
@00001617 FF
@00001618 00
@00001619 FF
@0000161A 00
@0000161B 00
@0000161C 00
@0000161D 00
@0000161E 00
@0000161F 01
@00001620 01
@00001621 00
@00001622 01
@00001623 00
@00001624 01
@00001625 01
@00001626 01
@00001627 01
@00001628 02
@00001629 00
@0000162A FF
@0000162B FF
@0000162C 01
@0000162D 00
@0000162E 00
@0000162F FD
@00001630 00
@00001631 FF
@00001632 FF
@00001633 00
@00001634 00
@00001635 00
@00001636 01
@00001637 01
@00001638 01
@00001639 01
@0000163A 01
@0000163B 03
@0000163C FF
@0000163D FF
@0000163E 00
@0000163F 00
@00001640 02
@00001641 00
@00001642 FF
@00001643 FF
@00001644 01
@00001645 01
@00001646 02
@00001647 00
@00001648 00
@00001649 00
@0000164A 01
@0000164B FF
@0000164C 02
@0000164D 01
@0000164E 01
@0000164F 02
@00001650 01
@00001651 01
@00001652 00
@00001653 FE
@00001654 00
@00001655 02
@00001656 01
@00001657 03
@00001658 00
@00001659 FE
@0000165A 01
@0000165B 00
@0000165C 00
@0000165D 01
@0000165E 00
@0000165F 00
@00001660 00
@00001661 00
@00001662 00
@00001663 01
@00001664 FF
@00001665 01
@00001666 00
@00001667 00
@00001668 00
@00001669 00
@0000166A FF
@0000166B FC
@0000166C FE
@0000166D FF
@0000166E 00
@0000166F FF
@00001670 00
@00001671 FE
@00001672 00
@00001673 00
@00001674 00
@00001675 FE
@00001676 01
@00001677 00
@00001678 02
@00001679 00
@0000167A FF
@0000167B 03
@0000167C 01
@0000167D 02
@0000167E 02
@0000167F 02
@00001680 00
@00001681 01
@00001682 00
@00001683 00
@00001684 00
@00001685 FF
@00001686 02
@00001687 FF
@00001688 02
@00001689 01
@0000168A 00
@0000168B FF
@0000168C 00
@0000168D FF
@0000168E 01
@0000168F 00
@00001690 01
@00001691 00
@00001692 00
@00001693 01
@00001694 00
@00001695 02
@00001696 02
@00001697 00
@00001698 FF
@00001699 00
@0000169A 00
@0000169B 01
@0000169C 02
@0000169D 01
@0000169E 01
@0000169F FF
@000016A0 02
@000016A1 00
@000016A2 FF
@000016A3 00
@000016A4 02
@000016A5 FF
@000016A6 00
@000016A7 02
@000016A8 00
@000016A9 01
@000016AA 00
@000016AB 01
@000016AC 00
@000016AD 02
@000016AE 00
@000016AF 02
@000016B0 00
@000016B1 02
@000016B2 01
@000016B3 00
@000016B4 00
@000016B5 FE
@000016B6 FE
@000016B7 FF
@000016B8 00
@000016B9 01
@000016BA 00
@000016BB FF
@000016BC 00
@000016BD FF
@000016BE 00
@000016BF 01
@000016C0 00
@000016C1 00
@000016C2 02
@000016C3 00
@000016C4 01
@000016C5 02
@000016C6 00
@000016C7 00
@000016C8 01
@000016C9 00
@000016CA 01
@000016CB 00
@000016CC 01
@000016CD 00
@000016CE 01
@000016CF FF
@000016D0 01
@000016D1 FF
@000016D2 01
@000016D3 00
@000016D4 00
@000016D5 00
@000016D6 FF
@000016D7 00
@000016D8 FF
@000016D9 00
@000016DA 00
@000016DB 01
@000016DC 00
@000016DD 01
@000016DE 01
@000016DF 01
@000016E0 01
@000016E1 00
@000016E2 00
@000016E3 FF
@000016E4 00
@000016E5 FF
@000016E6 00
@000016E7 00
@000016E8 00
@000016E9 00
@000016EA 00
@000016EB 01
@000016EC FF
@000016ED FF
@000016EE FF
@000016EF 01
@000016F0 01
@000016F1 00
@000016F2 01
@000016F3 FF
@000016F4 01
@000016F5 02
@000016F6 00
@000016F7 01
@000016F8 FF
@000016F9 01
@000016FA 01
@000016FB 00
@000016FC 02
@000016FD 00
@000016FE 01
@000016FF 01
@00001700 FF
@00001701 00
@00001702 02
@00001703 02
@00001704 01
@00001705 FF
@00001706 01
@00001707 FF
@00001708 00
@00001709 FE
@0000170A FF
@0000170B 00
@0000170C 00
@0000170D FF
@0000170E FF
@0000170F 01
@00001710 00
@00001711 FE
@00001712 FF
@00001713 FE
@00001714 00
@00001715 FE
@00001716 FF
@00001717 00
@00001718 FF
@00001719 FF
@0000171A 00
@0000171B 01
@0000171C 01
@0000171D 02
@0000171E 02
@0000171F 00
@00001720 00
@00001721 01
@00001722 01
@00001723 FE
@00001724 00
@00001725 00
@00001726 FF
@00001727 01
@00001728 02
@00001729 01
@0000172A 00
@0000172B 01
@0000172C 00
@0000172D 00
@0000172E FF
@0000172F 01
@00001730 FF
@00001731 00
@00001732 01
@00001733 02
@00001734 FF
@00001735 01
@00001736 FF
@00001737 01
@00001738 01
@00001739 01
@0000173A 00
@0000173B 00
@0000173C 00
@0000173D 01
@0000173E 00
@0000173F 00
@00001740 FF
@00001741 01
@00001742 02
@00001743 02
@00001744 02
@00001745 00
@00001746 FF
@00001747 FE
@00001748 FE
@00001749 00
@0000174A 00
@0000174B 01
@0000174C FE
@0000174D 00
@0000174E 00
@0000174F 01
@00001750 02
@00001751 01
@00001752 01
@00001753 FE
@00001754 FF
@00001755 00
@00001756 FF
@00001757 FE
@00001758 00
@00001759 FF
@0000175A 00
@0000175B FF
@0000175C 00
@0000175D FE
@0000175E 00
@0000175F 01
@00001760 00
@00001761 FE
@00001762 00
@00001763 00
@00001764 01
@00001765 01
@00001766 01
@00001767 01
@00001768 FF
@00001769 01
@0000176A 03
@0000176B 01
@0000176C 01
@0000176D 00
@0000176E 01
@0000176F FF
@00001770 00
@00001771 FF
@00001772 00
@00001773 00
@00001774 00
@00001775 00
@00001776 FF
@00001777 FF
@00001778 00
@00001779 02
@0000177A 00
@0000177B 00
@0000177C 01
@0000177D 01
@0000177E 00
@0000177F 00
@00001780 00
@00001781 00
@00001782 01
@00001783 00
@00001784 00
@00001785 FF
@00001786 FF
@00001787 01
@00001788 00
@00001789 00
@0000178A FF
@0000178B 01
@0000178C 00
@0000178D 00
@0000178E 00
@0000178F 01
@00001790 02
@00001791 00
@00001792 01
@00001793 02
@00001794 00
@00001795 00
@00001796 FF
@00001797 01
@00001798 00
@00001799 01
@0000179A 00
@0000179B 01
@0000179C 01
@0000179D FF
@0000179E FF
@0000179F 00
@000017A0 02
@000017A1 01
@000017A2 00
@000017A3 00
@000017A4 02
@000017A5 02
@000017A6 00
@000017A7 01
@000017A8 00
@000017A9 FC
@000017AA FF
@000017AB FF
@000017AC FF
@000017AD FF
@000017AE 00
@000017AF 00
@000017B0 FF
@000017B1 00
@000017B2 01
@000017B3 FF
@000017B4 00
@000017B5 01
@000017B6 00
@000017B7 FF
@000017B8 FF
@000017B9 01
@000017BA 01
@000017BB 01
@000017BC 00
@000017BD 01
@000017BE 02
@000017BF 00
@000017C0 01
@000017C1 02
@000017C2 01
@000017C3 00
@000017C4 01
@000017C5 01
@000017C6 FE
@000017C7 FF
@000017C8 01
@000017C9 00
@000017CA FE
@000017CB FF
@000017CC 00
@000017CD 01
@000017CE 01
@000017CF 00
@000017D0 00
@000017D1 01
@000017D2 FF
@000017D3 00
@000017D4 00
@000017D5 00
@000017D6 FE
@000017D7 FF
@000017D8 02
@000017D9 FF
@000017DA 00
@000017DB 00
@000017DC 01
@000017DD 01
@000017DE 01
@000017DF 00
@000017E0 00
@000017E1 01
@000017E2 00
@000017E3 00
@000017E4 02
@000017E5 01
@000017E6 01
@000017E7 01
@000017E8 00
@000017E9 00
@000017EA FF
@000017EB 00
@000017EC 00
@000017ED 01
@000017EE 02
@000017EF 03
@000017F0 00
@000017F1 01
@000017F2 02
@000017F3 FF
@000017F4 01
@000017F5 01
@000017F6 01
@000017F7 00
@000017F8 01
@000017F9 01
@000017FA 00
@000017FB 01
@000017FC 01
@000017FD 00
@000017FE 00
@000017FF FF
@00001800 01
@00001801 FF
@00001802 FE
@00001803 FE
@00001804 00
@00001805 00
@00001806 FF
@00001807 FF
@00001808 FF
@00001809 00
@0000180A FE
@0000180B 00
@0000180C 01
@0000180D 02
@0000180E 01
@0000180F 01
@00001810 00
@00001811 FF
@00001812 02
@00001813 01
@00001814 02
@00001815 01
@00001816 02
@00001817 01
@00001818 01
@00001819 00
@0000181A 00
@0000181B 02
@0000181C 01
@0000181D FF
@0000181E 01
@0000181F 01
@00001820 00
@00001821 01
@00001822 00
@00001823 00
@00001824 00
@00001825 02
@00001826 01
@00001827 02
@00001828 01
@00001829 01
@0000182A 01
@0000182B 01
@0000182C 01
@0000182D 02
@0000182E 00
@0000182F 00
@00001830 01
@00001831 00
@00001832 01
@00001833 01
@00001834 02
@00001835 01
@00001836 00
@00001837 01
@00001838 02
@00001839 01
@0000183A 02
@0000183B 00
@0000183C 00
@0000183D 01
@0000183E 01
@0000183F 00
@00001840 00
@00001841 00
@00001842 FF
@00001843 FF
@00001844 01
@00001845 00
@00001846 00
@00001847 00
@00001848 FE
@00001849 00
@0000184A 00
@0000184B 00
@0000184C 01
@0000184D 02
@0000184E 01
@0000184F 01
@00001850 00
@00001851 00
@00001852 00
@00001853 01
@00001854 FF
@00001855 00
@00001856 FF
@00001857 FE
@00001858 FF
@00001859 00
@0000185A FC
@0000185B FF
@0000185C FF
@0000185D 01
@0000185E 00
@0000185F 00
@00001860 00
@00001861 02
@00001862 01
@00001863 02
@00001864 FF
@00001865 01
@00001866 00
@00001867 02
@00001868 02
@00001869 00
@0000186A 00
@0000186B FF
@0000186C 00
@0000186D 00
@0000186E 00
@0000186F 01
@00001870 FF
@00001871 FF
@00001872 FF
@00001873 00
@00001874 00
@00001875 01
@00001876 03
@00001877 00
@00001878 00
@00001879 FF
@0000187A 01
@0000187B 00
@0000187C 02
@0000187D 00
@0000187E 00
@0000187F 01
@00001880 01
@00001881 01
@00001882 01
@00001883 00
@00001884 00
@00001885 01
@00001886 02
@00001887 00
@00001888 00
@00001889 00
@0000188A FE
@0000188B FF
@0000188C 00
@0000188D 01
@0000188E FF
@0000188F 00
@00001890 01
@00001891 00
@00001892 FE
@00001893 01
@00001894 01
@00001895 00
@00001896 00
@00001897 01
@00001898 01
@00001899 00
@0000189A 00
@0000189B 01
@0000189C 00
@0000189D 00
@0000189E FF
@0000189F FF
@000018A0 00
@000018A1 00
@000018A2 FF
@000018A3 01
@000018A4 01
@000018A5 01
@000018A6 00
@000018A7 01
@000018A8 00
@000018A9 01
@000018AA 00
@000018AB 01
@000018AC 02
@000018AD 00
@000018AE 00
@000018AF 01
@000018B0 00
@000018B1 00
@000018B2 01
@000018B3 00
@000018B4 FF
@000018B5 FF
@000018B6 FF
@000018B7 00
@000018B8 01
@000018B9 01
@000018BA 00
@000018BB 01
@000018BC 00
@000018BD 00
@000018BE 00
@000018BF 00
@000018C0 FF
@000018C1 FF
@000018C2 FF
@000018C3 00
@000018C4 FF
@000018C5 00
@000018C6 01
@000018C7 02
@000018C8 02
@000018C9 01
@000018CA 00
@000018CB FE
@000018CC 01
@000018CD 00
@000018CE FE
@000018CF 00
@000018D0 01
@000018D1 00
@000018D2 FF
@000018D3 00
@000018D4 00
@000018D5 02
@000018D6 00
@000018D7 01
@000018D8 00
@000018D9 00
@000018DA FF
@000018DB 01
@000018DC FF
@000018DD 02
@000018DE 00
@000018DF 02
@000018E0 01
@000018E1 00
@000018E2 03
@000018E3 00
@000018E4 02
@000018E5 FF
@000018E6 00
@000018E7 FD
@000018E8 01
@000018E9 00
@000018EA FF
@000018EB FF
@000018EC 01
@000018ED 00
@000018EE FF
@000018EF FF
@000018F0 FF
@000018F1 01
@000018F2 00
@000018F3 01
@000018F4 01
@000018F5 00
@000018F6 00
@000018F7 00
@000018F8 01
@000018F9 01
@000018FA 01
@000018FB 00
@000018FC 00
@000018FD 01
@000018FE 00
@000018FF 01
@00001900 01
@00001901 FF
@00001902 00
@00001903 FF
@00001904 FF
@00001905 00
@00001906 FF
@00001907 00
@00001908 01
@00001909 02
@0000190A 00
@0000190B 00
@0000190C 01
@0000190D FF
@0000190E FF
@0000190F 01
@00001910 02
@00001911 01
@00001912 01
@00001913 00
@00001914 00
@00001915 00
@00001916 01
@00001917 01
@00001918 00
@00001919 01
@0000191A 01
@0000191B 01
@0000191C 00
@0000191D 01
@0000191E 00
@0000191F 01
@00001920 00
@00001921 00
@00001922 FF
@00001923 00
@00001924 00
@00001925 00
@00001926 01
@00001927 01
@00001928 00
@00001929 01
@0000192A FF
@0000192B 01
@0000192C 00
@0000192D FF
@0000192E FE
@0000192F 01
@00001930 FF
@00001931 FF
@00001932 00
@00001933 01
@00001934 01
@00001935 00
@00001936 00
@00001937 01
@00001938 00
@00001939 01
@0000193A 00
@0000193B FF
@0000193C 02
@0000193D 00
@0000193E 01
@0000193F FF
@00001940 00
@00001941 00
@00001942 01
@00001943 00
@00001944 FF
@00001945 01
@00001946 01
@00001947 00
@00001948 01
@00001949 00
@0000194A 01
@0000194B 00
@0000194C 00
@0000194D 00
@0000194E 00
@0000194F FF
@00001950 01
@00001951 00
@00001952 01
@00001953 02
@00001954 02
@00001955 01
@00001956 01
@00001957 FF
@00001958 00
@00001959 FF
@0000195A 03
@0000195B 00
@0000195C FF
@0000195D 00
@0000195E 00
@0000195F 00
@00001960 00
@00001961 00
@00001962 00
@00001963 02
@00001964 01
@00001965 01
@00001966 00
@00001967 02
@00001968 00
@00001969 00
@0000196A FE
@0000196B FE
@0000196C FE
@0000196D 01
@0000196E FF
@0000196F FF
@00001970 01
@00001971 FF
@00001972 00
@00001973 01
@00001974 FD
@00001975 00
@00001976 FE
@00001977 FF
@00001978 FF
@00001979 01
@0000197A FF
@0000197B 00
@0000197C 01
@0000197D 00
@0000197E 00
@0000197F FF
@00001980 00
@00001981 01
@00001982 FF
@00001983 FE
@00001984 FE
@00001985 01
@00001986 FE
@00001987 01
@00001988 FF
@00001989 00
@0000198A 02
@0000198B 00
@0000198C 00
@0000198D FE
@0000198E 00
@0000198F FF
@00001990 00
@00001991 FF
@00001992 FF
@00001993 00
@00001994 FE
@00001995 00
@00001996 00
@00001997 00
@00001998 00
@00001999 FF
@0000199A 00
@0000199B 01
@0000199C FF
@0000199D FE
@0000199E 01
@0000199F 01
@000019A0 01
@000019A1 00
@000019A2 00
@000019A3 FF
@000019A4 02
@000019A5 01
@000019A6 00
@000019A7 FE
@000019A8 FF
@000019A9 FE
@000019AA 00
@000019AB 02
@000019AC 00
@000019AD 00
@000019AE 01
@000019AF 00
@000019B0 02
@000019B1 00
@000019B2 00
@000019B3 FD
@000019B4 FE
@000019B5 00
@000019B6 01
@000019B7 00
@000019B8 00
@000019B9 01
@000019BA FF
@000019BB FF
@000019BC FF
@000019BD FE
@000019BE 01
@000019BF FD
@000019C0 00
@000019C1 FF
@000019C2 00
@000019C3 00
@000019C4 00
@000019C5 00
@000019C6 00
@000019C7 FE
@000019C8 01
@000019C9 00
@000019CA FF
@000019CB 01
@000019CC 03
@000019CD 00
@000019CE 00
@000019CF 01
@000019D0 00
@000019D1 00
@000019D2 00
@000019D3 02
@000019D4 03
@000019D5 00
@000019D6 FF
@000019D7 02
@000019D8 01
@000019D9 02
@000019DA 00
@000019DB FF
@000019DC 01
@000019DD 02
@000019DE 00
@000019DF 00
@000019E0 01
@000019E1 01
@000019E2 00
@000019E3 FF
@000019E4 01
@000019E5 00
@000019E6 01
@000019E7 00
@000019E8 02
@000019E9 03
@000019EA FF
@000019EB 00
@000019EC 01
@000019ED FF
@000019EE 00
@000019EF FE
@000019F0 FE
@000019F1 FF
@000019F2 00
@000019F3 00
@000019F4 01
@000019F5 00
@000019F6 00
@000019F7 00
@000019F8 00
@000019F9 FF
@000019FA FF
@000019FB 02
@000019FC 01
@000019FD 00
@000019FE 01
@000019FF 01
@00001A00 00
@00001A01 01
@00001A02 01
@00001A03 01
@00001A04 FF
@00001A05 FD
@00001A06 FF
@00001A07 FF
@00001A08 FF
@00001A09 FF
@00001A0A FF
@00001A0B FF
@00001A0C FF
@00001A0D FF
@00001A0E 00
@00001A0F 00
@00001A10 01
@00001A11 01
@00001A12 FF
@00001A13 01
@00001A14 00
@00001A15 FF
@00001A16 01
@00001A17 FF
@00001A18 01
@00001A19 00
@00001A1A 00
@00001A1B 00
@00001A1C FF
@00001A1D 02
@00001A1E 01
@00001A1F 00
@00001A20 FF
@00001A21 00
@00001A22 00
@00001A23 00
@00001A24 02
@00001A25 02
@00001A26 01
@00001A27 FF
@00001A28 02
@00001A29 FF
@00001A2A 00
@00001A2B FF
@00001A2C 00
@00001A2D 00
@00001A2E 00
@00001A2F 00
@00001A30 00
@00001A31 00
@00001A32 01
@00001A33 FE
@00001A34 01
@00001A35 01
@00001A36 00
@00001A37 FF
@00001A38 02
@00001A39 FE
@00001A3A 00
@00001A3B 00
@00001A3C 00
@00001A3D 02
@00001A3E 01
@00001A3F FF
@00001A40 01
@00001A41 FF
@00001A42 00
@00001A43 02
@00001A44 02
@00001A45 00
@00001A46 FE
@00001A47 FF
@00001A48 FF
@00001A49 00
@00001A4A FE
@00001A4B 01
@00001A4C FF
@00001A4D FE
@00001A4E 00
@00001A4F 00
@00001A50 01
@00001A51 FE
@00001A52 FD
@00001A53 FF
@00001A54 FF
@00001A55 00
@00001A56 01
@00001A57 02
@00001A58 01
@00001A59 00
@00001A5A 00
@00001A5B FF
@00001A5C 02
@00001A5D 01
@00001A5E 01
@00001A5F 02
@00001A60 01
@00001A61 04
@00001A62 01
@00001A63 00
@00001A64 00
@00001A65 01
@00001A66 02
@00001A67 00
@00001A68 01
@00001A69 01
@00001A6A 00
@00001A6B 02
@00001A6C FF
@00001A6D 00
@00001A6E FF
@00001A6F 01
@00001A70 00
@00001A71 02
@00001A72 01
@00001A73 00
@00001A74 00
@00001A75 01
@00001A76 01
@00001A77 FF
@00001A78 02
@00001A79 00
@00001A7A 00
@00001A7B FF
@00001A7C 00
@00001A7D FF
@00001A7E 01
@00001A7F 01
@00001A80 00
@00001A81 01
@00001A82 00
@00001A83 01
@00001A84 FF
@00001A85 02
@00001A86 01
@00001A87 02
@00001A88 01
@00001A89 01
@00001A8A FF
@00001A8B 00
@00001A8C 02
@00001A8D FF
@00001A8E 01
@00001A8F 02
@00001A90 01
@00001A91 00
@00001A92 FF
@00001A93 FF
@00001A94 FF
@00001A95 FF
@00001A96 FF
@00001A97 FF
@00001A98 FF
@00001A99 00
@00001A9A FF
@00001A9B 01
@00001A9C 00
@00001A9D FF
@00001A9E 01
@00001A9F FF
@00001AA0 02
@00001AA1 FF
@00001AA2 01
@00001AA3 01
@00001AA4 01
@00001AA5 01
@00001AA6 FF
@00001AA7 01
@00001AA8 FF
@00001AA9 01
@00001AAA 02
@00001AAB 00
@00001AAC 02
@00001AAD 01
@00001AAE 01
@00001AAF 01
@00001AB0 02
@00001AB1 02
@00001AB2 FF
@00001AB3 02
@00001AB4 01
@00001AB5 02
@00001AB6 02
@00001AB7 00
@00001AB8 01
@00001AB9 00
@00001ABA 01
@00001ABB 01
@00001ABC 01
@00001ABD 01
@00001ABE 00
@00001ABF 02
@00001AC0 02
@00001AC1 01
@00001AC2 01
@00001AC3 03
@00001AC4 00
@00001AC5 02
@00001AC6 00
@00001AC7 01
@00001AC8 01
@00001AC9 01
@00001ACA 00
@00001ACB FF
@00001ACC 00
@00001ACD 00
@00001ACE 00
@00001ACF 00
@00001AD0 FF
@00001AD1 02
@00001AD2 00
@00001AD3 02
@00001AD4 02
@00001AD5 01
@00001AD6 00
@00001AD7 00
@00001AD8 00
@00001AD9 00
@00001ADA FF
@00001ADB FE
@00001ADC FE
@00001ADD FF
@00001ADE FE
@00001ADF FF
@00001AE0 FF
@00001AE1 FF
@00001AE2 FE
@00001AE3 02
@00001AE4 00
@00001AE5 00
@00001AE6 00
@00001AE7 01
@00001AE8 01
@00001AE9 01
@00001AEA 00
@00001AEB 00
@00001AEC FF
@00001AED FE
@00001AEE 00
@00001AEF 01
@00001AF0 01
@00001AF1 02
@00001AF2 02
@00001AF3 01
@00001AF4 01
@00001AF5 02
@00001AF6 00
@00001AF7 00
@00001AF8 02
@00001AF9 00
@00001AFA FF
@00001AFB 00
@00001AFC 02
@00001AFD 00
@00001AFE 02
@00001AFF 02
@00001B00 FF
@00001B01 FE
@00001B02 FF
@00001B03 02
@00001B04 00
@00001B05 03
@00001B06 01
@00001B07 01
@00001B08 02
@00001B09 FF
@00001B0A FE
@00001B0B FE
@00001B0C FF
@00001B0D 04
@00001B0E 01
@00001B0F FC
@00001B10 FE
@00001B11 FE
@00001B12 01
@00001B13 03
@00001B14 FD
@00001B15 FF
@00001B16 FE
@00001B17 00
@00001B18 FD
@00001B19 00
@00001B1A 02
@00001B1B 00
@00001B1C 02
@00001B1D 02
@00001B1E 06
@00001B1F 00
@00001B20 03
@00001B21 04
@00001B22 02
@00001B23 01
@00001B24 02
@00001B25 FF
@00001B26 02
@00001B27 03
@00001B28 FD
@00001B29 03
@00001B2A FF
@00001B2B FD
@00001B2C FD
@00001B2D 03
@00001B2E 01
@00001B2F FE
@00001B30 04
@00001B31 FC
@00001B32 00
@00001B33 02
@00001B34 FE
@00001B35 00
@00001B36 FF
@00001B37 03
@00001B38 FF
@00001B39 04
@00001B3A 02
@00001B3B 01
@00001B3C 00
@00001B3D FF
@00001B3E 03
@00001B3F 03
@00001B40 01
@00001B41 00
@00001B42 03
@00001B43 03
@00001B44 FE
@00001B45 02
@00001B46 01
@00001B47 00
@00001B48 FF
@00001B49 FF
@00001B4A 01
@00001B4B 01
@00001B4C 02
@00001B4D FE
@00001B4E FE
@00001B4F FF
@00001B50 04
@00001B51 01
@00001B52 03
@00001B53 02
@00001B54 02
@00001B55 03
@00001B56 02
@00001B57 03
@00001B58 02
@00001B59 FF
@00001B5A 01
@00001B5B 01
@00001B5C 01
@00001B5D FE
@00001B5E 02
@00001B5F 02
@00001B60 01
@00001B61 01
@00001B62 FD
@00001B63 01
@00001B64 02
@00001B65 00
@00001B66 01
@00001B67 01
@00001B68 02
@00001B69 00
@00001B6A 02
@00001B6B 02
@00001B6C FE
@00001B6D 02
@00001B6E 00
@00001B6F 00
@00001B70 01
@00001B71 00
@00001B72 FF
@00001B73 02
@00001B74 00
@00001B75 FD
@00001B76 FE
@00001B77 01
@00001B78 02
@00001B79 03
@00001B7A FF
@00001B7B 03
@00001B7C FD
@00001B7D 00
@00001B7E 00
@00001B7F FD
@00001B80 03
@00001B81 FF
@00001B82 FF
@00001B83 01
@00001B84 FF
@00001B85 01
@00001B86 00
@00001B87 FD
@00001B88 01
@00001B89 02
@00001B8A FE
@00001B8B 04
@00001B8C 04
@00001B8D FD
@00001B8E 02
@00001B8F 05
@00001B90 FF
@00001B91 02
@00001B92 FE
@00001B93 FF
@00001B94 01
@00001B95 01
@00001B96 FE
@00001B97 02
@00001B98 FC
@00001B99 02
@00001B9A FF
@00001B9B 00
@00001B9C 01
@00001B9D 02
@00001B9E FF
@00001B9F FF
@00001BA0 FF
@00001BA1 FE
@00001BA2 FB
@00001BA3 01
@00001BA4 FF
@00001BA5 00
@00001BA6 FF
@00001BA7 02
@00001BA8 FF
@00001BA9 01
@00001BAA FC
@00001BAB 04
@00001BAC 02
@00001BAD FE
@00001BAE 01
@00001BAF 01
@00001BB0 00
@00001BB1 FE
@00001BB2 02
@00001BB3 00
@00001BB4 FF
@00001BB5 02
@00001BB6 03
@00001BB7 01
@00001BB8 00
@00001BB9 03
@00001BBA 01
@00001BBB FE
@00001BBC 02
@00001BBD FE
@00001BBE 00
@00001BBF 01
@00001BC0 FF
@00001BC1 04
@00001BC2 00
@00001BC3 FF
@00001BC4 FF
@00001BC5 05
@00001BC6 FE
@00001BC7 02
@00001BC8 FD
@00001BC9 02
@00001BCA 00
@00001BCB 06
@00001BCC 02
@00001BCD 03
@00001BCE FF
@00001BCF 00
@00001BD0 00
@00001BD1 01
@00001BD2 FE
@00001BD3 02
@00001BD4 FD
@00001BD5 FE
@00001BD6 01
@00001BD7 00
@00001BD8 00
@00001BD9 00
@00001BDA FC
@00001BDB FE
@00001BDC 01
@00001BDD FE
@00001BDE 00
@00001BDF 00
@00001BE0 02
@00001BE1 01
@00001BE2 01
@00001BE3 05
@00001BE4 FF
@00001BE5 FF
@00001BE6 02
@00001BE7 00
@00001BE8 01
@00001BE9 02
@00001BEA 00
@00001BEB FD
@00001BEC 01
@00001BED 01
@00001BEE 02
@00001BEF FE
@00001BF0 00
@00001BF1 FF
@00001BF2 FE
@00001BF3 FF
@00001BF4 FE
@00001BF5 FF
@00001BF6 00
@00001BF7 02
@00001BF8 01
@00001BF9 04
@00001BFA 01
@00001BFB FF
@00001BFC FB
@00001BFD 00
@00001BFE FF
@00001BFF 00
@00001C00 FE
@00001C01 FE
@00001C02 FF
@00001C03 FF
@00001C04 00
@00001C05 01
@00001C06 01
@00001C07 FF
@00001C08 01
@00001C09 01
@00001C0A 04
@00001C0B 00
@00001C0C 00
@00001C0D FF
@00001C0E 00
@00001C0F FF
@00001C10 01
@00001C11 01
@00001C12 FE
@00001C13 FF
@00001C14 FE
@00001C15 00
@00001C16 FE
@00001C17 01
@00001C18 02
@00001C19 02
@00001C1A 04
@00001C1B 01
@00001C1C 01
@00001C1D 01
@00001C1E FF
@00001C1F 02
@00001C20 03
@00001C21 04
@00001C22 FF
@00001C23 01
@00001C24 01
@00001C25 02
@00001C26 00
@00001C27 FF
@00001C28 00
@00001C29 00
@00001C2A FD
@00001C2B FD
@00001C2C FE
@00001C2D 01
@00001C2E 02
@00001C2F 02
@00001C30 01
@00001C31 04
@00001C32 FE
@00001C33 FE
@00001C34 02
@00001C35 FE
@00001C36 00
@00001C37 FE
@00001C38 02
@00001C39 02
@00001C3A 04
@00001C3B 00
@00001C3C FF
@00001C3D FD
@00001C3E 03
@00001C3F 00
@00001C40 FF
@00001C41 01
@00001C42 FE
@00001C43 FE
@00001C44 01
@00001C45 02
@00001C46 FC
@00001C47 02
@00001C48 02
@00001C49 FE
@00001C4A 00
@00001C4B 00
@00001C4C 00
@00001C4D FD
@00001C4E FF
@00001C4F 02
@00001C50 FD
@00001C51 02
@00001C52 FD
@00001C53 FF
@00001C54 01
@00001C55 FF
@00001C56 01
@00001C57 00
@00001C58 FF
@00001C59 01
@00001C5A 01
@00001C5B 02
@00001C5C 03
@00001C5D FF
@00001C5E 03
@00001C5F FF
@00001C60 FF
@00001C61 FF
@00001C62 FE
@00001C63 00
@00001C64 FF
@00001C65 FE
@00001C66 FE
@00001C67 01
@00001C68 01
@00001C69 FE
@00001C6A 03
@00001C6B FF
@00001C6C 04
@00001C6D 00
@00001C6E 00
@00001C6F 01
@00001C70 02
@00001C71 01
@00001C72 01
@00001C73 00
@00001C74 FD
@00001C75 FF
@00001C76 01
@00001C77 01
@00001C78 01
@00001C79 FE
@00001C7A 02
@00001C7B 05
@00001C7C 00
@00001C7D 00
@00001C7E 00
@00001C7F 01
@00001C80 02
@00001C81 FF
@00001C82 FF
@00001C83 FF
@00001C84 04
@00001C85 FE
@00001C86 05
@00001C87 02
@00001C88 02
@00001C89 02
@00001C8A 03
@00001C8B FF
@00001C8C FF
@00001C8D 02
@00001C8E 03
@00001C8F FF
@00001C90 00
@00001C91 FC
@00001C92 FF
@00001C93 FE
@00001C94 FE
@00001C95 00
@00001C96 04
@00001C97 FF
@00001C98 03
@00001C99 01
@00001C9A FF
@00001C9B FF
@00001C9C 00
@00001C9D FF
@00001C9E FF
@00001C9F 01
@00001CA0 01
@00001CA1 05
@00001CA2 03
@00001CA3 05
@00001CA4 02
@00001CA5 00
@00001CA6 FD
@00001CA7 FE
@00001CA8 00
@00001CA9 FF
@00001CAA FD
@00001CAB 03
@00001CAC 02
@00001CAD 02
@00001CAE FF
@00001CAF FF
@00001CB0 00
@00001CB1 03
@00001CB2 01
@00001CB3 00
@00001CB4 FF
@00001CB5 00
@00001CB6 02
@00001CB7 FE
@00001CB8 01
@00001CB9 02
@00001CBA FF
@00001CBB 01
@00001CBC 00
@00001CBD 01
@00001CBE 00
@00001CBF FD
@00001CC0 FE
@00001CC1 FF
@00001CC2 01
@00001CC3 01
@00001CC4 00
@00001CC5 FE
@00001CC6 03
@00001CC7 FD
@00001CC8 00
@00001CC9 01
@00001CCA FE
@00001CCB 00
@00001CCC FF
@00001CCD FD
@00001CCE 02
@00001CCF FF
@00001CD0 FC
@00001CD1 01
@00001CD2 03
@00001CD3 02
@00001CD4 04
@00001CD5 FF
@00001CD6 00
@00001CD7 02
@00001CD8 01
@00001CD9 04
@00001CDA FF
@00001CDB 00
@00001CDC 00
@00001CDD 01
@00001CDE FF
@00001CDF FE
@00001CE0 FF
@00001CE1 FE
@00001CE2 03
@00001CE3 FF
@00001CE4 02
@00001CE5 FD
@00001CE6 00
@00001CE7 00
@00001CE8 01
@00001CE9 00
@00001CEA FF
@00001CEB FF
@00001CEC FF
@00001CED FD
@00001CEE 02
@00001CEF 01
@00001CF0 FF
@00001CF1 FD
@00001CF2 FF
@00001CF3 FF
@00001CF4 02
@00001CF5 01
@00001CF6 03
@00001CF7 02
@00001CF8 FE
@00001CF9 02
@00001CFA 00
@00001CFB 01
@00001CFC 06
@00001CFD 03
@00001CFE 01
@00001CFF 00
@00001D00 00
@00001D01 00
@00001D02 01
@00001D03 FF
@00001D04 01
@00001D05 00
@00001D06 06
@00001D07 FE
@00001D08 FD
@00001D09 FF
@00001D0A 04
@00001D0B 04
@00001D0C 03
@00001D0D 07
@00001D0E 00
@00001D0F 01
@00001D10 FD
@00001D11 03
@00001D12 FF
@00001D13 FC
@00001D14 FF
@00001D15 01
@00001D16 FD
@00001D17 01
@00001D18 03
@00001D19 FF
@00001D1A FF
@00001D1B 00
@00001D1C 00
@00001D1D 00
@00001D1E 00
@00001D1F 01
@00001D20 FF
@00001D21 03
@00001D22 01
@00001D23 01
@00001D24 02
@00001D25 FE
@00001D26 FD
@00001D27 FC
@00001D28 02
@00001D29 00
@00001D2A FF
@00001D2B 01
@00001D2C 03
@00001D2D FF
@00001D2E FE
@00001D2F FC
@00001D30 02
@00001D31 00
@00001D32 FD
@00001D33 FD
@00001D34 04
@00001D35 02
@00001D36 03
@00001D37 FE
@00001D38 FE
@00001D39 FF
@00001D3A FE
@00001D3B 00
@00001D3C 00
@00001D3D FF
@00001D3E 03
@00001D3F 00
@00001D40 05
@00001D41 03
@00001D42 03
@00001D43 01
@00001D44 02
@00001D45 01
@00001D46 FE
@00001D47 00
@00001D48 FE
@00001D49 FE
@00001D4A 01
@00001D4B FF
@00001D4C 03
@00001D4D 02
@00001D4E FF
@00001D4F 00
@00001D50 00
@00001D51 04
@00001D52 01
@00001D53 06
@00001D54 01
@00001D55 FE
@00001D56 03
@00001D57 FF
@00001D58 00
@00001D59 00
@00001D5A FF
@00001D5B 01
@00001D5C 01
@00001D5D 01
@00001D5E 01
@00001D5F 02
@00001D60 FF
@00001D61 FE
@00001D62 FF
@00001D63 00
@00001D64 02
@00001D65 01
@00001D66 FE
@00001D67 00
@00001D68 FF
@00001D69 01
@00001D6A FF
@00001D6B 00
@00001D6C FF
@00001D6D FF
@00001D6E FF
@00001D6F 00
@00001D70 FF
@00001D71 02
@00001D72 FE
@00001D73 02
@00001D74 01
@00001D75 03
@00001D76 03
@00001D77 01
@00001D78 FD
@00001D79 02
@00001D7A 02
@00001D7B 01
@00001D7C FF
@00001D7D 01
@00001D7E 02
@00001D7F FD
@00001D80 FE
@00001D81 FF
@00001D82 00
@00001D83 01
@00001D84 00
@00001D85 02
@00001D86 02
@00001D87 FE
@00001D88 01
@00001D89 FD
@00001D8A FC
@00001D8B FE
@00001D8C FF
@00001D8D FF
@00001D8E FD
@00001D8F 00
@00001D90 FD
@00001D91 00
@00001D92 00
@00001D93 00
@00001D94 00
@00001D95 03
@00001D96 FF
@00001D97 FF
@00001D98 FF
@00001D99 00
@00001D9A 02
@00001D9B 00
@00001D9C 00
@00001D9D FF
@00001D9E FC
@00001D9F 01
@00001DA0 FE
@00001DA1 00
@00001DA2 02
@00001DA3 01
@00001DA4 00
@00001DA5 02
@00001DA6 FD
@00001DA7 FF
@00001DA8 01
@00001DA9 FE
@00001DAA 01
@00001DAB 01
@00001DAC 01
@00001DAD FF
@00001DAE FF
@00001DAF FF
@00001DB0 00
@00001DB1 FF
@00001DB2 01
@00001DB3 FE
@00001DB4 FF
@00001DB5 01
@00001DB6 01
@00001DB7 FF
@00001DB8 01
@00001DB9 FF
@00001DBA 00
@00001DBB FE
@00001DBC FD
@00001DBD FD
@00001DBE FE
@00001DBF FF
@00001DC0 02
@00001DC1 00
@00001DC2 03
@00001DC3 05
@00001DC4 00
@00001DC5 02
@00001DC6 02
@00001DC7 02
@00001DC8 FF
@00001DC9 04
@00001DCA FE
@00001DCB FF
@00001DCC 02
@00001DCD 01
@00001DCE FC
@00001DCF FF
@00001DD0 00
@00001DD1 FD
@00001DD2 01
@00001DD3 00
@00001DD4 02
@00001DD5 01
@00001DD6 00
@00001DD7 03
@00001DD8 FF
@00001DD9 FF
@00001DDA FF
@00001DDB 01
@00001DDC 00
@00001DDD 03
@00001DDE FF
@00001DDF 00
@00001DE0 02
@00001DE1 00
@00001DE2 FE
@00001DE3 FD
@00001DE4 FF
@00001DE5 02
@00001DE6 01
@00001DE7 FF
@00001DE8 02
@00001DE9 00
@00001DEA 01
@00001DEB FF
@00001DEC 04
@00001DED 02
@00001DEE 01
@00001DEF 00
@00001DF0 00
@00001DF1 00
@00001DF2 01
@00001DF3 FE
@00001DF4 FD
@00001DF5 00
@00001DF6 02
@00001DF7 01
@00001DF8 01
@00001DF9 00
@00001DFA FE
@00001DFB 00
@00001DFC 02
@00001DFD FE
@00001DFE 00
@00001DFF FE
@00001E00 FF
@00001E01 01
@00001E02 FE
@00001E03 FD
@00001E04 FE
@00001E05 02
