; Exported from TinyDetector7Layer
; Shape: (6, 128, 1, 1), Bits: 8
memory_initialization_radix=16;
memory_initialization_vector=
04,
05,
F7,
05,
F5,
F9,
0A,
04,
F8,
06,
F2,
07,
F3,
FB,
02,
F2,
03,
FD,
11,
FE,
F4,
01,
FF,
06,
F6,
05,
FA,
FB,
04,
10,
F6,
0C,
00,
04,
F8,
09,
F1,
03,
FF,
00,
FF,
FA,
F8,
03,
F7,
11,
FE,
02,
F3,
FF,
F7,
0A,
08,
FF,
F6,
FD,
01,
04,
01,
F6,
09,
03,
FD,
02,
F5,
0B,
0D,
FB,
05,
02,
F2,
01,
05,
00,
00,
FD,
07,
F6,
11,
09,
02,
05,
0D,
FA,
F7,
0A,
07,
04,
FC,
F6,
10,
0B,
07,
F8,
0B,
07,
F0,
0A,
F5,
F9,
FE,
04,
0A,
04,
F7,
F7,
FE,
EF,
FA,
F9,
F8,
F9,
F9,
02,
12,
00,
F7,
FE,
06,
02,
06,
FE,
16,
FC,
05,
0A,
FF,
05,
06,
FD,
00,
0A,
04,
13,
F8,
FC,
05,
0F,
07,
06,
03,
05,
09,
10,
04,
F8,
F4,
F9,
06,
FA,
02,
00,
05,
05,
FB,
F8,
01,
F1,
ED,
08,
F5,
0A,
00,
FE,
FB,
07,
08,
F0,
FD,
FB,
FE,
00,
FE,
0D,
FB,
12,
FF,
02,
FD,
F2,
04,
01,
03,
02,
EA,
FD,
09,
FE,
FC,
FA,
FB,
F7,
03,
FB,
02,
F9,
04,
F7,
FE,
07,
EE,
05,
0D,
12,
EA,
07,
F2,
F6,
19,
FB,
09,
FE,
FE,
F8,
03,
FF,
F4,
10,
FA,
00,
06,
02,
F6,
07,
03,
FB,
0B,
05,
F8,
F7,
FD,
00,
00,
0A,
06,
FF,
FF,
02,
FE,
10,
00,
05,
F7,
02,
02,
03,
06,
05,
E9,
FC,
FD,
02,
FC,
04,
05,
1A,
FF,
F9,
07,
01,
F7,
FE,
04,
12,
00,
0A,
FB,
01,
F4,
05,
F9,
FE,
09,
00,
F9,
00,
FD,
F9,
07,
07,
08,
F7,
0F,
00,
02,
06,
00,
04,
0A,
03,
06,
FC,
04,
F9,
FA,
F7,
F8,
FE,
06,
FC,
09,
ED,
0B,
FF,
02,
FF,
ED,
FB,
06,
FB,
03,
EC,
0A,
FF,
F8,
07,
09,
06,
FD,
03,
FA,
FC,
FD,
01,
03,
F7,
FB,
FE,
01,
02,
F8,
07,
FD,
F8,
F9,
04,
08,
FE,
F5,
05,
F3,
05,
09,
F8,
0E,
06,
FD,
FD,
08,
0A,
06,
14,
01,
0A,
F1,
FE,
04,
01,
02,
0B,
F8,
00,
F9,
05,
0F,
FF,
0E,
FF,
EC,
05,
FF,
02,
01,
00,
EB,
0A,
02,
00,
F8,
08,
F0,
0E,
FD,
0D,
FE,
F3,
F3,
F2,
03,
06,
F7,
0B,
06,
06,
06,
F5,
0D,
F9,
0E,
04,
F6,
F3,
05,
FE,
1B,
02,
0B,
FB,
06,
05,
15,
0D,
FE,
05,
07,
03,
F6,
EC,
EF,
00,
06,
FC,
FE,
06,
F3,
03,
F4,
FE,
08,
F9,
F2,
01,
00,
08,
08,
FB,
01,
F8,
07,
ED,
04,
05,
F5,
01,
FC,
0C,
15,
F0,
FF,
11,
10,
F9,
F9,
FD,
F2,
0C,
0C,
0B,
F8,
F6,
00,
FF,
07,
FC,
01,
F9,
F5,
F9,
F8,
0E,
F9,
06,
F3,
0B,
0F,
FA,
00,
EF,
0C,
F9,
07,
FE,
06,
03,
FB,
05,
02,
FF,
F9,
F2,
FF,
12,
10,
F7,
02,
FF,
03,
FD,
FE,
03,
12,
F1,
FB,
0F,
F9,
F8,
0E,
02,
F7,
08,
FA,
03,
FF,
EA,
0E,
04,
0D,
F5,
FE,
07,
FE,
04,
02,
05,
F0,
F9,
03,
03,
FD,
0B,
18,
0B,
FE,
EF,
09,
05,
00,
FA,
03,
06,
0C,
03,
F6,
07,
F6,
FD,
0E,
10,
07,
F4,
08,
0B,
E6,
F5,
FB,
FA,
FC,
02,
0C,
09,
01,
08,
00,
FD,
FE,
02,
00,
F7,
0A,
FA,
00,
0C,
05,
EA,
00,
04,
0C,
F8,
FB,
FD,
FB,
0F,
FA,
EE,
FD,
EE,
00,
EF,
07,
05,
FC,
F5,
FA,
F9,
0C,
FC,
01,
10,
08,
F7,
FF,
05,
FB,
FF,
F9,
ED,
FE,
05,
0F,
FE,
FD,
06,
04,
FB,
F7,
02,
01,
01,
FA,
F7,
0E,
02,
02,
03,
FF,
FC,
ED,
F8,
ED,
05,
F3,
06,
FF,
F6,
F8,
FE,
02,
08,
FF,
0B,
08,
FD,
03,
00,
0B,
F8,
0C,
02,
0B,
F7,
0D,
0A,
FD,
00,
F3,
00,
F6,
FF,
05,
0A,
06,
FB,
07,
F4,
EA,
08,
07,
04,
00,
04,
F9,
FF,
05,
11,
FB,
FD,
06,
F6,
08,
FD,
0A,
01,
F1,
04,
FE,
0D,
04,
EC,
05,
00,
08,
01,
0E,
0A,
F8,
0D,
0A,
04,
FB,
05,
10,
F2,
04,
02,
0E,
F9,
F7,
12,
12,
03,
FF,
05,
0D,
03,
FD,
0C,
0A,
09,
E0,
09,
0D,
FE,
F4,
0C,
06,
0B,
08,
03,
F5,
03,
03,
02,
09,
FC,
EA,
06,
0C,
FB,
0D,
F7,
FB,
F7,
07,
02,
06,
0B,
01,
00,
F9,
F6,
EE,
F3,
08,
FC,
06,
02,
03,
FD,
F2,
FB,
F9,
FB,
FA,
EA,
09,
F4,
0A,
EE;
