; Exported from TinyDetector7Layer
; Shape: (256,), Bits: 16
memory_initialization_radix=16;
memory_initialization_vector=
FFBF,
01EE,
011B,
0151,
0065,
01CA,
0194,
0257,
FFB6,
01E0,
00A3,
00CC,
FFCF,
002E,
00C9,
0094,
0009,
00C5,
00BF,
00E0,
0129,
0059,
0085,
FFDE,
FF66,
0097,
00D0,
00EE,
FF26,
0155,
01CE,
00FD,
0176,
003A,
008D,
00B2,
01A4,
FF64,
0031,
00AB,
007B,
FFC9,
FF8C,
00FD,
0277,
000B,
006F,
FF88,
FFF3,
FEF7,
FF66,
0077,
00E2,
0119,
01F4,
FF2A,
00B0,
02E3,
03A1,
FEFE,
0150,
00B6,
012A,
FFF6,
00F1,
009D,
0140,
009C,
00BE,
011A,
013C,
0068,
FEC2,
FF4D,
FF24,
0145,
0020,
008E,
FFDC,
014E,
002B,
0078,
0110,
0033,
009C,
FEE4,
FFCD,
0033,
FF96,
011B,
016B,
FFE6,
0020,
00F3,
0037,
0011,
00AB,
FFCD,
FFBD,
0030,
FFBF,
0149,
0001,
FFD9,
FFF3,
00F8,
0083,
0261,
FFDE,
0097,
FF9D,
00F8,
00E6,
0023,
FFB5,
0014,
008E,
0135,
0097,
0081,
00B8,
FF62,
FF35,
00CE,
FFDE,
026C,
0109,
000D,
007F,
0041,
FFF6,
008D,
00D6,
016F,
00F8,
0195,
0051,
030D,
00A6,
FF77,
009F,
0058,
0114,
00CC,
0138,
0045,
0154,
0160,
FF5B,
0100,
02DB,
0059,
01D0,
011F,
0086,
0106,
00A2,
FF38,
00C0,
013C,
FF6C,
00F5,
016C,
FFDB,
FF3F,
00B3,
00EA,
FFFF,
FFFB,
0050,
002E,
01FB,
004D,
004A,
00CE,
00DD,
00A7,
0178,
0052,
FF7D,
0111,
000C,
003D,
00A4,
FF85,
01BD,
0128,
016F,
0064,
00B6,
01C6,
00C9,
0077,
0273,
018C,
00CC,
01A4,
0387,
FFD3,
00C2,
FF30,
00B2,
FFCF,
00A0,
0196,
005F,
009B,
008D,
001E,
FF67,
01A6,
00E4,
0066,
0190,
0062,
0122,
FF66,
00DC,
006C,
00BA,
FF13,
01E9,
010D,
FF37,
0040,
01E7,
0154,
FF3B,
020F,
010E,
FFCE,
012D,
FFF6,
002D,
00AF,
00BB,
00F6,
FE6C,
005A,
00B1,
FFC2,
01B0,
001C,
0011,
0088,
005B,
0073,
0101,
01F8,
009C,
00AA,
0124,
0144,
0080,
0010,
008A;
