// Exported from TinyDetector7Layer
// Shape: (128,), Bits: 16
@00000000 0205
@00000001 01B4
@00000002 FF79
@00000003 0091
@00000004 00B5
@00000005 0189
@00000006 02F7
@00000007 FFEE
@00000008 00CC
@00000009 0052
@0000000A 009C
@0000000B 00B6
@0000000C FF7B
@0000000D 00AA
@0000000E 00A7
@0000000F 024F
@00000010 01CE
@00000011 013B
@00000012 00AC
@00000013 0098
@00000014 FF41
@00000015 009C
@00000016 0111
@00000017 0167
@00000018 FE3A
@00000019 02A7
@0000001A FF9E
@0000001B FF30
@0000001C 015F
@0000001D FFDA
@0000001E FE97
@0000001F 0050
@00000020 0128
@00000021 0249
@00000022 0073
@00000023 0078
@00000024 00D1
@00000025 FF33
@00000026 0207
@00000027 02E4
@00000028 00EA
@00000029 008E
@0000002A 00C0
@0000002B 0233
@0000002C 00D2
@0000002D 0289
@0000002E 022E
@0000002F 0158
@00000030 0155
@00000031 0189
@00000032 01EC
@00000033 0070
@00000034 012E
@00000035 014C
@00000036 01E5
@00000037 011D
@00000038 FF3A
@00000039 011F
@0000003A 0206
@0000003B 02C5
@0000003C 0172
@0000003D 013A
@0000003E FF2F
@0000003F 001C
@00000040 00A5
@00000041 FFCD
@00000042 01C5
@00000043 0140
@00000044 0139
@00000045 0232
@00000046 01B2
@00000047 0016
@00000048 0087
@00000049 0283
@0000004A FFC2
@0000004B FF4B
@0000004C 00EC
@0000004D FE91
@0000004E FF78
@0000004F 01BB
@00000050 00B2
@00000051 01DA
@00000052 0162
@00000053 0151
@00000054 FFB0
@00000055 01AA
@00000056 01CD
@00000057 FFB9
@00000058 FF9A
@00000059 FC8B
@0000005A 0163
@0000005B 0266
@0000005C 016F
@0000005D 007C
@0000005E FE4F
@0000005F 020B
@00000060 0107
@00000061 01A1
@00000062 FF51
@00000063 025E
@00000064 FF40
@00000065 0045
@00000066 FCBB
@00000067 0121
@00000068 01A1
@00000069 0181
@0000006A 00B6
@0000006B 0279
@0000006C 00BC
@0000006D 0299
@0000006E 0238
@0000006F 0141
@00000070 02D5
@00000071 FF7B
@00000072 0100
@00000073 FE22
@00000074 FEF0
@00000075 012B
@00000076 0127
@00000077 01C4
@00000078 01F3
@00000079 006E
@0000007A FE84
@0000007B FE42
@0000007C FE51
@0000007D FF97
@0000007E 008C
@0000007F 0233
