; Exported from TinyDetector7Layer
; Shape: (128, 256, 3, 3), Bits: 8
memory_initialization_radix=16;
memory_initialization_vector=
FF,
03,
FF,
FF,
FD,
02,
01,
FE,
FE,
03,
FF,
05,
FF,
00,
00,
F7,
00,
FC,
01,
00,
FD,
FE,
FF,
01,
01,
FF,
FD,
03,
FF,
FE,
01,
FF,
FF,
01,
03,
00,
FF,
05,
FE,
02,
FF,
FD,
FD,
FE,
02,
FD,
FF,
04,
FD,
01,
01,
FF,
FE,
FD,
02,
FC,
FE,
FF,
00,
FD,
03,
06,
01,
FF,
02,
FE,
FD,
01,
00,
00,
04,
FD,
FE,
00,
FD,
01,
00,
01,
02,
00,
FF,
03,
FD,
03,
FC,
02,
FC,
02,
01,
00,
07,
FD,
01,
00,
04,
FF,
00,
02,
02,
00,
FE,
FF,
00,
03,
FD,
FD,
01,
FF,
00,
FE,
FD,
FF,
FF,
FE,
FD,
FF,
FF,
FF,
01,
FF,
02,
03,
FD,
00,
FD,
FF,
FF,
FD,
02,
FF,
00,
00,
01,
FF,
01,
04,
00,
00,
FF,
FF,
00,
04,
02,
02,
02,
01,
01,
02,
00,
FF,
01,
02,
00,
FF,
03,
01,
FE,
FE,
FD,
01,
02,
03,
01,
FD,
04,
FF,
FE,
01,
FF,
00,
FF,
FE,
01,
02,
00,
00,
00,
00,
01,
01,
FF,
FE,
FE,
00,
00,
FD,
FE,
FF,
01,
FF,
03,
FB,
FF,
FF,
FE,
03,
02,
FF,
03,
00,
FD,
01,
00,
FB,
04,
04,
FF,
04,
03,
05,
02,
02,
06,
FC,
FB,
02,
FF,
FF,
04,
03,
FF,
01,
FE,
03,
FD,
FE,
02,
02,
FC,
FE,
01,
01,
FE,
F9,
FD,
01,
FC,
04,
FE,
FA,
01,
FD,
02,
FF,
FF,
FF,
01,
FC,
FC,
03,
FF,
FC,
02,
FE,
FF,
00,
FC,
00,
02,
00,
FE,
FE,
02,
FF,
FF,
FD,
FF,
03,
04,
FF,
FD,
FF,
FF,
03,
FE,
00,
00,
02,
FE,
FE,
00,
02,
01,
FF,
FE,
FF,
00,
FF,
03,
00,
FE,
01,
02,
03,
03,
05,
FC,
01,
00,
FD,
FF,
FF,
FF,
FF,
03,
01,
01,
FF,
FE,
00,
05,
03,
02,
FF,
01,
01,
00,
00,
00,
01,
00,
FE,
FF,
FF,
01,
00,
05,
FC,
03,
FD,
01,
FE,
FB,
FF,
FD,
FE,
00,
00,
FF,
FF,
00,
FE,
02,
FD,
FD,
00,
01,
FE,
05,
FF,
FD,
04,
02,
03,
01,
00,
FC,
02,
FF,
FE,
FE,
FF,
FA,
01,
FF,
FC,
01,
04,
FF,
03,
FE,
FE,
01,
03,
FD,
00,
02,
FF,
04,
02,
00,
00,
01,
FF,
01,
03,
FF,
00,
FE,
FE,
04,
FF,
01,
01,
03,
FC,
FF,
02,
01,
FE,
FD,
FE,
04,
03,
02,
FF,
FE,
FD,
FF,
00,
FC,
02,
FE,
FE,
01,
01,
00,
03,
FD,
FA,
04,
00,
02,
FF,
04,
FE,
01,
FD,
FD,
07,
01,
FA,
FD,
00,
FD,
00,
00,
01,
01,
FE,
00,
FF,
FE,
FF,
02,
01,
FE,
00,
FE,
FF,
FE,
FF,
FD,
FF,
FD,
00,
01,
FF,
05,
00,
04,
01,
FE,
02,
FE,
FE,
FF,
FD,
01,
FB,
00,
03,
FF,
FE,
02,
04,
FD,
FD,
03,
FE,
FF,
FA,
01,
FE,
FF,
FE,
02,
01,
02,
FF,
FE,
FE,
FD,
FD,
04,
02,
FE,
FA,
01,
F7,
00,
00,
FF,
04,
03,
FF,
00,
04,
FE,
FC,
00,
04,
04,
FF,
04,
FF,
00,
FC,
01,
01,
FE,
03,
00,
03,
02,
00,
FE,
00,
FC,
02,
02,
04,
FE,
00,
02,
00,
FC,
FD,
02,
FE,
02,
01,
01,
FE,
03,
02,
03,
02,
01,
FE,
02,
FF,
00,
01,
F9,
00,
01,
FB,
FF,
00,
FD,
FB,
00,
00,
FE,
01,
00,
FF,
FF,
FE,
FD,
00,
04,
02,
F9,
00,
FF,
03,
02,
FF,
FD,
FE,
01,
FC,
FE,
00,
04,
01,
02,
FD,
FE,
01,
04,
FF,
02,
02,
FF,
00,
01,
FF,
FF,
FF,
FE,
00,
FF,
02,
FD,
03,
FD,
FE,
FE,
03,
FF,
04,
FF,
FD,
FF,
FC,
01,
01,
01,
03,
00,
00,
FF,
00,
00,
06,
FF,
FF,
02,
FF,
05,
FD,
FF,
01,
00,
02,
00,
05,
00,
FE,
00,
02,
FE,
01,
01,
00,
03,
00,
FC,
00,
02,
00,
02,
00,
FB,
FE,
FF,
FE,
FF,
FE,
FB,
01,
FE,
FC,
FF,
01,
FC,
00,
FC,
FC,
FF,
02,
FF,
01,
03,
FF,
FF,
04,
04,
FF,
FF,
FF,
02,
00,
FB,
00,
00,
FC,
02,
03,
00,
FA,
00,
00,
FE,
FF,
00,
03,
01,
02,
01,
FF,
00,
00,
00,
FC,
00,
02,
FD,
01,
FE,
00,
FF,
01,
03,
FE,
FF,
FF,
FF,
FE,
FF,
01,
FD,
FF,
FE,
02,
F9,
FF,
02,
FD,
FC,
00,
FF,
FE,
02,
FF,
02,
FF,
FE,
00,
00,
00,
FD,
FC,
01,
01,
FE,
FF,
FF,
FF,
02,
00,
00,
FD,
01,
01,
FD,
00,
FE,
FB,
02,
FF,
00,
02,
01,
00,
FF,
01,
FE,
02,
00,
FD,
02,
01,
01,
FF,
FE,
05,
FF,
FF,
00,
03,
FD,
02,
01,
FE,
FC,
01,
FE,
FF,
00,
FC,
FB,
00,
FD,
FE,
FF,
02,
00,
02,
FF,
01,
04,
00,
01,
02,
00,
FF,
FD,
01,
FF,
01,
00,
FF,
02,
FE,
00,
01,
FF,
03,
01,
01,
FD,
FD,
FC,
FD,
03,
00,
FF,
02,
FF,
FD,
03,
04,
FD,
FB,
01,
01,
00,
00,
FE,
FF,
01,
00,
05,
02,
FD,
02,
FD,
FE,
03,
01,
00,
04,
FF,
FF,
02,
FD,
FC,
FE,
FC,
00,
00,
FC,
FC,
01,
00,
FD,
01,
01,
FE,
02,
02,
FF,
00,
00,
FC,
02,
03,
FE,
01,
FF,
01,
03,
FB,
FE,
00,
FF,
01,
01,
FF,
FC,
FF,
FD,
FF,
01,
03,
FD,
00,
02,
FF,
FF,
FC,
00,
02,
00,
FF,
FF,
00,
02,
FF,
FD,
02,
00,
03,
FD,
02,
FF,
FF,
04,
FD,
FD,
FE,
01,
FF,
00,
00,
FE,
02,
FC,
FD,
FF,
02,
FF,
FD,
FE,
FC,
00,
FE,
FB,
01,
03,
FC,
FE,
00,
FE,
02,
02,
FD,
02,
FE,
FF,
FD,
01,
FE,
02,
01,
FD,
02,
FE,
FE,
FE,
FF,
03,
FD,
02,
00,
00,
FF,
FF,
FF,
03,
02,
00,
FF,
FE,
FE,
01,
FF,
FC,
02,
FD,
01,
02,
FE,
FF,
00,
FF,
02,
00,
01,
02,
FE,
FA,
00,
02,
02,
00,
02,
FF,
03,
02,
FF,
03,
01,
FF,
02,
01,
FF,
04,
FF,
01,
FD,
FE,
00,
00,
02,
FF,
03,
FC,
FF,
FF,
FF,
FE,
FD,
02,
FE,
00,
FF,
03,
FD,
01,
02,
02,
01,
FC,
02,
FF,
FE,
02,
01,
FE,
01,
02,
03,
02,
02,
FE,
FD,
03,
FA,
FE,
06,
02,
05,
FE,
FB,
01,
FC,
FE,
02,
FE,
FD,
02,
FF,
FF,
FD,
00,
02,
FF,
02,
00,
FB,
01,
00,
04,
00,
01,
FF,
FF,
03,
03,
FF,
FB,
00,
FD,
FE,
FF,
FD,
FF,
01,
FD,
FC,
00,
FF,
00,
FF,
01,
FE,
FD,
00,
00,
FF,
01,
FE,
01,
05,
FB,
00,
FA,
FE,
01,
FF,
02,
FF,
FB,
FF,
FF,
FF,
00,
FE,
01,
FD,
01,
01,
FE,
FF,
05,
01,
01,
00,
FD,
01,
02,
FE,
FF,
FE,
03,
FE,
FF,
01,
02,
00,
FE,
00,
00,
FD,
02,
01,
FF,
02,
02,
FD,
03,
02,
FD,
02,
FE,
02,
02,
00,
01,
00,
00,
FE,
FF,
00,
FE,
06,
03,
00,
02,
03,
F8,
00,
01,
FF,
00,
FD,
00,
01,
04,
00,
01,
02,
00,
01,
01,
01,
01,
01,
FE,
00,
01,
00,
FC,
05,
01,
00,
FC,
FB,
01,
01,
04,
FE,
FD,
FE,
FA,
FD,
FC,
02,
03,
FF,
FF,
FF,
01,
FF,
FF,
FF,
00,
04,
FB,
FE,
FC,
FF,
FE,
FE,
FD,
FD,
01,
04,
03,
01,
02,
FF,
FF,
02,
FF,
FF,
FF,
01,
FF,
FC,
FE,
03,
FD,
00,
FD,
FC,
FF,
00,
FF,
00,
02,
FD,
03,
FD,
00,
FE,
FF,
02,
01,
01,
00,
00,
00,
FF,
00,
FE,
FE,
04,
FA,
FB,
04,
00,
FD,
04,
FE,
03,
02,
00,
00,
05,
01,
01,
00,
00,
02,
FF,
FE,
01,
00,
FF,
02,
00,
01,
00,
02,
03,
FF,
FF,
00,
00,
01,
FF,
FD,
00,
FF,
FB,
FE,
FC,
FD,
FB,
05,
00,
FE,
FF,
02,
00,
02,
FB,
02,
00,
FF,
00,
03,
FD,
01,
FD,
FE,
01,
01,
FF,
00,
01,
FD,
FD,
01,
FF,
FF,
00,
FE,
00,
FE,
FC,
FF,
01,
00,
01,
FE,
FE,
FC,
FC,
01,
01,
01,
02,
03,
FF,
02,
00,
02,
01,
05,
03,
FA,
00,
02,
FD,
02,
03,
FD,
00,
02,
01,
01,
FC,
02,
FD,
FF,
FF,
FF,
00,
FE,
FE,
00,
02,
FF,
FE,
00,
00,
FF,
FE,
00,
FE,
00,
FF,
FE,
FF,
02,
FE,
02,
01,
02,
00,
FF,
FE,
04,
01,
FD,
00,
FE,
03,
FE,
FE,
00,
FE,
FD,
FE,
01,
01,
FD,
02,
02,
02,
FF,
00,
03,
FD,
01,
FF,
FF,
FD,
FF,
FF,
FE,
FF,
FC,
01,
03,
00,
FF,
00,
FD,
01,
01,
FD,
00,
FE,
FF,
00,
00,
02,
00,
FF,
03,
FD,
00,
00,
FF,
FC,
FF,
01,
FF,
00,
02,
00,
01,
00,
00,
FD,
FD,
FB,
00,
FE,
FF,
02,
00,
FE,
FE,
03,
00,
FF,
FF,
FD,
00,
01,
FE,
02,
FB,
01,
FE,
01,
01,
04,
FE,
00,
01,
FD,
01,
02,
00,
01,
00,
02,
01,
FD,
FE,
00,
01,
00,
05,
01,
FF,
02,
FF,
02,
FF,
00,
FF,
02,
F9,
02,
02,
FC,
F9,
FB,
00,
03,
FF,
03,
FC,
00,
00,
FF,
01,
01,
FF,
03,
00,
FE,
FF,
01,
FE,
00,
FF,
02,
FF,
00,
FF,
FA,
FD,
02,
01,
FE,
04,
03,
FF,
01,
FF,
00,
00,
00,
01,
02,
01,
00,
01,
02,
FE,
00,
FF,
00,
04,
01,
FE,
03,
FF,
00,
01,
01,
01,
00,
FF,
FD,
01,
02,
FD,
03,
00,
FD,
FE,
00,
03,
02,
00,
02,
01,
00,
FE,
04,
FF,
02,
FD,
01,
FF,
FF,
00,
05,
02,
FF,
00,
02,
FE,
FE,
FE,
01,
FE,
04,
00,
01,
03,
00,
FF,
01,
FE,
02,
02,
00,
FE,
00,
FF,
FF,
02,
01,
FF,
02,
00,
03,
03,
FE,
01,
FD,
01,
00,
FC,
FF,
01,
01,
FD,
03,
FD,
FB,
02,
FE,
03,
FE,
00,
FD,
FE,
01,
03,
FE,
02,
00,
02,
00,
FD,
FC,
02,
FF,
FA,
FF,
00,
FD,
FF,
FC,
02,
02,
02,
FF,
FF,
02,
FB,
02,
FD,
F8,
01,
FD,
01,
03,
01,
FE,
05,
FF,
FF,
01,
01,
FF,
02,
FE,
FD,
00,
00,
FF,
FD,
00,
FF,
02,
FD,
FF,
01,
FF,
03,
00,
02,
02,
00,
01,
00,
02,
00,
FB,
FE,
01,
02,
03,
FE,
00,
FE,
00,
FE,
FE,
00,
04,
00,
03,
04,
01,
00,
02,
01,
00,
00,
01,
00,
00,
01,
FE,
FD,
02,
06,
02,
05,
FF,
FE,
01,
FF,
FF,
00,
FF,
FE,
01,
01,
03,
04,
00,
02,
05,
00,
00,
04,
03,
03,
FE,
01,
FC,
FF,
FF,
02,
FF,
FD,
FA,
00,
03,
FA,
02,
FD,
F8,
02,
03,
FD,
01,
00,
FD,
01,
FE,
F7,
02,
FE,
FF,
00,
FD,
FF,
04,
02,
FF,
FF,
03,
00,
00,
FE,
FC,
01,
FF,
FC,
00,
03,
00,
03,
FE,
01,
01,
01,
01,
05,
00,
FF,
FF,
01,
F7,
01,
00,
02,
FF,
FF,
01,
FE,
FD,
02,
01,
FF,
01,
00,
FD,
FE,
FF,
FF,
FE,
FE,
02,
FF,
FC,
00,
FE,
FF,
FF,
FE,
FE,
00,
01,
03,
FD,
FE,
03,
02,
FF,
05,
FF,
FF,
03,
03,
00,
00,
01,
FE,
02,
FD,
FE,
FF,
FF,
01,
06,
FF,
FF,
03,
04,
04,
FE,
FF,
02,
FE,
02,
02,
02,
04,
FF,
FF,
00,
FE,
01,
02,
00,
03,
FE,
00,
02,
FF,
00,
03,
FF,
01,
01,
00,
02,
01,
01,
00,
FD,
03,
01,
00,
FE,
00,
05,
00,
00,
FF,
FE,
00,
02,
00,
00,
FD,
FC,
FB,
03,
00,
02,
FD,
01,
FF,
04,
00,
01,
FE,
FF,
FE,
FE,
01,
00,
01,
00,
03,
FF,
FF,
FF,
00,
05,
03,
FF,
FD,
01,
FE,
02,
FC,
00,
01,
04,
00,
02,
FF,
01,
00,
FF,
03,
FE,
FF,
FE,
FC,
00,
FF,
02,
00,
00,
01,
FF,
02,
00,
FE,
04,
00,
FF,
01,
01,
01,
01,
FF,
FE,
FF,
02,
FE,
04,
FE,
01,
03,
FF,
FF,
02,
FE,
FF,
00,
01,
00,
00,
02,
FE,
00,
FC,
FC,
FF,
04,
FE,
00,
03,
01,
03,
01,
02,
03,
02,
00,
02,
01,
01,
00,
01,
FF,
01,
04,
FF,
01,
FF,
FF,
01,
FE,
03,
FF,
01,
02,
FA,
FD,
FD,
03,
02,
FF,
01,
FE,
FD,
04,
00,
02,
01,
FE,
FC,
01,
FF,
00,
FF,
05,
FF,
02,
02,
02,
00,
01,
00,
01,
05,
FE,
03,
00,
FF,
00,
01,
FF,
00,
02,
05,
FB,
05,
FF,
01,
06,
00,
02,
01,
FF,
01,
00,
FE,
04,
03,
FE,
00,
04,
02,
04,
00,
FB,
01,
01,
FD,
FD,
04,
00,
01,
04,
FE,
FE,
03,
02,
FC,
05,
00,
00,
FE,
05,
00,
00,
01,
FF,
01,
FD,
FE,
04,
FE,
00,
FE,
FF,
01,
FA,
FD,
00,
03,
FD,
00,
02,
FF,
01,
01,
FF,
FD,
FD,
FF,
FE,
FF,
00,
00,
FF,
00,
00,
01,
FD,
02,
00,
FE,
FF,
FE,
FE,
01,
FF,
00,
00,
00,
05,
04,
00,
00,
01,
FE,
02,
02,
FC,
FF,
03,
FF,
00,
FE,
FE,
02,
FF,
00,
FF,
FF,
FE,
00,
FF,
01,
FD,
01,
FF,
01,
03,
01,
FF,
01,
01,
FF,
FC,
FF,
00,
FF,
00,
FE,
FF,
01,
FC,
04,
FF,
FA,
03,
04,
FD,
FE,
03,
FD,
02,
FF,
FE,
03,
04,
FF,
FF,
00,
FD,
02,
00,
FD,
04,
03,
00,
02,
02,
FE,
01,
FE,
FD,
FF,
02,
00,
01,
FC,
FF,
FE,
02,
FF,
01,
FF,
FD,
02,
FC,
00,
00,
03,
03,
04,
FF,
FF,
FF,
03,
03,
FF,
03,
FC,
FF,
FF,
FE,
FB,
00,
00,
02,
FF,
00,
02,
FE,
FB,
FE,
01,
FC,
02,
01,
FE,
01,
00,
02,
02,
02,
FE,
FE,
01,
FF,
01,
00,
00,
00,
01,
00,
01,
01,
00,
FF,
FF,
00,
FF,
FE,
FE,
FF,
00,
02,
FF,
01,
01,
00,
FF,
01,
FF,
FE,
01,
01,
01,
01,
FF,
FF,
01,
FE,
00,
00,
01,
00,
02,
01,
01,
FF,
00,
00,
FF,
00,
00,
FF,
01,
00,
FF,
00,
01,
01,
01,
00,
02,
00,
00,
FF,
02,
00,
FF,
00,
01,
00,
00,
00,
01,
01,
02,
00,
01,
01,
FF,
01,
02,
00,
00,
01,
00,
FF,
00,
00,
FF,
00,
01,
00,
02,
FF,
01,
01,
FE,
00,
FF,
00,
00,
00,
FF,
00,
FF,
02,
00,
01,
FF,
02,
01,
00,
02,
01,
01,
03,
01,
02,
00,
01,
FE,
01,
FF,
02,
00,
02,
01,
01,
FF,
FF,
00,
00,
00,
01,
FE,
00,
00,
FF,
FE,
FF,
FE,
FF,
01,
03,
00,
FF,
02,
00,
01,
02,
00,
01,
01,
01,
FF,
00,
00,
FF,
FF,
01,
FF,
01,
00,
00,
02,
FF,
02,
FF,
02,
02,
FE,
FF,
01,
00,
01,
01,
00,
00,
FF,
00,
00,
01,
00,
FF,
00,
01,
00,
00,
01,
FF,
FF,
FF,
01,
00,
03,
FF,
01,
01,
01,
00,
00,
01,
02,
00,
02,
FF,
00,
00,
00,
00,
01,
00,
01,
02,
00,
00,
01,
00,
02,
01,
FF,
00,
00,
FF,
FF,
00,
00,
00,
00,
00,
FF,
FF,
00,
00,
FF,
00,
00,
01,
01,
02,
03,
FF,
FE,
01,
01,
00,
00,
01,
00,
02,
02,
FF,
00,
01,
01,
02,
00,
01,
00,
02,
01,
00,
01,
01,
02,
FF,
FF,
00,
01,
00,
02,
00,
FF,
00,
01,
FF,
FF,
FE,
01,
FE,
01,
00,
00,
01,
02,
01,
01,
00,
00,
00,
FF,
00,
01,
01,
FF,
00,
00,
01,
00,
01,
00,
00,
00,
01,
FF,
03,
00,
01,
01,
00,
00,
FF,
01,
FF,
00,
01,
00,
FF,
FE,
FE,
00,
FF,
FE,
FD,
00,
01,
FF,
FF,
02,
01,
00,
00,
01,
00,
FF,
03,
01,
00,
00,
00,
01,
01,
01,
01,
FF,
00,
FF,
00,
FF,
FF,
01,
02,
FF,
00,
00,
00,
01,
00,
01,
01,
01,
00,
01,
00,
00,
01,
01,
FF,
00,
FF,
00,
FF,
FE,
01,
01,
01,
00,
01,
03,
01,
01,
00,
01,
01,
01,
00,
02,
01,
01,
00,
02,
02,
00,
01,
01,
01,
00,
01,
02,
FF,
01,
FF,
FF,
00,
00,
02,
FF,
02,
02,
01,
00,
00,
01,
00,
FF,
02,
00,
01,
01,
FF,
00,
00,
01,
FF,
01,
00,
FF,
00,
FF,
00,
02,
01,
00,
00,
01,
01,
FF,
FF,
FF,
02,
00,
FE,
00,
00,
00,
02,
01,
01,
01,
01,
02,
00,
00,
00,
00,
FF,
FF,
00,
01,
FF,
01,
00,
FF,
00,
FE,
00,
00,
00,
FE,
FF,
FF,
01,
01,
02,
FF,
02,
01,
00,
FF,
01,
01,
FE,
FD,
FF,
FE,
FE,
FF,
02,
01,
FF,
FE,
00,
FF,
01,
FF,
00,
00,
00,
FF,
01,
02,
00,
01,
00,
FF,
FF,
FF,
00,
FF,
00,
00,
00,
FF,
01,
01,
FF,
00,
01,
00,
02,
03,
01,
FF,
02,
00,
01,
00,
FE,
FF,
00,
00,
00,
00,
00,
02,
00,
01,
00,
00,
02,
01,
FF,
00,
00,
00,
02,
00,
00,
FF,
00,
FF,
00,
01,
01,
01,
FF,
00,
01,
FF,
00,
01,
00,
FF,
00,
01,
FE,
00,
00,
00,
FF,
01,
01,
00,
00,
01,
01,
00,
00,
00,
00,
01,
01,
FF,
00,
FE,
00,
00,
00,
01,
02,
01,
00,
02,
01,
FE,
00,
00,
00,
00,
02,
01,
00,
02,
FF,
FF,
00,
00,
00,
FF,
00,
01,
01,
00,
FD,
01,
00,
00,
FF,
00,
FF,
00,
FF,
00,
01,
01,
00,
00,
00,
01,
01,
01,
00,
00,
01,
01,
01,
FF,
00,
FF,
00,
FF,
FF,
00,
01,
00,
00,
00,
01,
01,
FF,
FE,
FF,
02,
01,
FF,
00,
00,
00,
01,
00,
01,
01,
01,
FF,
02,
00,
00,
02,
00,
01,
FF,
01,
01,
00,
00,
FF,
FF,
00,
00,
00,
01,
00,
FF,
FF,
FF,
01,
00,
FF,
00,
02,
02,
01,
01,
01,
FF,
00,
01,
00,
00,
00,
00,
00,
01,
00,
FF,
FF,
00,
01,
01,
01,
00,
01,
00,
FF,
FF,
01,
01,
00,
FF,
FF,
FF,
01,
00,
00,
01,
00,
00,
00,
01,
00,
00,
02,
00,
00,
02,
02,
FE,
01,
01,
00,
00,
00,
01,
01,
01,
01,
FE,
00,
02,
01,
00,
01,
01,
FF,
00,
FF,
00,
01,
00,
01,
03,
01,
01,
00,
01,
01,
01,
FF,
FF,
FF,
02,
00,
01,
00,
00,
01,
01,
01,
01,
00,
00,
01,
01,
00,
FF,
FF,
FF,
FF,
01,
01,
FF,
01,
00,
00,
01,
01,
01,
01,
01,
00,
01,
FF,
01,
00,
FF,
01,
01,
00,
00,
FF,
00,
FF,
01,
02,
01,
02,
01,
01,
00,
01,
00,
02,
00,
00,
01,
00,
01,
02,
01,
01,
01,
00,
FF,
01,
03,
02,
00,
00,
00,
FF,
00,
02,
02,
01,
00,
00,
01,
FF,
00,
01,
00,
02,
FF,
00,
02,
00,
00,
00,
00,
01,
FF,
01,
FF,
01,
01,
00,
00,
00,
01,
02,
00,
00,
01,
00,
FE,
FF,
00,
00,
00,
00,
01,
01,
01,
FF,
00,
FF,
00,
02,
01,
00,
00,
00,
FF,
01,
00,
02,
03,
02,
00,
00,
FF,
01,
FF,
01,
02,
01,
03,
00,
00,
01,
01,
02,
01,
01,
FF,
FF,
01,
00,
01,
00,
00,
FF,
02,
02,
00,
00,
00,
00,
00,
FE,
FE,
FF,
00,
00,
00,
01,
01,
00,
01,
01,
01,
00,
02,
FF,
00,
00,
FF,
FF,
FF,
FF,
00,
00,
01,
01,
FE,
01,
03,
FF,
00,
01,
01,
01,
02,
00,
00,
FF,
00,
01,
01,
00,
02,
01,
01,
00,
FE,
FF,
01,
01,
02,
00,
00,
00,
00,
FF,
01,
FF,
01,
02,
00,
00,
00,
01,
00,
FF,
00,
FF,
00,
01,
02,
00,
FF,
02,
01,
00,
00,
01,
FF,
01,
00,
FF,
01,
01,
00,
01,
FF,
00,
FF,
01,
01,
00,
00,
02,
01,
02,
FF,
FF,
01,
01,
01,
00,
FE,
01,
01,
01,
00,
00,
01,
FF,
FF,
FF,
01,
01,
00,
01,
00,
00,
01,
00,
01,
01,
00,
00,
00,
01,
FF,
FE,
00,
01,
02,
FF,
01,
00,
00,
00,
00,
01,
00,
02,
02,
FF,
00,
FE,
00,
01,
00,
FE,
00,
FF,
00,
FF,
FF,
00,
FE,
FF,
01,
00,
00,
00,
02,
01,
00,
01,
FF,
FF,
00,
03,
00,
00,
01,
FE,
00,
00,
01,
01,
00,
01,
01,
FF,
FF,
01,
01,
FF,
01,
00,
00,
FD,
FF,
01,
FF,
FF,
FF,
02,
FF,
FF,
02,
FE,
00,
00,
FF,
01,
00,
FF,
FF,
FE,
FF,
01,
02,
01,
01,
01,
01,
01,
FF,
FF,
00,
00,
01,
01,
00,
01,
00,
02,
01,
01,
00,
00,
01,
01,
00,
01,
00,
00,
00,
FF,
FF,
00,
00,
01,
FF,
01,
00,
00,
FF,
00,
02,
02,
02,
01,
FF,
00,
01,
01,
00,
01,
02,
01,
00,
00,
00,
FE,
02,
01,
02,
01,
01,
03,
01,
00,
01,
00,
00,
00,
00,
01,
01,
00,
00,
02,
FF,
01,
02,
FF,
00,
FF,
FF,
FF,
00,
FE,
FF,
01,
02,
FF,
FF,
02,
00,
00,
00,
01,
01,
00,
01,
01,
02,
03,
FF,
03,
01,
01,
00,
00,
00,
00,
00,
00,
FF,
00,
FF,
00,
02,
01,
01,
00,
00,
02,
00,
02,
02,
02,
00,
01,
01,
00,
FF,
FF,
00,
01,
00,
00,
00,
00,
00,
FF,
FF,
00,
01,
00,
00,
02,
01,
00,
01,
FF,
FF,
01,
00,
00,
00,
FE,
FF,
FF,
00,
FF,
00,
00,
FF,
00,
FF,
FF,
FF,
FE,
00,
FF,
FF,
00,
FF,
00,
00,
00,
01,
00,
02,
02,
02,
00,
01,
01,
00,
01,
00,
02,
00,
00,
02,
FF,
FF,
FF,
FE,
00,
01,
00,
00,
00,
00,
FF,
00,
FF,
00,
00,
00,
00,
00,
01,
00,
00,
FF,
FF,
02,
FF,
01,
00,
FE,
00,
FF,
00,
00,
00,
FF,
FF,
01,
FE,
02,
00,
01,
00,
01,
00,
FF,
00,
FF,
00,
FF,
01,
00,
00,
00,
00,
01,
01,
01,
00,
01,
01,
00,
02,
00,
00,
00,
00,
01,
01,
01,
00,
00,
FF,
FF,
00,
00,
FF,
00,
00,
FF,
FF,
FF,
00,
00,
FF,
FF,
01,
00,
00,
00,
00,
FF,
01,
00,
01,
FF,
01,
02,
01,
01,
00,
01,
00,
01,
01,
02,
00,
01,
FF,
00,
00,
00,
02,
01,
01,
02,
01,
00,
01,
01,
FF,
01,
01,
01,
00,
01,
00,
02,
00,
FE,
01,
FF,
03,
00,
01,
01,
00,
FF,
01,
02,
FE,
00,
01,
00,
FF,
00,
FE,
00,
02,
00,
01,
01,
02,
01,
FF,
01,
01,
01,
01,
00,
00,
00,
FF,
00,
FF,
01,
00,
FF,
01,
FE,
FF,
FE,
00,
FF,
FF,
FF,
01,
00,
FF,
FF,
00,
00,
00,
FE,
FF,
FE,
01,
01,
01,
FF,
02,
FF,
00,
00,
01,
00,
00,
01,
00,
01,
01,
00,
01,
01,
00,
02,
01,
00,
02,
01,
00,
FF,
00,
01,
01,
00,
01,
00,
00,
FF,
01,
FF,
00,
01,
FF,
00,
00,
00,
00,
01,
01,
00,
01,
01,
FF,
02,
01,
00,
00,
FF,
01,
02,
FF,
FE,
00,
00,
00,
FF,
FE,
FF,
03,
00,
01,
02,
01,
00,
00,
01,
01,
00,
02,
00,
03,
00,
01,
02,
02,
01,
01,
02,
01,
01,
00,
00,
01,
00,
02,
00,
02,
01,
01,
00,
00,
02,
FE,
FF,
00,
01,
01,
FF,
FE,
02,
00,
00,
02,
01,
01,
FF,
02,
01,
00,
00,
02,
01,
00,
01,
01,
02,
FF,
00,
00,
00,
01,
01,
00,
00,
00,
01,
FF,
00,
00,
00,
01,
01,
00,
FE,
FF,
00,
01,
FF,
01,
00,
01,
FF,
FF,
FF,
02,
FE,
FF,
00,
01,
00,
00,
01,
01,
00,
02,
01,
00,
00,
01,
01,
00,
01,
01,
00,
FF,
00,
00,
00,
00,
FF,
00,
00,
FF,
00,
FF,
FF,
02,
00,
02,
01,
FF,
01,
FF,
01,
FF,
00,
00,
02,
03,
00,
00,
01,
02,
01,
01,
00,
FF,
FE,
FD,
00,
FF,
00,
00,
01,
FF,
FF,
FF,
00,
FF,
00,
01,
00,
01,
01,
01,
01,
02,
00,
00,
00,
FF,
FF,
01,
00,
01,
01,
FF,
FF,
01,
00,
00,
FF,
01,
01,
00,
00,
01,
02,
02,
00,
00,
00,
01,
01,
00,
FF,
00,
FF,
02,
01,
01,
00,
00,
FF,
00,
FF,
01,
00,
00,
04,
01,
01,
01,
00,
FF,
00,
02,
02,
01,
00,
01,
01,
02,
02,
FF,
02,
FF,
01,
00,
00,
00,
00,
01,
01,
01,
01,
01,
00,
01,
FF,
00,
01,
00,
02,
01,
00,
01,
FF,
01,
01,
00,
01,
02,
01,
03,
00,
01,
00,
01,
00,
FF,
FF,
01,
00,
00,
00,
02,
01,
02,
01,
01,
00,
FF,
00,
FF,
FF,
02,
01,
02,
00,
00,
FF,
00,
01,
00,
01,
FF,
01,
00,
00,
01,
01,
FF,
02,
01,
00,
01,
00,
01,
FF,
01,
00,
01,
00,
00,
01,
00,
00,
FF,
00,
00,
01,
01,
00,
00,
01,
00,
02,
02,
01,
00,
00,
00,
01,
01,
FF,
FF,
00,
00,
02,
01,
01,
00,
00,
FF,
00,
00,
01,
01,
01,
01,
00,
00,
FE,
FF,
00,
00,
00,
00,
FF,
FF,
00,
00,
00,
00,
01,
00,
FE,
01,
FF,
00,
01,
FE,
00,
02,
02,
00,
00,
01,
00,
00,
00,
FF,
02,
01,
00,
00,
FF,
00,
FF,
FF,
00,
00,
00,
FF,
00,
00,
00,
01,
00,
00,
FF,
FF,
FF,
00,
FE,
01,
00,
02,
FF,
02,
00,
01,
FF,
01,
01,
00,
01,
02,
01,
FF,
01,
00,
FE,
01,
FF,
00,
00,
FF,
00,
00,
01,
01,
02,
01,
00,
01,
FF,
02,
FF,
01,
01,
01,
00,
00,
00,
00,
01,
02,
01,
00,
02,
00,
FF,
00,
FF,
02,
01,
02,
01,
01,
00,
00,
01,
FF,
01,
FF,
02,
01,
03,
FF,
01,
02,
00,
00,
02,
01,
00,
00,
FF,
02,
00,
02,
00,
FF,
FF,
02,
00,
FF,
00,
01,
01,
FF,
00,
FF,
01,
02,
00,
00,
01,
00,
01,
01,
00,
00,
00,
00,
01,
00,
01,
00,
FF,
02,
01,
00,
FF,
FE,
00,
00,
01,
FF,
FE,
01,
01,
FF,
00,
FF,
01,
FF,
01,
00,
FF,
00,
01,
00,
00,
01,
00,
00,
FF,
FF,
01,
FF,
FF,
01,
00,
00,
02,
FF,
FF,
00,
02,
02,
01,
FF,
00,
01,
01,
01,
00,
00,
02,
00,
02,
02,
FF,
01,
00,
00,
FF,
00,
00,
02,
02,
01,
00,
01,
00,
00,
00,
00,
FF,
00,
01,
01,
00,
00,
00,
00,
01,
01,
01,
02,
00,
02,
00,
01,
01,
00,
FE,
FF,
02,
00,
00,
01,
01,
01,
00,
00,
00,
00,
01,
02,
01,
00,
00,
00,
FF,
00,
00,
FF,
00,
00,
00,
02,
00,
00,
01,
01,
00,
00,
00,
00,
00,
01,
02,
00,
00,
01,
00,
01,
01,
FF,
02,
01,
01,
FF,
01,
00,
00,
01,
00,
00,
FF,
02,
FF,
00,
FF,
00,
FF,
00,
FF,
01,
01,
00,
02,
01,
00,
00,
01,
01,
FF,
00,
01,
FF,
01,
02,
01,
00,
01,
00,
01,
00,
00,
00,
02,
01,
01,
01,
00,
FF,
00,
00,
00,
00,
02,
00,
01,
00,
FF,
00,
00,
01,
FF,
FF,
00,
01,
FE,
00,
00,
00,
FF,
00,
FF,
00,
01,
FF,
FF,
02,
FE,
FD,
00,
00,
FF,
00,
FF,
01,
00,
00,
01,
01,
00,
00,
00,
01,
01,
03,
00,
02,
02,
00,
00,
00,
FF,
FF,
FF,
FF,
01,
00,
01,
01,
FF,
00,
00,
00,
01,
00,
02,
01,
FF,
FF,
00,
02,
FF,
00,
01,
02,
FE,
FF,
01,
FD,
00,
00,
FF,
FF,
FE,
FF,
FF,
FF,
FE,
00,
00,
FE,
02,
01,
02,
01,
00,
01,
02,
FF,
00,
01,
02,
01,
01,
FF,
FC,
01,
00,
00,
00,
FF,
FF,
00,
FF,
FF,
00,
00,
01,
00,
00,
01,
01,
01,
01,
01,
00,
FF,
00,
02,
FF,
00,
FF,
01,
FF,
01,
01,
00,
01,
03,
02,
01,
01,
00,
00,
00,
02,
01,
00,
01,
01,
01,
01,
00,
FF,
FE,
01,
00,
00,
FF,
00,
01,
01,
01,
FF,
02,
FE,
01,
00,
01,
00,
02,
00,
01,
01,
01,
00,
00,
01,
01,
02,
01,
01,
00,
02,
01,
02,
FF,
FF,
02,
00,
00,
FE,
02,
01,
FF,
00,
00,
FE,
00,
00,
FF,
FE,
FF,
00,
00,
FF,
01,
00,
00,
02,
00,
01,
01,
00,
01,
01,
FF,
00,
00,
01,
00,
FE,
00,
00,
FF,
FE,
01,
00,
00,
01,
FF,
FF,
00,
FF,
FF,
FF,
FF,
01,
00,
01,
00,
FF,
FF,
00,
00,
00,
00,
00,
01,
FF,
FF,
FF,
00,
00,
01,
FF,
00,
01,
01,
00,
00,
00,
02,
01,
00,
01,
01,
FF,
01,
FE,
01,
00,
01,
01,
00,
FF,
FF,
FF,
FF,
01,
FE,
01,
00,
01,
FE,
FF,
01,
FE,
FE,
FF,
FF,
01,
00,
00,
FE,
00,
00,
01,
01,
01,
00,
01,
02,
00,
00,
00,
01,
01,
FE,
00,
01,
00,
00,
02,
FF,
00,
00,
FF,
FF,
01,
03,
00,
00,
00,
FF,
FF,
00,
FE,
00,
FF,
FF,
01,
00,
00,
FF,
FF,
00,
FE,
01,
FF,
00,
FF,
01,
00,
00,
03,
01,
01,
00,
00,
01,
00,
00,
02,
01,
01,
00,
FF,
00,
02,
00,
01,
00,
02,
01,
00,
00,
00,
FF,
FE,
02,
00,
00,
00,
02,
FF,
FF,
01,
00,
FF,
00,
FF,
01,
00,
FF,
00,
01,
01,
FF,
FF,
01,
FF,
00,
01,
FF,
00,
FF,
00,
00,
00,
01,
01,
00,
01,
00,
00,
FF,
01,
FE,
02,
02,
00,
00,
00,
00,
01,
00,
FF,
01,
02,
01,
00,
00,
00,
00,
00,
00,
00,
01,
01,
02,
00,
00,
00,
FF,
01,
01,
02,
FE,
01,
01,
02,
00,
00,
02,
01,
01,
FF,
00,
00,
00,
01,
00,
01,
FD,
01,
01,
00,
00,
00,
00,
01,
01,
00,
FE,
01,
00,
00,
00,
00,
FF,
02,
02,
00,
01,
FF,
FF,
00,
01,
00,
00,
00,
01,
00,
01,
00,
00,
01,
00,
01,
01,
01,
00,
00,
00,
FF,
FF,
FE,
01,
00,
00,
FF,
00,
00,
FF,
01,
00,
01,
02,
01,
02,
FF,
FF,
01,
FF,
FF,
FE,
00,
FF,
FE,
00,
FF,
00,
00,
FE,
FF,
00,
FE,
FF,
00,
FF,
01,
00,
00,
01,
01,
00,
00,
02,
00,
FF,
03,
00,
00,
FF,
00,
FF,
FE,
00,
00,
FF,
00,
00,
FF,
FE,
FF,
00,
FF,
00,
01,
01,
00,
01,
00,
00,
01,
00,
01,
01,
00,
01,
00,
01,
FF,
FF,
FF,
01,
00,
00,
01,
00,
00,
00,
00,
00,
FF,
FF,
FF,
FF,
00,
FF,
FD,
FF,
FE,
00,
02,
02,
01,
FF,
01,
00,
00,
01,
00,
FF,
01,
00,
00,
01,
01,
01,
FE,
00,
00,
00,
00,
00,
01,
02,
01,
FF,
01,
01,
00,
01,
00,
02,
00,
FF,
02,
00,
01,
00,
00,
02,
00,
02,
04,
00,
00,
FF,
01,
00,
00,
00,
00,
01,
00,
00,
00,
01,
02,
02,
01,
01,
00,
00,
01,
01,
01,
01,
01,
00,
01,
00,
02,
FF,
FE,
02,
01,
FF,
00,
00,
FE,
FF,
00,
FE,
00,
00,
FF,
01,
00,
00,
01,
00,
01,
01,
01,
01,
00,
00,
00,
00,
00,
00,
00,
00,
00,
00,
FF,
00,
00,
01,
00,
FF,
01,
FF,
01,
00,
02,
02,
00,
01,
FF,
00,
FF,
01,
01,
00,
FE,
FF,
00,
01,
FF,
00,
02,
00,
00,
02,
00,
01,
01,
01,
00,
00,
00,
01,
00,
00,
00,
00,
02,
00,
00,
00,
FF,
FF,
00,
00,
01,
01,
00,
00,
00,
00,
01,
FF,
00,
FF,
01,
00,
FF,
02,
00,
00,
00,
00,
00,
01,
00,
00,
01,
02,
02,
FF,
FE,
FF,
03,
FF,
00,
FF,
FE,
FF,
00,
00,
00,
00,
01,
00,
01,
01,
00,
00,
00,
00,
01,
01,
00,
02,
01,
00,
00,
00,
00,
00,
00,
00,
01,
01,
01,
01,
FF,
01,
00,
01,
01,
FF,
FF,
00,
FF,
00,
02,
00,
01,
00,
00,
FF,
00,
01,
00,
01,
01,
03,
02,
00,
01,
FF,
03,
FF,
00,
00,
02,
00,
01,
01,
01,
FF,
02,
00,
01,
01,
00,
01,
00,
01,
01,
00,
01,
01,
01,
01,
00,
01,
01,
FE,
00,
FC,
02,
00,
01,
FF,
02,
01,
02,
02,
01,
01,
01,
01,
01,
00,
FF,
01,
01,
00,
01,
00,
01,
01,
FF,
01,
00,
01,
01,
01,
01,
01,
01,
FE,
01,
01,
01,
00,
01,
00,
00,
02,
02,
01,
00,
01,
01,
01,
03,
01,
00,
00,
FF,
02,
01,
00,
02,
01,
02,
FF,
01,
01,
01,
00,
00,
FF,
00,
00,
00,
FD,
01,
00,
FF,
00,
01,
01,
FF,
02,
02,
00,
01,
01,
00,
01,
02,
00,
00,
02,
00,
FF,
01,
00,
01,
00,
00,
00,
00,
01,
01,
00,
FF,
00,
00,
01,
01,
01,
00,
00,
02,
FE,
FF,
FE,
00,
FE,
FF,
02,
FF,
FF,
00,
00,
FF,
FF,
00,
01,
02,
00,
00,
00,
01,
02,
00,
01,
01,
01,
01,
00,
00,
00,
02,
01,
00,
00,
FF,
00,
00,
00,
FF,
00,
FF,
FF,
00,
FF,
01,
01,
00,
02,
FF,
00,
00,
01,
FF,
00,
00,
00,
FF,
00,
FF,
FE,
01,
00,
00,
01,
03,
00,
FF,
FF,
00,
00,
FF,
01,
00,
02,
FF,
00,
02,
02,
02,
00,
02,
FF,
00,
02,
02,
00,
01,
00,
01,
00,
01,
FF,
00,
FE,
01,
00,
00,
01,
00,
00,
00,
00,
FF,
00,
FE,
FF,
FF,
01,
00,
01,
FF,
03,
00,
FF,
00,
00,
FF,
01,
00,
00,
FF,
01,
00,
01,
00,
01,
01,
01,
01,
00,
00,
02,
FF,
00,
FF,
FF,
FF,
FF,
00,
FF,
00,
00,
00,
00,
00,
01,
01,
00,
01,
00,
01,
01,
01,
01,
02,
00,
FF,
FF,
01,
00,
00,
FD,
00,
FF,
FF,
00,
00,
00,
01,
01,
01,
01,
01,
03,
FF,
FF,
00,
00,
02,
00,
FF,
FF,
01,
01,
02,
00,
00,
00,
01,
FF,
02,
01,
01,
02,
01,
01,
00,
FE,
00,
02,
01,
03,
00,
FE,
01,
00,
00,
01,
00,
00,
00,
00,
00,
01,
FF,
01,
00,
00,
00,
00,
FF,
FC,
FE,
FF,
00,
FF,
00,
FE,
00,
00,
00,
FE,
01,
00,
02,
00,
FF,
03,
01,
02,
02,
02,
00,
01,
00,
00,
00,
FF,
02,
FF,
02,
01,
00,
FF,
00,
FF,
01,
00,
01,
00,
00,
01,
00,
02,
02,
00,
FF,
00,
00,
01,
02,
01,
01,
FF,
02,
00,
FF,
00,
02,
FF,
00,
02,
00,
01,
00,
01,
00,
02,
00,
02,
00,
02,
01,
00,
00,
FE,
FE,
FF,
00,
01,
00,
FF,
00,
FF,
00,
01,
00,
00,
02,
00,
01,
02,
00,
00,
01,
00,
01,
00,
01,
00,
01,
FF,
01,
FF,
01,
00,
00,
00,
FF,
00,
FF,
00,
00,
01,
00,
01,
01,
01,
01,
00,
00,
FF,
00,
FF,
00,
00,
00,
00,
00,
01,
FF,
FF,
FF,
01,
01,
00,
01,
FF,
01,
02,
00,
01,
FF,
01,
01,
00,
02,
00,
01,
01,
FF,
00,
02,
02,
01,
FF,
01,
FF,
00,
FE,
FF,
00,
00,
FF,
FF,
01,
00,
FE,
FF,
FE,
00,
FE,
FF,
00,
FF,
FF,
00,
01,
01,
02,
02,
00,
00,
01,
01,
FE,
00,
00,
FF,
01,
02,
01,
00,
01,
00,
00,
FF,
01,
FF,
00,
01,
02,
FF,
01,
FF,
01,
01,
01,
00,
00,
00,
01,
00,
00,
FF,
01,
02,
02,
02,
00,
FF,
FE,
FE,
00,
00,
01,
FE,
00,
00,
01,
02,
01,
01,
FE,
FF,
00,
FF,
FE,
00,
FF,
00,
FF,
00,
FE,
00,
01,
00,
FE,
00,
00,
01,
01,
01,
01,
FF,
01,
03,
01,
01,
00,
01,
FF,
00,
FF,
00,
00,
00,
00,
FF,
FF,
00,
02,
00,
00,
01,
01,
00,
00,
00,
00,
01,
00,
00,
FF,
FF,
01,
00,
00,
FF,
01,
00,
00,
00,
01,
02,
00,
01,
02,
00,
00,
FF,
01,
00,
01,
00,
01,
01,
FF,
FF,
00,
02,
01,
00,
00,
02,
02,
00,
01,
00,
FC,
FF,
FF,
FF,
FF,
00,
00,
FF,
00,
01,
FF,
00,
01,
00,
FF,
FF,
01,
01,
01,
00,
01,
02,
00,
01,
02,
01,
00,
01,
01,
FE,
FF,
01,
00,
FE,
FF,
00,
01,
01,
00,
00,
01,
FF,
00,
00,
00,
FE,
FF,
02,
FF,
00,
00,
01,
01,
01,
00,
00,
01,
00,
00,
02,
01,
01,
01,
00,
00,
FF,
00,
00,
01,
02,
03,
00,
01,
02,
FF,
01,
01,
01,
00,
01,
01,
00,
01,
01,
00,
00,
FF,
01,
FF,
FE,
FE,
00,
00,
FF,
FF,
FF,
00,
FE,
00,
01,
02,
01,
01,
00,
FF,
02,
01,
02,
01,
02,
01,
01,
00,
00,
02,
01,
FF,
01,
01,
00,
01,
00,
00,
00,
02,
01,
02,
01,
01,
01,
01,
01,
02,
00,
00,
01,
00,
01,
01,
02,
01,
00,
01,
02,
01,
02,
00,
00,
01,
01,
00,
00,
00,
FF,
FF,
01,
00,
00,
00,
FE,
00,
00,
00,
01,
02,
01,
01,
00,
00,
00,
01,
FF,
00,
FF,
FE,
FF,
00,
FC,
FF,
FF,
01,
00,
00,
00,
02,
01,
02,
FF,
01,
00,
02,
02,
00,
00,
FF,
00,
00,
00,
01,
FF,
FF,
FF,
00,
00,
01,
03,
00,
00,
FF,
01,
00,
02,
00,
00,
01,
01,
01,
01,
00,
00,
01,
02,
00,
00,
00,
FE,
FF,
00,
01,
FF,
00,
01,
00,
FE,
01,
01,
00,
00,
01,
01,
00,
00,
01,
00,
00,
FF,
FF,
00,
00,
FF,
01,
01,
01,
00,
01,
00,
01,
00,
01,
02,
00,
00,
01,
00,
00,
01,
00,
FF,
FF,
FF,
00,
01,
01,
00,
01,
00,
00,
00,
00,
FF,
FF,
FF,
00,
FF,
00,
01,
02,
02,
01,
00,
FE,
01,
00,
FE,
00,
01,
00,
FF,
00,
00,
02,
00,
01,
00,
00,
FF,
01,
FF,
02,
00,
02,
01,
00,
03,
00,
02,
FF,
00,
FD,
01,
00,
FF,
FF,
01,
00,
FF,
FF,
FF,
01,
00,
01,
01,
00,
00,
00,
01,
01,
01,
00,
00,
01,
00,
01,
01,
FF,
00,
FF,
FF,
00,
FF,
00,
01,
02,
00,
00,
01,
FF,
FF,
01,
02,
01,
01,
00,
00,
00,
01,
01,
00,
01,
01,
01,
00,
01,
00,
01,
00,
00,
FF,
00,
00,
00,
01,
01,
00,
01,
FF,
01,
00,
FF,
FE,
01,
FF,
FF,
00,
01,
01,
00,
00,
01,
00,
01,
00,
FF,
02,
00,
01,
FF,
00,
00,
01,
00,
FF,
01,
01,
00,
01,
00,
01,
00,
00,
00,
00,
FF,
01,
00,
01,
02,
02,
01,
01,
FF,
00,
FF,
03,
00,
FF,
00,
00,
00,
00,
00,
00,
02,
01,
01,
00,
02,
00,
00,
FE,
FE,
FE,
01,
FF,
FF,
01,
FF,
00,
01,
FD,
00,
FE,
FF,
FF,
01,
FF,
00,
01,
00,
00,
FF,
00,
01,
FF,
FE,
FE,
01,
FE,
01,
FF,
00,
02,
00,
00,
FE,
00,
FF,
00,
FF,
FF,
00,
FE,
00,
00,
00,
00,
FF,
00,
01,
FF,
FE,
01,
01,
01,
00,
00,
FF,
02,
01,
00,
FE,
FF,
FE,
00,
02,
00,
00,
01,
00,
02,
00,
00,
FD,
FE,
00,
01,
00,
00,
01,
FF,
FF,
FF,
FE,
01,
FD,
00,
FF,
00,
00,
00,
00,
00,
FE,
01,
00,
FF,
01,
03,
00,
00,
01,
00,
00,
00,
02,
03,
00,
FF,
02,
01,
02,
00,
FF,
01,
02,
00,
00,
01,
01,
00,
FF,
01,
00,
01,
00,
02,
03,
FF,
00,
01,
FF,
00,
FE,
FE,
FF,
00,
00,
01,
00,
00,
00,
00,
FF,
FF,
02,
01,
00,
01,
01,
00,
01,
01,
01,
FF,
FD,
FF,
FF,
FF,
FF,
FF,
FF,
FF,
FF,
00,
00,
01,
01,
FF,
01,
00,
FF,
01,
FF,
01,
00,
00,
00,
FF,
02,
01,
00,
FF,
00,
00,
00,
02,
02,
01,
FF,
02,
FF,
00,
FF,
00,
00,
00,
00,
00,
00,
01,
FE,
01,
01,
00,
FF,
02,
FE,
00,
00,
00,
02,
01,
FF,
01,
FF,
00,
02,
02,
00,
FE,
FF,
FF,
00,
FE,
01,
FF,
FE,
00,
00,
01,
FE,
FD,
FF,
FF,
00,
01,
02,
01,
00,
00,
FF,
02,
01,
01,
02,
01,
04,
01,
00,
00,
01,
02,
00,
01,
01,
00,
02,
FF,
00,
FF,
01,
00,
02,
01,
00,
00,
01,
01,
FF,
02,
00,
00,
FF,
00,
FF,
01,
01,
00,
01,
00,
01,
FF,
02,
01,
02,
01,
01,
FF,
00,
02,
FF,
01,
02,
01,
00,
FF,
FF,
FF,
FF,
FF,
FF,
FF,
00,
FF,
01,
00,
FF,
01,
FF,
02,
FF,
01,
01,
01,
01,
FF,
01,
FF,
01,
02,
00,
02,
01,
01,
01,
02,
02,
FF,
02,
01,
02,
02,
00,
01,
00,
01,
01,
01,
01,
00,
02,
02,
01,
01,
03,
00,
02,
00,
01,
01,
01,
00,
FF,
00,
00,
00,
00,
FF,
02,
00,
02,
02,
01,
00,
00,
00,
00,
FF,
FE,
FE,
FF,
FE,
FF,
FF,
FF,
FE,
02,
00,
00,
00,
01,
01,
01,
00,
00,
FF,
FE,
00,
01,
01,
02,
02,
01,
01,
02,
00,
00,
02,
00,
FF,
00,
02,
00,
02,
02,
FF,
FE,
FF,
02,
00,
03,
01,
01,
02,
FF,
FE,
FE,
FF,
04,
01,
FC,
FE,
FE,
01,
03,
FD,
FF,
FE,
00,
FD,
00,
02,
00,
02,
02,
06,
00,
03,
04,
02,
01,
02,
FF,
02,
03,
FD,
03,
FF,
FD,
FD,
03,
01,
FE,
04,
FC,
00,
02,
FE,
00,
FF,
03,
FF,
04,
02,
01,
00,
FF,
03,
03,
01,
00,
03,
03,
FE,
02,
01,
00,
FF,
FF,
01,
01,
02,
FE,
FE,
FF,
04,
01,
03,
02,
02,
03,
02,
03,
02,
FF,
01,
01,
01,
FE,
02,
02,
01,
01,
FD,
01,
02,
00,
01,
01,
02,
00,
02,
02,
FE,
02,
00,
00,
01,
00,
FF,
02,
00,
FD,
FE,
01,
02,
03,
FF,
03,
FD,
00,
00,
FD,
03,
FF,
FF,
01,
FF,
01,
00,
FD,
01,
02,
FE,
04,
04,
FD,
02,
05,
FF,
02,
FE,
FF,
01,
01,
FE,
02,
FC,
02,
FF,
00,
01,
02,
FF,
FF,
FF,
FE,
FB,
01,
FF,
00,
FF,
02,
FF,
01,
FC,
04,
02,
FE,
01,
01,
00,
FE,
02,
00,
FF,
02,
03,
01,
00,
03,
01,
FE,
02,
FE,
00,
01,
FF,
04,
00,
FF,
FF,
05,
FE,
02,
FD,
02,
00,
06,
02,
03,
FF,
00,
00,
01,
FE,
02,
FD,
FE,
01,
00,
00,
00,
FC,
FE,
01,
FE,
00,
00,
02,
01,
01,
05,
FF,
FF,
02,
00,
01,
02,
00,
FD,
01,
01,
02,
FE,
00,
FF,
FE,
FF,
FE,
FF,
00,
02,
01,
04,
01,
FF,
FB,
00,
FF,
00,
FE,
FE,
FF,
FF,
00,
01,
01,
FF,
01,
01,
04,
00,
00,
FF,
00,
FF,
01,
01,
FE,
FF,
FE,
00,
FE,
01,
02,
02,
04,
01,
01,
01,
FF,
02,
03,
04,
FF,
01,
01,
02,
00,
FF,
00,
00,
FD,
FD,
FE,
01,
02,
02,
01,
04,
FE,
FE,
02,
FE,
00,
FE,
02,
02,
04,
00,
FF,
FD,
03,
00,
FF,
01,
FE,
FE,
01,
02,
FC,
02,
02,
FE,
00,
00,
00,
FD,
FF,
02,
FD,
02,
FD,
FF,
01,
FF,
01,
00,
FF,
01,
01,
02,
03,
FF,
03,
FF,
FF,
FF,
FE,
00,
FF,
FE,
FE,
01,
01,
FE,
03,
FF,
04,
00,
00,
01,
02,
01,
01,
00,
FD,
FF,
01,
01,
01,
FE,
02,
05,
00,
00,
00,
01,
02,
FF,
FF,
FF,
04,
FE,
05,
02,
02,
02,
03,
FF,
FF,
02,
03,
FF,
00,
FC,
FF,
FE,
FE,
00,
04,
FF,
03,
01,
FF,
FF,
00,
FF,
FF,
01,
01,
05,
03,
05,
02,
00,
FD,
FE,
00,
FF,
FD,
03,
02,
02,
FF,
FF,
00,
03,
01,
00,
FF,
00,
02,
FE,
01,
02,
FF,
01,
00,
01,
00,
FD,
FE,
FF,
01,
01,
00,
FE,
03,
FD,
00,
01,
FE,
00,
FF,
FD,
02,
FF,
FC,
01,
03,
02,
04,
FF,
00,
02,
01,
04,
FF,
00,
00,
01,
FF,
FE,
FF,
FE,
03,
FF,
02,
FD,
00,
00,
01,
00,
FF,
FF,
FF,
FD,
02,
01,
FF,
FD,
FF,
FF,
02,
01,
03,
02,
FE,
02,
00,
01,
06,
03,
01,
00,
00,
00,
01,
FF,
01,
00,
06,
FE,
FD,
FF,
04,
04,
03,
07,
00,
01,
FD,
03,
FF,
FC,
FF,
01,
FD,
01,
03,
FF,
FF,
00,
00,
00,
00,
01,
FF,
03,
01,
01,
02,
FE,
FD,
FC,
02,
00,
FF,
01,
03,
FF,
FE,
FC,
02,
00,
FD,
FD,
04,
02,
03,
FE,
FE,
FF,
FE,
00,
00,
FF,
03,
00,
05,
03,
03,
01,
02,
01,
FE,
00,
FE,
FE,
01,
FF,
03,
02,
FF,
00,
00,
04,
01,
06,
01,
FE,
03,
FF,
00,
00,
FF,
01,
01,
01,
01,
02,
FF,
FE,
FF,
00,
02,
01,
FE,
00,
FF,
01,
FF,
00,
FF,
FF,
FF,
00,
FF,
02,
FE,
02,
01,
03,
03,
01,
FD,
02,
02,
01,
FF,
01,
02,
FD,
FE,
FF,
00,
01,
00,
02,
02,
FE,
01,
FD,
FC,
FE,
FF,
FF,
FD,
00,
FD,
00,
00,
00,
00,
03,
FF,
FF,
FF,
00,
02,
00,
00,
FF,
FC,
01,
FE,
00,
02,
01,
00,
02,
FD,
FF,
01,
FE,
01,
01,
01,
FF,
FF,
FF,
00,
FF,
01,
FE,
FF,
01,
01,
FF,
01,
FF,
00,
FE,
FD,
FD,
FE,
FF,
02,
00,
03,
05,
00,
02,
02,
02,
FF,
04,
FE,
FF,
02,
01,
FC,
FF,
00,
FD,
01,
00,
02,
01,
00,
03,
FF,
FF,
FF,
01,
00,
03,
FF,
00,
02,
00,
FE,
FD,
FF,
02,
01,
FF,
02,
00,
01,
FF,
04,
02,
01,
00,
00,
00,
01,
FE,
FD,
00,
02,
01,
01,
00,
FE,
00,
02,
FE,
00,
FE,
FF,
01,
FE,
FD,
FE,
02,
FE,
FD,
FC,
FF,
FD,
00,
FF,
01,
01,
FD,
01,
01,
FE,
FC,
FE,
02,
FF,
FF,
FF,
FC,
00,
FC,
02,
03,
01,
FE,
FF,
02,
03,
03,
02,
01,
01,
01,
FE,
FF,
FF,
01,
00,
02,
03,
01,
02,
01,
02,
00,
00,
00,
FE,
04,
00,
FF,
01,
01,
03,
FD,
FF,
02,
02,
00,
02,
01,
FE,
00,
00,
FE,
04,
FF,
01,
FD,
FF,
01,
FE,
FD,
FF,
00,
01,
00,
FE,
03,
04,
01,
02,
00,
00,
FF,
FD,
00,
01,
FF,
FE,
00,
FF,
04,
07,
03,
FE,
00,
02,
01,
01,
01,
FF,
01,
FE,
00,
04,
FF,
FF,
00,
04,
00,
02,
FE,
FF,
01,
FF,
FF,
FF,
FD,
00,
03,
05,
01,
00,
FE,
00,
FF,
02,
FC,
03,
02,
FF,
00,
FF,
FE,
01,
FF,
00,
00,
FD,
00,
FD,
02,
00,
03,
FB,
FE,
01,
01,
04,
00,
FF,
FD,
00,
01,
00,
03,
02,
00,
FE,
02,
00,
02,
03,
02,
02,
FE,
01,
00,
FD,
FE,
01,
04,
FE,
FD,
FD,
FD,
FF,
FE,
FD,
01,
01,
02,
03,
02,
00,
FD,
02,
00,
02,
04,
FE,
02,
00,
01,
FF,
FF,
04,
FF,
FE,
FF,
00,
03,
01,
01,
01,
05,
FF,
02,
03,
04,
03,
01,
01,
01,
00,
00,
FE,
00,
01,
00,
00,
01,
00,
01,
00,
FE,
05,
03,
02,
02,
00,
02,
05,
03,
01,
01,
01,
01,
FF,
FE,
01,
04,
FE,
FF,
03,
01,
04,
00,
FC,
00,
FB,
FE,
00,
FF,
00,
FD,
FC,
FD,
FD,
00,
FF,
FE,
FF,
02,
01,
01,
FE,
01,
00,
FF,
02,
00,
00,
02,
03,
00,
FC,
FD,
02,
FE,
01,
01,
FD,
01,
02,
01,
02,
01,
01,
01,
04,
FF,
00,
FF,
01,
02,
03,
02,
FF,
FF,
FF,
02,
01,
00,
02,
05,
FF,
02,
04,
00,
00,
FF,
FF,
FE,
02,
FC,
02,
04,
02,
02,
01,
FF,
FE,
02,
01,
00,
03,
03,
01,
02,
02,
02,
02,
FF,
FF,
FD,
03,
03,
00,
02,
FD,
01,
00,
00,
FC,
01,
00,
FE,
01,
FF,
00,
01,
04,
01,
FD,
02,
FE,
00,
FE,
00,
FD,
FE,
00,
FE,
FC,
00,
FF,
01,
FE,
02,
02,
02,
01,
03,
FD,
01,
03,
02,
01,
01,
02,
FE,
FF,
FD,
FB,
03,
FF,
00,
FC,
00,
00,
00,
00,
01,
FC,
FE,
00,
02,
01,
FE,
02,
FD,
02,
02,
02,
FF,
02,
03,
00,
04,
FF,
00,
00,
FD,
FF,
00,
00,
02,
FF,
02,
FF,
01,
03,
FE,
FF,
FF,
01,
02,
02,
00,
03,
03,
00,
FC,
00,
01,
FE,
FF,
FA,
FF,
FF,
FD,
02,
04,
02,
FD,
04,
FD,
FC,
00,
00,
02,
02,
00,
02,
01,
02,
02,
01,
FD,
00,
02,
06,
FF,
FE,
FE,
FF,
FF,
01,
01,
02,
02,
00,
01,
FE,
FF,
FF,
FD,
FF,
01,
00,
FF,
FE,
FD,
FF,
02,
00,
FF,
FB,
02,
FA,
FD,
00,
FC,
00,
01,
01,
00,
00,
FE,
01,
FF,
01,
FF,
FE,
FF,
FD,
FE,
05,
04,
00,
FE,
01,
00,
FE,
07,
04,
FF,
02,
FF,
04,
FF,
03,
02,
03,
FE,
03,
00,
03,
FE,
FF,
01,
00,
03,
00,
FC,
FD,
00,
FF,
FF,
00,
FF,
04,
00,
00,
00,
FD,
FF,
01,
FF,
00,
03,
FD,
01,
FD,
01,
01,
FC,
02,
FF,
03,
03,
00,
01,
FE,
FF,
01,
01,
03,
02,
FF,
00,
03,
FE,
03,
00,
FE,
FE,
01,
00,
FF,
04,
01,
00,
00,
02,
04,
00,
00,
00,
FF,
03,
03,
03,
05,
00,
FF,
03,
FD,
FF,
FF,
00,
FF,
02,
01,
05,
FF,
FE,
01,
FF,
FF,
02,
01,
FE,
FD,
FC,
01,
FD,
04,
FE,
FE,
00,
FF,
01,
FF,
01,
01,
FE,
02,
02,
01,
03,
02,
01,
01,
02,
FE,
FF,
01,
02,
01,
03,
FC,
FD,
FE,
02,
FF,
FF,
02,
02,
FE,
02,
FF,
03,
02,
03,
05,
04,
00,
01,
04,
FD,
FE,
FE,
01,
03,
FF,
FF,
03,
02,
02,
00,
FC,
01,
FC,
FE,
FD,
00,
00,
FE,
03,
FE,
01,
02,
FF,
04,
01,
FE,
00,
FE,
00,
FF,
FF,
FE,
00,
03,
02,
00,
00,
FF,
FF,
01,
FF,
FE,
01,
00,
FC,
01,
FF,
FD,
FF,
02,
03,
03,
03,
01,
02,
00,
04,
FE,
03,
FC,
FF,
FE,
05,
00,
03,
FE,
01,
01,
01,
01,
01,
01,
00,
00,
00,
FE,
FE,
00,
FF,
03,
FD,
01,
FF,
01,
FF,
02,
FE,
00,
FF,
FF,
FF,
00,
FF,
FE,
00,
02,
04,
02,
00,
01,
FF,
02,
04,
01,
00,
01,
00,
00,
FE,
FF,
FF,
00,
01,
02,
01,
00,
00,
00,
02,
00,
FF,
FE,
04,
FE,
01,
01,
00,
03,
FD,
00,
FF,
01,
02,
FF,
00,
00,
02,
01,
01,
FE,
02,
FF,
FF,
00,
02,
FF,
FF,
00,
02,
00,
02,
03,
00,
00,
00,
00,
01,
00,
01,
02,
00,
FF,
00,
02,
00,
02,
FF,
FE,
03,
04,
02,
02,
02,
00,
01,
02,
FF,
00,
04,
03,
03,
FE,
FE,
FF,
FE,
04,
01,
FB,
FD,
FE,
01,
FE,
01,
FC,
01,
03,
00,
FF,
03,
00,
01,
01,
00,
00,
00,
01,
FE,
01,
02,
01,
01,
00,
FF,
01,
FB,
00,
FE,
FB,
FE,
03,
FE,
FF,
FF,
01,
FF,
FF,
FE,
00,
02,
00,
02,
04,
FF,
02,
FE,
FE,
FF,
04,
01,
FF,
FF,
FF,
02,
00,
FF,
01,
03,
00,
01,
04,
FF,
01,
01,
FE,
01,
02,
01,
01,
00,
02,
02,
04,
FF,
02,
03,
00,
02,
04,
04,
FD,
02,
02,
00,
FF,
00,
FE,
01,
FD,
FE,
FD,
FF,
FF,
02,
05,
02,
03,
FD,
02,
02,
FF,
01,
FF,
FB,
02,
01,
FC,
FC,
FD,
01,
FF,
00,
FF,
00,
02,
FF,
04,
01,
FF,
FE,
FE,
02,
01,
02,
02,
00,
00,
02,
01,
05,
00,
03,
01,
01,
00,
00,
FD,
04,
05,
FB,
03,
FE,
00,
FD,
FF,
00,
02,
07,
FF,
FE,
04,
00,
FE,
00,
FE,
FF,
01,
00,
FD,
04,
02,
00,
00,
02,
FF,
FF,
01,
04,
03,
02,
01,
01,
FE,
00,
FF,
00,
00,
04,
00,
00,
02,
01,
FE,
02,
00,
02,
05,
FF,
02,
01,
02,
00,
FB,
FF,
01,
FF,
01,
FF,
00,
01,
02,
00,
02,
01,
04,
02,
01,
03,
02,
FE,
01,
00,
01,
01,
01,
02,
FF,
02,
FD,
FF,
FF,
00,
02,
FF,
03,
FF,
FF,
04,
01,
02,
FF,
FE,
FF,
01,
02,
02,
FF,
03,
00,
03,
03,
02,
02,
00,
01,
FF,
FF,
01,
FD,
FF,
00,
00,
FD,
01,
FE,
FE,
01,
02,
02,
00,
01,
FE,
00,
F9,
FB,
00,
FF,
05,
06,
03,
FE,
02,
01,
02,
FD,
01,
02,
01,
00,
FE,
01,
FE,
FE,
FF,
00,
02,
00,
00,
FD,
01,
01,
01,
FC,
00,
00,
02,
FF,
FE,
00,
FE,
FF,
02,
01,
FF,
FD,
01,
03,
00,
FE,
00,
FD,
FF,
01,
01,
FE,
01,
01,
FE,
FE,
FF,
FB,
01,
FE,
FF,
01,
00,
00,
FE,
02,
00,
FE,
01,
00,
01,
FE,
01,
FE,
FB,
00,
01,
02,
03,
03,
FF,
00,
00,
01,
FB,
04,
00,
FF,
05,
00,
FD,
01,
FF,
FF,
03,
03,
FC,
03,
FD,
FF,
01,
02,
02,
01,
00,
02,
FE,
01,
03,
00,
02,
FF,
00,
04,
00,
FE,
00,
01,
FF,
FF,
01,
02,
00,
02,
FF,
04,
00,
00,
01,
00,
02,
FD,
FF,
FD,
00,
02,
00,
01,
01,
01,
FE,
00,
01,
FE,
FE,
01,
01,
FF,
04,
00,
FE,
00,
01,
01,
FF,
FF,
FD,
FC,
03,
FD,
01,
01,
FC,
00,
FE,
FF,
01,
05,
FD,
FE,
FB,
01,
01,
FE,
01,
00,
FE,
02,
FF,
01,
01,
FF,
03,
FE,
00,
01,
01,
FF,
00,
FF,
00,
00,
03,
01,
03,
00,
00,
02,
FE,
FF,
FF,
01,
00,
FF,
01,
FA,
FD,
FE,
FE,
FF,
FD,
00,
03,
00,
FE,
00,
00,
FD,
01,
01,
03,
FE,
00,
01,
00,
00,
FE,
00,
03,
FF,
FF,
FD,
01,
01,
00,
FE,
FE,
FC,
00,
FF,
00,
FF,
01,
FD,
FF,
FE,
FD,
02,
01,
FF,
FF,
02,
FF,
02,
FF,
02,
02,
03,
FD,
00,
00,
FF,
02,
FF,
FF,
05,
02,
FE,
FF,
FF,
00,
02,
00,
01,
02,
01,
FE,
01,
00,
04,
01,
02,
02,
03,
02,
02,
03,
03,
03,
00,
FC,
02,
FE,
01,
FD,
02,
00,
01,
03,
02,
FF,
02,
01,
01,
FE,
03,
FF,
00,
01,
FF,
03,
00,
FF,
02,
00,
01,
00,
00,
01,
FF,
FE,
01,
01,
01,
02,
FF,
02,
01,
06,
FE,
03,
03,
02,
02,
FD,
01,
02,
00,
FF,
FF,
02,
02,
01,
04,
01,
01,
01,
03,
03,
00,
03,
FF,
02,
FE,
01,
02,
03,
01,
00,
02,
03,
FF,
FD,
00,
FE,
FF,
00,
01,
02,
FF,
02,
02,
05,
06,
02,
FF,
02,
00,
00,
FE,
FF,
00,
00,
FF,
05,
00,
03,
03,
02,
00,
FD,
01,
01,
FF,
FE,
00,
FE,
FE,
01,
00,
FF,
03,
00,
03,
FF,
00,
00,
FE,
FD,
05,
02,
01,
00,
03,
FF,
01,
01,
01,
02,
FE,
00,
03,
01,
FF,
FF,
FE,
FF,
00,
01,
FD,
01,
00,
02,
00,
FF,
00,
FF,
00,
00,
FF,
FF,
00,
00,
FF,
01,
02,
02,
02,
00,
00,
00,
00,
00,
00,
01,
02,
FE,
00,
FF,
00,
01,
FE,
01,
04,
01,
02,
01,
FF,
00,
00,
00,
03,
02,
02,
FF,
FF,
00,
FE,
FF,
00,
00,
00,
00,
FF,
01,
01,
01,
FF,
FF,
FE,
02,
01,
FF,
01,
01,
01,
00,
00,
02,
02,
FF,
FF,
02,
01,
00,
01,
00,
01,
FE,
03,
FF,
FD,
01,
00,
00,
FF,
00,
01,
FF,
01,
01,
01,
FF,
00,
01,
03,
03,
00,
01,
FF,
00,
00,
00,
00,
00,
03,
00,
02,
01,
FF,
01,
FE,
FF,
FE,
00,
FC,
01,
01,
01,
00,
01,
FC,
01,
00,
01,
FE,
01,
FF,
01,
00,
FE,
01,
04,
00,
01,
FF,
01,
00,
01,
02,
00,
00,
02,
03,
00,
FF,
FE,
00,
FF,
FF,
02,
01,
FE,
01,
FF,
FE,
01,
02,
00,
00,
00,
00,
02,
01,
01,
FF,
01,
FF,
01,
00,
00,
FF,
00,
03,
01,
00,
01,
02,
01,
FF,
02,
FF,
01,
FF,
FF,
00,
01,
02,
02,
FF,
FF,
00,
00,
FF,
01,
02,
01,
01,
00,
FF,
01,
FF,
00,
00,
FF,
00,
FF,
00,
FF,
01,
01,
FF,
00,
FF,
01,
01,
00,
00,
00,
00,
01,
FF,
02,
00,
FF,
00,
01,
FF,
FF,
00,
02,
02,
02,
FF,
02,
01,
FF,
00,
FF,
01,
00,
FE,
FF,
01,
00,
00,
02,
01,
00,
FF,
FF,
01,
00,
00,
FE,
00,
01,
01,
02,
01,
FC,
FE,
00,
02,
FF,
01,
03,
02,
01,
FF,
00,
00,
01,
00,
00,
01,
02,
01,
FE,
01,
00,
FE,
FF,
FE,
00,
01,
01,
01,
01,
00,
01,
00,
00,
FF,
01,
00,
01,
FF,
00,
FD,
FF,
02,
00,
01,
01,
FF,
00,
FF,
00,
00,
01,
00,
00,
FE,
00,
FF,
01,
FF,
01,
FF,
00,
FD,
01,
FE,
01,
00,
FF,
00,
FF,
01,
00,
00,
01,
01,
01,
01,
00,
00,
FE,
FF,
01,
02,
01,
00,
01,
FF,
FF,
03,
01,
02,
01,
00,
01,
03,
FE,
01,
00,
FF,
02,
00,
01,
00,
02,
03,
01,
01,
01,
FF,
00,
00,
FF,
00,
00,
FF,
01,
02,
00,
00,
00,
01,
FE,
FF,
FD,
FF,
FF,
01,
FF,
FF,
FE,
FF,
01,
00,
00,
02,
01,
01,
00,
01,
FF,
00,
FF,
FE,
01,
00,
00,
01,
01,
00,
00,
00,
00,
01,
00,
01,
01,
00,
FF,
FE,
FD,
02,
01,
FE,
FD,
FE,
FE,
00,
FF,
00,
02,
02,
02,
01,
03,
02,
03,
00,
00,
00,
01,
FE,
01,
FF,
00,
00,
00,
01,
00,
03,
01,
00,
00,
00,
01,
FF,
01,
01,
01,
01,
01,
00,
01,
01,
00,
02,
01,
00,
00,
00,
FF,
01,
FE,
FF,
FF,
00,
00,
00,
FF,
00,
FE,
00,
00,
FE,
FF,
FD,
03,
00,
02,
00,
00,
00,
FF,
02,
01,
00,
00,
02,
01,
00,
00,
01,
01,
00,
01,
00,
00,
01,
01,
FF,
00,
01,
FE,
00,
FF,
01,
FE,
00,
FE,
00,
00,
00,
00,
03,
01,
03,
02,
FF,
FF,
01,
02,
00,
FF,
02,
02,
01,
FE,
00,
00,
01,
00,
00,
01,
00,
01,
00,
00,
00,
FF,
02,
00,
00,
01,
00,
FF,
00,
00,
01,
FF,
02,
02,
00,
FF,
01,
FF,
FF,
FE,
00,
01,
01,
FE,
02,
02,
FF,
02,
01,
00,
FF,
00,
01,
02,
00,
00,
01,
01,
01,
00,
01,
FF,
00,
00,
02,
FF,
00,
00,
01,
FE,
01,
01,
FF,
00,
00,
00,
01,
00,
02,
FF,
01,
01,
FF,
00,
02,
FF,
02,
01,
FF,
FE,
FF,
00,
01,
00,
FE,
FF,
00,
00,
FF,
01,
FF,
02,
02,
03,
00,
00,
FF,
FE,
00,
01,
01,
01,
00,
03,
02,
02,
FE,
01,
FF,
03,
01,
01,
FF,
01,
01,
FD,
00,
FF,
01,
00,
01,
00,
01,
01,
00,
00,
00,
FF,
FF,
01,
00,
FF,
01,
FE,
00,
00,
01,
00,
02,
00,
01,
FF,
00,
FE,
00,
00,
00,
01,
01,
00,
00,
01,
FE,
00,
00,
00,
FF,
FE,
01,
00,
01,
FF,
01,
01,
00,
FE,
00,
01,
FF,
FF,
FF,
FE,
FF,
FF,
02,
FF,
02,
00,
00,
01,
FE,
01,
02,
01,
00,
FF,
00,
02,
01,
03,
03,
01,
01,
FE,
FF,
FF,
01,
00,
FE,
02,
01,
FF,
FF,
FF,
00,
FF,
00,
FF,
01,
FF,
FF,
00,
01,
FF,
FE,
01,
FF,
00,
01,
01,
01,
01,
00,
01,
FE,
00,
FF,
00,
02,
02,
FE,
00,
01,
FF,
FD,
00,
02,
02,
FD,
01,
01,
00,
00,
FF,
02,
01,
00,
00,
FF,
00,
00,
01,
01,
FF,
00,
02,
FF,
00,
00,
FF,
00,
00,
00,
01,
01,
01,
01,
02,
FF,
00,
01,
00,
01,
01,
00,
FF,
01,
02,
00,
01,
02,
01,
00,
02,
01,
FF,
01,
FF,
01,
00,
00,
FE,
FF,
FF,
00,
01,
FF,
FE,
00,
01,
00,
01,
FF,
FF,
02,
00,
01,
01,
01,
00,
01,
01,
FF,
02,
02,
02,
00,
02,
01,
00,
01,
02,
FF,
FF,
FF,
01,
01,
FF,
01,
03,
02,
FF,
04,
00,
00,
01,
00,
01,
03,
01,
00,
00,
01,
01,
00,
00,
01,
00,
00,
00,
FF,
00,
02,
02,
FF,
01,
01,
01,
FE,
01,
FF,
FE,
FE,
FD,
FF,
00,
00,
FF,
01,
00,
00,
02,
00,
FF,
FE,
FF,
00,
01,
00,
01,
FF,
00,
02,
00,
01,
01,
01,
00,
02,
01,
FF,
FF,
FF,
00,
00,
FF,
00,
02,
02,
FF,
FF,
00,
00,
01,
01,
FF,
FF,
04,
01,
00,
01,
01,
FF,
01,
FD,
FE,
FF,
FD,
FE,
00,
FE,
02,
01,
01,
01,
02,
01,
03,
FF,
00,
00,
FF,
01,
01,
00,
02,
01,
02,
FF,
FE,
02,
01,
FF,
01,
FF,
00,
01,
01,
FF,
01,
FF,
03,
01,
01,
02,
01,
00,
03,
02,
FE,
00,
00,
FE,
00,
01,
00,
02,
02,
FF,
00,
02,
02,
FF,
00,
01,
00,
00,
FF,
FF,
FE,
00,
FF,
00,
02,
FF,
00,
FF,
FF,
02,
FF,
00,
FF,
00,
00,
00,
01,
01,
00,
00,
01,
02,
FF,
FE,
02,
FE,
02,
FE,
00,
00,
FE,
01,
FF,
00,
00,
FF,
00,
01,
00,
01,
FF,
00,
03,
01,
00,
FE,
00,
FF,
00,
FD,
01,
02,
00,
02,
01,
01,
FF,
03,
01,
00,
FF,
02,
01,
00,
01,
01,
02,
FF,
00,
FF,
FF,
00,
01,
00,
00,
02,
00,
00,
FF,
00,
01,
01,
FF,
FD,
01,
00,
FF,
01,
FF,
01,
00,
00,
FF,
00,
00,
01,
00,
01,
02,
00,
FF,
FF,
FE,
FF,
02,
00,
00,
FE,
00,
00,
FE,
FF,
01,
01,
01,
01,
02,
02,
02,
00,
02,
02,
01,
02,
FF,
02,
01,
01,
01,
02,
00,
01,
FE,
00,
02,
00,
00,
02,
03,
00,
FF,
00,
FF,
FF,
02,
01,
01,
00,
FE,
FF,
FE,
00,
01,
01,
00,
01,
00,
02,
FE,
00,
00,
00,
01,
01,
00,
02,
00,
02,
FF,
FE,
02,
01,
02,
00,
03,
00,
FF,
FF,
FF,
01,
00,
FF,
00,
02,
00,
01,
FF,
FF,
00,
01,
01,
FF,
01,
02,
FF,
03,
FF,
02,
02,
02,
02,
01,
00,
02,
01,
01,
FF,
03,
01,
01,
01,
00,
FE,
FE,
00,
03,
00,
00,
02,
01,
00,
00,
01,
FF,
00,
00,
01,
00,
02,
01,
FF,
FF,
00,
FF,
00,
00,
FD,
00,
00,
00,
00,
FF,
00,
02,
FF,
01,
02,
00,
00,
02,
FD,
FF,
00,
00,
FF,
FF,
01,
01,
01,
FF,
00,
02,
02,
FF,
FF,
FF,
00,
00,
00,
FF,
FF,
00,
02,
FF,
01,
FE,
00,
00,
01,
FF,
02,
FF,
01,
00,
02,
00,
FF,
03,
00,
00,
FF,
01,
00,
00,
00,
02,
02,
00,
FF,
01,
03,
02,
00,
FF,
01,
03,
01,
02,
00,
FF,
00,
00,
01,
01,
00,
02,
02,
02,
00,
00,
00,
FF,
FF,
FF,
02,
00,
FE,
02,
FF,
FF,
FF,
FF,
01,
00,
FF,
00,
00,
FF,
00,
FF,
FF,
FF,
FF,
00,
FF,
01,
FE,
00,
02,
01,
01,
FF,
01,
00,
01,
00,
02,
00,
FD,
FF,
00,
FF,
01,
00,
01,
00,
FD,
01,
00,
00,
00,
FF,
FF,
01,
00,
FD,
00,
00,
00,
02,
00,
00,
00,
00,
00,
01,
01,
00,
FF,
01,
00,
01,
01,
FF,
FF,
00,
00,
00,
01,
FF,
01,
FF,
01,
01,
FF,
01,
01,
01,
FF,
00,
00,
01,
01,
01,
FE,
01,
FF,
01,
01,
00,
00,
FF,
00,
FF,
01,
01,
FE,
FE,
02,
00,
00,
01,
01,
00,
00,
03,
04,
FF,
03,
02,
03,
02,
02,
01,
02,
02,
04,
00,
00,
01,
01,
FD,
02,
02,
02,
00,
FE,
00,
01,
00,
01,
01,
FF,
02,
00,
00,
00,
00,
00,
FF,
FF,
FE,
00,
00,
FE,
01,
01,
02,
01,
01,
00,
01,
FF,
01,
FF,
FF,
FF,
01,
FF,
01,
00,
00,
02,
01,
02,
02,
01,
00,
01,
00,
FF,
01,
00,
01,
01,
FF,
01,
01,
02,
01,
00,
01,
FF,
00,
FF,
FF,
FE,
00,
FF,
FF,
00,
01,
03,
02,
00,
01,
03,
00,
00,
00,
01,
01,
FF,
02,
00,
FF,
FF,
00,
01,
01,
01,
02,
01,
02,
02,
02,
02,
02,
01,
00,
02,
00,
FF,
00,
FD,
00,
01,
02,
02,
01,
00,
03,
01,
01,
00,
00,
03,
00,
02,
01,
01,
00,
FE,
FE,
01,
FF,
FF,
01,
FF,
02,
01,
FF,
00,
00,
FF,
01,
00,
01,
00,
00,
FF,
FE,
00,
FF,
00,
01,
00,
01,
00,
FF,
FF,
00,
01,
00,
FF,
01,
00,
02,
FE,
FF,
FF,
03,
00,
02,
00,
00,
02,
FE,
00,
FF,
FF,
00,
FF,
01,
00,
FF,
01,
FE,
00,
01,
01,
01,
01,
00,
00,
00,
00,
00,
01,
01,
01,
02,
00,
02,
FE,
00,
FF,
01,
FE,
00,
02,
FE,
FF,
00,
01,
00,
FF,
01,
00,
00,
03,
03,
00,
00,
00,
00,
01,
01,
FF,
02,
02,
00,
01,
FF,
01,
00,
02,
01,
00,
00,
FE,
FF,
FE,
FE,
FE,
FF,
00,
00,
01,
FE,
FF,
01,
02,
03,
00,
01,
FF,
02,
FC,
FD,
03,
01,
00,
FF,
02,
00,
00,
01,
FF,
01,
02,
00,
00,
FE,
00,
FE,
01,
02,
03,
00,
02,
04,
01,
00,
02,
00,
00,
02,
02,
02,
02,
02,
FE,
03,
02,
00,
FF,
FE,
FF,
FE,
FF,
01,
02,
FE,
00,
FF,
00,
01,
01,
00,
00,
01,
FF,
FF,
FD,
01,
01,
03,
00,
00,
00,
00,
FF,
FF,
FE,
01,
02,
FF,
01,
FF,
00,
01,
FF,
03,
02,
01,
00,
02,
FF,
FF,
00,
FF,
01,
FF,
02,
00,
01,
FF,
01,
00,
00,
01,
FF,
FF,
01,
01,
01,
01,
03,
FF,
FF,
00,
00,
00,
01,
01,
FF,
00,
FF,
01,
01,
00,
00,
01,
01,
00,
00,
00,
FD,
02,
01,
01,
02,
00,
FF,
FE,
00,
00,
00,
01,
00,
FF,
00,
00,
00,
FF,
00,
00,
00,
00,
00,
02,
01,
02,
01,
01,
00,
FF,
00,
00,
01,
FE,
FE,
01,
01,
03,
01,
01,
02,
FF,
03,
02,
FF,
00,
02,
FF,
00,
FF,
00,
01,
03,
00,
01,
01,
FF,
FF,
FF,
FF,
00,
00,
FC,
00,
01,
FF,
FF,
FF,
FF,
FF,
FF,
02,
01,
01,
00,
02,
01,
01,
FE,
FD,
00,
FF,
00,
00,
01,
00,
02,
00,
00,
00,
00,
00,
FF,
00,
FE,
01,
FE,
FF,
FE,
01,
01,
02,
02,
02,
00,
FF,
00,
00,
01,
00,
FF,
00,
00,
FD,
01,
00,
00,
00,
00,
02,
FE,
01,
00,
00,
00,
03,
01,
01,
FF,
00,
FF,
02,
01,
FF,
00,
FF,
00,
FF,
02,
02,
00,
FF,
01,
01,
00,
02,
FF,
01,
00,
02,
FF,
FF,
FF,
00,
01,
01,
00,
03,
01,
FF,
00,
02,
01,
01,
02,
FE,
00,
02,
FF,
FF,
FF,
02,
01,
01,
01,
01,
02,
02,
00,
FE,
01,
00,
00,
FF,
01,
03,
01,
00,
FF,
01,
01,
01,
01,
FE,
00,
01,
FE,
FE,
FF,
01,
02,
00,
01,
FF,
01,
00,
00,
FE,
00,
00,
02,
FF,
01,
01,
FE,
01,
03,
02,
01,
01,
00,
00,
FF,
FF,
FF,
00,
FF,
00,
FF,
02,
00,
FF,
00,
01,
00,
01,
01,
00,
00,
02,
FF,
00,
FD,
FE,
FE,
00,
00,
01,
FF,
01,
03,
01,
FF,
00,
00,
00,
00,
FF,
FF,
00,
FF,
02,
02,
01,
02,
FF,
00,
01,
FF,
FE,
FF,
01,
00,
FF,
00,
FF,
02,
FE,
FE,
FE,
02,
00,
FF,
00,
00,
02,
FE,
02,
00,
FF,
01,
01,
01,
00,
FD,
01,
01,
00,
01,
02,
01,
FF,
00,
FF,
FE,
FE,
01,
03,
00,
03,
02,
03,
FF,
01,
00,
02,
02,
02,
01,
00,
FE,
02,
FF,
FE,
02,
00,
01,
00,
FF,
00,
FF,
FE,
00,
01,
01,
01,
01,
01,
FE,
FF,
FF,
00,
01,
01,
FF,
00,
02,
02,
00,
01,
02,
01,
01,
01,
01,
02,
02,
00,
00,
FF,
02,
FF,
01,
01,
00,
FE,
01,
00,
00,
02,
01,
00,
01,
FF,
01,
00,
FE,
01,
00,
02,
01,
01,
02,
01,
01,
01,
FF,
FF,
02,
01,
00,
02,
01,
00,
00,
FE,
01,
00,
02,
02,
01,
01,
02,
02,
01,
FE,
FF,
FF,
00,
FE,
FD,
01,
FF,
01,
00,
00,
00,
00,
00,
FF,
FF,
01,
00,
01,
FF,
FE,
02,
00,
FD,
00,
01,
01,
01,
01,
01,
FF,
01,
FF,
00,
00,
02,
00,
01,
01,
01,
02,
00,
00,
01,
01,
02,
FF,
00,
01,
02,
01,
FE,
00,
01,
FF,
00,
00,
00,
FF,
00,
02,
FF,
02,
00,
00,
01,
FF,
00,
FF,
FF,
00,
00,
01,
02,
00,
00,
01,
00,
FF,
01,
00,
FF,
FF,
FF,
FE,
FF,
00,
00,
00,
FF,
00,
FF,
FF,
FE,
00,
FE,
02,
01,
00,
00,
FE,
00,
FF,
00,
01,
FF,
FF,
FF,
FF,
FF,
00,
01,
00,
FF,
00,
01,
FF,
01,
00,
01,
FE,
00,
02,
01,
00,
FF,
FE,
00,
00,
00,
00,
FF,
00,
01,
00,
00,
00,
FF,
00,
00,
01,
01,
FF,
FE,
01,
02,
FF,
FF,
FF,
00,
FF,
FF,
00,
00,
01,
FF,
00,
01,
FF,
00,
01,
00,
FF,
FF,
FF,
00,
FE,
FF,
FF,
FF,
00,
00,
00,
FF,
00,
FF,
00,
FF,
00,
01,
01,
01,
FE,
00,
00,
00,
02,
00,
01,
FF,
01,
00,
FF,
01,
01,
FF,
01,
00,
01,
FF,
00,
00,
01,
00,
01,
00,
00,
00,
00,
02,
00,
00,
01,
FF,
02,
01,
FF,
01,
00,
01,
01,
00,
01,
01,
01,
FF,
01,
00,
00,
FF,
00,
00,
FE,
01,
00,
00,
01,
00,
00,
01,
00,
00,
FF,
FD,
00,
FF,
00,
01,
00,
FF,
00,
00,
FE,
FF,
FF,
FF,
FF,
FF,
00,
FD,
00,
00,
00,
00,
FF,
FE,
FF,
FF,
00,
FF,
00,
01,
01,
FF,
01,
00,
00,
01,
01,
01,
00,
01,
00,
01,
00,
FE,
00,
00,
00,
FE,
FF,
00,
FF,
00,
FE,
FF,
FF,
FE,
FF,
00,
FF,
FF,
FF,
00,
00,
FF,
FE,
00,
FF,
00,
00,
FF,
FF,
00,
00,
01,
01,
00,
00,
00,
00,
FF,
01,
01,
FF,
01,
00,
00,
01,
01,
00,
FF,
00,
00,
FF,
FF,
FE,
FF,
00,
FF,
00,
FF,
FE,
FE,
01,
01,
00,
FF,
01,
00,
FF,
00,
00,
00,
01,
00,
01,
00,
FF,
01,
FF,
00,
00,
00,
FF,
FE,
FF,
00,
00,
01,
FF,
FF,
01,
00,
01,
01,
00,
00,
00,
01,
00,
FF,
00,
FF,
00,
FF,
00,
00,
00,
00,
FF,
FF,
00,
FF,
FF,
FF,
FF,
00,
00,
FF,
00,
FF,
00,
00,
FF,
00,
00,
00,
00,
00,
FF,
00,
FF,
00,
FE,
FF,
00,
00,
FF,
00,
00,
00,
FF,
00,
FF,
FF,
00,
FF,
00,
FE,
00,
01,
00,
FE,
FE,
FF,
01,
FF,
00,
FF,
00,
01,
00,
FF,
FF,
00,
FF,
00,
01,
00,
00,
FE,
00,
00,
00,
FF,
01,
00,
00,
FF,
FE,
FF,
00,
FF,
00,
00,
01,
01,
FF,
00,
FD,
00,
FE,
FF,
FE,
00,
00,
FF,
FE,
FF,
00,
00,
FF,
01,
00,
00,
01,
00,
00,
00,
00,
01,
00,
FF,
00,
00,
00,
00,
00,
00,
00,
01,
00,
00,
FF,
FF,
02,
00,
01,
FF,
00,
FE,
02,
FF,
01,
00,
01,
01,
01,
01,
FE,
FF,
FF,
FF,
01,
00,
01,
FE,
00,
00,
00,
00,
FF,
00,
00,
01,
01,
01,
00,
01,
FF,
00,
FF,
01,
00,
01,
00,
FF,
FF,
FE,
FF,
FF,
00,
00,
FF,
00,
00,
01,
00,
FF,
FF,
00,
00,
00,
FF,
00,
00,
00,
00,
00,
01,
FF,
01,
00,
00,
00,
01,
01,
00,
00,
01,
FF,
00,
FE,
00,
00,
01,
01,
FF,
FF,
FF,
01,
FF,
FF,
FF,
00,
FF,
FF,
00,
01,
FF,
01,
FF,
FE,
FF,
00,
00,
00,
00,
FF,
00,
FF,
00,
FF,
01,
FF,
FF,
FE,
01,
02,
00,
FE,
00,
FE,
01,
00,
00,
00,
01,
01,
01,
FF,
00,
00,
00,
00,
FF,
00,
FE,
01,
00,
00,
FF,
FF,
FF,
00,
00,
00,
00,
FF,
FF,
FE,
FF,
00,
FF,
00,
01,
00,
FE,
FF,
FF,
00,
FF,
00,
FF,
01,
00,
00,
00,
00,
00,
00,
01,
01,
FE,
FE,
00,
FE,
02,
00,
00,
FF,
FF,
00,
00,
00,
00,
02,
00,
FE,
FF,
00,
FF,
00,
FE,
00,
00,
FF,
00,
00,
00,
00,
00,
FF,
00,
01,
00,
00,
FF,
00,
00,
01,
FF,
FF,
FF,
FF,
FF,
00,
FF,
00,
FF,
FE,
FE,
01,
00,
FF,
00,
01,
00,
02,
00,
01,
FF,
00,
FE,
FF,
00,
00,
FF,
FF,
FF,
00,
01,
FE,
01,
00,
FF,
00,
01,
00,
01,
02,
FF,
FF,
00,
FF,
FF,
FD,
FF,
FF,
01,
00,
FF,
01,
01,
00,
00,
01,
02,
FF,
01,
FF,
00,
FF,
00,
FD,
FF,
FF,
FF,
00,
FF,
FE,
FF,
FF,
FF,
FF,
00,
01,
01,
FF,
01,
01,
01,
01,
00,
FF,
00,
00,
00,
01,
00,
01,
00,
02,
FF,
00,
01,
FF,
FF,
01,
FF,
FF,
00,
FE,
FF,
00,
FF,
00,
00,
FF,
FF,
00,
FF,
FF,
00,
00,
00,
00,
FF,
02,
FE,
FE,
00,
00,
FF,
00,
01,
01,
FF,
00,
00,
01,
00,
FE,
FF,
00,
00,
00,
FF,
FF,
00,
00,
00,
FE,
01,
00,
FF,
00,
00,
01,
00,
FE,
FF,
FE,
00,
00,
FF,
FF,
FF,
00,
FF,
FF,
00,
FE,
02,
FF,
01,
FF,
FF,
FE,
FE,
FF,
FF,
FF,
FF,
01,
FF,
FF,
FF,
FF,
FE,
01,
02,
00,
00,
01,
00,
00,
FE,
01,
FF,
00,
FF,
FF,
FE,
00,
FF,
FE,
00,
FE,
FF,
FF,
00,
01,
00,
01,
00,
FF,
00,
FE,
FF,
FF,
00,
00,
00,
FF,
FF,
FF,
FE,
FE,
01,
00,
00,
00,
FF,
00,
FF,
FE,
FF,
01,
FF,
00,
02,
FF,
FF,
FF,
FE,
FE,
FF,
FF,
00,
00,
00,
FF,
00,
FF,
00,
FF,
01,
FF,
01,
00,
00,
00,
01,
00,
00,
00,
01,
01,
FF,
00,
FF,
01,
00,
01,
01,
00,
FE,
00,
00,
FE,
00,
00,
00,
00,
FF,
00,
FF,
FF,
00,
FF,
FF,
FF,
01,
01,
00,
FF,
01,
00,
00,
FF,
00,
01,
FF,
01,
FE,
00,
FE,
00,
FF,
00,
00,
FE,
01,
FF,
00,
FF,
00,
00,
01,
FF,
FF,
FF,
FE,
01,
00,
00,
FF,
00,
00,
00,
FF,
FF,
FF,
00,
FF,
FF,
00,
FF,
FF,
FF,
00,
FF,
FE,
FF,
00,
FE,
FF,
00,
00,
FF,
00,
00,
00,
FF,
FF,
FF,
00,
01,
FF,
01,
01,
FE,
00,
00,
01,
00,
FE,
FF,
00,
00,
FF,
FF,
00,
00,
FF,
00,
00,
00,
00,
00,
01,
FF,
00,
FF,
01,
FF,
00,
FF,
FF,
00,
00,
FE,
00,
00,
FF,
FF,
FE,
00,
01,
00,
FF,
FE,
FF,
00,
FF,
FE,
FF,
FF,
01,
00,
FF,
FF,
FF,
FF,
FF,
00,
00,
FF,
00,
00,
01,
FF,
00,
00,
01,
00,
00,
00,
01,
00,
00,
01,
00,
FE,
00,
01,
01,
00,
FF,
FF,
FF,
FF,
00,
FF,
00,
FF,
FF,
FF,
FE,
00,
00,
FF,
FE,
FE,
00,
FF,
00,
00,
FF,
FF,
00,
00,
FF,
02,
00,
FF,
00,
FF,
00,
FF,
00,
00,
01,
FE,
00,
01,
00,
00,
00,
00,
00,
02,
01,
00,
00,
00,
01,
00,
01,
01,
00,
FF,
00,
01,
FF,
FE,
FE,
FE,
01,
02,
FF,
00,
00,
FF,
00,
FE,
02,
00,
00,
FE,
00,
01,
FF,
FF,
00,
FF,
00,
FF,
FF,
00,
00,
00,
FF,
00,
00,
FE,
FF,
00,
00,
FF,
FF,
00,
FF,
00,
00,
01,
00,
FF,
00,
FF,
FF,
00,
01,
01,
FF,
FF,
FF,
00,
FF,
01,
FF,
FF,
FF,
00,
01,
01,
01,
01,
00,
FF,
FF,
00,
00,
00,
00,
00,
00,
00,
00,
01,
01,
01,
01,
FF,
00,
00,
00,
FE,
FF,
01,
00,
FF,
00,
00,
02,
FF,
FF,
02,
FF,
00,
FF,
FE,
FF,
00,
FF,
00,
FF,
00,
00,
FF,
00,
02,
01,
01,
00,
00,
00,
FF,
FF,
00,
FF,
01,
FF,
01,
FF,
FF,
00,
00,
00,
00,
FF,
FF,
FF,
FF,
01,
00,
FE,
00,
01,
00,
FE,
00,
FE,
01,
00,
00,
01,
FF,
00,
00,
01,
00,
00,
01,
FF,
00,
00,
FF,
01,
00,
FF,
00,
00,
FF,
FF,
00,
00,
00,
00,
FF,
00,
00,
FE,
01,
00,
00,
01,
FF,
00,
00,
FF,
FF,
FF,
FF,
FF,
00,
01,
00,
00,
FF,
FF,
00,
00,
FE,
FE,
FF,
FF,
01,
00,
FF,
FE,
FE,
FF,
FF,
00,
FE,
00,
00,
01,
00,
00,
FF,
FF,
01,
00,
FF,
00,
00,
01,
00,
FF,
01,
00,
01,
00,
01,
FF,
FF,
00,
00,
FF,
00,
01,
01,
00,
01,
FE,
FE,
00,
FE,
FF,
FF,
01,
00,
00,
01,
00,
01,
FF,
00,
FF,
FF,
01,
01,
FF,
00,
02,
01,
01,
FF,
00,
01,
00,
00,
01,
00,
01,
00,
00,
01,
00,
FD,
FF,
FF,
FE,
00,
FE,
00,
00,
00,
FF,
FD,
FF,
FE,
00,
FE,
FE,
01,
FF,
FF,
FF,
FF,
FF,
01,
00,
00,
FE,
00,
02,
00,
00,
FF,
01,
00,
FE,
00,
01,
00,
FE,
01,
FF,
00,
00,
00,
01,
FF,
00,
00,
FE,
FF,
00,
00,
FF,
FF,
00,
00,
00,
00,
FF,
FF,
FF,
FF,
00,
FF,
00,
00,
FF,
00,
01,
00,
01,
01,
FF,
FF,
00,
00,
00,
00,
FF,
01,
FE,
FF,
00,
00,
00,
01,
00,
00,
00,
FE,
02,
01,
00,
00,
FF,
00,
FD,
FD,
00,
FF,
00,
FF,
00,
01,
FF,
00,
FF,
FF,
00,
FF,
FE,
00,
FF,
FF,
01,
00,
FF,
FE,
FF,
00,
FF,
00,
01,
01,
FF,
00,
01,
00,
01,
00,
00,
00,
00,
01,
01,
01,
01,
FF,
FF,
FF,
FF,
00,
00,
FF,
00,
FE,
00,
FF,
00,
00,
01,
FF,
00,
FF,
00,
00,
FF,
FF,
00,
FF,
00,
FE,
FF,
FE,
FF,
00,
FF,
FE,
FF,
FF,
FF,
00,
00,
FF,
00,
FF,
FE,
FE,
00,
00,
00,
FE,
00,
FF,
00,
FF,
00,
FE,
FF,
FF,
00,
00,
01,
01,
01,
01,
00,
00,
02,
02,
01,
01,
00,
FF,
00,
FF,
FF,
FF,
FF,
00,
00,
00,
00,
01,
00,
FF,
00,
00,
00,
00,
FE,
FE,
00,
00,
FF,
FF,
00,
FF,
FF,
FF,
FF,
01,
01,
FF,
00,
01,
01,
01,
01,
01,
00,
00,
FF,
FF,
FE,
00,
00,
01,
FF,
FE,
01,
FF,
01,
FE,
FE,
00,
00,
FF,
00,
00,
FF,
00,
FF,
00,
01,
00,
01,
00,
00,
00,
00,
00,
00,
00,
FF,
00,
00,
00,
FE,
FF,
FF,
FF,
00,
00,
FE,
03,
00,
FF,
FF,
00,
01,
00,
FF,
FF,
01,
00,
01,
FE,
01,
FF,
FF,
00,
01,
00,
01,
00,
FF,
01,
FF,
00,
FF,
01,
FF,
00,
00,
00,
FF,
01,
00,
FF,
01,
01,
00,
00,
01,
FF,
00,
00,
01,
01,
FF,
02,
00,
01,
00,
FE,
FE,
FF,
FF,
FF,
FF,
00,
02,
01,
FF,
FE,
FE,
00,
FF,
FF,
01,
00,
FF,
FF,
01,
01,
01,
01,
01,
FF,
01,
00,
01,
FF,
01,
00,
FF,
00,
00,
00,
FF,
FE,
FF,
FF,
00,
FF,
00,
01,
FF,
00,
01,
00,
00,
FF,
00,
00,
00,
01,
FF,
FF,
FF,
00,
FE,
FF,
FE,
00,
FF,
01,
FF,
00,
FE,
FF,
FF,
FE,
00,
FF,
FE,
01,
00,
00,
FF,
00,
FE,
00,
00,
00,
FE,
02,
00,
00,
FF,
FE,
00,
00,
00,
FF,
01,
00,
FF,
01,
01,
00,
01,
01,
00,
FE,
00,
FF,
00,
00,
00,
FF,
00,
01,
00,
01,
01,
00,
01,
00,
FF,
01,
01,
01,
FE,
FF,
00,
01,
00,
FF,
00,
FF,
FF,
00,
FF,
FE,
FE,
00,
00,
FF,
00,
FF,
00,
00,
00,
00,
FF,
02,
00,
00,
FF,
FF,
00,
00,
01,
01,
01,
00,
01,
00,
00,
00,
02,
FF,
FF,
00,
02,
00,
FF,
FF,
00,
00,
00,
01,
00,
00,
01,
00,
00,
00,
FE,
FF,
00,
00,
01,
00,
01,
FE,
00,
00,
00,
00,
FF,
01,
FE,
FE,
FE,
01,
01,
01,
FF,
FF,
01,
FE,
FF,
00,
FF,
00,
FE,
00,
01,
FF,
00,
FF,
FE,
01,
01,
FF,
01,
00,
FF,
00,
00,
00,
FE,
FE,
FD,
01,
02,
00,
FE,
01,
00,
01,
00,
00,
FF,
00,
00,
00,
00,
00,
00,
02,
00,
00,
00,
00,
FF,
00,
FF,
00,
FF,
00,
01,
01,
FF,
00,
00,
01,
FF,
01,
FF,
01,
00,
00,
FF,
00,
FF,
FF,
00,
FE,
FF,
01,
00,
00,
FF,
01,
00,
FE,
00,
FF,
00,
00,
01,
00,
FF,
00,
00,
00,
00,
FF,
01,
FF,
00,
FF,
FE,
FF,
00,
00,
01,
00,
00,
00,
FF,
00,
FF,
00,
FE,
01,
01,
FF,
FE,
00,
01,
01,
01,
00,
00,
00,
02,
01,
00,
FF,
FE,
00,
00,
00,
FF,
00,
FF,
00,
00,
FF,
FE,
01,
00,
02,
00,
FF,
00,
FF,
01,
00,
FF,
00,
00,
01,
00,
01,
01,
FF,
00,
00,
00,
00,
00,
00,
00,
FF,
FE,
FF,
01,
00,
00,
FF,
00,
00,
00,
01,
FF,
01,
FF,
FF,
01,
FF,
01,
00,
FF,
03,
00,
00,
FF,
01,
FF,
FF,
00,
00,
FF,
01,
FF,
00,
FE,
01,
FF,
00,
00,
FF,
FF,
FF,
FF,
01,
FF,
FF,
00,
FF,
00,
00,
00,
00,
00,
00,
00,
FF,
FF,
00,
FF,
FF,
00,
FF,
FF,
FF,
FF,
FF,
FF,
FF,
01,
00,
FE,
FF,
00,
00,
00,
00,
00,
01,
01,
FF,
FF,
FE,
00,
FF,
01,
00,
FF,
00,
01,
00,
FF,
FF,
00,
00,
00,
FF,
FF,
01,
01,
FE,
00,
01,
00,
00,
01,
00,
FF,
00,
FF,
00,
FF,
FF,
00,
FF,
FE,
FE,
FF,
FE,
00,
FF,
FF,
FF,
FE,
FF,
FF,
01,
00,
01,
00,
FF,
00,
00,
00,
FF,
01,
00,
FF,
FF,
00,
00,
FF,
FF,
FF,
FF,
FF,
FE,
FE,
00,
01,
FF,
00,
00,
00,
FF,
01,
FF,
FF,
FF,
FF,
01,
00,
02,
00,
01,
FF,
FF,
01,
FF,
00,
00,
00,
00,
03,
FF,
00,
FF,
00,
FF,
FE,
00,
00,
00,
00,
FF,
01,
00,
00,
00,
00,
01,
00,
FF,
FF,
FE,
00,
00,
00,
FE,
FF,
00,
FF,
00,
00,
00,
00,
00,
01,
00,
FF,
01,
00,
02,
02,
FF,
FC,
F9,
00,
00,
FF,
00,
FF,
00,
00,
FF,
00,
FD,
FE,
02,
03,
02,
04,
00,
00,
00,
FE,
00,
01,
02,
FF,
01,
01,
FF,
FE,
01,
01,
03,
03,
00,
02,
02,
FF,
01,
04,
00,
00,
01,
FC,
00,
01,
01,
FC,
00,
02,
01,
00,
02,
00,
01,
01,
FD,
FF,
FE,
FE,
FE,
FF,
02,
03,
00,
FF,
FD,
02,
03,
00,
00,
FE,
FF,
FF,
00,
00,
01,
04,
01,
FE,
00,
03,
FE,
00,
01,
01,
FC,
FD,
FF,
FF,
FE,
01,
FF,
FE,
03,
FE,
FF,
01,
02,
FE,
00,
FF,
FE,
FD,
01,
FE,
00,
00,
00,
FF,
01,
FF,
02,
04,
02,
FF,
00,
00,
01,
02,
02,
04,
01,
02,
03,
02,
02,
01,
01,
05,
FE,
01,
00,
FC,
FC,
FE,
00,
FD,
02,
01,
05,
FF,
FD,
02,
01,
FE,
01,
00,
FF,
01,
FF,
00,
00,
00,
02,
02,
05,
FD,
00,
01,
FC,
FB,
FE,
02,
FF,
01,
01,
02,
FE,
03,
02,
FF,
00,
00,
FD,
FE,
FF,
00,
FE,
FF,
02,
02,
FF,
FF,
00,
02,
02,
FE,
01,
FF,
FF,
01,
01,
02,
00,
02,
02,
00,
03,
FF,
FD,
01,
04,
FE,
00,
01,
00,
FF,
FD,
00,
FE,
00,
FE,
01,
00,
FF,
01,
FE,
01,
00,
01,
FF,
01,
FF,
02,
03,
01,
FE,
FF,
00,
FE,
00,
00,
01,
00,
02,
FF,
FD,
01,
03,
FF,
FF,
00,
FE,
FF,
FF,
FC,
01,
01,
00,
01,
01,
02,
00,
FF,
FE,
FD,
FF,
FF,
FE,
02,
FE,
02,
01,
FE,
00,
FF,
FF,
01,
02,
FF,
FE,
FF,
00,
00,
03,
02,
FE,
FD,
FE,
FD,
00,
00,
00,
FF,
02,
FE,
00,
03,
01,
02,
FC,
00,
01,
01,
FF,
00,
FE,
FF,
FE,
00,
FD,
00,
FE,
00,
03,
FF,
00,
FE,
01,
00,
FD,
00,
01,
00,
01,
FF,
01,
FE,
01,
01,
FF,
01,
02,
FF,
00,
00,
00,
00,
FE,
01,
00,
00,
00,
FE,
FF,
FD,
01,
01,
FF,
00,
02,
02,
00,
02,
FF,
01,
02,
02,
01,
01,
01,
01,
FF,
00,
00,
04,
03,
00,
00,
FD,
00,
FF,
FF,
01,
02,
FF,
FF,
00,
01,
FE,
00,
04,
01,
FE,
00,
02,
FF,
02,
00,
00,
FF,
FE,
FE,
FF,
03,
03,
FF,
FE,
FF,
04,
00,
00,
FE,
00,
FE,
00,
FD,
FD,
FD,
00,
FE,
02,
02,
01,
02,
00,
FF,
FE,
02,
03,
00,
01,
00,
FF,
00,
02,
FD,
FF,
03,
FE,
03,
02,
02,
02,
05,
02,
01,
03,
02,
00,
01,
FF,
FF,
FE,
FD,
FE,
00,
FE,
00,
00,
01,
FE,
FF,
FE,
FE,
01,
FC,
FD,
01,
01,
00,
00,
01,
02,
01,
FF,
02,
01,
00,
00,
01,
FD,
02,
02,
01,
01,
02,
FF,
02,
04,
01,
03,
00,
FF,
00,
01,
00,
01,
03,
01,
00,
FE,
FE,
01,
01,
03,
00,
00,
01,
00,
FE,
FE,
00,
03,
01,
00,
FF,
FE,
00,
00,
00,
FF,
FF,
02,
00,
00,
FE,
03,
02,
FF,
02,
03,
03,
01,
01,
FE,
01,
00,
FE,
FF,
03,
FD,
00,
FE,
00,
FF,
00,
00,
01,
00,
01,
03,
00,
02,
01,
03,
04,
05,
01,
00,
02,
FF,
FF,
FF,
00,
00,
01,
01,
FD,
FF,
FF,
FE,
FE,
02,
01,
FE,
01,
FF,
FE,
FE,
FE,
01,
00,
00,
00,
00,
00,
01,
00,
FD,
FF,
02,
00,
03,
03,
02,
01,
FF,
FF,
03,
04,
00,
02,
01,
FD,
FE,
FE,
00,
00,
02,
01,
02,
04,
FD,
02,
00,
FF,
FE,
01,
FE,
02,
00,
FF,
00,
02,
FC,
FF,
FC,
00,
00,
01,
01,
01,
01,
FF,
00,
00,
02,
01,
05,
01,
FE,
03,
00,
01,
01,
FE,
FF,
FD,
FC,
01,
00,
01,
00,
00,
00,
FF,
FF,
01,
02,
FE,
FE,
03,
00,
03,
02,
01,
FF,
FF,
00,
FD,
FF,
05,
00,
02,
04,
01,
01,
00,
00,
FE,
FE,
FF,
01,
01,
00,
02,
FF,
03,
00,
FE,
00,
FD,
FD,
01,
00,
FF,
FF,
02,
01,
00,
FE,
01,
00,
01,
03,
01,
FC,
02,
FF,
01,
02,
FE,
00,
01,
FE,
FC,
00,
00,
01,
00,
01,
00,
02,
00,
01,
FE,
00,
00,
FD,
FF,
00,
00,
00,
02,
03,
01,
00,
FD,
01,
FE,
FD,
FE,
02,
02,
FF,
FE,
03,
01,
00,
FC,
FF,
02,
FF,
01,
FE,
03,
01,
01,
01,
01,
04,
01,
01,
FE,
03,
00,
FE,
00,
FE,
01,
00,
01,
FE,
FF,
02,
02,
01,
00,
00,
02,
02,
FE,
FF,
01,
02,
01,
FF,
03,
01,
FF,
FF,
00,
00,
FD,
01,
FD,
03,
01,
01,
02,
02,
03,
03,
FE,
FB,
FE,
05,
01,
02,
02,
01,
FE,
FF,
FE,
03,
02,
FF,
FF,
FE,
01,
FD,
FF,
FF,
01,
01,
00,
FF,
02,
00,
FE,
00,
FF,
FF,
02,
02,
FD,
00,
00,
FE,
FF,
00,
03,
03,
FF,
FE,
01,
00,
FF,
02,
00,
FD,
01,
00,
FE,
01,
FE,
FE,
01,
FE,
04,
02,
02,
04,
02,
01,
FF,
00,
FC,
01,
03,
00,
00,
00,
FF,
FF,
01,
03,
FE,
02,
01,
FF,
01,
00,
FE,
00,
FF,
01,
03,
02,
FD,
FF,
FE,
FE,
02,
FF,
FF,
02,
00,
00,
01,
00,
02,
00,
01,
03,
FF,
02,
FF,
02,
02,
00,
01,
FE,
00,
FD,
02,
01,
01,
FF,
01,
FF,
01,
00,
03,
01,
00,
04,
03,
FF,
00,
03,
01,
01,
00,
00,
02,
00,
00,
FE,
01,
01,
FF,
01,
00,
00,
00,
02,
FF,
00,
01,
00,
01,
02,
FF,
00,
FF,
02,
FA,
01,
00,
FF,
01,
00,
FE,
FE,
FE,
01,
02,
00,
00,
FF,
01,
01,
00,
FC,
FD,
02,
FE,
FE,
01,
FF,
00,
03,
00,
FE,
FE,
02,
00,
01,
FF,
01,
FD,
00,
FD,
00,
02,
00,
03,
05,
00,
01,
FF,
02,
FF,
02,
01,
01,
04,
FE,
FF,
FF,
FF,
04,
00,
FF,
02,
03,
02,
00,
FF,
FD,
05,
00,
00,
00,
FF,
03,
FC,
FF,
FE,
00,
00,
00,
FF,
01,
02,
FC,
FE,
FD,
FF,
01,
00,
FF,
00,
03,
FE,
FF,
00,
02,
02,
01,
FF,
02,
00,
FF,
00,
01,
00,
01,
00,
01,
00,
00,
FE,
01,
FE,
01,
01,
02,
FF,
00,
FF,
FD,
02,
03,
01,
03,
02,
01,
00,
FE,
FF,
FF,
FF,
FF,
FF,
00,
03,
00,
01,
FF,
00,
FE,
01,
02,
01,
01,
02,
02,
FD,
01,
01,
02,
00,
00,
03,
01,
02,
00,
01,
FE,
02,
03,
00,
FF,
01,
00,
FC,
02,
FF,
00,
01,
00,
01,
04,
FF,
FE,
FD,
00,
00,
03,
02,
00,
02,
FF,
FF,
01,
01,
FC,
FE,
02,
00,
FD,
FE,
FE,
03,
FF,
FF,
FE,
FF,
01,
FF,
02,
FD,
00,
01,
00,
01,
01,
FF,
01,
00,
FD,
02,
02,
01,
FF,
02,
FD,
FF,
00,
FF,
FE,
02,
FF,
03,
02,
00,
01,
01,
FF,
00,
01,
01,
03,
01,
00,
00,
FF,
01,
FF,
FF,
02,
03,
00,
00,
FF,
FF,
FF,
01,
02,
FE,
02,
00,
FF,
FF,
FF,
FD,
00,
02,
01,
FF,
FF,
02,
FE,
00,
03,
FC,
FE,
03,
FF,
03,
FB,
FE,
01,
FD,
FE,
FE,
01,
01,
FD,
00,
02,
FF,
01,
FE,
00,
01,
00,
01,
00,
03,
00,
FF,
FD,
00,
01,
FF,
FE,
02,
FF,
FE,
01,
01,
FE,
01,
01,
01,
02,
03,
FF,
FF,
01,
FF,
FF,
01,
03,
FF,
FF,
FF,
00,
02,
00,
00,
02,
01,
FD,
03,
04,
00,
00,
01,
FF,
01,
01,
00,
00,
FE,
FB,
FE,
04,
00,
FD,
FE,
FE,
00,
00,
01,
00,
FE,
03,
FD,
02,
01,
02,
00,
FE,
FC,
00,
FD,
FD,
02,
FE,
00,
03,
FF,
FD,
FF,
00,
03,
02,
FF,
01,
01,
FD,
00,
00,
FF,
01,
FF,
FE,
00,
02,
00,
00,
FE,
01,
00,
01,
FF,
00,
01,
FE,
FF,
00,
FF,
03,
FF,
FF,
01,
00,
02,
01,
01,
03,
04,
02,
00,
02,
00,
00,
FE,
00,
00,
FC,
01,
FE,
01,
00,
02,
00,
00,
00,
04,
00,
01,
FF,
FE,
03,
01,
00,
03,
01,
FF,
02,
00,
01,
00,
FF,
FF,
FE,
05,
FE,
01,
02,
FD,
00,
02,
02,
FF,
FC,
02,
04,
00,
00,
01,
00,
00,
02,
FF,
FF,
FE,
02,
FD,
01,
FF,
FF,
FE,
FF,
00,
04,
FF,
02,
00,
FF,
00,
00,
02,
00,
01,
01,
01,
00,
FF,
00,
00,
01,
03,
00,
00,
01,
00,
FF,
FF,
04,
01,
00,
01,
01,
01,
02,
FE,
00,
01,
02,
FF,
FF,
FF,
02,
02,
02,
02,
01,
04,
02,
00,
01,
01,
FF,
00,
FF,
02,
02,
FE,
03,
01,
00,
FE,
00,
FD,
FF,
04,
03,
00,
00,
00,
FE,
FD,
00,
01,
FD,
FD,
FD,
02,
00,
FE,
FF,
01,
04,
02,
01,
03,
02,
00,
FF,
00,
01,
FE,
FE,
FE,
01,
00,
01,
FF,
FD,
FF,
00,
00,
01,
00,
01,
FF,
00,
FF,
02,
FE,
03,
05,
02,
FF,
01,
FE,
FF,
00,
00,
01,
01,
04,
02,
FD,
02,
FD,
FF,
00,
FF,
01,
FD,
00,
02,
00,
03,
00,
FF,
00,
03,
FD,
FE,
FE,
01,
FE,
00,
01,
00,
03,
00,
04,
02,
01,
FF,
00,
02,
01,
FF,
01,
00,
FF,
01,
FE,
FF,
01,
00,
FF,
FE,
01,
FF,
FF,
FE,
FE,
04,
00,
02,
FD,
FF,
FF,
02,
FF,
FF,
03,
02,
03,
03,
03,
00,
01,
FE,
FF,
01,
03,
02,
00,
00,
01,
FE,
00,
01,
00,
03,
03,
02,
00,
05,
03,
FD,
FE,
03,
01,
01,
01,
00,
01,
FE,
02,
02,
00,
00,
00,
01,
03,
FB,
01,
00,
01,
FF,
00,
02,
00,
04,
00,
FD,
00,
FF,
FE,
FF,
02,
02,
00,
FE,
02,
01,
FD,
FD,
00,
01,
02,
00,
FF,
01,
FF,
00,
FE,
02,
03,
02,
00,
FF,
00,
FF,
FD,
00,
04,
01,
06,
03,
FE,
FF,
FF,
02,
03,
04,
05,
01,
02,
00,
FF,
00,
FE,
01,
00,
FE,
00,
04,
04,
00,
FE,
FE,
02,
02,
02,
FF,
FF,
00,
01,
01,
03,
02,
03,
01,
FF,
FF,
FF,
00,
00,
00,
00,
02,
FD,
00,
FE,
FF,
FF,
FF,
FE,
01,
FF,
03,
FF,
02,
01,
01,
02,
00,
FF,
FC,
FF,
05,
02,
FF,
FE,
FE,
FD,
00,
FF,
00,
01,
00,
FF,
FD,
FD,
FF,
01,
02,
02,
FF,
01,
FF,
03,
FE,
01,
03,
02,
01,
FF,
00,
01,
FC,
FD,
FF,
FC,
FF,
FF,
00,
FE,
FC,
00,
00,
01,
01,
02,
FF,
00,
00,
01,
00,
00,
FE,
FF,
01,
00,
01,
02,
00,
FE,
FF,
02,
FF,
01,
00,
02,
00,
01,
01,
02,
01,
00,
03,
02,
01,
FF,
02,
FF,
01,
FF,
02,
03,
FF,
02,
02,
FF,
FF,
FF,
00,
01,
00,
FF,
01,
03,
00,
FF,
FF,
00,
01,
01,
01,
FF,
FE,
01,
01,
00,
FF,
00,
FE,
00,
01,
01,
05,
FF,
FF,
FE,
02,
FE,
00,
01,
03,
02,
01,
01,
FE,
FF,
FF,
02,
FF,
01,
01,
FE,
01,
00,
00,
01,
FF,
FF,
01,
01,
01,
04,
03,
03,
00,
02,
01,
00,
01,
FF,
01,
FF,
01,
02,
FF,
FE,
FE,
FF,
FD,
FE,
02,
FF,
FE,
FF,
01,
FD,
FD,
00,
FF,
01,
FF,
01,
01,
01,
00,
01,
FD,
00,
FE,
FE,
FF,
00,
00,
02,
01,
03,
02,
04,
FD,
FF,
00,
00,
00,
01,
FD,
01,
FF,
02,
00,
FE,
FE,
FF,
FF,
00,
01,
02,
FF,
02,
01,
FC,
FB,
FE,
FE,
00,
FE,
00,
FF,
02,
FF,
02,
02,
03,
FE,
FE,
00,
01,
FF,
02,
03,
01,
FF,
00,
FE,
01,
06,
02,
02,
02,
FF,
05,
02,
FD,
00,
03,
FF,
FF,
02,
00,
02,
01,
FF,
01,
00,
FD,
04,
02,
04,
FD,
01,
FD,
02,
01,
02,
FF,
01,
02,
FF,
00,
FE,
04,
FF,
00,
01,
01,
01,
FF,
01,
01,
FF,
02,
00,
01,
FF,
02,
01,
02,
00,
02,
02,
00,
03,
02,
00,
FE,
FE,
00,
FF,
01,
00,
FA,
00,
02,
FD,
FF,
FF,
00,
04,
FF,
02,
01,
FF,
02,
02,
00,
00,
00,
03,
00,
FF,
00,
01,
FF,
FF,
04,
03,
FF,
FF,
02,
FF,
FE,
FD,
FB,
02,
01,
01,
02,
02,
00,
00,
01,
00,
01,
02,
03,
FE,
01,
01,
FF,
FE,
00,
01,
01,
01,
FF,
04,
01,
FD,
02,
02,
FF,
00,
03,
01,
FF,
03,
FF,
00,
FF,
02,
FE,
03,
FD,
FE,
01,
01,
FF,
01,
01,
02,
FE,
01,
00,
FF,
00,
01,
FF,
FF,
00,
FD,
00,
FE,
01,
FE,
FF,
FE,
01,
01,
FF,
02,
02,
FF,
01,
FD,
FF,
02,
04,
FF,
FE,
00,
00,
00,
FE,
FE,
01,
FE,
FE,
00,
02,
00,
01,
00,
FD,
02,
03,
01,
01,
02,
01,
FD,
FF,
FF,
00,
04,
FE,
00,
04,
00,
01,
FE,
FF,
03,
03,
FD,
00,
00,
00,
00,
FC,
FE,
00,
FF,
FF,
01,
FE,
01,
FE,
00,
FD,
FF,
FE,
FF,
01,
03,
00,
01,
01,
02,
00,
02,
03,
03,
04,
02,
FD,
02,
FE,
01,
03,
FF,
FD,
02,
FE,
00,
01,
FF,
01,
03,
02,
FF,
03,
00,
FE,
FF,
FC,
00,
FF,
01,
04,
02,
00,
01,
00,
02,
FF,
FF,
FF,
00,
FE,
00,
FE,
FF,
00,
01,
01,
03,
FD,
01,
00,
02,
02,
FF,
00,
FF,
00,
FF,
01,
FF,
FF,
02,
01,
02,
00,
03,
00,
00,
01,
FF,
FF,
02,
FF,
FF,
00,
01,
00,
FF,
FE,
01,
01,
FE,
FD,
02,
02,
FF,
02,
01,
FD,
03,
01,
02,
03,
02,
FE,
01,
FE,
FE,
FD,
FE,
01,
02,
00,
FF,
00,
01,
FF,
00,
FF,
FE,
FF,
01,
00,
02,
FE,
00,
FF,
00,
00,
FF,
02,
01,
01,
FF,
00,
02,
00,
01,
01,
FE,
FF,
00,
FE,
FE,
FF,
FF,
00,
FF,
02,
01,
01,
FE,
00,
00,
00,
FF,
00,
01,
FF,
00,
01,
02,
00,
00,
01,
01,
FF,
00,
02,
FE,
00,
02,
00,
01,
FF,
FF,
00,
FF,
01,
00,
00,
00,
02,
03,
01,
01,
01,
FF,
FE,
FE,
02,
FE,
FF,
01,
FF,
00,
01,
FE,
00,
FF,
FF,
FD,
01,
01,
01,
01,
FF,
FE,
00,
01,
00,
FE,
00,
FD,
01,
02,
00,
02,
01,
FF,
FF,
00,
01,
FE,
FE,
00,
FF,
00,
FF,
FF,
FF,
00,
FF,
00,
FE,
FF,
FF,
FF,
00,
FF,
01,
00,
FF,
01,
01,
01,
FF,
01,
FF,
00,
FF,
00,
00,
00,
02,
00,
FD,
00,
00,
00,
00,
FF,
FE,
FF,
00,
FF,
00,
FF,
FE,
02,
FF,
00,
00,
01,
01,
02,
01,
01,
FF,
01,
01,
00,
02,
01,
00,
FE,
FE,
01,
02,
FF,
00,
02,
00,
01,
FF,
FF,
FF,
01,
01,
02,
01,
00,
FE,
FF,
FF,
FE,
00,
01,
FF,
00,
02,
FF,
FE,
FE,
00,
FE,
FF,
FF,
00,
01,
03,
FE,
00,
FE,
FF,
FF,
FD,
00,
FF,
00,
01,
01,
01,
FE,
01,
00,
00,
FC,
00,
FF,
FF,
FF,
03,
01,
02,
01,
01,
FF,
00,
00,
FF,
FE,
00,
FF,
FF,
00,
01,
FF,
00,
00,
01,
00,
FF,
FF,
FF,
01,
FE,
00,
FF,
00,
01,
00,
00,
FF,
00,
FF,
FF,
01,
00,
FF,
FF,
01,
02,
FF,
01,
03,
01,
00,
01,
FE,
00,
03,
00,
02,
00,
03,
FE,
02,
FF,
FE,
01,
00,
FF,
FF,
FF,
00,
FE,
00,
01,
00,
FF,
00,
00,
FF,
FE,
FF,
00,
01,
00,
FF,
FF,
01,
00,
00,
FE,
FE,
01,
00,
FC,
FE,
00,
FF,
FE,
00,
00,
01,
00,
FF,
01,
FE,
FD,
00,
00,
FD,
00,
FF,
02,
FF,
01,
01,
00,
FD,
00,
FD,
FF,
FE,
00,
00,
00,
00,
FE,
FE,
FD,
01,
00,
00,
FF,
FF,
02,
01,
FD,
FF,
FF,
01,
00,
FE,
00,
00,
00,
01,
00,
FF,
FE,
FF,
01,
00,
00,
01,
FF,
00,
FF,
FE,
FF,
02,
FF,
FF,
00,
00,
00,
00,
00,
FE,
00,
FF,
FF,
00,
02,
FF,
01,
00,
02,
FF,
01,
FF,
02,
02,
FF,
FF,
01,
00,
01,
00,
01,
01,
00,
FF,
FE,
00,
FF,
01,
FF,
FF,
01,
FE,
FF,
00,
FF,
00,
01,
01,
00,
00,
FD,
00,
00,
FE,
01,
FF,
01,
FF,
FE,
00,
01,
01,
01,
FE,
FF,
00,
00,
00,
FE,
FF,
01,
FF,
FF,
01,
FD,
00,
01,
FF,
00,
FE,
FD,
00,
FE,
00,
00,
01,
FF,
02,
FF,
02,
01,
00,
00,
01,
02,
FD,
00,
FF,
01,
00,
FF,
00,
01,
FE,
01,
00,
01,
00,
FE,
FF,
01,
01,
FF,
01,
FE,
FF,
01,
FF,
FD,
FF,
FF,
FF,
01,
00,
FD,
03,
00,
FE,
FF,
01,
01,
FF,
FF,
00,
00,
02,
01,
FE,
FE,
01,
FE,
00,
00,
FF,
00,
01,
FF,
01,
00,
FF,
01,
FF,
00,
01,
FF,
00,
FE,
FE,
FE,
FD,
FE,
FC,
FF,
01,
FF,
00,
FF,
01,
FF,
01,
01,
00,
FF,
FD,
01,
FF,
FE,
FC,
01,
FF,
FD,
00,
FF,
FE,
FF,
00,
FF,
01,
FE,
FF,
FF,
00,
02,
FF,
FF,
FF,
FE,
FF,
01,
FF,
00,
FF,
FF,
FF,
00,
01,
FF,
FF,
00,
00,
02,
FF,
00,
FE,
01,
00,
00,
FF,
00,
FE,
FF,
FE,
FF,
02,
01,
02,
01,
00,
FE,
00,
01,
00,
00,
00,
FE,
00,
01,
FF,
00,
00,
FF,
FF,
FF,
03,
01,
FF,
00,
00,
00,
01,
02,
FE,
00,
01,
02,
02,
02,
FF,
FE,
FF,
01,
FF,
00,
00,
00,
FF,
00,
00,
02,
00,
00,
FF,
01,
FF,
00,
FE,
FE,
00,
00,
01,
FF,
FF,
FD,
FE,
FF,
01,
01,
00,
FE,
FF,
01,
FF,
FF,
FE,
01,
00,
FE,
00,
01,
01,
FF,
01,
00,
01,
00,
FD,
00,
01,
FF,
00,
FE,
FE,
00,
01,
FF,
00,
01,
FE,
01,
FE,
00,
01,
00,
00,
02,
00,
01,
FF,
FF,
FF,
00,
FE,
FF,
FF,
FF,
FF,
00,
FE,
02,
00,
00,
00,
00,
FF,
00,
00,
00,
FF,
FD,
FF,
02,
FE,
FE,
FE,
FD,
00,
FE,
00,
01,
FF,
FF,
FF,
00,
01,
FE,
FE,
02,
01,
00,
00,
03,
00,
FD,
FE,
01,
FE,
FF,
00,
FF,
00,
00,
00,
01,
01,
00,
00,
01,
FF,
00,
00,
FF,
00,
FE,
FC,
FE,
FE,
FE,
00,
FE,
00,
FF,
FF,
00,
00,
00,
01,
00,
01,
FF,
02,
02,
00,
00,
02,
00,
01,
01,
01,
00,
FF,
01,
01,
01,
03,
FF,
FE,
01,
02,
00,
00,
03,
00,
FF,
02,
02,
FF,
FF,
01,
FE,
FF,
01,
FF,
00,
FE,
FF,
01,
00,
01,
00,
00,
01,
00,
FF,
00,
FE,
FF,
FF,
FE,
01,
00,
FF,
02,
FF,
FF,
00,
00,
FF,
FD,
FF,
00,
00,
FF,
FF,
FF,
00,
00,
FF,
01,
01,
01,
00,
00,
FF,
FE,
00,
01,
01,
FF,
FF,
FF,
FD,
FF,
00,
FF,
00,
00,
FE,
02,
FF,
FF,
00,
00,
01,
FE,
00,
01,
01,
FF,
FF,
01,
02,
FF,
00,
01,
01,
02,
FF,
01,
00,
FF,
FF,
00,
FF,
FF,
FE,
01,
01,
FF,
FE,
FF,
02,
FF,
00,
01,
FF,
FF,
FE,
01,
01,
FF,
00,
01,
02,
00,
02,
01,
00,
01,
00,
FD,
00,
FF,
FE,
FF,
FD,
FE,
01,
FF,
FE,
FE,
01,
FF,
FF,
00,
FF,
01,
02,
00,
00,
00,
FF,
FE,
FE,
FF,
FE,
FF,
FE,
00,
01,
FE,
01,
00,
01,
FF,
01,
00,
00,
00,
01,
01,
03,
01,
00,
00,
01,
00,
00,
02,
00,
FE,
00,
01,
03,
01,
FF,
FE,
FF,
01,
FE,
FE,
00,
01,
FF,
00,
FE,
FE,
FF,
FD,
FE,
FF,
FE,
00,
FF,
01,
00,
FF,
FF,
00,
FF,
FE,
02,
FD,
00,
FE,
00,
00,
FF,
02,
00,
03,
FE,
FF,
FF,
00,
FF,
FF,
FF,
FF,
FF,
00,
00,
FF,
00,
01,
01,
01,
01,
01,
01,
01,
FF,
01,
01,
FF,
FD,
01,
FE,
FE,
00,
FF,
FF,
FF,
00,
02,
00,
FF,
FF,
FE,
00,
01,
01,
00,
FF,
02,
FE,
00,
01,
00,
FF,
00,
FF,
01,
FF,
00,
00,
02,
01,
00,
FF,
FF,
01,
02,
00,
FF,
FF,
FF,
FD,
01,
00,
FF,
01,
01,
00,
01,
00,
FF,
FF,
FF,
FF,
00,
01,
00,
FF,
FE,
00,
01,
FF,
00,
00,
01,
00,
00,
FF,
00,
00,
01,
00,
02,
00,
FF,
00,
01,
FF,
FF,
00,
00,
FD,
02,
FE,
00,
FE,
01,
FE,
FF,
01,
01,
00,
00,
00,
00,
00,
02,
FF,
01,
02,
03,
FF,
00,
00,
01,
FE,
FE,
FE,
00,
00,
00,
01,
00,
01,
02,
FE,
FF,
01,
02,
03,
01,
00,
FE,
FD,
00,
00,
03,
FE,
01,
00,
01,
FD,
00,
00,
FE,
02,
02,
FD,
FF,
01,
FE,
FF,
FD,
01,
01,
FE,
01,
FF,
FF,
00,
FF,
FF,
01,
01,
FE,
01,
FE,
FE,
01,
FE,
FF,
01,
FF,
FD,
01,
FF,
FF,
01,
02,
02,
FE,
FF,
00,
FF,
00,
03,
01,
02,
FF,
00,
00,
00,
00,
FF,
FF,
FF,
00,
FC,
FD,
FD,
FF,
02,
01,
FF,
01,
02,
FE,
04,
00,
00,
00,
FF,
00,
00,
00,
FD,
01,
00,
02,
01,
01,
FF,
FE,
00,
FE,
FE,
02,
01,
01,
00,
00,
FF,
01,
01,
00,
FF,
01,
FF,
FF,
00,
01,
FE,
FF,
FF,
FF,
00,
00,
02,
00,
FF,
FD,
01,
00,
FF,
FE,
00,
FF,
FE,
FF,
FF,
00,
00,
00,
01,
00,
00,
FF,
FE,
00,
01,
00,
00,
FF,
00,
FF,
00,
FC,
FF,
00,
00,
FE,
01,
01,
00,
FF,
FF,
01,
02,
FF,
00,
01,
02,
FF,
01,
00,
00,
00,
01,
FF,
00,
FF,
FF,
02,
01,
02,
FF,
FF,
01,
FF,
FF,
FD,
00,
00,
FE,
00,
FE,
FF,
00,
01,
03,
01,
01,
01,
02,
00,
00,
01,
01,
00,
FF,
00,
FE,
FD,
00,
00,
00,
00,
00,
00,
02,
02,
FE,
FE,
01,
FF,
FF,
00,
00,
FF,
01,
FD,
00,
02,
00,
01,
FF,
FE,
FF,
00,
01,
FF,
FE,
FF,
FE,
01,
FF,
01,
FF,
01,
FF,
01,
00,
FE,
02,
FF,
02,
FF,
00,
01,
03,
02,
01,
FF,
00,
FF,
00,
FF,
01,
FF,
03,
FC,
FE,
FD,
FF,
00,
FF,
01,
02,
FE,
02,
01,
FF,
01,
01,
00,
FE,
01,
FD,
00,
FF,
00,
00,
00,
FF,
00,
03,
01,
02,
02,
01,
00,
02,
00,
FF,
00,
FF,
FF,
00,
01,
FE,
00,
FE,
FF,
FF,
FE,
01,
FE,
FF,
01,
02,
FE,
02,
FF,
00,
01,
01,
01,
01,
FF,
02,
02,
02,
00,
01,
FF,
00,
FF,
00,
FF,
FF,
02,
00,
02,
FF,
02,
FF,
01,
00,
02,
FF,
00,
00,
FE,
01,
FF,
FF,
FE,
00,
FF,
FE,
01,
FD,
01,
00,
FF,
00,
00,
00,
01,
00,
FF,
FF,
00,
FF,
00,
03,
00,
02,
01,
FF,
00,
FE,
FF,
FF,
FF,
01,
01,
00,
01,
01,
00,
FF,
FF,
00,
FF,
00,
00,
FF,
FE,
FF,
FF,
01,
00,
00,
00,
FF,
FD,
FE,
FF,
FE,
01,
01,
02,
01,
00,
FC,
00,
FF,
00,
FE,
FE,
00,
01,
02,
FF,
02,
00,
FE,
01,
FF,
FF,
FD,
02,
00,
01,
00,
00,
00,
01,
FF,
FF,
00,
00,
FF,
FF,
FE,
FE,
FF,
FE,
01,
FF,
01,
FE,
00,
03,
00,
00,
02,
02,
FF,
FD,
00,
01,
FF,
FE,
02,
00,
01,
FF,
03,
FF,
FF,
FF,
FF,
FF,
01,
FF,
00,
00,
01,
01,
FF,
FF,
FD,
01,
01,
FF,
FF,
FE,
00,
FE,
00,
01,
FF,
00,
00,
04,
04,
02,
02,
02,
01,
02,
02,
FF,
FE,
FE,
FE,
00,
00,
00,
02,
00,
03,
02,
FF,
02,
02,
01,
00,
FF,
01,
02,
00,
FF,
02,
00,
00,
02,
02,
FE,
02,
FF,
00,
FF,
00,
FF,
00,
00,
00,
FE,
FF,
FE,
00,
00,
FE,
01,
FE,
00,
01,
00,
FE,
FF,
FF,
02,
00,
FF,
FF,
01,
FE,
00,
00,
01,
FF,
02,
00,
02,
FF,
FF,
FE,
00,
FE,
00,
01,
00,
00,
00,
02,
02,
FF,
00,
00,
01,
FF,
00,
01,
00,
01,
FE,
FF,
00,
FF,
00,
FF,
00,
FE,
FF,
FF,
00,
FE,
01,
FE,
FC,
FF,
FF,
FF,
01,
FF,
FD,
00,
FE,
FF,
FE,
FF,
00,
FF,
FD,
01,
FF,
FE,
00,
FF,
FD,
02,
FE,
FE,
00,
FE,
00,
02,
01,
00,
FF,
02,
00,
00,
01,
FF,
FF,
02,
FE,
00,
00,
00,
00,
00,
00,
FF,
00,
FE,
01,
FE,
FF,
00,
02,
FF,
00,
FF,
FF,
00,
FF,
FE,
FE,
FF,
01,
01,
00,
01,
00,
00,
FF,
FF,
FF,
FF,
FE,
FF,
01,
00,
FF,
FF,
00,
01,
02,
00,
01,
00,
01,
02,
01,
01,
01,
00,
FF,
01,
00,
FE,
FE,
FE,
FE,
01,
FF,
FE,
FF,
00,
FF,
01,
00,
FF,
00,
01,
FE,
00,
FF,
FE,
00,
FF,
01,
FE,
FF,
FE,
01,
FF,
FF,
FF,
FF,
FF,
01,
FF,
FF,
FF,
00,
FF,
00,
01,
00,
00,
FF,
02,
00,
01,
01,
FC,
FD,
FE,
FF,
FF,
FE,
01,
FE,
02,
02,
01,
02,
FF,
FF,
01,
FF,
00,
01,
01,
01,
FF,
FF,
01,
FF,
FE,
00,
00,
FF,
FF,
02,
FF,
01,
01,
FF,
FE,
00,
FF,
FF,
FF,
00,
01,
00,
03,
00,
02,
FF,
FF,
FF,
00,
FF,
FE,
00,
00,
01,
FF,
FE,
00,
00,
FE,
00,
FF,
FE,
00,
01,
03,
01,
00,
01,
FF,
FF,
00,
FE,
FF,
FE,
01,
00,
FF,
FE,
01,
02,
01,
FD,
00,
FF,
00,
FF,
FE,
00,
02,
02,
01,
FF,
FE,
01,
00,
04,
FF,
02,
00,
01,
FF,
02,
FD,
02,
00,
01,
00,
FF,
00,
00,
FE,
02,
FF,
00,
02,
FE,
00,
00,
01,
00,
FE,
00,
FF,
FF,
FF,
FF,
00,
FF,
00,
00,
00,
FF,
00,
FE,
FF,
FC,
FE,
01,
FF,
FF,
00,
00,
00,
FD,
00,
FE,
00,
03,
FE,
02,
FE,
00,
00,
FE,
00,
00,
FE,
FF,
FF,
FF,
01,
FF,
01,
00,
01,
FF,
FF,
01,
FB,
FE,
FE,
FE,
FF,
FE,
FF,
00,
FF,
01,
01,
00,
02,
02,
FE,
00,
FF,
FE,
00,
01,
FF,
00,
FF,
FD,
02,
01,
01,
00,
01,
FF,
01,
00,
01,
01,
01,
FE,
01,
00,
00,
FF,
FF,
FE,
FF,
FF,
FF,
FF,
FE,
FF,
FF,
FF,
FF,
FF,
00,
02,
00,
01,
FE,
00,
01,
01,
00,
00,
02,
00,
02,
01,
FF,
FF,
FE,
00,
00,
00,
01,
00,
00,
FE,
FF,
FE,
00,
00,
FF,
FE,
FF,
00,
00,
FE,
FE,
00,
FF,
00,
FE,
FE,
00,
FE,
00,
FF,
01,
02,
FF,
FF,
00,
00,
00,
00,
00,
FF,
FF,
01,
00,
02,
00,
00,
02,
02,
01,
01,
01,
00,
01,
01,
FE,
FE,
01,
00,
FE,
FF,
00,
FE,
FD,
00,
FF,
FE,
FE,
FE,
FF,
00,
00,
02,
01,
FF,
FF,
02,
02,
01,
FD,
01,
FF,
02,
FF,
FF,
FE,
FF,
00,
FF,
FE,
FE,
00,
FE,
01,
FD,
FF,
00,
01,
00,
01,
FE,
00,
00,
00,
FE,
00,
FF,
00,
00,
00,
01,
FE,
FF,
FE,
00,
FF,
FE,
FD,
01,
02,
00,
00,
FD,
00,
00,
00,
00,
00,
00,
00,
FF,
00,
02,
FF,
FD,
FF,
02,
FF,
00,
01,
01,
02,
FF,
01,
01,
FE,
00,
FF,
01,
00,
00,
01,
01,
00,
01,
00,
02,
FF,
00,
01,
FF,
FE,
00,
FE,
FF,
FF,
01,
FE,
01,
FD,
FF,
FE,
FE,
FD,
FD,
FD,
FD,
FF,
FF,
01,
01,
00,
01,
00,
00,
00,
00,
00,
01,
01,
00,
01,
00,
FF,
00,
00,
00,
01,
00,
00,
FF,
FF,
01,
FF,
FF,
01,
FF,
FF,
02,
00,
01,
00,
01,
01,
00,
02,
01,
01,
00,
00,
00,
FF,
00,
FF,
01,
FF,
00,
00,
FF,
00,
FF,
00,
01,
00,
01,
01,
00,
01,
00,
FF,
00,
02,
00,
01,
01,
00,
01,
00,
02,
02,
00,
00,
00,
FF,
00,
00,
01,
01,
00,
00,
01,
01,
00,
00,
01,
00,
01,
02,
FF,
00,
FF,
FF,
FF,
01,
00,
FF,
00,
00,
00,
00,
01,
01,
00,
01,
01,
01,
02,
02,
01,
02,
01,
01,
01,
FF,
FF,
01,
00,
01,
01,
01,
00,
02,
FF,
02,
02,
00,
00,
01,
FF,
00,
01,
00,
00,
02,
00,
00,
01,
01,
01,
00,
00,
00,
00,
01,
01,
00,
01,
00,
01,
00,
00,
FF,
00,
00,
01,
00,
FF,
00,
01,
FF,
FF,
01,
FF,
FF,
02,
01,
00,
01,
01,
00,
FF,
00,
FF,
01,
FF,
01,
01,
FE,
01,
01,
FF,
01,
01,
00,
00,
FF,
00,
00,
01,
01,
01,
02,
01,
00,
00,
00,
00,
01,
00,
00,
01,
00,
00,
01,
FE,
00,
01,
00,
01,
00,
02,
00,
FF,
00,
00,
01,
FF,
00,
00,
FE,
00,
FF,
00,
01,
FF,
00,
FF,
00,
01,
FE,
00,
FF,
01,
00,
00,
00,
00,
01,
FE,
00,
00,
00,
02,
01,
01,
01,
00,
01,
02,
01,
00,
00,
00,
00,
FF,
01,
00,
FF,
01,
01,
00,
00,
00,
FF,
00,
00,
00,
00,
FF,
01,
FF,
FF,
00,
FF,
00,
FE,
00,
00,
00,
00,
00,
00,
01,
00,
FF,
01,
00,
02,
FF,
01,
FF,
FF,
01,
01,
00,
02,
00,
01,
02,
02,
FF,
00,
00,
00,
FF,
FF,
00,
00,
FE,
00,
01,
00,
01,
00,
FF,
01,
00,
00,
FF,
00,
00,
00,
01,
00,
00,
01,
01,
FF,
00,
01,
FF,
00,
02,
01,
01,
00,
00,
01,
02,
01,
FF,
00,
00,
00,
02,
00,
01,
01,
00,
01,
01,
01,
01,
01,
FF,
01,
00,
01,
00,
00,
00,
00,
01,
01,
01,
00,
00,
01,
01,
FF,
00,
01,
01,
01,
00,
00,
01,
FF,
00,
02,
02,
00,
01,
01,
01,
01,
01,
00,
02,
01,
00,
00,
01,
00,
00,
FF,
FF,
00,
FF,
FE,
00,
FF,
00,
00,
00,
00,
00,
01,
00,
FF,
01,
00,
FE,
01,
01,
00,
01,
01,
01,
01,
00,
00,
00,
00,
00,
01,
01,
01,
00,
01,
00,
FF,
FF,
01,
FF,
00,
01,
00,
00,
FF,
00,
01,
00,
00,
00,
01,
FF,
01,
FF,
01,
FF,
00,
00,
FE,
FF,
00,
01,
01,
00,
00,
FF,
00,
FF,
00,
FF,
FF,
00,
01,
01,
00,
00,
00,
FF,
00,
01,
FF,
01,
FF,
01,
00,
FF,
FF,
00,
01,
01,
00,
00,
01,
01,
01,
FF,
00,
00,
00,
02,
01,
01,
00,
FF,
00,
01,
01,
00,
FF,
FF,
02,
02,
02,
FF,
02,
00,
01,
01,
FE,
FF,
02,
00,
FF,
01,
01,
01,
01,
00,
FF,
01,
00,
00,
01,
01,
FF,
01,
00,
01,
02,
02,
00,
00,
00,
01,
01,
00,
00,
00,
00,
01,
01,
01,
01,
FF,
FF,
01,
01,
01,
01,
01,
00,
00,
00,
00,
01,
01,
00,
01,
01,
00,
00,
01,
FF,
00,
01,
00,
01,
01,
02,
01,
02,
00,
01,
FF,
01,
FE,
FE,
FF,
01,
01,
FF,
00,
02,
01,
02,
01,
01,
FF,
00,
00,
00,
00,
01,
00,
00,
00,
00,
02,
00,
01,
01,
01,
00,
01,
01,
01,
00,
00,
01,
FF,
01,
00,
FF,
00,
00,
01,
00,
01,
00,
FF,
00,
01,
FF,
FF,
00,
00,
01,
00,
01,
00,
00,
00,
00,
00,
01,
01,
00,
FF,
00,
01,
01,
01,
01,
00,
00,
01,
01,
00,
00,
FF,
00,
01,
01,
00,
02,
01,
01,
FF,
00,
01,
FF,
00,
00,
00,
00,
00,
FF,
01,
00,
00,
FF,
FF,
FF,
FE,
FF,
00,
00,
00,
00,
01,
02,
01,
00,
01,
00,
01,
00,
00,
01,
01,
FE,
00,
00,
FE,
FF,
00,
00,
00,
00,
01,
00,
01,
01,
01,
02,
00,
00,
01,
01,
00,
00,
FF,
01,
FF,
01,
01,
01,
01,
FF,
01,
00,
00,
01,
01,
FF,
03,
00,
00,
00,
01,
01,
00,
01,
FE,
01,
00,
00,
01,
00,
00,
FF,
FE,
01,
00,
01,
00,
FE,
FF,
00,
00,
00,
01,
01,
00,
01,
01,
00,
00,
00,
01,
01,
00,
00,
FF,
00,
02,
01,
01,
02,
00,
01,
02,
00,
00,
01,
01,
01,
01,
00,
00,
00,
00,
01,
01,
00,
01,
01,
00,
01,
01,
00,
00,
01,
01,
00,
00,
00,
01,
00,
01,
01,
02,
01,
00,
FF,
01,
00,
01,
01,
01,
02,
00,
FF,
FE,
FF,
00,
01,
02,
00,
00,
00,
00,
01,
00,
02,
01,
03,
00,
01,
02,
01,
01,
00,
00,
01,
00,
01,
00,
00,
00,
00,
FF,
01,
00,
01,
00,
01,
02,
00,
01,
00,
01,
FF,
00,
FF,
01,
01,
01,
01,
02,
02,
01,
00,
01,
00,
01,
FF,
00,
01,
01,
01,
01,
01,
03,
00,
01,
00,
01,
00,
01,
01,
00,
01,
00,
00,
02,
00,
00,
01,
02,
01,
01,
FF,
01,
01,
FF,
01,
FF,
00,
00,
00,
00,
01,
01,
FE,
00,
01,
01,
FF,
FF,
FF,
00,
00,
00,
00,
01,
00,
FF,
01,
00,
00,
00,
00,
01,
02,
03,
01,
01,
00,
01,
01,
00,
02,
01,
01,
FF,
01,
00,
00,
00,
FF,
00,
00,
FF,
01,
01,
00,
00,
02,
01,
00,
01,
01,
01,
03,
02,
FF,
00,
FF,
FF,
00,
00,
FF,
FF,
01,
00,
02,
01,
01,
01,
01,
01,
02,
FF,
01,
00,
01,
00,
01,
01,
FF,
00,
00,
01,
00,
01,
03,
01,
01,
00,
01,
01,
00,
02,
00,
00,
01,
00,
00,
02,
01,
FF,
00,
02,
00,
FF,
02,
01,
00,
00,
00,
01,
01,
02,
02,
01,
00,
FF,
00,
FF,
00,
FF,
00,
00,
00,
00,
00,
01,
00,
00,
00,
02,
00,
01,
01,
00,
FF,
00,
00,
01,
01,
00,
01,
00,
00,
FF,
01,
01,
00,
02,
00,
FF,
00,
01,
01,
02,
00,
00,
01,
00,
00,
00,
01,
00,
01,
01,
FF,
00,
00,
FF,
01,
00,
00,
01,
00,
01,
FF,
00,
02,
00,
00,
00,
01,
01,
00,
02,
01,
00,
01,
01,
00,
01,
01,
00,
02,
01,
01,
FF,
FF,
01,
FF,
01,
FF,
FF,
00,
FF,
01,
02,
00,
01,
01,
00,
FE,
00,
02,
00,
00,
01,
FF,
FF,
01,
00,
01,
00,
FF,
02,
02,
00,
00,
00,
00,
00,
00,
FF,
00,
00,
00,
01,
00,
01,
01,
01,
00,
00,
01,
00,
02,
01,
00,
00,
01,
00,
00,
01,
01,
00,
FF,
01,
01,
00,
00,
01,
01,
FF,
00,
00,
00,
00,
00,
00,
00,
FF,
01,
FF,
00,
FF,
00,
01,
FF,
00,
00,
01,
FF,
00,
02,
00,
00,
00,
00,
00,
00,
00,
02,
01,
00,
FF,
00,
00,
00,
FE,
00,
00,
00,
FF,
FF,
01,
02,
00,
01,
00,
FF,
01,
01,
01,
01,
01,
00,
01,
00,
00,
00,
01,
01,
01,
00,
01,
03,
00,
02,
01,
01,
01,
00,
00,
00,
00,
FF,
01,
01,
01,
01,
02,
01,
00,
00,
00,
01,
00,
00,
01,
00,
00,
FF,
FF,
00,
00,
00,
FF,
00,
00,
02,
00,
FF,
FF,
FF,
00,
00,
01,
00,
01,
FF,
00,
00,
00,
FF,
00,
02,
00,
01,
00,
02,
FF,
FF,
00,
00,
FE,
00,
FF,
01,
03,
00,
FE,
00,
00,
FF,
00,
FF,
04,
01,
01,
00,
00,
01,
00,
00,
00,
00,
01,
FF,
02,
00,
00,
FF,
00,
FF,
01,
FF,
FF,
FF,
02,
02,
00,
01,
02,
01,
FF,
FF,
00,
01,
02,
FF,
FF,
FF,
00,
01,
FF,
01,
01,
00,
00,
01,
FF,
FE,
00,
01,
00,
FF,
00,
FF,
00,
00,
00,
00,
01,
01,
01,
01,
01,
01,
01,
00,
FF,
01,
FF,
00,
01,
01,
01,
01,
02,
01,
00,
00,
01,
02,
00,
00,
00,
00,
00,
00,
00,
FF,
00,
FF,
00,
01,
FF,
FF,
FF,
00,
00,
FF,
00,
00,
FF,
00,
01,
01,
01,
00,
01,
00,
02,
00,
00,
01,
FF,
00,
01,
02,
02,
01,
01,
01,
00,
FF,
00,
01,
FF,
00,
02,
00,
01,
FF,
02,
01,
FE,
01,
01,
00,
FF,
00,
01,
00,
01,
01,
01,
01,
01,
FE,
FF,
00,
02,
01,
FF,
01,
00,
01,
00,
00,
01,
01,
00,
01,
01,
00,
01,
01,
01,
01,
02,
01,
01,
00,
00,
01,
00,
00,
01,
01,
00,
00,
FF,
00,
01,
01,
FF,
00,
01,
00,
02,
00,
01,
01,
00,
FF,
01,
01,
00,
00,
FF,
00,
00,
FF,
FF,
00,
FF,
00,
02,
00,
00,
01,
01,
FF,
01,
00,
00,
00,
01,
01,
01,
00,
01,
00,
00,
00,
00,
01,
00,
FF,
FF,
02,
01,
01,
00,
FF,
00,
02,
00,
02,
00,
00,
FF,
00,
00,
00,
FF,
00,
FF,
00,
00,
FF,
00,
01,
01,
01,
00,
01,
00,
FF,
00,
00,
02,
01,
01,
FF,
01,
00,
01,
00,
00,
01,
00,
FF,
02,
01,
01,
01,
01,
01,
02,
02,
02,
00,
01,
00,
01,
FF,
00,
02,
02,
00,
00,
00,
01,
00,
01,
00,
01,
01,
01,
02,
01,
FF,
00,
00,
01,
01,
02,
01,
FF,
FF,
00,
00,
00,
00,
01,
00,
02,
00,
01,
01,
00,
FF,
00,
00,
00,
FE,
FE,
00,
01,
00,
FF,
FF,
00,
00,
FF,
01,
00,
01,
FF,
00,
02,
FF,
01,
01,
00,
00,
00,
FF,
00,
FF,
01,
FF,
00,
01,
01,
FF,
00,
FF,
FF,
01,
01,
01,
00,
FF,
01,
01,
02,
FE,
01,
01,
00,
01,
01,
01,
01,
00,
FF,
00,
01,
00,
00,
01,
02,
00,
00,
01,
01,
00,
01,
00,
FF,
FF,
00,
01,
01,
01,
02,
01,
00,
01,
02,
01,
02,
00,
01,
01,
00,
FF,
00,
00,
00,
00,
FF,
00,
00,
FF,
02,
00,
00,
01,
00,
FF,
00,
01,
01,
00,
00,
01,
FF,
FF,
01,
00,
FE,
00,
FF,
00,
00,
01,
01,
FE,
00,
FE,
FF,
00,
FF,
FF,
00,
01,
00,
00,
02,
00,
01,
00,
00,
01,
00,
01,
01,
01,
01,
00,
00,
00,
01,
00,
01,
FF,
01,
02,
01,
00,
01,
00,
00,
00,
01,
01,
01,
00,
00,
00,
01,
02,
02,
00,
00,
02,
01,
00,
00,
FF,
00,
01,
00,
01,
02,
FF,
00,
FE,
01,
00,
00,
01,
01,
01,
00,
01,
00,
01,
00,
01,
00,
01,
02,
01,
00,
02,
00,
01,
00,
00,
01,
FF,
00,
FF,
00,
00,
01,
01,
01,
01,
00,
00,
00,
FF,
00,
01,
00,
FF,
00,
FF,
00,
02,
FF,
FF,
00,
FF,
FF,
01,
00,
01,
01,
03,
00,
00,
00,
FF,
00,
00,
00,
02,
00,
01,
00,
00,
01,
02,
02,
FF,
01,
01,
02,
FF,
02,
01,
01,
00,
01,
00,
00,
01,
01,
02,
02,
01,
01,
00,
00,
01,
FF,
FD,
FF,
00,
00,
00,
00,
01,
00,
00,
01,
01,
FF,
00,
01,
01,
00,
FF,
01,
00,
01,
00,
FF,
FF,
00,
00,
00,
00,
02,
00,
01,
00,
01,
01,
00,
00,
01,
FF,
00,
00,
FF,
00,
02,
00,
00,
FF,
FF,
00,
00,
00,
FF,
FF,
00,
FF,
00,
FF,
01,
FF,
01,
FE,
FF,
FF,
FF,
01,
FF,
00,
00,
00,
FF,
01,
01,
01,
00,
01,
00,
01,
00,
00,
01,
01,
00,
01,
01,
FF,
00,
00,
FF,
FF,
00,
00,
01,
00,
01,
02,
00,
00,
FF,
01,
00,
00,
00,
00,
01,
02,
01,
00,
01,
00,
00,
00,
FF,
01,
00,
01,
00,
FF,
00,
01,
01,
01,
01,
01,
01,
01,
01,
00,
01,
00,
00,
00,
00,
FF,
FF,
FF,
02,
01,
00,
00,
02,
00,
FF,
00,
FF,
00,
01,
00,
00,
02,
00,
00,
00,
00,
01,
FF,
FF,
00,
FF,
00,
00,
01,
01,
01,
00,
01,
00,
00,
01,
00,
00,
00,
FF,
00,
00,
FF,
FE,
00,
01,
00,
00,
00,
FF,
01,
01,
00,
00,
00,
00,
FF,
02,
01,
00,
01,
00,
02,
01,
00,
01,
00,
01,
00,
01,
00,
01,
01,
FF,
00,
00,
FE,
00,
00,
01,
01,
01,
01,
01,
01,
00,
02,
00,
FF,
01,
01,
00,
00,
01,
00,
00,
01,
00,
FF,
00,
00,
00,
00,
01,
FF,
01,
00,
01,
FE,
FF,
00,
01,
FF,
FF,
01,
00,
01,
00,
00,
00,
FF,
00,
01,
FF,
03,
01,
01,
01,
01,
00,
01,
01,
00,
00,
01,
00,
01,
01,
01,
01,
01,
FF,
00,
00,
01,
FE,
00,
00,
00,
00,
00,
02,
FE,
01,
00,
00,
00,
01,
00,
00,
01,
02,
00,
01,
00,
00,
01,
FF,
01,
01,
01,
FF,
00,
01,
01,
FF,
FE,
00,
FF,
01,
00,
FF,
00,
01,
FF,
FF,
01,
01,
00,
FE,
FF,
00,
00,
01,
00,
01,
FF,
02,
00,
01,
00,
00,
FF,
00,
00,
01,
01,
FF,
01,
00,
00,
01,
00,
00,
FF,
01,
01,
01,
00,
00,
00,
00,
01,
02,
03,
01,
01,
01,
03,
FF,
02,
02,
FF,
00,
00,
FF,
00,
00,
00,
02,
00,
01,
01,
00,
FF,
00,
00,
00,
01,
FF,
00,
01,
FF,
FF,
FF,
00,
01,
FF,
01,
02,
FF,
01,
00,
00,
FF,
00,
01,
01,
01,
00,
01,
00,
00,
01,
00,
01,
00,
00,
00,
00,
00,
00,
00,
00,
00,
FF,
FF,
FF,
FE,
01,
03,
00,
01,
00,
01,
00,
FF,
03,
FF,
01,
01,
00,
02,
00,
01,
01,
00,
02,
01,
01,
FF,
01,
00,
FD,
01,
FF,
00,
00,
03,
FD,
03,
01,
FF,
FB,
00,
FD,
FE,
FF,
02,
01,
04,
FF,
FF,
FE,
01,
FF,
00,
00,
FD,
01,
FE,
FE,
01,
02,
02,
FE,
03,
02,
00,
00,
00,
03,
00,
00,
00,
00,
01,
01,
01,
FE,
FD,
02,
02,
03,
02,
FE,
04,
FC,
FD,
FF,
01,
02,
01,
03,
FE,
00,
02,
05,
FF,
00,
FD,
FE,
FF,
02,
FF,
FF,
01,
FD,
FE,
00,
01,
00,
FE,
00,
FE,
FD,
FF,
FE,
00,
00,
FE,
FF,
FF,
FF,
FC,
FE,
02,
01,
03,
00,
FD,
00,
01,
02,
00,
FE,
01,
02,
03,
00,
01,
FB,
02,
FD,
FF,
FD,
FF,
FD,
01,
01,
FE,
FE,
02,
04,
01,
01,
02,
02,
FF,
00,
00,
00,
00,
03,
00,
02,
03,
02,
01,
02,
00,
01,
01,
00,
02,
00,
01,
FD,
02,
00,
FF,
00,
00,
01,
FE,
02,
FE,
FE,
FF,
FF,
01,
02,
FD,
00,
00,
FD,
00,
02,
01,
04,
FF,
00,
00,
01,
FE,
FE,
FF,
00,
01,
00,
00,
01,
00,
02,
FF,
FF,
01,
00,
02,
FF,
02,
FF,
01,
01,
00,
00,
00,
00,
00,
00,
00,
01,
00,
FF,
FF,
FF,
01,
FE,
FF,
FE,
00,
FC,
FE,
00,
01,
01,
FE,
02,
00,
00,
FF,
01,
FF,
00,
01,
01,
00,
FF,
FD,
00,
00,
00,
FD,
00,
01,
01,
00,
02,
00,
FE,
01,
FE,
FF,
01,
01,
00,
03,
01,
FE,
00,
00,
01,
FF,
02,
02,
00,
00,
FC,
FD,
FF,
02,
FF,
01,
02,
00,
FD,
02,
00,
FE,
01,
01,
00,
FF,
FE,
01,
03,
FE,
00,
01,
01,
FC,
02,
FE,
02,
03,
FF,
FF,
FF,
01,
00,
01,
FF,
01,
FF,
FF,
FD,
FF,
FF,
01,
03,
01,
01,
FF,
FF,
FF,
FD,
01,
02,
00,
FE,
00,
02,
FD,
FF,
01,
02,
02,
00,
01,
FC,
FD,
FF,
00,
00,
FF,
00,
FF,
01,
FC,
FE,
01,
01,
FE,
FF,
FF,
00,
FC,
FF,
FE,
01,
00,
00,
FF,
00,
00,
FE,
FE,
02,
01,
00,
02,
00,
FF,
01,
FE,
00,
00,
FF,
00,
00,
02,
FF,
FD,
FE,
FE,
FC,
FD,
01,
FF,
FE,
00,
FE,
01,
FF,
FC,
00,
02,
FD,
02,
01,
00,
FE,
FF,
FF,
00,
00,
00,
01,
02,
00,
00,
FF,
FB,
03,
FE,
02,
00,
02,
01,
FE,
FE,
00,
00,
02,
FF,
01,
FF,
FF,
01,
FD,
00,
01,
01,
02,
00,
00,
FC,
FF,
FE,
00,
FE,
FE,
FE,
FF,
FF,
FF,
01,
FD,
FF,
00,
00,
04,
00,
00,
01,
00,
02,
FD,
FF,
01,
00,
02,
FE,
FF,
FD,
FE,
02,
FF,
02,
FF,
00,
02,
FF,
03,
FD,
01,
01,
01,
02,
01,
01,
02,
FF,
00,
FD,
01,
01,
03,
FD,
FD,
00,
00,
FF,
01,
FF,
01,
01,
00,
FF,
00,
FF,
FB,
FF,
00,
02,
03,
00,
FF,
FD,
FE,
FD,
FE,
FE,
03,
01,
01,
00,
01,
FE,
FD,
01,
04,
FE,
FF,
00,
FF,
00,
03,
02,
FE,
FE,
02,
00,
00,
FE,
00,
FD,
FE,
FF,
FF,
01,
00,
FE,
FE,
02,
FE,
FF,
FF,
FE,
FF,
01,
01,
02,
00,
FD,
01,
01,
01,
00,
FF,
FF,
00,
01,
FE,
00,
00,
02,
FF,
FF,
FF,
01,
FF,
01,
FE,
FC,
FE,
00,
FF,
FD,
FF,
01,
00,
FD,
00,
FE,
01,
00,
FD,
02,
02,
00,
FD,
00,
00,
FF,
01,
01,
FF,
00,
00,
02,
01,
FE,
01,
02,
02,
01,
00,
FF,
FF,
01,
FC,
01,
01,
00,
00,
FD,
00,
00,
FF,
00,
02,
01,
01,
00,
00,
01,
00,
02,
FE,
03,
00,
03,
02,
FE,
FF,
FE,
FE,
01,
FE,
03,
00,
01,
FF,
FC,
00,
00,
01,
FF,
00,
FF,
FF,
FF,
01,
00,
FF,
FE,
01,
FE,
FB,
FE,
01,
00,
FC,
FF,
02,
01,
01,
FF,
01,
FE,
02,
FF,
FF,
FF,
FF,
00,
00,
FF,
00,
FD,
FF,
00,
01,
00,
00,
FE,
FE,
FD,
FD,
00,
FE,
02,
02,
00,
FE,
02,
01,
00,
FF,
FF,
01,
01,
01,
03,
FD,
01,
01,
01,
FF,
01,
FF,
01,
01,
00,
FF,
FF,
FD,
00,
FE,
FF,
01,
00,
00,
01,
FE,
FD,
FE,
01,
FF,
01,
FD,
03,
00,
FF,
04,
FF,
FF,
FD,
01,
00,
02,
FF,
FF,
FF,
FF,
00,
00,
01,
FF,
00,
01,
00,
FC,
01,
FF,
FF,
FD,
FF,
03,
01,
00,
FD,
00,
FE,
FF,
FF,
01,
FD,
FF,
FE,
FE,
01,
00,
FF,
00,
FF,
00,
01,
02,
FF,
FF,
01,
04,
01,
FF,
FF,
03,
FF,
FC,
00,
FE,
00,
02,
00,
FE,
02,
00,
00,
01,
02,
02,
01,
FF,
01,
00,
FF,
00,
00,
01,
00,
00,
FF,
FE,
00,
FF,
FF,
00,
01,
00,
02,
FF,
00,
FF,
FF,
FE,
02,
FF,
03,
FF,
FF,
01,
01,
FE,
01,
FF,
01,
FD,
01,
01,
00,
00,
FD,
FD,
FF,
02,
FF,
01,
FE,
01,
02,
00,
FE,
00,
02,
04,
03,
FE,
01,
00,
FF,
FC,
01,
FF,
02,
00,
01,
02,
02,
FE,
FB,
FE,
01,
02,
01,
00,
FF,
00,
FF,
FE,
00,
00,
FE,
02,
01,
FF,
FD,
FE,
01,
FF,
00,
01,
00,
01,
FF,
03,
FF,
FF,
01,
01,
01,
00,
00,
00,
FF,
00,
02,
01,
01,
02,
00,
03,
02,
FF,
00,
FF,
01,
00,
00,
FF,
00,
01,
01,
FD,
FD,
01,
00,
01,
FF,
FB,
FE,
01,
FE,
02,
FF,
FF,
03,
00,
00,
FE,
00,
01,
FF,
00,
01,
02,
00,
FE,
FF,
00,
00,
00,
03,
02,
01,
00,
01,
FE,
02,
01,
03,
FF,
FE,
FF,
FF,
00,
02,
00,
00,
F9,
FE,
01,
01,
00,
FF,
FC,
FF,
FD,
FF,
00,
02,
04,
00,
02,
FF,
01,
FE,
FB,
FE,
04,
01,
01,
01,
00,
01,
00,
FE,
03,
FC,
00,
01,
FF,
00,
FF,
00,
FF,
01,
01,
00,
00,
FE,
02,
FF,
00,
FC,
FF,
01,
00,
00,
01,
01,
00,
03,
FE,
FF,
00,
01,
FE,
00,
FE,
FF,
01,
00,
FE,
FF,
00,
01,
FF,
01,
02,
FE,
FD,
00,
01,
01,
01,
FF,
01,
FE,
02,
FE,
FF,
02,
01,
01,
00,
FF,
00,
FD,
FF,
00,
00,
00,
FF,
FE,
01,
00,
00,
FF,
00,
02,
03,
02,
FF,
01,
FF,
02,
FC,
02,
00,
FE,
01,
03,
02,
01,
FE,
FD,
FF,
FE,
FF,
00,
FF,
01,
00,
FF,
FD,
FD,
02,
01,
01,
02,
02,
FF,
FF,
FC,
03,
00,
03,
FF,
00,
00,
02,
FF,
FE,
FF,
01,
FE,
01,
FD,
FF,
FE,
02,
05,
01,
03,
FE,
FF,
01,
FF,
FF,
FF,
FE,
00,
01,
00,
00,
FF,
00,
01,
01,
FC,
FC,
01,
02,
00,
FF,
01,
02,
FE,
00,
FE,
00,
02,
03,
FF,
FF,
FE,
FF,
FE,
FE,
FF,
FD,
01,
00,
FF,
01,
02,
01,
00,
FF,
01,
FE,
00,
00,
01,
FF,
FF,
FF,
FF,
00,
01,
01,
00,
01,
FA,
FE,
FF,
00,
FF,
00,
FD,
01,
FF,
00,
FD,
00,
01,
02,
00,
FE,
FF,
01,
00,
FF,
FF,
01,
00,
00,
00,
01,
00,
01,
03,
FE,
01,
FE,
01,
01,
00,
01,
FE,
00,
FF,
FE,
FF,
FE,
02,
01,
02,
FE,
FE,
01,
01,
FE,
FF,
01,
FF,
03,
00,
01,
FB,
00,
02,
00,
01,
03,
FF,
02,
FF,
FF,
FE,
FF,
00,
00,
00,
FD,
01,
01,
FF,
00,
FF,
02,
FE,
FE,
FF,
FF,
FF,
01,
01,
02,
03,
01,
FE,
02,
FC,
01,
FC,
03,
00,
00,
FF,
00,
FE,
01,
02,
FE,
FF,
FF,
01,
00,
00,
FF,
01,
01,
FF,
00,
02,
FF,
02,
FE,
00,
FC,
FF,
01,
01,
FE,
01,
01,
FF,
01,
00,
01,
01,
FF,
05,
FF,
FE,
01,
02,
FF,
01,
FE,
01,
FF,
00,
FF,
FF,
00,
FE,
FD,
01,
00,
02,
02,
00,
FB,
FF,
FD,
FD,
00,
FF,
02,
02,
01,
FF,
FF,
FF,
01,
02,
00,
00,
FF,
FF,
FE,
FF,
FF,
FE,
00,
01,
02,
FD,
02,
FD,
00,
02,
00,
FE,
FF,
FF,
03,
00,
FD,
00,
FE,
FE,
03,
00,
02,
02,
00,
02,
00,
00,
FF,
FF,
00,
FF,
03,
FE,
FF,
02,
FF,
00,
FF,
00,
01,
00,
00,
02,
00,
FF,
00,
FF,
02,
01,
FE,
FE,
FF,
00,
00,
00,
00,
00,
FF,
02,
FE,
FE,
FF,
FE,
FE,
FF,
00,
03,
00,
00,
03,
FE,
00,
FE,
01,
00,
FF,
00,
FF,
02,
03,
FF,
FF,
00,
00,
01,
02,
00,
FF,
FF,
FE,
02,
01,
02,
00,
FF,
00,
FD,
00,
FF,
FE,
00,
00,
01,
01,
00,
00,
00,
FF,
FF,
FE,
02,
FF,
01,
03,
00,
00,
02,
FE,
01,
00,
01,
00,
02,
FF,
03,
FF,
FF,
FD,
FA,
00,
02,
FE,
02,
04,
FE,
FE,
00,
FE,
01,
02,
FE,
00,
00,
FD,
FF,
FB,
01,
01,
03,
00,
00,
01,
00,
FE,
00,
00,
FE,
02,
01,
00,
01,
00,
FF,
FD,
02,
01,
01,
02,
00,
01,
00,
FF,
01,
00,
01,
04,
FF,
FF,
01,
FE,
FE,
FE,
02,
FD,
00,
03,
00,
03,
FD,
FF,
00,
FB,
00,
FF,
01,
FF,
FF,
FF,
00,
00,
00,
00,
00,
FE,
00,
02,
FD,
FE,
00,
01,
FF,
01,
01,
01,
02,
00,
00,
FE,
FE,
03,
01,
02,
FD,
FF,
FE,
FE,
FD,
FD,
00,
FD,
00,
01,
FF,
01,
01,
01,
00,
02,
02,
FF,
03,
FE,
FD,
02,
FC,
01,
01,
00,
00,
01,
FE,
01,
FD,
00,
FF,
01,
00,
02,
FF,
FF,
00,
02,
00,
FC,
FE,
02,
01,
00,
00,
FF,
03,
00,
FE,
00,
02,
FF,
00,
FF,
00,
00,
02,
FF,
FE,
00,
02,
03,
00,
01,
01,
03,
01,
02,
03,
00,
01,
01,
FF,
FE,
02,
FF,
01,
FF,
01,
FF,
03,
FF,
00,
00,
00,
02,
FD,
00,
FF,
FF,
03,
00,
01,
00,
00,
FF,
00,
02,
01,
FE,
FE,
FD,
FE,
FE,
03,
FE,
00,
FF,
FF,
FF,
FE,
FE,
01,
00,
04,
FE,
FE,
FD,
02,
00,
04,
FF,
FF,
01,
FE,
FF,
02,
01,
FE,
FD,
01,
FF,
01,
01,
FD,
00,
FB,
FC,
00,
00,
01,
03,
00,
FE,
FF,
FF,
01,
FD,
FE,
FF,
01,
FF,
FF,
00,
00,
00,
FF,
FF,
01,
03,
FE,
FE,
FF,
FC,
FC,
FF,
00,
02,
FF,
FF,
00,
FF,
FE,
FE,
02,
03,
FF,
01,
00,
02,
00,
FF,
00,
FF,
FE,
01,
02,
00,
FF,
FE,
FE,
FE,
FE,
FF,
01,
FE,
FD,
01,
00,
00,
00,
01,
01,
FF,
01,
01,
01,
FF,
FE,
01,
01,
FB,
FC,
FF,
FD,
FF,
FF,
00,
FE,
03,
01,
03,
00,
00,
FF,
FE,
FE,
00,
FE,
00,
01,
01,
00,
FE,
02,
00,
02,
00,
FF,
01,
02,
FD,
00,
FF,
00,
FC,
01,
FF,
01,
FF,
03,
FF,
FF,
FD,
01,
02,
FE,
01,
02,
02,
FF,
FF,
00,
01,
00,
FF,
FF,
FD,
FE,
01,
01,
01,
00,
01,
FE,
03,
00,
00,
00,
00,
01,
FF,
00,
FE,
01,
FF,
01,
00,
FD,
00,
00,
01,
02,
FF,
01,
01,
FF,
FE,
FC,
00,
03,
03,
01,
00,
00,
01,
01,
01,
FF,
FE,
00,
FE,
00,
01,
01,
FF,
01,
FF,
01,
00,
00,
00,
FF,
01,
00,
01,
FF,
FF,
00,
FE,
01,
FF,
00,
FF,
03,
00,
02,
02,
00,
03,
00,
00,
FE,
FF,
01,
01,
00,
03,
FF,
00,
FF,
03,
03,
01,
FF,
FF,
01,
FF,
01,
00,
00,
FE,
FF,
FF,
00,
01,
FD,
01,
00,
02,
00,
00,
02,
00,
01,
01,
FF,
02,
FE,
01,
FE,
00,
00,
04,
FE,
00,
00,
01,
00,
01,
FF,
FE,
FE,
01,
FD,
FF,
00,
03,
01,
01,
02,
00,
FF,
FF,
00,
00,
FD,
00,
00,
FF,
03,
00,
01,
02,
FC,
00,
FD,
02,
FF,
01,
00,
01,
02,
FF,
FE,
FF,
FF,
FF,
02,
03,
FD,
01,
00,
FC,
00,
FF,
04,
00,
00,
FF,
FF,
FF,
FF,
00,
01,
02,
02,
FE,
01,
FF,
FF,
FD,
01,
00,
00,
02,
01,
01,
FE,
FC,
FD,
01,
00,
00,
02,
FD,
FF,
00,
00,
00,
00,
FF,
00,
FF,
FE,
FF,
01,
FC,
FC,
FE,
01,
03,
FE,
02,
02,
01,
00,
00,
FF,
FF,
00,
03,
03,
01,
00,
FF,
00,
00,
FE,
00,
02,
01,
FF,
01,
FF,
00,
00,
02,
00,
FE,
00,
02,
00,
FD,
FD,
FD,
01,
04,
FF,
00,
FF,
01,
01,
FE,
01,
FF,
01,
01,
01,
FF,
FE,
01,
02,
FF,
FF,
02,
01,
FD,
01,
FE,
00,
FD,
01,
00,
FD,
00,
FF,
02,
00,
00,
01,
01,
FE,
FD,
00,
FF,
00,
01,
FC,
FF,
FF,
FE,
00,
02,
01,
FF,
FF,
FD,
FE,
01,
00,
02,
FF,
00,
00,
00,
FC,
FF,
FF,
01,
01,
FF,
FF,
FF,
FF,
01,
03,
FE,
02,
02,
02,
00,
FF,
02,
FD,
01,
03,
00,
02,
FF,
FF,
00,
FC,
FF,
00,
FF,
00,
FE,
FF,
FF,
FE,
02,
00,
FF,
01,
00,
01,
02,
01,
01,
00,
00,
00,
01,
01,
FD,
FD,
00,
FF,
00,
FD,
FE,
FF,
FF,
FE,
00,
02,
00,
00,
01,
01,
FE,
01,
01,
00,
00,
02,
00,
FD,
FF,
FC,
04,
FE,
03,
FF,
FE,
FF,
00,
FE,
02,
01,
02,
01,
00,
FF,
01,
00,
FF,
01,
FE,
02,
01,
00,
FD,
FE,
00,
FF,
FE,
FF,
00,
02,
00,
FE,
00,
01,
03,
01,
FE,
00,
FE,
FF,
FF,
FF,
03,
02,
FE,
01,
01,
00,
00,
00,
01,
FF,
FF,
FC,
02,
01,
00,
00,
01,
FF,
00,
FD,
FC,
FE,
00,
01,
01,
FF,
02,
FF,
FF,
02,
FE,
06,
FF,
FF,
05,
02,
02,
FF,
02,
FE,
FF,
FF,
FE,
03,
00,
00,
01,
00,
FE,
03,
01,
FD,
00,
FD,
FF,
FD,
FE,
FF,
FF,
03,
00,
01,
00,
FE,
FD,
00,
00,
04,
FE,
02,
04,
FF,
00,
FF,
00,
FE,
FD,
00,
00,
FE,
03,
00,
FE,
FD,
FF,
02,
FE,
FF,
03,
02,
00,
00,
04,
FF,
FB,
01,
00,
00,
FF,
01,
FF,
FF,
00,
01,
FF,
00,
01,
03,
FC,
02,
02,
00,
00,
03,
FF,
01,
01,
01,
02,
00,
00,
FD,
FF,
00,
02,
FD,
00,
FA,
FE,
FF,
00,
00,
00,
02,
FD,
FD,
FE,
FE,
02,
FE,
FD,
FF,
02,
FD,
FF,
00,
00,
FF,
02,
02,
FE,
00,
FB,
00,
00,
FC,
00,
FD,
00,
FF,
02,
04,
FC,
00,
FF,
FE,
FE,
FF,
01,
FD,
00,
01,
FD,
FF,
00,
FF,
FF,
00,
00,
00,
00,
01,
04,
02,
01,
FF,
FE,
02,
FE,
FF,
05,
00,
03,
02,
00,
02,
FF,
02,
FE,
03,
FD,
FF,
FF,
FF,
FF,
00,
02,
01,
FF,
00,
02,
01,
01,
FF,
03,
FD,
FC,
02,
FE,
FC,
01,
FD,
FF,
02,
00,
FC,
01,
FE,
01,
03,
01,
01,
FE,
02,
02,
00,
FF,
01,
00,
01,
01,
FE,
02,
00,
02,
FF,
01,
00,
00,
FF,
FD,
01,
02,
FF,
FE,
01,
00,
04,
00,
FF,
01,
FF,
02,
03,
FB,
00,
00,
01,
01,
FF,
00,
01,
FE,
01,
FF,
02,
FF,
00,
FF,
00,
FF,
FD,
FF,
01,
01,
FC,
FF,
00,
FF,
00,
02,
02,
FF,
02,
01,
01,
FF,
FF,
02,
FD,
02,
FD,
02,
02,
01,
FF,
FC,
FD,
01,
01,
FB,
02,
00,
00,
03,
FD,
FE,
00,
01,
FE,
00,
03,
FF,
00,
03,
FF,
FD,
02,
00,
FE,
FE,
01,
00,
FF,
FF,
03,
FE,
FD,
00,
FE,
01,
02,
02,
FF,
02,
02,
FF,
FF,
01,
00,
02,
FE,
01,
FE,
FF,
03,
FF,
00,
03,
00,
FF,
00,
00,
FD,
00,
FE,
00,
02,
01,
FF,
03,
FE,
FD,
02,
00,
00,
FE,
FE,
FF,
FE,
03,
FE,
01,
03,
01,
FF,
00,
FF,
00,
01,
00,
01,
FF,
FF,
FF,
FD,
FF,
FF,
FE,
FF,
FE,
01,
FD,
FE,
FF,
04,
FE,
FC,
FD,
FE,
01,
02,
FE,
01,
FE,
02,
00,
FE,
01,
01,
FE,
FF,
FE,
FF,
FF,
04,
00,
FE,
FF,
00,
01,
00,
02,
FE,
FE,
01,
FB,
02,
00,
01,
FE,
FE,
01,
00,
FE,
FE,
FF,
02,
02,
FC,
FF,
00,
FE,
00,
02,
00,
00,
FD,
01,
01,
FF,
FE,
01,
03,
01,
01,
00,
01,
FE,
FC,
FF,
01,
FF,
FE,
FD,
00,
00,
FD,
02,
FE,
FC,
02,
FE,
03,
00,
FE,
00,
01,
02,
FF,
FE,
02,
FE,
FD,
01,
FF,
FD,
01,
00,
FF,
FF,
02,
00,
00,
01,
00,
00,
00,
01,
01,
FE,
00,
04,
02,
03,
FB,
03,
01,
04,
02,
FE,
01,
FD,
FD,
01,
01,
00,
00,
FD,
FD,
01,
FC,
FF,
FF,
01,
FB,
FE,
FD,
00,
02,
FE,
01,
02,
FF,
01,
FE,
FF,
04,
00,
FF,
01,
FF,
02,
00,
00,
03,
01,
01,
02,
FF,
FF,
02,
FF,
FD,
FF,
00,
00,
FF,
01,
FB,
00,
00,
FE,
01,
FF,
FE,
FE,
00,
01,
03,
00,
01,
00,
01,
02,
00,
FD,
03,
02,
FE,
FC,
FF,
01,
FD,
01,
FD,
FB,
02,
00,
FD,
00,
03,
01,
FF,
FF,
00,
00,
03,
00,
FC,
02,
FF,
00,
FE,
FF,
FD,
FE,
00,
FE,
FF,
FF,
00,
00,
FE,
00,
FE,
01,
01,
02,
FF,
FE,
FF,
02,
FE,
00,
02,
FD,
FA,
00,
03,
FF,
FF,
01,
03,
01,
FE,
02,
FD,
FB,
00,
FF,
02,
00,
02,
FE,
02,
FE,
02,
FE,
03,
02,
01,
FB,
00,
FF,
00,
00,
FD,
FF,
02,
FF,
00,
FF,
00,
01,
FC,
02,
FF,
FD,
FF,
FE,
FF,
FF,
00,
00,
FE,
FB,
00,
01,
03,
00,
00,
02,
00,
02,
FE,
01,
01,
01,
FF,
01,
02,
05,
FD,
FF,
FD,
03,
01,
FE,
FF,
FE,
01,
FC,
01,
00,
01,
02,
02,
00,
FE,
FD,
FD,
FE,
01,
01,
FF,
FD,
00,
01,
FE,
FE,
FD,
FE,
FE,
FF,
00,
FF,
FC,
01,
00,
00,
00,
01,
01,
03,
00,
00,
FE,
FA,
01,
01,
FE,
FF,
01,
FF,
03,
FF,
02,
FE,
FE,
FF,
03,
02,
01,
00,
01,
00,
FC,
FD,
03,
FF,
FF,
02,
00,
FD,
01,
FF,
FD,
FE,
00,
00,
FF,
FD,
FF,
FE,
01,
FF,
00,
03,
FF,
FF,
01,
03,
FB,
FF,
02,
00,
FD,
FF,
FE,
01,
FD,
04,
FD,
FF,
01,
FA,
FE,
FE,
00,
FF,
FD,
00,
02,
00,
FD,
FE,
FF,
02,
01,
FF,
FE,
FA,
FE,
00,
01,
02,
FF,
FF,
FE,
FE,
01,
04,
FF,
00,
00,
FF,
00,
03,
FE,
00,
FE,
00,
00,
01,
01,
FE,
06,
02,
01,
FD,
02,
FF,
FF,
00,
FE,
01,
00,
FF,
FD,
FF,
FF,
FF,
00,
00,
00,
FD,
00,
FF,
FF,
FC,
01,
FE,
FE,
00,
FE,
FE,
01,
FD,
FF,
FF,
02,
FB,
FE,
FB,
01,
00,
FE,
00,
FE,
FE,
00,
FF,
FF,
01,
FF,
02,
FE,
02,
01,
FF,
FC,
FB,
00,
01,
03,
00,
01,
05,
FC,
01,
02,
02,
FD,
00,
01,
FF,
00,
03,
00,
00,
FC,
FC,
FD,
01,
00,
02,
00,
01,
FF,
FC,
FF,
01,
FF,
02,
00,
FF,
00,
FE,
00,
01,
03,
01,
01,
02,
FE,
04,
00,
02,
FB,
00,
FE,
00,
FF,
FC,
00,
00,
FF,
FF,
FF,
FF,
FD,
00,
00,
FE,
FD,
01,
FF,
00,
FD,
FA,
03,
FE,
FC,
FF,
01,
02,
FF,
01,
FD,
FF,
FC,
FF,
00,
03,
02,
FB,
03,
01,
01,
00,
FF,
05,
02,
02,
FF,
01,
00,
FF,
00,
FF,
FE,
FD,
FF,
FF,
FE,
FE,
FE,
00,
00,
FE,
02,
00,
FF,
01,
FE,
02,
00,
FD,
00,
00,
FF,
FF,
01,
FD,
04,
01,
FF,
FE,
FF,
01,
02,
02,
00,
03,
01,
FF,
02,
01,
FF,
FC,
FE,
FE,
00,
FF,
00,
FC,
FF,
00,
FF,
01,
04,
FF,
FC,
FE,
FE,
00,
01,
FF,
02,
FF,
01,
00,
FF,
FE,
FD,
FF,
04,
00,
FB,
02,
FE,
FF,
01,
01,
FF,
FF,
FF,
01,
02,
FC,
FB,
01,
01,
00,
FD,
00,
FD,
03,
FE,
00,
FF,
01,
01,
FF,
FE,
FF,
01,
02,
00,
FF,
02,
00,
00,
01,
02,
00,
FC,
FD,
FE,
FF,
01,
FC,
01,
01,
FE,
FC,
FE,
FE,
FE,
02,
FF,
02,
FD,
00,
FE,
FF,
FF,
FE,
FF,
01,
02,
02,
FE,
FF,
04,
01,
01,
04,
FF,
FB,
00,
00,
03,
FB,
00,
01,
01,
FF,
02,
FE,
02,
02,
00,
01,
00,
00,
01,
00,
02,
00,
01,
01,
FF,
FD,
02,
03,
02,
FF,
01,
00,
FF,
FF,
00,
FF,
FE,
02,
00,
02,
02,
FA,
02,
FE,
03,
00,
FE,
02,
00,
FE,
00,
00,
03,
FD,
FD,
FF,
01,
FF,
FF,
FC,
05,
FE,
FF,
FC,
01,
01,
01,
01,
FE,
04,
00,
00,
00,
FE,
FF,
FD,
FC,
FF,
03,
05,
FF,
FD,
01,
FF,
FE,
00,
01,
FD,
FF,
01,
02,
FE,
01,
01,
05,
FB,
01,
02,
01,
01,
02,
FD,
FF,
FE,
02,
03,
FD,
01,
04,
01,
FF,
01,
FF,
FD,
FF,
FF,
04,
FF,
01,
FE,
03,
03,
FE,
00,
01,
01,
00,
03,
FB,
FE,
FD,
00,
FD,
00,
00,
FE,
02,
FF,
01,
01,
FD,
02,
FB,
02,
FF,
01,
00,
00,
FE,
01,
FE,
FF,
03,
FF,
01,
FD,
00,
FB,
FD,
FF,
00,
FF,
00,
03,
02,
03,
FC,
04,
FD,
02,
FE,
01,
FF,
00,
FE,
01,
03,
FE,
02,
FC,
FF,
00,
FE,
02,
02,
01,
FC,
FF,
01,
02,
00,
FF,
01,
01,
FF,
01,
00,
FE,
01,
05,
FE,
01,
01,
FE,
00,
02,
00,
03,
02,
01,
FF,
01,
00,
03,
FE,
FC,
02,
01,
02,
FE,
FE,
00,
FF,
04,
FF,
02,
FD,
00,
FF,
01,
FF,
FD,
02,
FF,
FF,
00,
FD,
FE,
02,
06,
FF,
FB,
02,
FE,
00,
03,
00,
00,
01,
FF,
01,
FD,
01,
FF,
FF,
00,
FF,
FD,
03,
01,
FE,
02,
02,
FC,
FE,
FD,
FD,
FE,
FF,
00,
FF,
00,
00,
01,
02,
03,
FE,
FF,
03,
FF,
01,
00,
00,
03,
00,
FF,
FE,
FC,
00,
00,
FC,
02,
00,
00,
FF,
00,
FF,
FF,
FE,
00,
FD,
00,
FE,
00,
02,
01,
FD,
FE,
00,
02,
01,
FE,
FE,
02,
01,
00,
FE,
FE,
01,
00,
FE,
FF,
FD,
FC,
00,
00,
01,
00,
02,
FD,
00,
FE,
FF,
02,
FD,
00,
FF,
03,
FF,
FD,
02,
01,
FD,
00,
00,
01,
01,
06,
FC,
FC,
01,
01,
03,
04,
00,
FE,
00,
FF,
FF,
00,
FE,
01,
FF,
00,
00,
01,
02,
01,
02,
FF,
FF,
01,
00,
01,
02,
FE,
00,
FD,
FE,
FD,
00,
01,
02,
00,
FF,
02,
03,
00,
02,
FF,
FE,
02,
FF,
FE,
00,
00,
00,
FE,
FF,
FE,
FE,
00,
02,
FC,
FF,
01,
02,
03,
FF,
03,
FE,
FD,
03,
01,
FB,
01,
FD,
01,
01,
01,
FC,
FF,
00,
00,
00,
FF,
FF,
FD,
02,
FF,
02,
FB,
FF,
00,
03,
FF,
FF,
FD,
00,
FC,
03,
00,
FE,
00,
01,
03,
FE,
FD,
02,
FB,
FF,
00,
01,
FF,
FE,
FE,
03,
FF,
FD,
02,
00,
02,
FF,
FC,
01,
FF,
FF,
FF,
00,
02,
00,
FB,
FF,
FF,
FE,
FB,
00,
FF,
00,
FE,
FE,
02,
01,
FC,
01,
FE,
02,
FD,
00,
04,
01,
FD,
FF,
00,
02,
01,
FF,
01,
FF,
FE,
FB,
FE,
FF,
FF,
FE,
01,
FE,
FE,
FE,
05,
01,
FE,
01,
FF,
FF,
00,
FF,
FE,
01,
FE,
01,
00,
FF,
FF,
01,
FF,
FE,
FF,
01,
00,
FC,
00,
00,
FF,
FF,
FE,
01,
03,
00,
01,
FE,
03,
02,
00,
02,
FC,
02,
FA,
FE,
FC,
00,
00,
FB,
00,
04,
00,
FF,
FF,
00,
00,
00,
02,
02,
02,
00,
FF,
FF,
00,
02,
00,
FF,
00,
FD,
05,
00,
01,
FF,
FE,
01,
03,
FE,
FF,
03,
FD,
FF,
FD,
00,
02,
FC,
00,
01,
01,
05,
FC,
FF,
FF,
03,
01,
03,
06,
01,
00,
FC,
02,
FF,
FF,
01,
FE,
FD,
FF,
03,
03,
00,
FE,
00,
FC,
05,
FE,
FF,
FE,
01,
00,
02,
02,
01,
01,
00,
01,
FF,
FE,
04,
00,
01,
FF,
FF,
FD,
FC,
FE,
02,
FF,
02,
FD,
FF,
FA,
01,
FF,
01,
00,
FF,
FE,
03,
02,
FE,
FF,
01,
FF,
00,
00,
01,
FF,
01,
FE,
FF,
00,
00,
01,
01,
FE,
FF,
FF,
FF,
00,
02,
FE,
FE,
03,
FD,
01,
03,
F9,
FF,
02,
FE,
FE,
00,
00,
FD,
00,
00,
FF,
FD,
FF,
01,
00,
03,
02,
FF,
FD,
00,
00,
00,
FF,
00,
00,
02,
FD,
01,
FF,
FE,
02,
03,
FD,
FB,
00,
FE,
01,
02,
01,
FD,
03,
FD,
FE,
FF,
FE,
FF,
FF,
02,
01,
01,
FD,
01,
FF,
FD,
01,
00,
FF,
02,
FE,
FE,
02,
FE,
02,
FF,
FF,
00,
00,
00,
00,
FD,
03,
00,
FB,
FF,
03,
FF,
FF,
01,
03,
FE,
05,
FF,
01,
01,
02,
02,
02,
01,
FD,
FE,
FC,
02,
FF,
FC,
01,
01,
00,
FD,
01,
01,
03,
FD,
FE,
FE,
00,
02,
FF,
01,
00,
02,
FF,
FF,
FE,
02,
FD,
00,
FF,
FE,
00,
00,
FF,
01,
00,
00,
FE,
FF,
02,
FE,
01,
00,
FD,
00,
00,
