// Exported from TinyDetector7Layer
// Shape: (64, 32, 3, 3), Bits: 8
@00000000 0D
@00000001 FC
@00000002 FB
@00000003 03
@00000004 FE
@00000005 08
@00000006 FF
@00000007 0A
@00000008 01
@00000009 F5
@0000000A F2
@0000000B F3
@0000000C EB
@0000000D F4
@0000000E E9
@0000000F FB
@00000010 F6
@00000011 F1
@00000012 FE
@00000013 FE
@00000014 FF
@00000015 10
@00000016 EA
@00000017 06
@00000018 08
@00000019 03
@0000001A FA
@0000001B F7
@0000001C 05
@0000001D FC
@0000001E 0B
@0000001F 0F
@00000020 0E
@00000021 06
@00000022 F6
@00000023 03
@00000024 FB
@00000025 04
@00000026 15
@00000027 FB
@00000028 01
@00000029 FC
@0000002A FF
@0000002B F2
@0000002C F9
@0000002D 02
@0000002E F0
@0000002F F6
@00000030 09
@00000031 E7
@00000032 F1
@00000033 02
@00000034 0A
@00000035 F7
@00000036 04
@00000037 02
@00000038 05
@00000039 0B
@0000003A F7
@0000003B FD
@0000003C 0E
@0000003D 04
@0000003E FF
@0000003F 03
@00000040 FD
@00000041 00
@00000042 FC
@00000043 F7
@00000044 0E
@00000045 EF
@00000046 E7
@00000047 E7
@00000048 EF
@00000049 F4
@0000004A F2
@0000004B 06
@0000004C E7
@0000004D F4
@0000004E F1
@0000004F EC
@00000050 E6
@00000051 09
@00000052 03
@00000053 FC
@00000054 06
@00000055 FB
@00000056 F1
@00000057 FE
@00000058 10
@00000059 0F
@0000005A FD
@0000005B 0E
@0000005C F5
@0000005D 0D
@0000005E 05
@0000005F F8
@00000060 0B
@00000061 FD
@00000062 06
@00000063 FE
@00000064 06
@00000065 0B
@00000066 15
@00000067 12
@00000068 0F
@00000069 03
@0000006A F8
@0000006B 02
@0000006C 10
@0000006D E9
@0000006E F6
@0000006F 16
@00000070 FB
@00000071 01
@00000072 F4
@00000073 FD
@00000074 F7
@00000075 0E
@00000076 F0
@00000077 16
@00000078 F9
@00000079 FB
@0000007A F1
@0000007B EE
@0000007C E3
@0000007D F7
@0000007E 0D
@0000007F FF
@00000080 07
@00000081 00
@00000082 FC
@00000083 F2
@00000084 ED
@00000085 F8
@00000086 08
@00000087 F1
@00000088 0C
@00000089 06
@0000008A 20
@0000008B FD
@0000008C 02
@0000008D 10
@0000008E EE
@0000008F F6
@00000090 08
@00000091 12
@00000092 05
@00000093 06
@00000094 FA
@00000095 F0
@00000096 F7
@00000097 FD
@00000098 F2
@00000099 14
@0000009A 0E
@0000009B 0A
@0000009C 0E
@0000009D EF
@0000009E FF
@0000009F F6
@000000A0 F9
@000000A1 E9
@000000A2 00
@000000A3 0B
@000000A4 00
@000000A5 F0
@000000A6 00
@000000A7 ED
@000000A8 FD
@000000A9 EF
@000000AA F2
@000000AB 11
@000000AC 13
@000000AD 0F
@000000AE F1
@000000AF F0
@000000B0 F3
@000000B1 03
@000000B2 F6
@000000B3 EB
@000000B4 03
@000000B5 0F
@000000B6 01
@000000B7 F2
@000000B8 F7
@000000B9 F6
@000000BA FB
@000000BB 06
@000000BC F5
@000000BD 03
@000000BE E6
@000000BF EF
@000000C0 0D
@000000C1 01
@000000C2 05
@000000C3 17
@000000C4 07
@000000C5 F3
@000000C6 08
@000000C7 16
@000000C8 18
@000000C9 04
@000000CA FA
@000000CB FB
@000000CC FB
@000000CD 0C
@000000CE 12
@000000CF 07
@000000D0 02
@000000D1 F3
@000000D2 07
@000000D3 FF
@000000D4 09
@000000D5 F8
@000000D6 12
@000000D7 12
@000000D8 FD
@000000D9 F1
@000000DA FD
@000000DB 0A
@000000DC FC
@000000DD EE
@000000DE FB
@000000DF F2
@000000E0 FF
@000000E1 14
@000000E2 0C
@000000E3 00
@000000E4 00
@000000E5 FC
@000000E6 0E
@000000E7 FE
@000000E8 E4
@000000E9 07
@000000EA 11
@000000EB EA
@000000EC F8
@000000ED 06
@000000EE 10
@000000EF FD
@000000F0 FE
@000000F1 0B
@000000F2 05
@000000F3 F2
@000000F4 14
@000000F5 FB
@000000F6 07
@000000F7 00
@000000F8 07
@000000F9 F1
@000000FA 05
@000000FB F9
@000000FC F5
@000000FD E2
@000000FE 01
@000000FF FF
@00000100 F5
@00000101 EE
@00000102 FE
@00000103 F0
@00000104 F0
@00000105 FD
@00000106 EE
@00000107 0F
@00000108 13
@00000109 FD
@0000010A 00
@0000010B F7
@0000010C FF
@0000010D FA
@0000010E 0F
@0000010F 01
@00000110 08
@00000111 F8
@00000112 05
@00000113 FA
@00000114 F8
@00000115 F8
@00000116 F8
@00000117 06
@00000118 03
@00000119 F7
@0000011A 12
@0000011B E4
@0000011C F7
@0000011D FB
@0000011E 04
@0000011F F7
@00000120 FE
@00000121 F0
@00000122 FD
@00000123 04
@00000124 FD
@00000125 FC
@00000126 FF
@00000127 F4
@00000128 00
@00000129 05
@0000012A 01
@0000012B F6
@0000012C 11
@0000012D 09
@0000012E 01
@0000012F 0A
@00000130 10
@00000131 0D
@00000132 08
@00000133 FA
@00000134 F7
@00000135 07
@00000136 FB
@00000137 FC
@00000138 02
@00000139 04
@0000013A FD
@0000013B 07
@0000013C 00
@0000013D 02
@0000013E 09
@0000013F 15
@00000140 05
@00000141 0D
@00000142 0A
@00000143 10
@00000144 FC
@00000145 FE
@00000146 F7
@00000147 F9
@00000148 06
@00000149 FC
@0000014A 04
@0000014B F0
@0000014C FF
@0000014D 09
@0000014E 10
@0000014F 03
@00000150 0D
@00000151 03
@00000152 F9
@00000153 00
@00000154 01
@00000155 00
@00000156 FC
@00000157 01
@00000158 01
@00000159 0A
@0000015A F8
@0000015B 08
@0000015C 02
@0000015D 03
@0000015E F8
@0000015F FF
@00000160 03
@00000161 F0
@00000162 04
@00000163 F2
@00000164 02
@00000165 F7
@00000166 06
@00000167 02
@00000168 FF
@00000169 FC
@0000016A FA
@0000016B 05
@0000016C F9
@0000016D FE
@0000016E EA
@0000016F 04
@00000170 03
@00000171 04
@00000172 FD
@00000173 02
@00000174 05
@00000175 06
@00000176 06
@00000177 FB
@00000178 0E
@00000179 01
@0000017A F7
@0000017B 00
@0000017C 00
@0000017D 0F
@0000017E FB
@0000017F FE
@00000180 04
@00000181 F9
@00000182 02
@00000183 02
@00000184 F8
@00000185 F7
@00000186 FC
@00000187 F1
@00000188 02
@00000189 F8
@0000018A F8
@0000018B FF
@0000018C 14
@0000018D FA
@0000018E F7
@0000018F 0A
@00000190 12
@00000191 08
@00000192 13
@00000193 1A
@00000194 F9
@00000195 F5
@00000196 F2
@00000197 08
@00000198 FF
@00000199 F1
@0000019A FB
@0000019B 08
@0000019C FB
@0000019D FC
@0000019E FE
@0000019F 01
@000001A0 0B
@000001A1 F2
@000001A2 17
@000001A3 06
@000001A4 08
@000001A5 01
@000001A6 00
@000001A7 0C
@000001A8 FE
@000001A9 FA
@000001AA FE
@000001AB F7
@000001AC 02
@000001AD FD
@000001AE 09
@000001AF FD
@000001B0 FC
@000001B1 F3
@000001B2 FA
@000001B3 F8
@000001B4 EC
@000001B5 01
@000001B6 EF
@000001B7 F3
@000001B8 F8
@000001B9 0E
@000001BA 02
@000001BB 00
@000001BC 01
@000001BD FD
@000001BE ED
@000001BF 0A
@000001C0 FB
@000001C1 FB
@000001C2 01
@000001C3 00
@000001C4 FF
@000001C5 FE
@000001C6 08
@000001C7 06
@000001C8 00
@000001C9 0E
@000001CA 07
@000001CB EE
@000001CC 06
@000001CD F9
@000001CE F9
@000001CF F1
@000001D0 FE
@000001D1 EE
@000001D2 F5
@000001D3 00
@000001D4 04
@000001D5 0C
@000001D6 03
@000001D7 FE
@000001D8 00
@000001D9 02
@000001DA 0B
@000001DB FF
@000001DC F9
@000001DD FE
@000001DE F1
@000001DF 02
@000001E0 F8
@000001E1 FD
@000001E2 FC
@000001E3 FA
@000001E4 F6
@000001E5 F8
@000001E6 0B
@000001E7 F1
@000001E8 F8
@000001E9 0E
@000001EA FE
@000001EB 03
@000001EC 0F
@000001ED 05
@000001EE F9
@000001EF F5
@000001F0 0C
@000001F1 07
@000001F2 01
@000001F3 F9
@000001F4 F6
@000001F5 F7
@000001F6 F6
@000001F7 F5
@000001F8 00
@000001F9 F6
@000001FA FB
@000001FB 07
@000001FC 09
@000001FD FA
@000001FE 08
@000001FF 08
@00000200 FC
@00000201 07
@00000202 05
@00000203 05
@00000204 F9
@00000205 00
@00000206 FA
@00000207 FD
@00000208 00
@00000209 10
@0000020A 13
@0000020B 00
@0000020C F1
@0000020D 0F
@0000020E 0E
@0000020F F9
@00000210 02
@00000211 25
@00000212 0B
@00000213 04
@00000214 FD
@00000215 00
@00000216 FF
@00000217 F9
@00000218 FE
@00000219 F6
@0000021A FA
@0000021B F1
@0000021C 02
@0000021D F2
@0000021E EF
@0000021F 02
@00000220 FA
@00000221 00
@00000222 0A
@00000223 01
@00000224 FE
@00000225 01
@00000226 01
@00000227 FD
@00000228 12
@00000229 FF
@0000022A F3
@0000022B 07
@0000022C F5
@0000022D FC
@0000022E 00
@0000022F FA
@00000230 FA
@00000231 0A
@00000232 F7
@00000233 FF
@00000234 FB
@00000235 FB
@00000236 00
@00000237 F7
@00000238 02
@00000239 FA
@0000023A 03
@0000023B 09
@0000023C F1
@0000023D 03
@0000023E 0C
@0000023F F8
@00000240 FC
@00000241 03
@00000242 05
@00000243 02
@00000244 02
@00000245 05
@00000246 02
@00000247 00
@00000248 04
@00000249 EB
@0000024A F5
@0000024B 03
@0000024C EF
@0000024D F9
@0000024E 0C
@0000024F F3
@00000250 FD
@00000251 04
@00000252 09
@00000253 05
@00000254 FB
@00000255 01
@00000256 FB
@00000257 FE
@00000258 00
@00000259 FE
@0000025A 07
@0000025B 07
@0000025C F9
@0000025D 06
@0000025E 01
@0000025F 00
@00000260 FD
@00000261 F4
@00000262 FA
@00000263 05
@00000264 FE
@00000265 11
@00000266 FB
@00000267 03
@00000268 0B
@00000269 FD
@0000026A FE
@0000026B 00
@0000026C F7
@0000026D FA
@0000026E FC
@0000026F 05
@00000270 FB
@00000271 00
@00000272 05
@00000273 FC
@00000274 02
@00000275 FE
@00000276 F1
@00000277 00
@00000278 06
@00000279 01
@0000027A F9
@0000027B FC
@0000027C 04
@0000027D 04
@0000027E F9
@0000027F 05
@00000280 03
@00000281 F5
@00000282 01
@00000283 F6
@00000284 04
@00000285 F5
@00000286 F5
@00000287 09
@00000288 02
@00000289 0E
@0000028A FE
@0000028B 05
@0000028C FF
@0000028D F6
@0000028E 03
@0000028F FA
@00000290 F8
@00000291 01
@00000292 F4
@00000293 08
@00000294 FE
@00000295 05
@00000296 03
@00000297 FD
@00000298 0F
@00000299 F7
@0000029A 03
@0000029B 04
@0000029C 0A
@0000029D 05
@0000029E 07
@0000029F 0B
@000002A0 FC
@000002A1 FA
@000002A2 FE
@000002A3 02
@000002A4 FF
@000002A5 03
@000002A6 05
@000002A7 F8
@000002A8 FF
@000002A9 FF
@000002AA 03
@000002AB 00
@000002AC EF
@000002AD F5
@000002AE FE
@000002AF EE
@000002B0 FC
@000002B1 FE
@000002B2 F8
@000002B3 F8
@000002B4 03
@000002B5 FB
@000002B6 05
@000002B7 05
@000002B8 07
@000002B9 08
@000002BA F1
@000002BB 07
@000002BC FD
@000002BD F6
@000002BE 09
@000002BF 00
@000002C0 F4
@000002C1 09
@000002C2 01
@000002C3 FA
@000002C4 02
@000002C5 F9
@000002C6 F8
@000002C7 02
@000002C8 FB
@000002C9 FF
@000002CA 0B
@000002CB FE
@000002CC F6
@000002CD 00
@000002CE FF
@000002CF 01
@000002D0 F6
@000002D1 0C
@000002D2 FD
@000002D3 07
@000002D4 0D
@000002D5 FB
@000002D6 03
@000002D7 03
@000002D8 FA
@000002D9 F9
@000002DA 01
@000002DB FB
@000002DC FA
@000002DD 04
@000002DE F4
@000002DF FD
@000002E0 FF
@000002E1 F3
@000002E2 04
@000002E3 FB
@000002E4 F8
@000002E5 00
@000002E6 F8
@000002E7 FC
@000002E8 F7
@000002E9 F9
@000002EA F5
@000002EB 0C
@000002EC 10
@000002ED FA
@000002EE 0A
@000002EF 0F
@000002F0 FA
@000002F1 04
@000002F2 02
@000002F3 FF
@000002F4 02
@000002F5 02
@000002F6 00
@000002F7 FA
@000002F8 0C
@000002F9 03
@000002FA 0B
@000002FB 09
@000002FC F9
@000002FD 01
@000002FE FF
@000002FF FE
@00000300 02
@00000301 F6
@00000302 FE
@00000303 FD
@00000304 ED
@00000305 F0
@00000306 F6
@00000307 07
@00000308 FE
@00000309 ED
@0000030A 06
@0000030B 09
@0000030C F6
@0000030D 06
@0000030E F9
@0000030F F9
@00000310 06
@00000311 0E
@00000312 00
@00000313 FF
@00000314 04
@00000315 F8
@00000316 0E
@00000317 02
@00000318 FD
@00000319 08
@0000031A 0F
@0000031B 02
@0000031C FF
@0000031D 0B
@0000031E 00
@0000031F F9
@00000320 02
@00000321 02
@00000322 09
@00000323 01
@00000324 04
@00000325 00
@00000326 F8
@00000327 04
@00000328 F5
@00000329 04
@0000032A FB
@0000032B 00
@0000032C FF
@0000032D FA
@0000032E 03
@0000032F 08
@00000330 F8
@00000331 04
@00000332 FD
@00000333 FF
@00000334 FA
@00000335 04
@00000336 FC
@00000337 F6
@00000338 05
@00000339 05
@0000033A FE
@0000033B 07
@0000033C ED
@0000033D F6
@0000033E FB
@0000033F F6
@00000340 FD
@00000341 05
@00000342 F5
@00000343 02
@00000344 F6
@00000345 03
@00000346 0E
@00000347 FA
@00000348 02
@00000349 04
@0000034A F9
@0000034B 00
@0000034C FE
@0000034D FB
@0000034E F2
@0000034F F5
@00000350 06
@00000351 F5
@00000352 F5
@00000353 04
@00000354 F7
@00000355 00
@00000356 01
@00000357 FF
@00000358 FF
@00000359 FE
@0000035A F7
@0000035B 08
@0000035C FD
@0000035D FE
@0000035E 0E
@0000035F F8
@00000360 00
@00000361 04
@00000362 0A
@00000363 FF
@00000364 FB
@00000365 FA
@00000366 FC
@00000367 04
@00000368 FF
@00000369 0C
@0000036A 06
@0000036B 08
@0000036C 04
@0000036D 0B
@0000036E F2
@0000036F FB
@00000370 17
@00000371 04
@00000372 0D
@00000373 06
@00000374 F8
@00000375 F0
@00000376 FC
@00000377 F8
@00000378 08
@00000379 F6
@0000037A F8
@0000037B F9
@0000037C 03
@0000037D FA
@0000037E 06
@0000037F F0
@00000380 0A
@00000381 F4
@00000382 00
@00000383 02
@00000384 FE
@00000385 FE
@00000386 03
@00000387 02
@00000388 FA
@00000389 F2
@0000038A F7
@0000038B E8
@0000038C FF
@0000038D F4
@0000038E FB
@0000038F FB
@00000390 F2
@00000391 FE
@00000392 ED
@00000393 08
@00000394 F3
@00000395 FC
@00000396 10
@00000397 FD
@00000398 01
@00000399 06
@0000039A 0A
@0000039B 04
@0000039C 0D
@0000039D 03
@0000039E 08
@0000039F 0E
@000003A0 0A
@000003A1 01
@000003A2 03
@000003A3 07
@000003A4 02
@000003A5 F5
@000003A6 06
@000003A7 02
@000003A8 FF
@000003A9 01
@000003AA F4
@000003AB F3
@000003AC F8
@000003AD F2
@000003AE 01
@000003AF F8
@000003B0 FE
@000003B1 00
@000003B2 10
@000003B3 FA
@000003B4 F4
@000003B5 02
@000003B6 03
@000003B7 10
@000003B8 0D
@000003B9 02
@000003BA 03
@000003BB FF
@000003BC 05
@000003BD F7
@000003BE 05
@000003BF FD
@000003C0 09
@000003C1 0B
@000003C2 F5
@000003C3 01
@000003C4 F9
@000003C5 FC
@000003C6 0B
@000003C7 08
@000003C8 FB
@000003C9 F7
@000003CA 00
@000003CB F7
@000003CC FB
@000003CD 0F
@000003CE 07
@000003CF F6
@000003D0 09
@000003D1 FF
@000003D2 00
@000003D3 10
@000003D4 F8
@000003D5 06
@000003D6 01
@000003D7 F3
@000003D8 F5
@000003D9 F2
@000003DA EB
@000003DB F7
@000003DC 00
@000003DD FE
@000003DE 0B
@000003DF 01
@000003E0 07
@000003E1 FD
@000003E2 FD
@000003E3 01
@000003E4 F5
@000003E5 01
@000003E6 FA
@000003E7 06
@000003E8 03
@000003E9 04
@000003EA FD
@000003EB 01
@000003EC EF
@000003ED 06
@000003EE FE
@000003EF F7
@000003F0 01
@000003F1 EE
@000003F2 F5
@000003F3 07
@000003F4 F8
@000003F5 F6
@000003F6 01
@000003F7 FB
@000003F8 EF
@000003F9 0E
@000003FA FF
@000003FB EB
@000003FC 03
@000003FD EF
@000003FE F9
@000003FF 0F
@00000400 01
@00000401 06
@00000402 01
@00000403 03
@00000404 FC
@00000405 FE
@00000406 FB
@00000407 05
@00000408 0B
@00000409 02
@0000040A FA
@0000040B EA
@0000040C FC
@0000040D ED
@0000040E F5
@0000040F EF
@00000410 F5
@00000411 F6
@00000412 F0
@00000413 FB
@00000414 00
@00000415 06
@00000416 F5
@00000417 01
@00000418 04
@00000419 F9
@0000041A F7
@0000041B 05
@0000041C 01
@0000041D F5
@0000041E F9
@0000041F F3
@00000420 F3
@00000421 FA
@00000422 FC
@00000423 0A
@00000424 F2
@00000425 EE
@00000426 F3
@00000427 08
@00000428 E7
@00000429 F4
@0000042A FF
@0000042B EF
@0000042C 0D
@0000042D FC
@0000042E 00
@0000042F 00
@00000430 EF
@00000431 09
@00000432 01
@00000433 02
@00000434 06
@00000435 F8
@00000436 04
@00000437 FE
@00000438 13
@00000439 F6
@0000043A F9
@0000043B 04
@0000043C 04
@0000043D F6
@0000043E 05
@0000043F 0D
@00000440 01
@00000441 FB
@00000442 01
@00000443 F8
@00000444 0B
@00000445 F9
@00000446 EF
@00000447 FC
@00000448 FF
@00000449 FE
@0000044A F1
@0000044B FC
@0000044C 06
@0000044D EE
@0000044E 0E
@0000044F FB
@00000450 F6
@00000451 0F
@00000452 FB
@00000453 FB
@00000454 FC
@00000455 FD
@00000456 02
@00000457 00
@00000458 04
@00000459 F4
@0000045A 02
@0000045B FB
@0000045C F5
@0000045D FE
@0000045E FD
@0000045F F9
@00000460 FE
@00000461 EE
@00000462 F8
@00000463 ED
@00000464 F3
@00000465 FE
@00000466 F9
@00000467 F9
@00000468 F4
@00000469 FA
@0000046A 0A
@0000046B 10
@0000046C 06
@0000046D 02
@0000046E 15
@0000046F 11
@00000470 00
@00000471 FC
@00000472 04
@00000473 FD
@00000474 F3
@00000475 FE
@00000476 F2
@00000477 09
@00000478 FF
@00000479 02
@0000047A 03
@0000047B 02
@0000047C E8
@0000047D 04
@0000047E 0D
@0000047F E6
@00000480 16
@00000481 2A
@00000482 FE
@00000483 E8
@00000484 03
@00000485 12
@00000486 08
@00000487 12
@00000488 18
@00000489 E2
@0000048A E2
@0000048B F8
@0000048C 01
@0000048D 14
@0000048E 0A
@0000048F 07
@00000490 EE
@00000491 06
@00000492 19
@00000493 F7
@00000494 14
@00000495 0E
@00000496 EA
@00000497 D6
@00000498 F9
@00000499 F1
@0000049A EF
@0000049B 16
@0000049C 12
@0000049D E3
@0000049E 2B
@0000049F 09
@000004A0 EE
@000004A1 05
@000004A2 E6
@000004A3 07
@000004A4 03
@000004A5 15
@000004A6 EB
@000004A7 1D
@000004A8 FC
@000004A9 F3
@000004AA F5
@000004AB 0D
@000004AC FD
@000004AD 11
@000004AE 03
@000004AF 02
@000004B0 12
@000004B1 F6
@000004B2 03
@000004B3 05
@000004B4 0C
@000004B5 F4
@000004B6 15
@000004B7 00
@000004B8 FE
@000004B9 EA
@000004BA FB
@000004BB 01
@000004BC F9
@000004BD 03
@000004BE F6
@000004BF F1
@000004C0 08
@000004C1 F8
@000004C2 E0
@000004C3 FD
@000004C4 09
@000004C5 0D
@000004C6 07
@000004C7 F2
@000004C8 FE
@000004C9 0E
@000004CA FC
@000004CB EC
@000004CC 00
@000004CD 0E
@000004CE EB
@000004CF 0C
@000004D0 12
@000004D1 F9
@000004D2 E8
@000004D3 13
@000004D4 FC
@000004D5 F5
@000004D6 F7
@000004D7 FF
@000004D8 EB
@000004D9 FF
@000004DA EA
@000004DB 12
@000004DC 0B
@000004DD 03
@000004DE FB
@000004DF 07
@000004E0 00
@000004E1 19
@000004E2 03
@000004E3 1F
@000004E4 F1
@000004E5 F2
@000004E6 F3
@000004E7 EB
@000004E8 F6
@000004E9 06
@000004EA EA
@000004EB E0
@000004EC 05
@000004ED 1A
@000004EE 15
@000004EF DC
@000004F0 05
@000004F1 FE
@000004F2 FC
@000004F3 04
@000004F4 11
@000004F5 F2
@000004F6 F4
@000004F7 F5
@000004F8 01
@000004F9 04
@000004FA EB
@000004FB 18
@000004FC ED
@000004FD FF
@000004FE 17
@000004FF 08
@00000500 EE
@00000501 10
@00000502 18
@00000503 F2
@00000504 07
@00000505 FB
@00000506 0A
@00000507 12
@00000508 F5
@00000509 1E
@0000050A E3
@0000050B EB
@0000050C F2
@0000050D E9
@0000050E F4
@0000050F 11
@00000510 EF
@00000511 10
@00000512 10
@00000513 F6
@00000514 0E
@00000515 11
@00000516 1D
@00000517 F2
@00000518 F5
@00000519 0F
@0000051A 0E
@0000051B DD
@0000051C 25
@0000051D 11
@0000051E DF
@0000051F F7
@00000520 E9
@00000521 E8
@00000522 FD
@00000523 F1
@00000524 FB
@00000525 0C
@00000526 F0
@00000527 10
@00000528 FE
@00000529 F2
@0000052A 01
@0000052B 30
@0000052C 08
@0000052D D4
@0000052E 1F
@0000052F EC
@00000530 CD
@00000531 1A
@00000532 F7
@00000533 E8
@00000534 3F
@00000535 17
@00000536 F0
@00000537 32
@00000538 11
@00000539 E0
@0000053A FD
@0000053B FE
@0000053C EF
@0000053D EB
@0000053E F3
@0000053F 00
@00000540 07
@00000541 03
@00000542 F2
@00000543 0C
@00000544 FB
@00000545 03
@00000546 F1
@00000547 0A
@00000548 E8
@00000549 F8
@0000054A E7
@0000054B 07
@0000054C 06
@0000054D F1
@0000054E 05
@0000054F E8
@00000550 FB
@00000551 05
@00000552 E7
@00000553 01
@00000554 22
@00000555 FE
@00000556 01
@00000557 19
@00000558 1D
@00000559 09
@0000055A FA
@0000055B 13
@0000055C F3
@0000055D FC
@0000055E 07
@0000055F F9
@00000560 F2
@00000561 1E
@00000562 0D
@00000563 02
@00000564 11
@00000565 F3
@00000566 03
@00000567 07
@00000568 E2
@00000569 E5
@0000056A 10
@0000056B 02
@0000056C E5
@0000056D 16
@0000056E ED
@0000056F DF
@00000570 FA
@00000571 F8
@00000572 FC
@00000573 FA
@00000574 F0
@00000575 13
@00000576 09
@00000577 D6
@00000578 FC
@00000579 ED
@0000057A F7
@0000057B F8
@0000057C ED
@0000057D 13
@0000057E F5
@0000057F ED
@00000580 F8
@00000581 04
@00000582 ED
@00000583 0A
@00000584 25
@00000585 12
@00000586 1B
@00000587 04
@00000588 05
@00000589 1C
@0000058A FA
@0000058B ED
@0000058C F3
@0000058D D7
@0000058E 07
@0000058F 00
@00000590 06
@00000591 06
@00000592 08
@00000593 03
@00000594 F0
@00000595 F5
@00000596 FA
@00000597 FB
@00000598 F9
@00000599 F5
@0000059A 0E
@0000059B F8
@0000059C E1
@0000059D 0F
@0000059E 0F
@0000059F E0
@000005A0 06
@000005A1 05
@000005A2 DD
@000005A3 08
@000005A4 FD
@000005A5 EC
@000005A6 0F
@000005A7 01
@000005A8 00
@000005A9 13
@000005AA 14
@000005AB 13
@000005AC 06
@000005AD 05
@000005AE 01
@000005AF F0
@000005B0 FB
@000005B1 F1
@000005B2 F0
@000005B3 F0
@000005B4 FE
@000005B5 ED
@000005B6 06
@000005B7 15
@000005B8 01
@000005B9 0C
@000005BA 13
@000005BB 18
@000005BC 1A
@000005BD 04
@000005BE 00
@000005BF 04
@000005C0 FD
@000005C1 F8
@000005C2 E7
@000005C3 F8
@000005C4 E1
@000005C5 FC
@000005C6 00
@000005C7 05
@000005C8 03
@000005C9 F3
@000005CA 12
@000005CB FF
@000005CC 00
@000005CD F2
@000005CE FA
@000005CF 09
@000005D0 FD
@000005D1 F0
@000005D2 1E
@000005D3 16
@000005D4 02
@000005D5 08
@000005D6 F9
@000005D7 09
@000005D8 1D
@000005D9 F0
@000005DA 0F
@000005DB 0D
@000005DC FE
@000005DD ED
@000005DE 11
@000005DF 08
@000005E0 08
@000005E1 04
@000005E2 00
@000005E3 F7
@000005E4 09
@000005E5 F9
@000005E6 E5
@000005E7 EF
@000005E8 0E
@000005E9 DC
@000005EA 06
@000005EB FA
@000005EC 0D
@000005ED F3
@000005EE 03
@000005EF 03
@000005F0 FA
@000005F1 FD
@000005F2 EE
@000005F3 F0
@000005F4 1D
@000005F5 03
@000005F6 09
@000005F7 0D
@000005F8 FC
@000005F9 DE
@000005FA 01
@000005FB 0F
@000005FC EC
@000005FD 0B
@000005FE 01
@000005FF EB
@00000600 FB
@00000601 15
@00000602 11
@00000603 F8
@00000604 19
@00000605 0C
@00000606 FD
@00000607 FB
@00000608 08
@00000609 0D
@0000060A FE
@0000060B D7
@0000060C 0E
@0000060D FB
@0000060E 18
@0000060F 00
@00000610 FE
@00000611 FF
@00000612 1A
@00000613 FA
@00000614 EE
@00000615 0F
@00000616 EE
@00000617 DC
@00000618 FD
@00000619 F0
@0000061A DB
@0000061B E2
@0000061C E3
@0000061D EC
@0000061E 04
@0000061F F2
@00000620 09
@00000621 FD
@00000622 08
@00000623 16
@00000624 DF
@00000625 FA
@00000626 FA
@00000627 F4
@00000628 EF
@00000629 DB
@0000062A F8
@0000062B 09
@0000062C FC
@0000062D 0C
@0000062E F7
@0000062F EA
@00000630 FE
@00000631 12
@00000632 06
@00000633 08
@00000634 E4
@00000635 F7
@00000636 EF
@00000637 FD
@00000638 FC
@00000639 13
@0000063A 0B
@0000063B F7
@0000063C 14
@0000063D 02
@0000063E 12
@0000063F F8
@00000640 05
@00000641 05
@00000642 0F
@00000643 29
@00000644 06
@00000645 34
@00000646 05
@00000647 0B
@00000648 12
@00000649 F9
@0000064A 40
@0000064B FA
@0000064C FC
@0000064D FA
@0000064E 11
@0000064F F2
@00000650 16
@00000651 F7
@00000652 DD
@00000653 09
@00000654 03
@00000655 F1
@00000656 FB
@00000657 EB
@00000658 FE
@00000659 07
@0000065A FD
@0000065B 04
@0000065C F7
@0000065D 15
@0000065E EA
@0000065F 13
@00000660 E7
@00000661 16
@00000662 FF
@00000663 F7
@00000664 F6
@00000665 E5
@00000666 08
@00000667 F1
@00000668 05
@00000669 10
@0000066A 00
@0000066B F9
@0000066C F8
@0000066D F0
@0000066E EF
@0000066F 18
@00000670 00
@00000671 F2
@00000672 E8
@00000673 0A
@00000674 01
@00000675 18
@00000676 EA
@00000677 0A
@00000678 F5
@00000679 12
@0000067A EA
@0000067B 06
@0000067C F2
@0000067D 00
@0000067E 10
@0000067F 0C
@00000680 EF
@00000681 F8
@00000682 FC
@00000683 10
@00000684 DB
@00000685 05
@00000686 1E
@00000687 16
@00000688 0D
@00000689 0B
@0000068A 06
@0000068B 02
@0000068C 09
@0000068D FE
@0000068E 1D
@0000068F 17
@00000690 07
@00000691 07
@00000692 17
@00000693 0F
@00000694 D7
@00000695 01
@00000696 F7
@00000697 09
@00000698 04
@00000699 F7
@0000069A F4
@0000069B 16
@0000069C F1
@0000069D E8
@0000069E FC
@0000069F 0E
@000006A0 0D
@000006A1 F1
@000006A2 FB
@000006A3 0A
@000006A4 FF
@000006A5 DE
@000006A6 F2
@000006A7 F1
@000006A8 F7
@000006A9 F2
@000006AA FC
@000006AB 02
@000006AC 03
@000006AD 05
@000006AE FD
@000006AF FF
@000006B0 E0
@000006B1 16
@000006B2 E7
@000006B3 F9
@000006B4 F2
@000006B5 09
@000006B6 FF
@000006B7 0D
@000006B8 F0
@000006B9 00
@000006BA 05
@000006BB FD
@000006BC DC
@000006BD FB
@000006BE E9
@000006BF 1E
@000006C0 05
@000006C1 04
@000006C2 03
@000006C3 FA
@000006C4 03
@000006C5 14
@000006C6 FB
@000006C7 FA
@000006C8 FD
@000006C9 04
@000006CA EB
@000006CB 07
@000006CC 04
@000006CD F1
@000006CE 08
@000006CF 08
@000006D0 EC
@000006D1 08
@000006D2 F7
@000006D3 03
@000006D4 F7
@000006D5 0B
@000006D6 FA
@000006D7 FE
@000006D8 06
@000006D9 F6
@000006DA 05
@000006DB 0A
@000006DC F4
@000006DD 05
@000006DE 06
@000006DF F3
@000006E0 08
@000006E1 FE
@000006E2 FC
@000006E3 F9
@000006E4 FC
@000006E5 07
@000006E6 FF
@000006E7 F8
@000006E8 FD
@000006E9 F7
@000006EA FD
@000006EB 01
@000006EC F6
@000006ED 00
@000006EE EA
@000006EF FE
@000006F0 0A
@000006F1 FE
@000006F2 03
@000006F3 F9
@000006F4 F4
@000006F5 00
@000006F6 FC
@000006F7 FD
@000006F8 FC
@000006F9 01
@000006FA 02
@000006FB 01
@000006FC FB
@000006FD 01
@000006FE F9
@000006FF EE
@00000700 01
@00000701 FE
@00000702 01
@00000703 05
@00000704 13
@00000705 FC
@00000706 F8
@00000707 FF
@00000708 E6
@00000709 16
@0000070A 01
@0000070B F9
@0000070C 10
@0000070D 03
@0000070E EC
@0000070F 0D
@00000710 F8
@00000711 17
@00000712 05
@00000713 FC
@00000714 01
@00000715 05
@00000716 F0
@00000717 FC
@00000718 FB
@00000719 04
@0000071A 04
@0000071B 0D
@0000071C FD
@0000071D FF
@0000071E 03
@0000071F 05
@00000720 FE
@00000721 F4
@00000722 0A
@00000723 04
@00000724 FB
@00000725 00
@00000726 08
@00000727 08
@00000728 06
@00000729 0A
@0000072A FF
@0000072B 01
@0000072C 08
@0000072D E4
@0000072E 0C
@0000072F 09
@00000730 E8
@00000731 03
@00000732 00
@00000733 DB
@00000734 FF
@00000735 0F
@00000736 09
@00000737 F4
@00000738 00
@00000739 07
@0000073A 07
@0000073B FF
@0000073C 08
@0000073D ED
@0000073E FC
@0000073F F8
@00000740 FD
@00000741 07
@00000742 F7
@00000743 F8
@00000744 03
@00000745 06
@00000746 FD
@00000747 FF
@00000748 FC
@00000749 09
@0000074A F4
@0000074B 02
@0000074C 00
@0000074D FB
@0000074E 01
@0000074F F6
@00000750 FA
@00000751 11
@00000752 EE
@00000753 F7
@00000754 05
@00000755 EB
@00000756 EC
@00000757 F1
@00000758 F4
@00000759 FB
@0000075A FB
@0000075B F8
@0000075C 0E
@0000075D F7
@0000075E F4
@0000075F FB
@00000760 FB
@00000761 F0
@00000762 01
@00000763 FE
@00000764 F7
@00000765 03
@00000766 FB
@00000767 F6
@00000768 FE
@00000769 07
@0000076A FE
@0000076B 03
@0000076C 0C
@0000076D 0F
@0000076E 00
@0000076F F1
@00000770 FD
@00000771 FF
@00000772 0C
@00000773 01
@00000774 0D
@00000775 EE
@00000776 03
@00000777 FD
@00000778 FA
@00000779 F5
@0000077A 02
@0000077B FC
@0000077C FC
@0000077D 04
@0000077E FE
@0000077F F4
@00000780 FB
@00000781 F6
@00000782 F3
@00000783 FB
@00000784 10
@00000785 09
@00000786 04
@00000787 F3
@00000788 FC
@00000789 01
@0000078A FF
@0000078B F5
@0000078C 07
@0000078D FB
@0000078E 00
@0000078F FB
@00000790 06
@00000791 03
@00000792 F1
@00000793 F6
@00000794 F6
@00000795 E8
@00000796 02
@00000797 07
@00000798 07
@00000799 FE
@0000079A 07
@0000079B 04
@0000079C 06
@0000079D 09
@0000079E 0C
@0000079F FE
@000007A0 F8
@000007A1 01
@000007A2 08
@000007A3 F3
@000007A4 FF
@000007A5 F7
@000007A6 03
@000007A7 FE
@000007A8 F5
@000007A9 02
@000007AA FD
@000007AB F4
@000007AC 04
@000007AD FF
@000007AE EE
@000007AF 10
@000007B0 0B
@000007B1 E2
@000007B2 FC
@000007B3 01
@000007B4 FC
@000007B5 F7
@000007B6 FA
@000007B7 F5
@000007B8 F8
@000007B9 FA
@000007BA FB
@000007BB 00
@000007BC F9
@000007BD FF
@000007BE FF
@000007BF 04
@000007C0 0D
@000007C1 FD
@000007C2 0B
@000007C3 00
@000007C4 FB
@000007C5 FC
@000007C6 F8
@000007C7 FA
@000007C8 06
@000007C9 0B
@000007CA FF
@000007CB 0C
@000007CC 06
@000007CD FF
@000007CE F8
@000007CF 08
@000007D0 09
@000007D1 F9
@000007D2 ED
@000007D3 00
@000007D4 01
@000007D5 03
@000007D6 F3
@000007D7 0E
@000007D8 01
@000007D9 FB
@000007DA 06
@000007DB 08
@000007DC F1
@000007DD 05
@000007DE 05
@000007DF 03
@000007E0 FE
@000007E1 09
@000007E2 FA
@000007E3 03
@000007E4 FD
@000007E5 F6
@000007E6 FF
@000007E7 EA
@000007E8 0D
@000007E9 F8
@000007EA F1
@000007EB 01
@000007EC F2
@000007ED F2
@000007EE 01
@000007EF 0B
@000007F0 00
@000007F1 FC
@000007F2 FF
@000007F3 02
@000007F4 00
@000007F5 05
@000007F6 01
@000007F7 07
@000007F8 01
@000007F9 FC
@000007FA FE
@000007FB F4
@000007FC F7
@000007FD F3
@000007FE FA
@000007FF FB
@00000800 F8
@00000801 F5
@00000802 FE
@00000803 F1
@00000804 0D
@00000805 F9
@00000806 FA
@00000807 F4
@00000808 FD
@00000809 FB
@0000080A FD
@0000080B FC
@0000080C F7
@0000080D FA
@0000080E F8
@0000080F 03
@00000810 08
@00000811 02
@00000812 00
@00000813 09
@00000814 F2
@00000815 1B
@00000816 FE
@00000817 04
@00000818 07
@00000819 F9
@0000081A 03
@0000081B FC
@0000081C 0B
@0000081D 07
@0000081E F0
@0000081F F9
@00000820 ED
@00000821 F0
@00000822 0A
@00000823 08
@00000824 F9
@00000825 04
@00000826 00
@00000827 00
@00000828 04
@00000829 F0
@0000082A EE
@0000082B F6
@0000082C F5
@0000082D 04
@0000082E FC
@0000082F FA
@00000830 FE
@00000831 FD
@00000832 01
@00000833 0F
@00000834 FB
@00000835 0A
@00000836 FD
@00000837 F7
@00000838 01
@00000839 FB
@0000083A EF
@0000083B 03
@0000083C FE
@0000083D F4
@0000083E F5
@0000083F 01
@00000840 0A
@00000841 FD
@00000842 0F
@00000843 F7
@00000844 01
@00000845 14
@00000846 08
@00000847 08
@00000848 02
@00000849 0D
@0000084A FF
@0000084B FB
@0000084C F3
@0000084D EA
@0000084E 03
@0000084F FE
@00000850 F3
@00000851 0A
@00000852 03
@00000853 F0
@00000854 F9
@00000855 F2
@00000856 05
@00000857 F1
@00000858 F9
@00000859 F7
@0000085A FD
@0000085B F6
@0000085C 02
@0000085D 0A
@0000085E FF
@0000085F F9
@00000860 F1
@00000861 F2
@00000862 F5
@00000863 F0
@00000864 EF
@00000865 F5
@00000866 EE
@00000867 F4
@00000868 FB
@00000869 F9
@0000086A 04
@0000086B FF
@0000086C 06
@0000086D 02
@0000086E F6
@0000086F FD
@00000870 03
@00000871 FF
@00000872 06
@00000873 FB
@00000874 00
@00000875 02
@00000876 EC
@00000877 F4
@00000878 05
@00000879 00
@0000087A 09
@0000087B 0B
@0000087C 08
@0000087D FF
@0000087E F7
@0000087F FE
@00000880 FC
@00000881 FA
@00000882 0E
@00000883 0F
@00000884 08
@00000885 0D
@00000886 05
@00000887 FD
@00000888 0D
@00000889 ED
@0000088A 1C
@0000088B 06
@0000088C 01
@0000088D 0D
@0000088E EF
@0000088F FC
@00000890 03
@00000891 F5
@00000892 FC
@00000893 F7
@00000894 0D
@00000895 FD
@00000896 02
@00000897 07
@00000898 F6
@00000899 01
@0000089A FE
@0000089B 06
@0000089C 01
@0000089D 0A
@0000089E F8
@0000089F FE
@000008A0 00
@000008A1 01
@000008A2 FF
@000008A3 F9
@000008A4 EB
@000008A5 EA
@000008A6 11
@000008A7 0A
@000008A8 FA
@000008A9 00
@000008AA 01
@000008AB 03
@000008AC F0
@000008AD F9
@000008AE ED
@000008AF 00
@000008B0 EC
@000008B1 F6
@000008B2 FA
@000008B3 03
@000008B4 FD
@000008B5 FF
@000008B6 00
@000008B7 01
@000008B8 00
@000008B9 FF
@000008BA 05
@000008BB FF
@000008BC FB
@000008BD F3
@000008BE FE
@000008BF EA
@000008C0 01
@000008C1 FE
@000008C2 06
@000008C3 F8
@000008C4 F6
@000008C5 10
@000008C6 FC
@000008C7 01
@000008C8 00
@000008C9 F2
@000008CA 02
@000008CB FC
@000008CC 06
@000008CD E8
@000008CE F6
@000008CF EB
@000008D0 F2
@000008D1 F4
@000008D2 05
@000008D3 F6
@000008D4 09
@000008D5 04
@000008D6 09
@000008D7 04
@000008D8 F5
@000008D9 FD
@000008DA 0E
@000008DB 11
@000008DC F2
@000008DD 05
@000008DE 14
@000008DF 05
@000008E0 EC
@000008E1 09
@000008E2 FC
@000008E3 F5
@000008E4 05
@000008E5 07
@000008E6 02
@000008E7 03
@000008E8 09
@000008E9 F7
@000008EA F2
@000008EB FE
@000008EC 02
@000008ED 0B
@000008EE 08
@000008EF 07
@000008F0 0C
@000008F1 F5
@000008F2 F8
@000008F3 01
@000008F4 F2
@000008F5 06
@000008F6 00
@000008F7 01
@000008F8 00
@000008F9 F7
@000008FA 06
@000008FB FB
@000008FC FC
@000008FD F9
@000008FE 05
@000008FF 02
@00000900 FA
@00000901 03
@00000902 06
@00000903 0B
@00000904 08
@00000905 F9
@00000906 04
@00000907 FE
@00000908 0A
@00000909 03
@0000090A F7
@0000090B 01
@0000090C F8
@0000090D E9
@0000090E E6
@0000090F 11
@00000910 FE
@00000911 08
@00000912 E9
@00000913 07
@00000914 FC
@00000915 0C
@00000916 FF
@00000917 F8
@00000918 09
@00000919 F1
@0000091A FA
@0000091B F0
@0000091C ED
@0000091D 01
@0000091E 0A
@0000091F F4
@00000920 FA
@00000921 FC
@00000922 FC
@00000923 04
@00000924 FD
@00000925 FE
@00000926 FA
@00000927 02
@00000928 01
@00000929 FF
@0000092A 0E
@0000092B 07
@0000092C 07
@0000092D 03
@0000092E F4
@0000092F FB
@00000930 FC
@00000931 F9
@00000932 04
@00000933 F9
@00000934 01
@00000935 03
@00000936 FE
@00000937 FB
@00000938 FA
@00000939 01
@0000093A 03
@0000093B 04
@0000093C 08
@0000093D EB
@0000093E 01
@0000093F FA
@00000940 02
@00000941 FA
@00000942 E8
@00000943 F2
@00000944 F5
@00000945 F7
@00000946 0F
@00000947 01
@00000948 F8
@00000949 FF
@0000094A 05
@0000094B 02
@0000094C FB
@0000094D 0F
@0000094E F1
@0000094F FA
@00000950 05
@00000951 FE
@00000952 F7
@00000953 FC
@00000954 FE
@00000955 FD
@00000956 04
@00000957 0D
@00000958 0A
@00000959 F4
@0000095A 02
@0000095B F0
@0000095C 03
@0000095D 04
@0000095E 01
@0000095F 02
@00000960 FD
@00000961 F4
@00000962 03
@00000963 F1
@00000964 F5
@00000965 F5
@00000966 FB
@00000967 EE
@00000968 F7
@00000969 EA
@0000096A F1
@0000096B F1
@0000096C FA
@0000096D F7
@0000096E 0B
@0000096F 05
@00000970 F3
@00000971 05
@00000972 02
@00000973 F6
@00000974 0D
@00000975 0B
@00000976 FE
@00000977 FB
@00000978 DF
@00000979 F1
@0000097A EA
@0000097B 01
@0000097C 03
@0000097D 0B
@0000097E F4
@0000097F FD
@00000980 0D
@00000981 08
@00000982 03
@00000983 FD
@00000984 F2
@00000985 09
@00000986 00
@00000987 ED
@00000988 05
@00000989 FF
@0000098A FC
@0000098B FD
@0000098C FC
@0000098D FB
@0000098E F4
@0000098F 02
@00000990 01
@00000991 07
@00000992 F4
@00000993 06
@00000994 0E
@00000995 F0
@00000996 00
@00000997 11
@00000998 0E
@00000999 05
@0000099A 0A
@0000099B 07
@0000099C 02
@0000099D 05
@0000099E FE
@0000099F 0E
@000009A0 02
@000009A1 06
@000009A2 FD
@000009A3 FF
@000009A4 F7
@000009A5 02
@000009A6 08
@000009A7 FE
@000009A8 FC
@000009A9 F6
@000009AA F5
@000009AB 08
@000009AC 0A
@000009AD EE
@000009AE F3
@000009AF F6
@000009B0 F7
@000009B1 F3
@000009B2 1D
@000009B3 0A
@000009B4 F8
@000009B5 F9
@000009B6 08
@000009B7 04
@000009B8 FD
@000009B9 F8
@000009BA 0E
@000009BB FD
@000009BC FE
@000009BD F6
@000009BE 04
@000009BF F1
@000009C0 FE
@000009C1 14
@000009C2 06
@000009C3 FB
@000009C4 F7
@000009C5 EC
@000009C6 FA
@000009C7 FD
@000009C8 02
@000009C9 FF
@000009CA F7
@000009CB 0B
@000009CC 08
@000009CD FC
@000009CE 0C
@000009CF 01
@000009D0 F7
@000009D1 FE
@000009D2 05
@000009D3 09
@000009D4 FD
@000009D5 01
@000009D6 FC
@000009D7 FA
@000009D8 02
@000009D9 FB
@000009DA FE
@000009DB 01
@000009DC 00
@000009DD FE
@000009DE F7
@000009DF FD
@000009E0 FA
@000009E1 00
@000009E2 F8
@000009E3 04
@000009E4 06
@000009E5 03
@000009E6 0C
@000009E7 F9
@000009E8 03
@000009E9 FE
@000009EA FD
@000009EB EC
@000009EC 08
@000009ED FA
@000009EE F4
@000009EF 08
@000009F0 11
@000009F1 06
@000009F2 0C
@000009F3 05
@000009F4 08
@000009F5 FD
@000009F6 FC
@000009F7 F7
@000009F8 F2
@000009F9 E0
@000009FA F8
@000009FB EE
@000009FC 03
@000009FD 04
@000009FE 0A
@000009FF 1D
@00000A00 05
@00000A01 0D
@00000A02 FC
@00000A03 EF
@00000A04 F1
@00000A05 F4
@00000A06 FA
@00000A07 F9
@00000A08 F9
@00000A09 04
@00000A0A 01
@00000A0B 09
@00000A0C 14
@00000A0D FD
@00000A0E 06
@00000A0F 04
@00000A10 00
@00000A11 ED
@00000A12 F2
@00000A13 F2
@00000A14 14
@00000A15 1B
@00000A16 0F
@00000A17 F8
@00000A18 F9
@00000A19 0F
@00000A1A 09
@00000A1B 00
@00000A1C 14
@00000A1D 0A
@00000A1E 01
@00000A1F FF
@00000A20 EE
@00000A21 03
@00000A22 14
@00000A23 FF
@00000A24 02
@00000A25 0C
@00000A26 05
@00000A27 FA
@00000A28 0B
@00000A29 FD
@00000A2A FF
@00000A2B FA
@00000A2C FE
@00000A2D F6
@00000A2E 09
@00000A2F FD
@00000A30 06
@00000A31 06
@00000A32 FD
@00000A33 04
@00000A34 FF
@00000A35 03
@00000A36 F7
@00000A37 F4
@00000A38 07
@00000A39 FE
@00000A3A FD
@00000A3B ED
@00000A3C F5
@00000A3D F6
@00000A3E F6
@00000A3F E7
@00000A40 F6
@00000A41 F6
@00000A42 04
@00000A43 FA
@00000A44 07
@00000A45 00
@00000A46 04
@00000A47 05
@00000A48 04
@00000A49 FC
@00000A4A F5
@00000A4B F9
@00000A4C F3
@00000A4D EC
@00000A4E FB
@00000A4F 18
@00000A50 0B
@00000A51 FF
@00000A52 01
@00000A53 FD
@00000A54 0A
@00000A55 FC
@00000A56 00
@00000A57 08
@00000A58 03
@00000A59 07
@00000A5A F9
@00000A5B 0F
@00000A5C 08
@00000A5D 0D
@00000A5E 02
@00000A5F F8
@00000A60 F4
@00000A61 FB
@00000A62 02
@00000A63 F1
@00000A64 FE
@00000A65 02
@00000A66 FE
@00000A67 18
@00000A68 F7
@00000A69 FF
@00000A6A 03
@00000A6B FC
@00000A6C 04
@00000A6D FB
@00000A6E 02
@00000A6F 0A
@00000A70 01
@00000A71 00
@00000A72 F4
@00000A73 0C
@00000A74 F3
@00000A75 02
@00000A76 02
@00000A77 FC
@00000A78 0E
@00000A79 F7
@00000A7A FD
@00000A7B FE
@00000A7C F9
@00000A7D FA
@00000A7E 0C
@00000A7F 13
@00000A80 0C
@00000A81 04
@00000A82 08
@00000A83 12
@00000A84 FB
@00000A85 F3
@00000A86 FF
@00000A87 F1
@00000A88 0E
@00000A89 F1
@00000A8A 1C
@00000A8B 07
@00000A8C FD
@00000A8D EC
@00000A8E F3
@00000A8F F8
@00000A90 F1
@00000A91 03
@00000A92 FB
@00000A93 05
@00000A94 01
@00000A95 00
@00000A96 03
@00000A97 FD
@00000A98 04
@00000A99 FA
@00000A9A FB
@00000A9B FC
@00000A9C ED
@00000A9D 02
@00000A9E EF
@00000A9F FB
@00000AA0 EE
@00000AA1 EB
@00000AA2 F3
@00000AA3 E3
@00000AA4 F3
@00000AA5 F1
@00000AA6 FF
@00000AA7 F5
@00000AA8 07
@00000AA9 00
@00000AAA FC
@00000AAB FF
@00000AAC 05
@00000AAD 0A
@00000AAE 09
@00000AAF FA
@00000AB0 FD
@00000AB1 02
@00000AB2 05
@00000AB3 00
@00000AB4 0E
@00000AB5 04
@00000AB6 F5
@00000AB7 F1
@00000AB8 FF
@00000AB9 FF
@00000ABA 11
@00000ABB FC
@00000ABC FE
@00000ABD FC
@00000ABE 16
@00000ABF 06
@00000AC0 05
@00000AC1 F3
@00000AC2 0B
@00000AC3 16
@00000AC4 FE
@00000AC5 09
@00000AC6 13
@00000AC7 FE
@00000AC8 F7
@00000AC9 08
@00000ACA 05
@00000ACB FB
@00000ACC FE
@00000ACD F4
@00000ACE F3
@00000ACF F6
@00000AD0 FD
@00000AD1 F6
@00000AD2 FB
@00000AD3 06
@00000AD4 FB
@00000AD5 08
@00000AD6 F2
@00000AD7 FE
@00000AD8 F6
@00000AD9 02
@00000ADA F3
@00000ADB 02
@00000ADC 02
@00000ADD EC
@00000ADE F9
@00000ADF 02
@00000AE0 FA
@00000AE1 FF
@00000AE2 04
@00000AE3 E9
@00000AE4 03
@00000AE5 04
@00000AE6 FF
@00000AE7 04
@00000AE8 01
@00000AE9 FC
@00000AEA FF
@00000AEB EE
@00000AEC F7
@00000AED F1
@00000AEE FF
@00000AEF 02
@00000AF0 FE
@00000AF1 F5
@00000AF2 ED
@00000AF3 EE
@00000AF4 04
@00000AF5 02
@00000AF6 00
@00000AF7 FB
@00000AF8 FA
@00000AF9 01
@00000AFA FC
@00000AFB 07
@00000AFC FE
@00000AFD FC
@00000AFE 08
@00000AFF FA
@00000B00 0A
@00000B01 F4
@00000B02 05
@00000B03 0A
@00000B04 08
@00000B05 EC
@00000B06 F3
@00000B07 FF
@00000B08 07
@00000B09 08
@00000B0A FE
@00000B0B FB
@00000B0C 01
@00000B0D F9
@00000B0E FC
@00000B0F 06
@00000B10 FF
@00000B11 FE
@00000B12 F9
@00000B13 F1
@00000B14 07
@00000B15 FB
@00000B16 05
@00000B17 EA
@00000B18 03
@00000B19 09
@00000B1A 09
@00000B1B 0B
@00000B1C 0B
@00000B1D 09
@00000B1E E9
@00000B1F 06
@00000B20 0A
@00000B21 FC
@00000B22 08
@00000B23 1F
@00000B24 FE
@00000B25 F6
@00000B26 F1
@00000B27 EF
@00000B28 03
@00000B29 F6
@00000B2A 01
@00000B2B FE
@00000B2C F4
@00000B2D 09
@00000B2E 06
@00000B2F 01
@00000B30 11
@00000B31 05
@00000B32 F8
@00000B33 00
@00000B34 04
@00000B35 00
@00000B36 00
@00000B37 03
@00000B38 00
@00000B39 07
@00000B3A FE
@00000B3B FD
@00000B3C F2
@00000B3D 05
@00000B3E FE
@00000B3F 00
@00000B40 00
@00000B41 FE
@00000B42 04
@00000B43 01
@00000B44 FB
@00000B45 08
@00000B46 00
@00000B47 00
@00000B48 00
@00000B49 19
@00000B4A F9
@00000B4B FB
@00000B4C 04
@00000B4D F9
@00000B4E FE
@00000B4F FF
@00000B50 F4
@00000B51 03
@00000B52 02
@00000B53 F7
@00000B54 01
@00000B55 FD
@00000B56 EF
@00000B57 04
@00000B58 F0
@00000B59 03
@00000B5A FD
@00000B5B FD
@00000B5C 03
@00000B5D EF
@00000B5E 07
@00000B5F FC
@00000B60 01
@00000B61 04
@00000B62 FD
@00000B63 F7
@00000B64 FB
@00000B65 FB
@00000B66 0B
@00000B67 F2
@00000B68 06
@00000B69 06
@00000B6A 02
@00000B6B 03
@00000B6C FF
@00000B6D 0F
@00000B6E F8
@00000B6F F7
@00000B70 00
@00000B71 F9
@00000B72 FF
@00000B73 F1
@00000B74 F9
@00000B75 03
@00000B76 FC
@00000B77 FF
@00000B78 0B
@00000B79 01
@00000B7A F8
@00000B7B 06
@00000B7C 07
@00000B7D 12
@00000B7E 07
@00000B7F 0E
@00000B80 FF
@00000B81 03
@00000B82 06
@00000B83 08
@00000B84 F9
@00000B85 10
@00000B86 0C
@00000B87 FA
@00000B88 0B
@00000B89 07
@00000B8A 0C
@00000B8B 10
@00000B8C 0C
@00000B8D 08
@00000B8E 09
@00000B8F 0C
@00000B90 04
@00000B91 F7
@00000B92 F4
@00000B93 FF
@00000B94 FA
@00000B95 FB
@00000B96 04
@00000B97 03
@00000B98 FD
@00000B99 0D
@00000B9A 0A
@00000B9B 02
@00000B9C FC
@00000B9D 02
@00000B9E 01
@00000B9F 01
@00000BA0 FA
@00000BA1 04
@00000BA2 05
@00000BA3 FC
@00000BA4 F8
@00000BA5 01
@00000BA6 FE
@00000BA7 F8
@00000BA8 FF
@00000BA9 FD
@00000BAA FE
@00000BAB 05
@00000BAC 05
@00000BAD FC
@00000BAE F4
@00000BAF 07
@00000BB0 FD
@00000BB1 FA
@00000BB2 02
@00000BB3 F6
@00000BB4 FC
@00000BB5 F2
@00000BB6 02
@00000BB7 02
@00000BB8 F8
@00000BB9 FE
@00000BBA 04
@00000BBB 03
@00000BBC 05
@00000BBD FD
@00000BBE 06
@00000BBF 00
@00000BC0 09
@00000BC1 0D
@00000BC2 05
@00000BC3 FF
@00000BC4 11
@00000BC5 FE
@00000BC6 F9
@00000BC7 FB
@00000BC8 12
@00000BC9 06
@00000BCA FD
@00000BCB 0D
@00000BCC 0A
@00000BCD F8
@00000BCE 13
@00000BCF 16
@00000BD0 F4
@00000BD1 F7
@00000BD2 06
@00000BD3 F8
@00000BD4 FE
@00000BD5 0A
@00000BD6 F3
@00000BD7 0F
@00000BD8 06
@00000BD9 FE
@00000BDA 03
@00000BDB FC
@00000BDC FD
@00000BDD F7
@00000BDE FB
@00000BDF F7
@00000BE0 F6
@00000BE1 FE
@00000BE2 FB
@00000BE3 FE
@00000BE4 05
@00000BE5 FA
@00000BE6 02
@00000BE7 03
@00000BE8 F9
@00000BE9 09
@00000BEA FD
@00000BEB FA
@00000BEC FB
@00000BED 01
@00000BEE F4
@00000BEF 08
@00000BF0 0E
@00000BF1 06
@00000BF2 FC
@00000BF3 0B
@00000BF4 03
@00000BF5 F7
@00000BF6 F7
@00000BF7 FC
@00000BF8 F3
@00000BF9 07
@00000BFA FA
@00000BFB E2
@00000BFC 01
@00000BFD 0D
@00000BFE 14
@00000BFF 06
@00000C00 FF
@00000C01 15
@00000C02 0A
@00000C03 FE
@00000C04 12
@00000C05 FD
@00000C06 13
@00000C07 F9
@00000C08 09
@00000C09 FF
@00000C0A 00
@00000C0B F5
@00000C0C FB
@00000C0D FA
@00000C0E FA
@00000C0F EC
@00000C10 F7
@00000C11 FC
@00000C12 EA
@00000C13 FE
@00000C14 FD
@00000C15 F4
@00000C16 FE
@00000C17 04
@00000C18 07
@00000C19 FC
@00000C1A 05
@00000C1B FB
@00000C1C EF
@00000C1D 05
@00000C1E F5
@00000C1F 02
@00000C20 05
@00000C21 F8
@00000C22 01
@00000C23 02
@00000C24 EF
@00000C25 08
@00000C26 05
@00000C27 00
@00000C28 00
@00000C29 07
@00000C2A 13
@00000C2B 03
@00000C2C F5
@00000C2D 1A
@00000C2E FC
@00000C2F F7
@00000C30 04
@00000C31 EF
@00000C32 04
@00000C33 FD
@00000C34 01
@00000C35 F8
@00000C36 F8
@00000C37 FC
@00000C38 00
@00000C39 01
@00000C3A FF
@00000C3B 08
@00000C3C FF
@00000C3D FA
@00000C3E 02
@00000C3F FF
@00000C40 00
@00000C41 04
@00000C42 00
@00000C43 F5
@00000C44 0B
@00000C45 02
@00000C46 FC
@00000C47 00
@00000C48 F4
@00000C49 03
@00000C4A 0D
@00000C4B 06
@00000C4C 06
@00000C4D 0D
@00000C4E 00
@00000C4F FA
@00000C50 F9
@00000C51 FB
@00000C52 F6
@00000C53 FF
@00000C54 FA
@00000C55 F4
@00000C56 05
@00000C57 F1
@00000C58 ED
@00000C59 05
@00000C5A FD
@00000C5B 01
@00000C5C FC
@00000C5D 02
@00000C5E 09
@00000C5F FC
@00000C60 FD
@00000C61 05
@00000C62 0A
@00000C63 F7
@00000C64 01
@00000C65 FD
@00000C66 05
@00000C67 12
@00000C68 02
@00000C69 F4
@00000C6A E7
@00000C6B F4
@00000C6C F6
@00000C6D F6
@00000C6E 07
@00000C6F 00
@00000C70 FB
@00000C71 06
@00000C72 F9
@00000C73 FE
@00000C74 02
@00000C75 FD
@00000C76 F2
@00000C77 13
@00000C78 FA
@00000C79 01
@00000C7A FA
@00000C7B 04
@00000C7C 00
@00000C7D 03
@00000C7E ED
@00000C7F EB
@00000C80 01
@00000C81 FA
@00000C82 08
@00000C83 FC
@00000C84 F6
@00000C85 F0
@00000C86 FE
@00000C87 F4
@00000C88 05
@00000C89 05
@00000C8A FB
@00000C8B FE
@00000C8C FA
@00000C8D 08
@00000C8E 0A
@00000C8F FF
@00000C90 00
@00000C91 FB
@00000C92 F9
@00000C93 02
@00000C94 FE
@00000C95 FF
@00000C96 02
@00000C97 0F
@00000C98 FC
@00000C99 08
@00000C9A 00
@00000C9B 00
@00000C9C F0
@00000C9D 02
@00000C9E 06
@00000C9F F5
@00000CA0 FE
@00000CA1 06
@00000CA2 08
@00000CA3 0B
@00000CA4 0C
@00000CA5 12
@00000CA6 11
@00000CA7 04
@00000CA8 00
@00000CA9 13
@00000CAA FE
@00000CAB F2
@00000CAC FE
@00000CAD FB
@00000CAE F7
@00000CAF 08
@00000CB0 FE
@00000CB1 F6
@00000CB2 FB
@00000CB3 FA
@00000CB4 01
@00000CB5 FB
@00000CB6 FF
@00000CB7 F1
@00000CB8 F7
@00000CB9 F9
@00000CBA 0C
@00000CBB F5
@00000CBC 05
@00000CBD 01
@00000CBE FA
@00000CBF 01
@00000CC0 10
@00000CC1 FC
@00000CC2 03
@00000CC3 09
@00000CC4 06
@00000CC5 02
@00000CC6 EA
@00000CC7 ED
@00000CC8 F1
@00000CC9 08
@00000CCA 14
@00000CCB 07
@00000CCC FC
@00000CCD 09
@00000CCE 02
@00000CCF F5
@00000CD0 F8
@00000CD1 F5
@00000CD2 FD
@00000CD3 05
@00000CD4 FC
@00000CD5 F7
@00000CD6 01
@00000CD7 E4
@00000CD8 08
@00000CD9 18
@00000CDA 06
@00000CDB F3
@00000CDC 26
@00000CDD 1B
@00000CDE F4
@00000CDF F7
@00000CE0 03
@00000CE1 E7
@00000CE2 F5
@00000CE3 FB
@00000CE4 08
@00000CE5 12
@00000CE6 09
@00000CE7 02
@00000CE8 01
@00000CE9 FB
@00000CEA 0D
@00000CEB 01
@00000CEC 04
@00000CED FE
@00000CEE 0D
@00000CEF 0D
@00000CF0 F4
@00000CF1 F2
@00000CF2 FE
@00000CF3 0C
@00000CF4 0D
@00000CF5 13
@00000CF6 EB
@00000CF7 F1
@00000CF8 04
@00000CF9 FE
@00000CFA 07
@00000CFB F9
@00000CFC FE
@00000CFD 04
@00000CFE 06
@00000CFF F6
@00000D00 F2
@00000D01 ED
@00000D02 EF
@00000D03 FC
@00000D04 FF
@00000D05 F4
@00000D06 F0
@00000D07 F5
@00000D08 00
@00000D09 F6
@00000D0A FC
@00000D0B E6
@00000D0C FE
@00000D0D FE
@00000D0E 09
@00000D0F 12
@00000D10 0E
@00000D11 EB
@00000D12 04
@00000D13 03
@00000D14 F8
@00000D15 01
@00000D16 FF
@00000D17 F8
@00000D18 FF
@00000D19 02
@00000D1A 03
@00000D1B F7
@00000D1C 0A
@00000D1D 0C
@00000D1E 0B
@00000D1F 09
@00000D20 04
@00000D21 F9
@00000D22 EC
@00000D23 09
@00000D24 FB
@00000D25 F3
@00000D26 0D
@00000D27 08
@00000D28 03
@00000D29 11
@00000D2A FA
@00000D2B FF
@00000D2C EE
@00000D2D F6
@00000D2E E5
@00000D2F 00
@00000D30 F8
@00000D31 F3
@00000D32 F8
@00000D33 F6
@00000D34 03
@00000D35 FC
@00000D36 08
@00000D37 08
@00000D38 02
@00000D39 F9
@00000D3A 07
@00000D3B F6
@00000D3C FF
@00000D3D 0A
@00000D3E FA
@00000D3F 09
@00000D40 00
@00000D41 02
@00000D42 0E
@00000D43 00
@00000D44 FC
@00000D45 F2
@00000D46 02
@00000D47 0C
@00000D48 FF
@00000D49 06
@00000D4A F6
@00000D4B 02
@00000D4C 00
@00000D4D 07
@00000D4E 05
@00000D4F 07
@00000D50 02
@00000D51 FA
@00000D52 F4
@00000D53 FD
@00000D54 F6
@00000D55 FE
@00000D56 FA
@00000D57 FB
@00000D58 EE
@00000D59 0D
@00000D5A 0D
@00000D5B 10
@00000D5C 12
@00000D5D 0B
@00000D5E 07
@00000D5F F2
@00000D60 EB
@00000D61 05
@00000D62 14
@00000D63 01
@00000D64 04
@00000D65 FC
@00000D66 0F
@00000D67 0B
@00000D68 02
@00000D69 07
@00000D6A FB
@00000D6B 05
@00000D6C F7
@00000D6D FA
@00000D6E FA
@00000D6F F3
@00000D70 EE
@00000D71 0A
@00000D72 0C
@00000D73 15
@00000D74 07
@00000D75 03
@00000D76 08
@00000D77 FF
@00000D78 0A
@00000D79 FE
@00000D7A 04
@00000D7B 09
@00000D7C 0A
@00000D7D FF
@00000D7E F6
@00000D7F 04
@00000D80 02
@00000D81 FB
@00000D82 FD
@00000D83 04
@00000D84 02
@00000D85 F5
@00000D86 03
@00000D87 F6
@00000D88 FD
@00000D89 09
@00000D8A 14
@00000D8B 18
@00000D8C 03
@00000D8D 14
@00000D8E 04
@00000D8F 09
@00000D90 0B
@00000D91 03
@00000D92 00
@00000D93 F1
@00000D94 FD
@00000D95 03
@00000D96 04
@00000D97 F5
@00000D98 01
@00000D99 03
@00000D9A FD
@00000D9B F6
@00000D9C 03
@00000D9D 08
@00000D9E F4
@00000D9F FA
@00000DA0 04
@00000DA1 FB
@00000DA2 02
@00000DA3 0F
@00000DA4 FD
@00000DA5 FE
@00000DA6 00
@00000DA7 01
@00000DA8 FD
@00000DA9 FB
@00000DAA 02
@00000DAB F7
@00000DAC FD
@00000DAD 08
@00000DAE 07
@00000DAF 08
@00000DB0 03
@00000DB1 10
@00000DB2 FF
@00000DB3 06
@00000DB4 00
@00000DB5 FA
@00000DB6 06
@00000DB7 FE
@00000DB8 F4
@00000DB9 02
@00000DBA 08
@00000DBB FD
@00000DBC 0D
@00000DBD F4
@00000DBE 05
@00000DBF F7
@00000DC0 FB
@00000DC1 0F
@00000DC2 EE
@00000DC3 FC
@00000DC4 0A
@00000DC5 FA
@00000DC6 00
@00000DC7 FF
@00000DC8 EE
@00000DC9 EE
@00000DCA FE
@00000DCB F2
@00000DCC FC
@00000DCD F7
@00000DCE F9
@00000DCF F1
@00000DD0 00
@00000DD1 06
@00000DD2 FD
@00000DD3 0C
@00000DD4 02
@00000DD5 02
@00000DD6 FB
@00000DD7 01
@00000DD8 FB
@00000DD9 02
@00000DDA 0A
@00000DDB 08
@00000DDC FF
@00000DDD F8
@00000DDE 05
@00000DDF FE
@00000DE0 FA
@00000DE1 FF
@00000DE2 01
@00000DE3 03
@00000DE4 01
@00000DE5 02
@00000DE6 FC
@00000DE7 07
@00000DE8 02
@00000DE9 FC
@00000DEA 08
@00000DEB FC
@00000DEC 0C
@00000DED 0E
@00000DEE 17
@00000DEF 0F
@00000DF0 11
@00000DF1 13
@00000DF2 06
@00000DF3 0E
@00000DF4 0C
@00000DF5 F9
@00000DF6 F3
@00000DF7 FE
@00000DF8 F7
@00000DF9 F5
@00000DFA FB
@00000DFB FE
@00000DFC FB
@00000DFD FE
@00000DFE EF
@00000DFF F5
@00000E00 00
@00000E01 F2
@00000E02 F9
@00000E03 02
@00000E04 F0
@00000E05 03
@00000E06 05
@00000E07 01
@00000E08 FC
@00000E09 EF
@00000E0A 04
@00000E0B 01
@00000E0C 00
@00000E0D FB
@00000E0E 02
@00000E0F FB
@00000E10 FA
@00000E11 EE
@00000E12 F6
@00000E13 F9
@00000E14 F2
@00000E15 F2
@00000E16 F6
@00000E17 F1
@00000E18 F7
@00000E19 FE
@00000E1A 07
@00000E1B FD
@00000E1C FD
@00000E1D 07
@00000E1E F4
@00000E1F 01
@00000E20 F4
@00000E21 03
@00000E22 05
@00000E23 FB
@00000E24 F8
@00000E25 F9
@00000E26 FA
@00000E27 FA
@00000E28 F8
@00000E29 00
@00000E2A FC
@00000E2B 02
@00000E2C FB
@00000E2D F8
@00000E2E F9
@00000E2F FB
@00000E30 F6
@00000E31 01
@00000E32 F6
@00000E33 FE
@00000E34 03
@00000E35 04
@00000E36 F6
@00000E37 0A
@00000E38 FF
@00000E39 F6
@00000E3A 0D
@00000E3B 02
@00000E3C F6
@00000E3D F0
@00000E3E ED
@00000E3F F6
@00000E40 EB
@00000E41 F4
@00000E42 FD
@00000E43 F6
@00000E44 03
@00000E45 05
@00000E46 FA
@00000E47 0E
@00000E48 06
@00000E49 F9
@00000E4A 08
@00000E4B FE
@00000E4C 00
@00000E4D FF
@00000E4E 02
@00000E4F 0A
@00000E50 01
@00000E51 F6
@00000E52 0B
@00000E53 F7
@00000E54 FB
@00000E55 03
@00000E56 01
@00000E57 00
@00000E58 0B
@00000E59 08
@00000E5A 03
@00000E5B 10
@00000E5C 0A
@00000E5D FF
@00000E5E 02
@00000E5F 05
@00000E60 FF
@00000E61 00
@00000E62 07
@00000E63 F4
@00000E64 00
@00000E65 FB
@00000E66 FC
@00000E67 FB
@00000E68 FE
@00000E69 02
@00000E6A FE
@00000E6B 0B
@00000E6C 0B
@00000E6D 01
@00000E6E 0B
@00000E6F 13
@00000E70 00
@00000E71 13
@00000E72 0A
@00000E73 06
@00000E74 F9
@00000E75 FA
@00000E76 01
@00000E77 F9
@00000E78 F9
@00000E79 07
@00000E7A FC
@00000E7B F9
@00000E7C FE
@00000E7D 0E
@00000E7E 05
@00000E7F 04
@00000E80 01
@00000E81 07
@00000E82 FF
@00000E83 06
@00000E84 04
@00000E85 FB
@00000E86 07
@00000E87 F7
@00000E88 FD
@00000E89 FE
@00000E8A 08
@00000E8B 01
@00000E8C 05
@00000E8D 03
@00000E8E 05
@00000E8F FD
@00000E90 FF
@00000E91 07
@00000E92 01
@00000E93 FC
@00000E94 08
@00000E95 FF
@00000E96 FD
@00000E97 02
@00000E98 02
@00000E99 F2
@00000E9A FC
@00000E9B 01
@00000E9C F9
@00000E9D 0D
@00000E9E 02
@00000E9F FE
@00000EA0 10
@00000EA1 07
@00000EA2 13
@00000EA3 09
@00000EA4 FF
@00000EA5 13
@00000EA6 08
@00000EA7 01
@00000EA8 F3
@00000EA9 F5
@00000EAA F7
@00000EAB 08
@00000EAC F7
@00000EAD 08
@00000EAE FB
@00000EAF E2
@00000EB0 F8
@00000EB1 FA
@00000EB2 05
@00000EB3 12
@00000EB4 04
@00000EB5 FD
@00000EB6 FF
@00000EB7 FB
@00000EB8 04
@00000EB9 FA
@00000EBA ED
@00000EBB ED
@00000EBC 1D
@00000EBD DB
@00000EBE F0
@00000EBF F7
@00000EC0 13
@00000EC1 FA
@00000EC2 F8
@00000EC3 E5
@00000EC4 F6
@00000EC5 04
@00000EC6 E8
@00000EC7 FE
@00000EC8 00
@00000EC9 F6
@00000ECA 13
@00000ECB F8
@00000ECC 10
@00000ECD FC
@00000ECE 0D
@00000ECF 17
@00000ED0 F0
@00000ED1 FD
@00000ED2 11
@00000ED3 FF
@00000ED4 16
@00000ED5 F2
@00000ED6 02
@00000ED7 F7
@00000ED8 F8
@00000ED9 03
@00000EDA F9
@00000EDB 0F
@00000EDC 0F
@00000EDD 19
@00000EDE F4
@00000EDF F8
@00000EE0 0E
@00000EE1 FC
@00000EE2 0E
@00000EE3 FA
@00000EE4 FA
@00000EE5 FA
@00000EE6 03
@00000EE7 F2
@00000EE8 08
@00000EE9 0D
@00000EEA EE
@00000EEB F6
@00000EEC 10
@00000EED F6
@00000EEE 0D
@00000EEF 10
@00000EF0 DC
@00000EF1 0E
@00000EF2 10
@00000EF3 02
@00000EF4 10
@00000EF5 FA
@00000EF6 EF
@00000EF7 04
@00000EF8 03
@00000EF9 FE
@00000EFA F5
@00000EFB FB
@00000EFC 0C
@00000EFD FD
@00000EFE 03
@00000EFF FD
@00000F00 1A
@00000F01 09
@00000F02 EB
@00000F03 09
@00000F04 0A
@00000F05 0C
@00000F06 F4
@00000F07 F4
@00000F08 01
@00000F09 F5
@00000F0A F3
@00000F0B 0B
@00000F0C 08
@00000F0D 04
@00000F0E 0C
@00000F0F FA
@00000F10 07
@00000F11 F3
@00000F12 FF
@00000F13 0C
@00000F14 FE
@00000F15 FD
@00000F16 1C
@00000F17 F6
@00000F18 F7
@00000F19 0C
@00000F1A FF
@00000F1B F8
@00000F1C F3
@00000F1D 0B
@00000F1E ED
@00000F1F EE
@00000F20 00
@00000F21 FA
@00000F22 04
@00000F23 EE
@00000F24 09
@00000F25 02
@00000F26 F4
@00000F27 FE
@00000F28 1E
@00000F29 F3
@00000F2A F2
@00000F2B 0F
@00000F2C 03
@00000F2D 0F
@00000F2E F4
@00000F2F F3
@00000F30 0F
@00000F31 05
@00000F32 F8
@00000F33 1C
@00000F34 FB
@00000F35 EE
@00000F36 13
@00000F37 F6
@00000F38 02
@00000F39 F4
@00000F3A F9
@00000F3B FE
@00000F3C EF
@00000F3D 0E
@00000F3E FD
@00000F3F 11
@00000F40 06
@00000F41 0A
@00000F42 00
@00000F43 05
@00000F44 FA
@00000F45 F8
@00000F46 F8
@00000F47 F4
@00000F48 E8
@00000F49 E3
@00000F4A 06
@00000F4B 07
@00000F4C F9
@00000F4D D8
@00000F4E FF
@00000F4F 14
@00000F50 DF
@00000F51 FD
@00000F52 00
@00000F53 E8
@00000F54 E8
@00000F55 1C
@00000F56 ED
@00000F57 0F
@00000F58 ED
@00000F59 FC
@00000F5A FE
@00000F5B 00
@00000F5C 09
@00000F5D EF
@00000F5E 06
@00000F5F E9
@00000F60 01
@00000F61 ED
@00000F62 FC
@00000F63 F4
@00000F64 F0
@00000F65 F9
@00000F66 F7
@00000F67 11
@00000F68 03
@00000F69 0F
@00000F6A F3
@00000F6B 0C
@00000F6C FC
@00000F6D F9
@00000F6E 09
@00000F6F 00
@00000F70 E8
@00000F71 0D
@00000F72 00
@00000F73 F9
@00000F74 11
@00000F75 E6
@00000F76 EA
@00000F77 01
@00000F78 F5
@00000F79 E6
@00000F7A F8
@00000F7B 07
@00000F7C F8
@00000F7D EB
@00000F7E F1
@00000F7F FF
@00000F80 FA
@00000F81 18
@00000F82 FA
@00000F83 04
@00000F84 F9
@00000F85 F0
@00000F86 F6
@00000F87 04
@00000F88 04
@00000F89 ED
@00000F8A 00
@00000F8B 0E
@00000F8C 1B
@00000F8D FF
@00000F8E 07
@00000F8F 04
@00000F90 EE
@00000F91 07
@00000F92 0B
@00000F93 0A
@00000F94 02
@00000F95 F6
@00000F96 FE
@00000F97 16
@00000F98 FA
@00000F99 03
@00000F9A F2
@00000F9B 02
@00000F9C F8
@00000F9D 1A
@00000F9E 15
@00000F9F 0F
@00000FA0 E8
@00000FA1 13
@00000FA2 F5
@00000FA3 F8
@00000FA4 12
@00000FA5 FE
@00000FA6 FD
@00000FA7 03
@00000FA8 0D
@00000FA9 F3
@00000FAA 05
@00000FAB 05
@00000FAC 0F
@00000FAD F0
@00000FAE FB
@00000FAF F0
@00000FB0 01
@00000FB1 E6
@00000FB2 E7
@00000FB3 EA
@00000FB4 12
@00000FB5 FA
@00000FB6 DE
@00000FB7 02
@00000FB8 FB
@00000FB9 03
@00000FBA 05
@00000FBB 00
@00000FBC F9
@00000FBD 04
@00000FBE 0D
@00000FBF F8
@00000FC0 FA
@00000FC1 FA
@00000FC2 F9
@00000FC3 02
@00000FC4 07
@00000FC5 04
@00000FC6 03
@00000FC7 F2
@00000FC8 FF
@00000FC9 F0
@00000FCA F4
@00000FCB FA
@00000FCC ED
@00000FCD F6
@00000FCE FB
@00000FCF F5
@00000FD0 F0
@00000FD1 F2
@00000FD2 08
@00000FD3 FF
@00000FD4 07
@00000FD5 02
@00000FD6 0A
@00000FD7 02
@00000FD8 08
@00000FD9 0C
@00000FDA F5
@00000FDB 00
@00000FDC 11
@00000FDD FF
@00000FDE 02
@00000FDF 07
@00000FE0 0D
@00000FE1 07
@00000FE2 FB
@00000FE3 FC
@00000FE4 F2
@00000FE5 15
@00000FE6 FC
@00000FE7 06
@00000FE8 FA
@00000FE9 07
@00000FEA 0B
@00000FEB 0F
@00000FEC FD
@00000FED 00
@00000FEE 06
@00000FEF 00
@00000FF0 F3
@00000FF1 FA
@00000FF2 F9
@00000FF3 09
@00000FF4 0B
@00000FF5 07
@00000FF6 08
@00000FF7 06
@00000FF8 0B
@00000FF9 F8
@00000FFA F9
@00000FFB 04
@00000FFC 0A
@00000FFD FF
@00000FFE FA
@00000FFF 00
@00001000 FD
@00001001 00
@00001002 0C
@00001003 FF
@00001004 FF
@00001005 00
@00001006 0E
@00001007 FF
@00001008 0E
@00001009 09
@0000100A FB
@0000100B FF
@0000100C 10
@0000100D 05
@0000100E 06
@0000100F 05
@00001010 0D
@00001011 FA
@00001012 FB
@00001013 08
@00001014 F8
@00001015 FB
@00001016 07
@00001017 FE
@00001018 05
@00001019 03
@0000101A FE
@0000101B 04
@0000101C 09
@0000101D FC
@0000101E 01
@0000101F FE
@00001020 FC
@00001021 FF
@00001022 02
@00001023 F8
@00001024 F7
@00001025 EC
@00001026 03
@00001027 FD
@00001028 FC
@00001029 09
@0000102A FA
@0000102B F0
@0000102C 00
@0000102D 00
@0000102E FF
@0000102F EF
@00001030 F1
@00001031 F4
@00001032 FE
@00001033 F8
@00001034 FB
@00001035 19
@00001036 15
@00001037 F8
@00001038 10
@00001039 12
@0000103A FB
@0000103B 09
@0000103C 0C
@0000103D 14
@0000103E 09
@0000103F 00
@00001040 F6
@00001041 01
@00001042 13
@00001043 06
@00001044 19
@00001045 0F
@00001046 FC
@00001047 FD
@00001048 02
@00001049 03
@0000104A 11
@0000104B 0A
@0000104C FA
@0000104D FA
@0000104E 00
@0000104F 08
@00001050 0F
@00001051 05
@00001052 F7
@00001053 F7
@00001054 04
@00001055 04
@00001056 04
@00001057 0B
@00001058 0B
@00001059 FD
@0000105A 05
@0000105B 04
@0000105C F8
@0000105D 0A
@0000105E F0
@0000105F 08
@00001060 EF
@00001061 FB
@00001062 09
@00001063 0A
@00001064 F9
@00001065 F8
@00001066 F6
@00001067 01
@00001068 0C
@00001069 FF
@0000106A 06
@0000106B 0B
@0000106C EF
@0000106D F5
@0000106E 01
@0000106F 0C
@00001070 FD
@00001071 FE
@00001072 0A
@00001073 10
@00001074 05
@00001075 FF
@00001076 FB
@00001077 FF
@00001078 FE
@00001079 00
@0000107A F7
@0000107B F6
@0000107C 05
@0000107D FD
@0000107E F3
@0000107F FF
@00001080 FF
@00001081 F6
@00001082 F7
@00001083 FB
@00001084 F4
@00001085 F6
@00001086 FF
@00001087 F8
@00001088 0E
@00001089 01
@0000108A 01
@0000108B F4
@0000108C F6
@0000108D F3
@0000108E 03
@0000108F 03
@00001090 F7
@00001091 F8
@00001092 07
@00001093 00
@00001094 F3
@00001095 F5
@00001096 FB
@00001097 FA
@00001098 00
@00001099 FF
@0000109A 01
@0000109B FD
@0000109C F8
@0000109D 05
@0000109E 07
@0000109F 06
@000010A0 F3
@000010A1 FC
@000010A2 09
@000010A3 05
@000010A4 04
@000010A5 0A
@000010A6 00
@000010A7 FE
@000010A8 FC
@000010A9 06
@000010AA 08
@000010AB F5
@000010AC FA
@000010AD 00
@000010AE 04
@000010AF 02
@000010B0 11
@000010B1 08
@000010B2 F9
@000010B3 01
@000010B4 01
@000010B5 06
@000010B6 03
@000010B7 0A
@000010B8 EF
@000010B9 FB
@000010BA F1
@000010BB 01
@000010BC 00
@000010BD EF
@000010BE FC
@000010BF FB
@000010C0 F8
@000010C1 FF
@000010C2 F9
@000010C3 FD
@000010C4 06
@000010C5 FF
@000010C6 06
@000010C7 FD
@000010C8 02
@000010C9 00
@000010CA 00
@000010CB F4
@000010CC 07
@000010CD F8
@000010CE 06
@000010CF 01
@000010D0 01
@000010D1 F6
@000010D2 07
@000010D3 06
@000010D4 F6
@000010D5 FE
@000010D6 03
@000010D7 03
@000010D8 00
@000010D9 05
@000010DA F3
@000010DB 03
@000010DC FB
@000010DD 04
@000010DE E7
@000010DF 03
@000010E0 00
@000010E1 FA
@000010E2 0A
@000010E3 FC
@000010E4 FE
@000010E5 F6
@000010E6 0F
@000010E7 FA
@000010E8 EE
@000010E9 FF
@000010EA 0B
@000010EB 04
@000010EC 05
@000010ED 0D
@000010EE 04
@000010EF 09
@000010F0 00
@000010F1 F8
@000010F2 07
@000010F3 08
@000010F4 FF
@000010F5 05
@000010F6 FA
@000010F7 F5
@000010F8 F2
@000010F9 F8
@000010FA FC
@000010FB 06
@000010FC F0
@000010FD 03
@000010FE FB
@000010FF 08
@00001100 0F
@00001101 FA
@00001102 0C
@00001103 01
@00001104 14
@00001105 05
@00001106 FE
@00001107 0A
@00001108 FC
@00001109 F6
@0000110A 03
@0000110B F7
@0000110C FF
@0000110D 01
@0000110E 03
@0000110F FD
@00001110 09
@00001111 F6
@00001112 F4
@00001113 06
@00001114 02
@00001115 FC
@00001116 07
@00001117 F7
@00001118 FD
@00001119 06
@0000111A F9
@0000111B 03
@0000111C FA
@0000111D FC
@0000111E 02
@0000111F 0C
@00001120 12
@00001121 07
@00001122 FB
@00001123 0D
@00001124 09
@00001125 04
@00001126 0E
@00001127 04
@00001128 07
@00001129 FF
@0000112A F1
@0000112B F6
@0000112C F6
@0000112D FA
@0000112E F2
@0000112F F7
@00001130 F6
@00001131 02
@00001132 06
@00001133 09
@00001134 FA
@00001135 11
@00001136 FC
@00001137 0B
@00001138 0A
@00001139 FC
@0000113A FA
@0000113B FC
@0000113C FD
@0000113D 09
@0000113E EE
@0000113F F7
@00001140 F6
@00001141 FC
@00001142 FA
@00001143 09
@00001144 0A
@00001145 02
@00001146 02
@00001147 FD
@00001148 05
@00001149 09
@0000114A 08
@0000114B 05
@0000114C ED
@0000114D FA
@0000114E 07
@0000114F FB
@00001150 03
@00001151 09
@00001152 FD
@00001153 06
@00001154 ED
@00001155 FE
@00001156 08
@00001157 06
@00001158 FB
@00001159 04
@0000115A FD
@0000115B 0E
@0000115C F9
@0000115D F5
@0000115E FC
@0000115F 04
@00001160 EA
@00001161 FF
@00001162 FC
@00001163 F7
@00001164 F0
@00001165 F4
@00001166 01
@00001167 07
@00001168 02
@00001169 11
@0000116A 00
@0000116B FE
@0000116C F1
@0000116D F8
@0000116E FE
@0000116F F8
@00001170 10
@00001171 12
@00001172 F1
@00001173 F5
@00001174 ED
@00001175 F3
@00001176 F8
@00001177 F7
@00001178 FF
@00001179 F9
@0000117A 03
@0000117B 07
@0000117C F7
@0000117D 06
@0000117E F1
@0000117F 00
@00001180 09
@00001181 08
@00001182 00
@00001183 F4
@00001184 FD
@00001185 F7
@00001186 F0
@00001187 F3
@00001188 EE
@00001189 F4
@0000118A 07
@0000118B F6
@0000118C 0A
@0000118D FB
@0000118E F6
@0000118F FB
@00001190 06
@00001191 F6
@00001192 F8
@00001193 FA
@00001194 0C
@00001195 0B
@00001196 05
@00001197 02
@00001198 14
@00001199 FA
@0000119A 00
@0000119B 06
@0000119C 0B
@0000119D 1A
@0000119E 02
@0000119F EC
@000011A0 01
@000011A1 F6
@000011A2 02
@000011A3 FE
@000011A4 06
@000011A5 13
@000011A6 F3
@000011A7 F1
@000011A8 08
@000011A9 01
@000011AA EF
@000011AB EF
@000011AC 08
@000011AD 04
@000011AE 08
@000011AF FB
@000011B0 02
@000011B1 05
@000011B2 F2
@000011B3 FE
@000011B4 F4
@000011B5 FF
@000011B6 FF
@000011B7 FD
@000011B8 05
@000011B9 FE
@000011BA 14
@000011BB 01
@000011BC 10
@000011BD 0C
@000011BE 0F
@000011BF 12
@000011C0 04
@000011C1 FC
@000011C2 05
@000011C3 F5
@000011C4 00
@000011C5 F5
@000011C6 FE
@000011C7 FF
@000011C8 FC
@000011C9 FC
@000011CA 07
@000011CB F4
@000011CC 12
@000011CD FA
@000011CE 10
@000011CF 04
@000011D0 04
@000011D1 FD
@000011D2 FB
@000011D3 F2
@000011D4 06
@000011D5 FF
@000011D6 FB
@000011D7 F5
@000011D8 04
@000011D9 FB
@000011DA F7
@000011DB 02
@000011DC EA
@000011DD 05
@000011DE 07
@000011DF FE
@000011E0 F4
@000011E1 00
@000011E2 FD
@000011E3 F0
@000011E4 EB
@000011E5 08
@000011E6 07
@000011E7 FE
@000011E8 08
@000011E9 FD
@000011EA F7
@000011EB FD
@000011EC F5
@000011ED 03
@000011EE FD
@000011EF F4
@000011F0 0E
@000011F1 11
@000011F2 0A
@000011F3 07
@000011F4 01
@000011F5 0C
@000011F6 FD
@000011F7 01
@000011F8 1B
@000011F9 F6
@000011FA 09
@000011FB 00
@000011FC FC
@000011FD 05
@000011FE 04
@000011FF 06
@00001200 FB
@00001201 FD
@00001202 03
@00001203 FD
@00001204 FE
@00001205 F9
@00001206 FF
@00001207 F0
@00001208 F2
@00001209 FF
@0000120A EE
@0000120B 07
@0000120C 01
@0000120D FE
@0000120E F7
@0000120F 04
@00001210 F5
@00001211 F5
@00001212 FC
@00001213 01
@00001214 F3
@00001215 EF
@00001216 FD
@00001217 05
@00001218 F7
@00001219 0E
@0000121A 09
@0000121B 04
@0000121C 05
@0000121D FC
@0000121E 0E
@0000121F F8
@00001220 0F
@00001221 02
@00001222 F2
@00001223 FE
@00001224 01
@00001225 0D
@00001226 04
@00001227 02
@00001228 0E
@00001229 08
@0000122A 03
@0000122B 0F
@0000122C 0D
@0000122D F5
@0000122E FA
@0000122F 00
@00001230 F8
@00001231 F0
@00001232 FC
@00001233 F0
@00001234 FF
@00001235 00
@00001236 F7
@00001237 EF
@00001238 F6
@00001239 00
@0000123A 16
@0000123B 0D
@0000123C F8
@0000123D 0F
@0000123E 03
@0000123F FC
@00001240 FD
@00001241 FB
@00001242 0B
@00001243 05
@00001244 08
@00001245 14
@00001246 F4
@00001247 09
@00001248 01
@00001249 15
@0000124A FD
@0000124B 0D
@0000124C 02
@0000124D F6
@0000124E 15
@0000124F F3
@00001250 FC
@00001251 07
@00001252 07
@00001253 F3
@00001254 EE
@00001255 FB
@00001256 0E
@00001257 F2
@00001258 07
@00001259 0B
@0000125A F9
@0000125B 08
@0000125C 01
@0000125D F7
@0000125E F5
@0000125F 02
@00001260 FD
@00001261 04
@00001262 FD
@00001263 0C
@00001264 04
@00001265 01
@00001266 F7
@00001267 01
@00001268 05
@00001269 05
@0000126A 0F
@0000126B FA
@0000126C 15
@0000126D E5
@0000126E F5
@0000126F 14
@00001270 EE
@00001271 07
@00001272 03
@00001273 E4
@00001274 00
@00001275 ED
@00001276 0B
@00001277 FE
@00001278 F9
@00001279 06
@0000127A FD
@0000127B EE
@0000127C 11
@0000127D F6
@0000127E 14
@0000127F 02
@00001280 02
@00001281 15
@00001282 0E
@00001283 FE
@00001284 0D
@00001285 F6
@00001286 F9
@00001287 EB
@00001288 0E
@00001289 F8
@0000128A FD
@0000128B 13
@0000128C 06
@0000128D 08
@0000128E 04
@0000128F 10
@00001290 EC
@00001291 0B
@00001292 03
@00001293 F2
@00001294 16
@00001295 FA
@00001296 F9
@00001297 08
@00001298 FE
@00001299 F8
@0000129A FF
@0000129B 0A
@0000129C F6
@0000129D 05
@0000129E F7
@0000129F 02
@000012A0 FC
@000012A1 02
@000012A2 FC
@000012A3 00
@000012A4 FF
@000012A5 F3
@000012A6 05
@000012A7 F7
@000012A8 F0
@000012A9 FF
@000012AA FC
@000012AB F5
@000012AC 06
@000012AD 0D
@000012AE 06
@000012AF F5
@000012B0 01
@000012B1 0B
@000012B2 07
@000012B3 0A
@000012B4 FB
@000012B5 EF
@000012B6 13
@000012B7 F5
@000012B8 FC
@000012B9 16
@000012BA F5
@000012BB 0A
@000012BC FF
@000012BD F7
@000012BE FF
@000012BF EE
@000012C0 FD
@000012C1 01
@000012C2 F1
@000012C3 01
@000012C4 05
@000012C5 FF
@000012C6 F9
@000012C7 00
@000012C8 01
@000012C9 F4
@000012CA FA
@000012CB F7
@000012CC F7
@000012CD FC
@000012CE FF
@000012CF F8
@000012D0 06
@000012D1 04
@000012D2 F5
@000012D3 06
@000012D4 F3
@000012D5 F8
@000012D6 07
@000012D7 13
@000012D8 00
@000012D9 F5
@000012DA 08
@000012DB F6
@000012DC 00
@000012DD 0C
@000012DE FC
@000012DF 01
@000012E0 05
@000012E1 EF
@000012E2 F9
@000012E3 07
@000012E4 ED
@000012E5 F7
@000012E6 F8
@000012E7 FC
@000012E8 0D
@000012E9 FE
@000012EA 15
@000012EB FF
@000012EC 0A
@000012ED 11
@000012EE F0
@000012EF 07
@000012F0 09
@000012F1 E8
@000012F2 01
@000012F3 00
@000012F4 FC
@000012F5 F6
@000012F6 03
@000012F7 09
@000012F8 0A
@000012F9 FF
@000012FA 09
@000012FB FA
@000012FC FE
@000012FD 0C
@000012FE FA
@000012FF F9
@00001300 17
@00001301 0F
@00001302 01
@00001303 03
@00001304 FC
@00001305 04
@00001306 FA
@00001307 08
@00001308 F1
@00001309 F7
@0000130A 02
@0000130B F4
@0000130C 04
@0000130D FD
@0000130E F5
@0000130F 01
@00001310 F0
@00001311 F2
@00001312 F5
@00001313 F8
@00001314 08
@00001315 FC
@00001316 06
@00001317 F4
@00001318 F8
@00001319 05
@0000131A F3
@0000131B F8
@0000131C 09
@0000131D FB
@0000131E 05
@0000131F 02
@00001320 FD
@00001321 03
@00001322 0B
@00001323 02
@00001324 0F
@00001325 01
@00001326 07
@00001327 F5
@00001328 F7
@00001329 FC
@0000132A FB
@0000132B EF
@0000132C 00
@0000132D 02
@0000132E 06
@0000132F 00
@00001330 0E
@00001331 E7
@00001332 08
@00001333 00
@00001334 FC
@00001335 06
@00001336 F0
@00001337 F2
@00001338 FC
@00001339 03
@0000133A FA
@0000133B 10
@0000133C FB
@0000133D F9
@0000133E F5
@0000133F FC
@00001340 ED
@00001341 08
@00001342 11
@00001343 FD
@00001344 FF
@00001345 F7
@00001346 F6
@00001347 1C
@00001348 FE
@00001349 F9
@0000134A F4
@0000134B F0
@0000134C FE
@0000134D 0B
@0000134E 05
@0000134F FF
@00001350 FE
@00001351 05
@00001352 F3
@00001353 F3
@00001354 EA
@00001355 F9
@00001356 16
@00001357 12
@00001358 FA
@00001359 10
@0000135A FE
@0000135B F3
@0000135C FA
@0000135D 07
@0000135E F0
@0000135F 00
@00001360 F7
@00001361 F5
@00001362 08
@00001363 02
@00001364 F1
@00001365 06
@00001366 ED
@00001367 E1
@00001368 FC
@00001369 FB
@0000136A F2
@0000136B 01
@0000136C 0D
@0000136D 04
@0000136E FA
@0000136F F2
@00001370 EF
@00001371 0F
@00001372 02
@00001373 F5
@00001374 02
@00001375 F1
@00001376 04
@00001377 08
@00001378 03
@00001379 F8
@0000137A 0D
@0000137B 01
@0000137C 02
@0000137D FB
@0000137E EE
@0000137F F4
@00001380 03
@00001381 09
@00001382 FA
@00001383 FC
@00001384 03
@00001385 F4
@00001386 F9
@00001387 FA
@00001388 FC
@00001389 FA
@0000138A 02
@0000138B 01
@0000138C F3
@0000138D 03
@0000138E ED
@0000138F F7
@00001390 0A
@00001391 F6
@00001392 FB
@00001393 08
@00001394 F7
@00001395 EB
@00001396 D9
@00001397 F9
@00001398 0C
@00001399 1F
@0000139A 0A
@0000139B F2
@0000139C EF
@0000139D E9
@0000139E 09
@0000139F EE
@000013A0 FC
@000013A1 02
@000013A2 07
@000013A3 04
@000013A4 02
@000013A5 F2
@000013A6 FE
@000013A7 0E
@000013A8 FF
@000013A9 F1
@000013AA 02
@000013AB FC
@000013AC 0D
@000013AD FE
@000013AE FD
@000013AF FE
@000013B0 FA
@000013B1 F0
@000013B2 0D
@000013B3 00
@000013B4 F7
@000013B5 0D
@000013B6 F5
@000013B7 FB
@000013B8 07
@000013B9 0A
@000013BA 08
@000013BB 01
@000013BC 06
@000013BD FD
@000013BE F0
@000013BF FB
@000013C0 19
@000013C1 05
@000013C2 FD
@000013C3 F5
@000013C4 F8
@000013C5 F7
@000013C6 F8
@000013C7 03
@000013C8 FA
@000013C9 F8
@000013CA FC
@000013CB F3
@000013CC ED
@000013CD 02
@000013CE 08
@000013CF 07
@000013D0 FF
@000013D1 FC
@000013D2 02
@000013D3 08
@000013D4 00
@000013D5 04
@000013D6 EE
@000013D7 F8
@000013D8 F4
@000013D9 FB
@000013DA 16
@000013DB EF
@000013DC F0
@000013DD 02
@000013DE 0C
@000013DF 0E
@000013E0 02
@000013E1 F7
@000013E2 F3
@000013E3 0D
@000013E4 05
@000013E5 10
@000013E6 FE
@000013E7 01
@000013E8 FA
@000013E9 FF
@000013EA 05
@000013EB F7
@000013EC FA
@000013ED FB
@000013EE 08
@000013EF 00
@000013F0 01
@000013F1 FA
@000013F2 03
@000013F3 F4
@000013F4 12
@000013F5 F7
@000013F6 0A
@000013F7 08
@000013F8 05
@000013F9 01
@000013FA E9
@000013FB 08
@000013FC 15
@000013FD FE
@000013FE 0A
@000013FF FE
@00001400 F4
@00001401 FA
@00001402 08
@00001403 FE
@00001404 FF
@00001405 FA
@00001406 FD
@00001407 07
@00001408 F0
@00001409 F7
@0000140A F1
@0000140B 01
@0000140C FC
@0000140D 00
@0000140E 1A
@0000140F 03
@00001410 F5
@00001411 FC
@00001412 E2
@00001413 F9
@00001414 FC
@00001415 EE
@00001416 FA
@00001417 F6
@00001418 0B
@00001419 02
@0000141A EF
@0000141B FE
@0000141C FB
@0000141D 08
@0000141E 05
@0000141F FD
@00001420 02
@00001421 FA
@00001422 00
@00001423 F3
@00001424 11
@00001425 F8
@00001426 12
@00001427 04
@00001428 05
@00001429 04
@0000142A F2
@0000142B 0D
@0000142C F7
@0000142D FD
@0000142E F8
@0000142F EE
@00001430 EA
@00001431 13
@00001432 12
@00001433 10
@00001434 ED
@00001435 F2
@00001436 F3
@00001437 FA
@00001438 0C
@00001439 FF
@0000143A 05
@0000143B 03
@0000143C ED
@0000143D FE
@0000143E F7
@0000143F 01
@00001440 03
@00001441 01
@00001442 02
@00001443 F6
@00001444 03
@00001445 05
@00001446 02
@00001447 01
@00001448 00
@00001449 FC
@0000144A 05
@0000144B 00
@0000144C 03
@0000144D 09
@0000144E FB
@0000144F 0D
@00001450 00
@00001451 EF
@00001452 03
@00001453 FA
@00001454 01
@00001455 F2
@00001456 FF
@00001457 FC
@00001458 F9
@00001459 FD
@0000145A FF
@0000145B FB
@0000145C FA
@0000145D FC
@0000145E F8
@0000145F 09
@00001460 EC
@00001461 FD
@00001462 F4
@00001463 01
@00001464 12
@00001465 F7
@00001466 F5
@00001467 0B
@00001468 FE
@00001469 01
@0000146A FE
@0000146B FA
@0000146C FF
@0000146D 04
@0000146E 08
@0000146F F0
@00001470 04
@00001471 F5
@00001472 E9
@00001473 03
@00001474 EB
@00001475 F9
@00001476 01
@00001477 02
@00001478 F1
@00001479 FA
@0000147A FA
@0000147B 01
@0000147C FB
@0000147D FB
@0000147E 04
@0000147F F8
@00001480 FC
@00001481 10
@00001482 0C
@00001483 F9
@00001484 06
@00001485 FE
@00001486 0B
@00001487 FB
@00001488 F1
@00001489 F1
@0000148A 07
@0000148B EC
@0000148C 0B
@0000148D 0A
@0000148E F8
@0000148F 14
@00001490 FA
@00001491 F7
@00001492 0E
@00001493 F3
@00001494 F7
@00001495 F3
@00001496 03
@00001497 01
@00001498 FF
@00001499 05
@0000149A 00
@0000149B 03
@0000149C 0B
@0000149D 02
@0000149E 07
@0000149F 01
@000014A0 FE
@000014A1 01
@000014A2 0A
@000014A3 FE
@000014A4 08
@000014A5 F3
@000014A6 08
@000014A7 FD
@000014A8 FB
@000014A9 0D
@000014AA 03
@000014AB F8
@000014AC 00
@000014AD 06
@000014AE 04
@000014AF F9
@000014B0 0C
@000014B1 EB
@000014B2 01
@000014B3 06
@000014B4 F5
@000014B5 F4
@000014B6 FE
@000014B7 F2
@000014B8 F7
@000014B9 FA
@000014BA F8
@000014BB F7
@000014BC FD
@000014BD 04
@000014BE F7
@000014BF 12
@000014C0 0A
@000014C1 FC
@000014C2 FC
@000014C3 0B
@000014C4 07
@000014C5 FB
@000014C6 03
@000014C7 00
@000014C8 F6
@000014C9 F8
@000014CA 05
@000014CB FC
@000014CC F8
@000014CD 01
@000014CE FC
@000014CF FD
@000014D0 F1
@000014D1 FF
@000014D2 E1
@000014D3 F7
@000014D4 0A
@000014D5 0B
@000014D6 FD
@000014D7 06
@000014D8 17
@000014D9 0A
@000014DA F6
@000014DB F1
@000014DC 0A
@000014DD 01
@000014DE F3
@000014DF 00
@000014E0 01
@000014E1 0A
@000014E2 FA
@000014E3 03
@000014E4 FE
@000014E5 F8
@000014E6 F5
@000014E7 0D
@000014E8 F3
@000014E9 FE
@000014EA 00
@000014EB 01
@000014EC F9
@000014ED F0
@000014EE F8
@000014EF FB
@000014F0 F0
@000014F1 FD
@000014F2 F6
@000014F3 06
@000014F4 09
@000014F5 FE
@000014F6 04
@000014F7 FD
@000014F8 EE
@000014F9 F1
@000014FA 07
@000014FB F3
@000014FC F0
@000014FD 0D
@000014FE 02
@000014FF 07
@00001500 01
@00001501 02
@00001502 0F
@00001503 F3
@00001504 03
@00001505 0C
@00001506 00
@00001507 01
@00001508 FB
@00001509 FA
@0000150A 05
@0000150B FB
@0000150C F3
@0000150D F8
@0000150E 06
@0000150F 02
@00001510 06
@00001511 FA
@00001512 00
@00001513 09
@00001514 10
@00001515 F7
@00001516 0B
@00001517 04
@00001518 0C
@00001519 10
@0000151A FC
@0000151B FE
@0000151C FB
@0000151D FC
@0000151E 09
@0000151F F0
@00001520 F9
@00001521 04
@00001522 04
@00001523 F4
@00001524 09
@00001525 00
@00001526 FD
@00001527 07
@00001528 F0
@00001529 03
@0000152A FD
@0000152B 14
@0000152C FE
@0000152D FF
@0000152E FE
@0000152F F2
@00001530 0E
@00001531 E9
@00001532 F0
@00001533 F8
@00001534 FE
@00001535 10
@00001536 F8
@00001537 05
@00001538 05
@00001539 03
@0000153A 05
@0000153B F9
@0000153C 04
@0000153D 0D
@0000153E FB
@0000153F FA
@00001540 0A
@00001541 06
@00001542 FA
@00001543 08
@00001544 FF
@00001545 09
@00001546 FF
@00001547 F2
@00001548 0E
@00001549 00
@0000154A EB
@0000154B 0F
@0000154C FA
@0000154D 03
@0000154E 00
@0000154F FE
@00001550 04
@00001551 EF
@00001552 FE
@00001553 0A
@00001554 FF
@00001555 F3
@00001556 02
@00001557 FE
@00001558 0C
@00001559 00
@0000155A 0F
@0000155B F4
@0000155C F4
@0000155D FB
@0000155E F1
@0000155F FA
@00001560 E7
@00001561 08
@00001562 03
@00001563 FC
@00001564 05
@00001565 F6
@00001566 F1
@00001567 0D
@00001568 02
@00001569 F8
@0000156A F4
@0000156B F9
@0000156C F6
@0000156D FC
@0000156E 18
@0000156F ED
@00001570 0C
@00001571 1D
@00001572 05
@00001573 FE
@00001574 F1
@00001575 FB
@00001576 05
@00001577 FB
@00001578 04
@00001579 F3
@0000157A 05
@0000157B 03
@0000157C F2
@0000157D F9
@0000157E FA
@0000157F 11
@00001580 EF
@00001581 F6
@00001582 F6
@00001583 F1
@00001584 FD
@00001585 E6
@00001586 0A
@00001587 07
@00001588 E7
@00001589 12
@0000158A 08
@0000158B FD
@0000158C EB
@0000158D 09
@0000158E F7
@0000158F FD
@00001590 F8
@00001591 E6
@00001592 02
@00001593 06
@00001594 09
@00001595 00
@00001596 FB
@00001597 F7
@00001598 0C
@00001599 17
@0000159A 0B
@0000159B F0
@0000159C FC
@0000159D FF
@0000159E 02
@0000159F 01
@000015A0 0A
@000015A1 F7
@000015A2 F4
@000015A3 F8
@000015A4 F6
@000015A5 FA
@000015A6 06
@000015A7 08
@000015A8 F3
@000015A9 00
@000015AA 35
@000015AB 0C
@000015AC 10
@000015AD EF
@000015AE 11
@000015AF 06
@000015B0 DF
@000015B1 F5
@000015B2 FB
@000015B3 FB
@000015B4 06
@000015B5 F6
@000015B6 03
@000015B7 F7
@000015B8 FD
@000015B9 ED
@000015BA EC
@000015BB 13
@000015BC F8
@000015BD F8
@000015BE 01
@000015BF FD
@000015C0 F9
@000015C1 F2
@000015C2 15
@000015C3 FC
@000015C4 F4
@000015C5 F3
@000015C6 FD
@000015C7 DD
@000015C8 F8
@000015C9 F7
@000015CA 0E
@000015CB F8
@000015CC 0F
@000015CD FF
@000015CE EF
@000015CF FC
@000015D0 DD
@000015D1 07
@000015D2 DD
@000015D3 F8
@000015D4 FB
@000015D5 03
@000015D6 F8
@000015D7 ED
@000015D8 F9
@000015D9 EF
@000015DA 03
@000015DB F0
@000015DC FE
@000015DD EC
@000015DE 0E
@000015DF 20
@000015E0 08
@000015E1 12
@000015E2 F9
@000015E3 09
@000015E4 0F
@000015E5 F5
@000015E6 10
@000015E7 FA
@000015E8 F5
@000015E9 05
@000015EA F5
@000015EB 06
@000015EC 19
@000015ED 05
@000015EE 10
@000015EF FC
@000015F0 E0
@000015F1 FA
@000015F2 07
@000015F3 F7
@000015F4 0B
@000015F5 26
@000015F6 FF
@000015F7 15
@000015F8 FB
@000015F9 09
@000015FA F5
@000015FB FB
@000015FC FC
@000015FD 01
@000015FE FE
@000015FF 0D
@00001600 ED
@00001601 F2
@00001602 04
@00001603 05
@00001604 F8
@00001605 01
@00001606 FD
@00001607 0A
@00001608 0D
@00001609 1B
@0000160A F3
@0000160B F6
@0000160C DF
@0000160D F1
@0000160E FE
@0000160F F7
@00001610 F9
@00001611 08
@00001612 FB
@00001613 F1
@00001614 FB
@00001615 EB
@00001616 01
@00001617 11
@00001618 F9
@00001619 FD
@0000161A 09
@0000161B 07
@0000161C FA
@0000161D FE
@0000161E 12
@0000161F 2B
@00001620 0E
@00001621 15
@00001622 F5
@00001623 16
@00001624 0D
@00001625 F7
@00001626 02
@00001627 03
@00001628 FD
@00001629 FD
@0000162A EB
@0000162B EF
@0000162C 03
@0000162D 02
@0000162E E8
@0000162F 09
@00001630 ED
@00001631 FC
@00001632 12
@00001633 F3
@00001634 FD
@00001635 F6
@00001636 06
@00001637 02
@00001638 F9
@00001639 0A
@0000163A 01
@0000163B 09
@0000163C F7
@0000163D 0A
@0000163E 09
@0000163F 05
@00001640 10
@00001641 1C
@00001642 04
@00001643 0D
@00001644 11
@00001645 F5
@00001646 1B
@00001647 0C
@00001648 0A
@00001649 00
@0000164A 0B
@0000164B FE
@0000164C F5
@0000164D F8
@0000164E EA
@0000164F 03
@00001650 F4
@00001651 18
@00001652 0F
@00001653 FB
@00001654 FF
@00001655 05
@00001656 F7
@00001657 F1
@00001658 0C
@00001659 0E
@0000165A F9
@0000165B FB
@0000165C F4
@0000165D EE
@0000165E 09
@0000165F F7
@00001660 08
@00001661 0C
@00001662 ED
@00001663 FD
@00001664 E0
@00001665 E9
@00001666 05
@00001667 E2
@00001668 F4
@00001669 FC
@0000166A 08
@0000166B 0F
@0000166C FC
@0000166D F9
@0000166E FF
@0000166F 07
@00001670 EE
@00001671 F2
@00001672 FD
@00001673 03
@00001674 F8
@00001675 06
@00001676 02
@00001677 FC
@00001678 0F
@00001679 FE
@0000167A F2
@0000167B FE
@0000167C 0D
@0000167D 05
@0000167E 0A
@0000167F 01
@00001680 FE
@00001681 02
@00001682 FF
@00001683 0E
@00001684 05
@00001685 09
@00001686 05
@00001687 FD
@00001688 0E
@00001689 04
@0000168A F6
@0000168B F2
@0000168C 01
@0000168D ED
@0000168E F9
@0000168F FA
@00001690 F1
@00001691 F9
@00001692 FC
@00001693 00
@00001694 03
@00001695 F9
@00001696 EA
@00001697 FC
@00001698 06
@00001699 08
@0000169A 09
@0000169B 0C
@0000169C 04
@0000169D EB
@0000169E 10
@0000169F 0A
@000016A0 FB
@000016A1 F7
@000016A2 0D
@000016A3 12
@000016A4 06
@000016A5 F8
@000016A6 03
@000016A7 02
@000016A8 00
@000016A9 00
@000016AA 0B
@000016AB 0D
@000016AC 06
@000016AD 02
@000016AE F9
@000016AF F5
@000016B0 04
@000016B1 04
@000016B2 F0
@000016B3 07
@000016B4 0F
@000016B5 F7
@000016B6 F5
@000016B7 FE
@000016B8 07
@000016B9 FF
@000016BA 03
@000016BB 0A
@000016BC 05
@000016BD 06
@000016BE F8
@000016BF 06
@000016C0 01
@000016C1 01
@000016C2 05
@000016C3 0F
@000016C4 03
@000016C5 FB
@000016C6 01
@000016C7 05
@000016C8 EE
@000016C9 11
@000016CA 05
@000016CB F3
@000016CC 02
@000016CD 0C
@000016CE FE
@000016CF EB
@000016D0 01
@000016D1 FC
@000016D2 F5
@000016D3 FD
@000016D4 02
@000016D5 FE
@000016D6 FA
@000016D7 F9
@000016D8 09
@000016D9 06
@000016DA 05
@000016DB F0
@000016DC F5
@000016DD 1A
@000016DE 13
@000016DF FD
@000016E0 F9
@000016E1 0F
@000016E2 F7
@000016E3 03
@000016E4 FD
@000016E5 07
@000016E6 0D
@000016E7 F8
@000016E8 0D
@000016E9 08
@000016EA FF
@000016EB 0A
@000016EC 07
@000016ED F4
@000016EE DE
@000016EF 04
@000016F0 F2
@000016F1 F3
@000016F2 F4
@000016F3 01
@000016F4 E9
@000016F5 F9
@000016F6 06
@000016F7 06
@000016F8 FE
@000016F9 00
@000016FA 03
@000016FB F6
@000016FC F4
@000016FD 01
@000016FE 01
@000016FF 03
@00001700 00
@00001701 04
@00001702 06
@00001703 0A
@00001704 08
@00001705 05
@00001706 03
@00001707 00
@00001708 07
@00001709 FB
@0000170A 04
@0000170B EC
@0000170C 10
@0000170D FA
@0000170E F8
@0000170F 07
@00001710 F7
@00001711 FF
@00001712 08
@00001713 F5
@00001714 08
@00001715 F7
@00001716 F6
@00001717 FA
@00001718 EB
@00001719 07
@0000171A F7
@0000171B 14
@0000171C 04
@0000171D F9
@0000171E FC
@0000171F 09
@00001720 FB
@00001721 F1
@00001722 F9
@00001723 00
@00001724 FC
@00001725 02
@00001726 0D
@00001727 0A
@00001728 01
@00001729 FA
@0000172A FB
@0000172B 01
@0000172C 08
@0000172D 0F
@0000172E FB
@0000172F FA
@00001730 0B
@00001731 0B
@00001732 FC
@00001733 F6
@00001734 07
@00001735 04
@00001736 01
@00001737 F5
@00001738 F0
@00001739 FA
@0000173A FF
@0000173B EF
@0000173C 04
@0000173D F8
@0000173E 04
@0000173F FA
@00001740 F5
@00001741 FF
@00001742 FF
@00001743 12
@00001744 10
@00001745 F4
@00001746 01
@00001747 04
@00001748 FB
@00001749 07
@0000174A F5
@0000174B EF
@0000174C 01
@0000174D 0F
@0000174E F7
@0000174F 01
@00001750 FF
@00001751 06
@00001752 F9
@00001753 F7
@00001754 12
@00001755 F5
@00001756 FB
@00001757 09
@00001758 EF
@00001759 F8
@0000175A 05
@0000175B F6
@0000175C FB
@0000175D FF
@0000175E F8
@0000175F 09
@00001760 04
@00001761 F8
@00001762 06
@00001763 01
@00001764 00
@00001765 03
@00001766 0A
@00001767 0E
@00001768 03
@00001769 FF
@0000176A 0D
@0000176B F6
@0000176C EA
@0000176D 0B
@0000176E 00
@0000176F EE
@00001770 F4
@00001771 0A
@00001772 FA
@00001773 F1
@00001774 01
@00001775 FF
@00001776 FD
@00001777 06
@00001778 0A
@00001779 FC
@0000177A 01
@0000177B 04
@0000177C 0B
@0000177D F5
@0000177E 0A
@0000177F 05
@00001780 EE
@00001781 FA
@00001782 0C
@00001783 FA
@00001784 F4
@00001785 0D
@00001786 02
@00001787 04
@00001788 0E
@00001789 FB
@0000178A F7
@0000178B 07
@0000178C 03
@0000178D F6
@0000178E F4
@0000178F F7
@00001790 01
@00001791 05
@00001792 FB
@00001793 FB
@00001794 00
@00001795 F4
@00001796 F5
@00001797 FC
@00001798 03
@00001799 FA
@0000179A 05
@0000179B 00
@0000179C 03
@0000179D FB
@0000179E FF
@0000179F 09
@000017A0 0B
@000017A1 FA
@000017A2 16
@000017A3 FF
@000017A4 FF
@000017A5 07
@000017A6 FD
@000017A7 FD
@000017A8 06
@000017A9 F5
@000017AA FC
@000017AB FB
@000017AC F7
@000017AD 00
@000017AE 0A
@000017AF 06
@000017B0 F7
@000017B1 F8
@000017B2 03
@000017B3 FF
@000017B4 F8
@000017B5 FE
@000017B6 11
@000017B7 F4
@000017B8 0A
@000017B9 FF
@000017BA F7
@000017BB F4
@000017BC 02
@000017BD FC
@000017BE F4
@000017BF 02
@000017C0 03
@000017C1 FF
@000017C2 F6
@000017C3 FB
@000017C4 FB
@000017C5 FB
@000017C6 F9
@000017C7 F8
@000017C8 08
@000017C9 FC
@000017CA FB
@000017CB F6
@000017CC F7
@000017CD 05
@000017CE 02
@000017CF F3
@000017D0 11
@000017D1 FD
@000017D2 0D
@000017D3 13
@000017D4 04
@000017D5 0A
@000017D6 FF
@000017D7 02
@000017D8 F5
@000017D9 08
@000017DA FB
@000017DB F9
@000017DC F3
@000017DD FB
@000017DE 04
@000017DF F9
@000017E0 F3
@000017E1 07
@000017E2 F7
@000017E3 04
@000017E4 02
@000017E5 F0
@000017E6 F5
@000017E7 0D
@000017E8 F8
@000017E9 E9
@000017EA EF
@000017EB 09
@000017EC FC
@000017ED E9
@000017EE FE
@000017EF FC
@000017F0 FE
@000017F1 03
@000017F2 FD
@000017F3 02
@000017F4 08
@000017F5 FB
@000017F6 FD
@000017F7 F4
@000017F8 05
@000017F9 FA
@000017FA F6
@000017FB F7
@000017FC 08
@000017FD FD
@000017FE FF
@000017FF 0E
@00001800 F9
@00001801 FD
@00001802 00
@00001803 ED
@00001804 06
@00001805 F3
@00001806 FB
@00001807 FB
@00001808 09
@00001809 04
@0000180A 02
@0000180B 02
@0000180C 1A
@0000180D 02
@0000180E F2
@0000180F 00
@00001810 F9
@00001811 06
@00001812 03
@00001813 F9
@00001814 FC
@00001815 04
@00001816 F5
@00001817 FF
@00001818 07
@00001819 FA
@0000181A 01
@0000181B 0E
@0000181C FA
@0000181D EC
@0000181E EE
@0000181F 01
@00001820 06
@00001821 EE
@00001822 F3
@00001823 F0
@00001824 FB
@00001825 DC
@00001826 F2
@00001827 FB
@00001828 01
@00001829 F4
@0000182A F4
@0000182B 02
@0000182C F5
@0000182D F9
@0000182E FB
@0000182F F5
@00001830 F0
@00001831 ED
@00001832 FC
@00001833 08
@00001834 F1
@00001835 F5
@00001836 10
@00001837 FB
@00001838 E5
@00001839 05
@0000183A 0B
@0000183B 04
@0000183C F7
@0000183D 07
@0000183E EF
@0000183F F9
@00001840 FE
@00001841 0B
@00001842 F7
@00001843 04
@00001844 FB
@00001845 F7
@00001846 FD
@00001847 F6
@00001848 04
@00001849 F9
@0000184A 01
@0000184B 04
@0000184C EE
@0000184D 07
@0000184E 07
@0000184F 0E
@00001850 EB
@00001851 09
@00001852 09
@00001853 F3
@00001854 00
@00001855 FE
@00001856 09
@00001857 F6
@00001858 FE
@00001859 FE
@0000185A F6
@0000185B 0A
@0000185C 0F
@0000185D F2
@0000185E FC
@0000185F F8
@00001860 FF
@00001861 F2
@00001862 FE
@00001863 06
@00001864 03
@00001865 00
@00001866 01
@00001867 1E
@00001868 FB
@00001869 F1
@0000186A FA
@0000186B 04
@0000186C F5
@0000186D F0
@0000186E 0D
@0000186F 05
@00001870 F5
@00001871 10
@00001872 FB
@00001873 EE
@00001874 0F
@00001875 0A
@00001876 F9
@00001877 FB
@00001878 07
@00001879 FC
@0000187A 00
@0000187B 0F
@0000187C 02
@0000187D F2
@0000187E E6
@0000187F 00
@00001880 FB
@00001881 12
@00001882 01
@00001883 FB
@00001884 0E
@00001885 FA
@00001886 02
@00001887 04
@00001888 0E
@00001889 04
@0000188A FF
@0000188B 14
@0000188C 0C
@0000188D FA
@0000188E 17
@0000188F 0A
@00001890 07
@00001891 08
@00001892 FE
@00001893 09
@00001894 F8
@00001895 FD
@00001896 02
@00001897 FB
@00001898 E4
@00001899 01
@0000189A FE
@0000189B E8
@0000189C F8
@0000189D 10
@0000189E 09
@0000189F 2A
@000018A0 03
@000018A1 0C
@000018A2 14
@000018A3 FC
@000018A4 05
@000018A5 05
@000018A6 09
@000018A7 F9
@000018A8 F9
@000018A9 F6
@000018AA 1D
@000018AB F9
@000018AC 01
@000018AD 08
@000018AE 02
@000018AF FA
@000018B0 F0
@000018B1 14
@000018B2 F8
@000018B3 F2
@000018B4 FF
@000018B5 08
@000018B6 F1
@000018B7 07
@000018B8 F2
@000018B9 F8
@000018BA FB
@000018BB 01
@000018BC FC
@000018BD FB
@000018BE 16
@000018BF FC
@000018C0 FB
@000018C1 F9
@000018C2 FD
@000018C3 03
@000018C4 02
@000018C5 05
@000018C6 FF
@000018C7 06
@000018C8 03
@000018C9 FA
@000018CA F8
@000018CB 07
@000018CC F3
@000018CD F3
@000018CE F4
@000018CF F7
@000018D0 FE
@000018D1 02
@000018D2 04
@000018D3 FE
@000018D4 04
@000018D5 02
@000018D6 10
@000018D7 FE
@000018D8 06
@000018D9 FE
@000018DA 08
@000018DB FA
@000018DC FE
@000018DD 04
@000018DE FF
@000018DF FD
@000018E0 01
@000018E1 F4
@000018E2 F9
@000018E3 FA
@000018E4 02
@000018E5 04
@000018E6 F9
@000018E7 FC
@000018E8 05
@000018E9 FC
@000018EA 0A
@000018EB 02
@000018EC 02
@000018ED 08
@000018EE 07
@000018EF 01
@000018F0 0A
@000018F1 08
@000018F2 FF
@000018F3 F6
@000018F4 0C
@000018F5 05
@000018F6 00
@000018F7 04
@000018F8 0C
@000018F9 01
@000018FA 04
@000018FB FC
@000018FC 03
@000018FD FF
@000018FE 00
@000018FF FB
@00001900 F7
@00001901 F7
@00001902 0C
@00001903 F6
@00001904 F6
@00001905 07
@00001906 01
@00001907 03
@00001908 00
@00001909 F3
@0000190A F1
@0000190B FC
@0000190C FD
@0000190D EA
@0000190E 10
@0000190F FD
@00001910 F5
@00001911 02
@00001912 F7
@00001913 0B
@00001914 0B
@00001915 01
@00001916 03
@00001917 01
@00001918 F9
@00001919 06
@0000191A FB
@0000191B 02
@0000191C 05
@0000191D 01
@0000191E FC
@0000191F 0C
@00001920 00
@00001921 07
@00001922 06
@00001923 FF
@00001924 F3
@00001925 FA
@00001926 F6
@00001927 F8
@00001928 FF
@00001929 FC
@0000192A F9
@0000192B F6
@0000192C F6
@0000192D FD
@0000192E 0A
@0000192F FB
@00001930 F9
@00001931 01
@00001932 08
@00001933 04
@00001934 0F
@00001935 09
@00001936 F1
@00001937 EB
@00001938 08
@00001939 F3
@0000193A F5
@0000193B FD
@0000193C F5
@0000193D 03
@0000193E 02
@0000193F 03
@00001940 F0
@00001941 FB
@00001942 FF
@00001943 FC
@00001944 07
@00001945 04
@00001946 F4
@00001947 05
@00001948 FB
@00001949 FC
@0000194A 05
@0000194B 02
@0000194C FA
@0000194D 0E
@0000194E F9
@0000194F F7
@00001950 0C
@00001951 F3
@00001952 FC
@00001953 0A
@00001954 F7
@00001955 07
@00001956 06
@00001957 FB
@00001958 F2
@00001959 F3
@0000195A 04
@0000195B FE
@0000195C 03
@0000195D FC
@0000195E FF
@0000195F 05
@00001960 04
@00001961 03
@00001962 FF
@00001963 F7
@00001964 00
@00001965 FE
@00001966 00
@00001967 F7
@00001968 0F
@00001969 06
@0000196A FA
@0000196B 02
@0000196C FC
@0000196D FF
@0000196E 04
@0000196F F6
@00001970 F9
@00001971 FE
@00001972 FB
@00001973 FC
@00001974 00
@00001975 FC
@00001976 F0
@00001977 02
@00001978 04
@00001979 F9
@0000197A 0A
@0000197B 05
@0000197C F6
@0000197D 00
@0000197E EE
@0000197F FF
@00001980 F0
@00001981 EB
@00001982 FD
@00001983 F8
@00001984 F0
@00001985 F7
@00001986 F8
@00001987 FB
@00001988 FE
@00001989 FE
@0000198A 01
@0000198B 03
@0000198C F8
@0000198D 04
@0000198E 03
@0000198F 0A
@00001990 FF
@00001991 05
@00001992 01
@00001993 FF
@00001994 08
@00001995 02
@00001996 FE
@00001997 FD
@00001998 FF
@00001999 FE
@0000199A F8
@0000199B 0E
@0000199C 07
@0000199D 03
@0000199E 03
@0000199F 0C
@000019A0 09
@000019A1 07
@000019A2 FF
@000019A3 F5
@000019A4 07
@000019A5 03
@000019A6 11
@000019A7 0A
@000019A8 03
@000019A9 F9
@000019AA FE
@000019AB FC
@000019AC 00
@000019AD FA
@000019AE F9
@000019AF 04
@000019B0 03
@000019B1 F4
@000019B2 03
@000019B3 FE
@000019B4 FB
@000019B5 FE
@000019B6 03
@000019B7 F3
@000019B8 03
@000019B9 FF
@000019BA FE
@000019BB 02
@000019BC FF
@000019BD 03
@000019BE 00
@000019BF 0C
@000019C0 FB
@000019C1 01
@000019C2 0E
@000019C3 F7
@000019C4 00
@000019C5 F3
@000019C6 02
@000019C7 F0
@000019C8 FC
@000019C9 FB
@000019CA F7
@000019CB FA
@000019CC FF
@000019CD 02
@000019CE 00
@000019CF 03
@000019D0 FF
@000019D1 F6
@000019D2 01
@000019D3 FD
@000019D4 F9
@000019D5 02
@000019D6 0C
@000019D7 08
@000019D8 FE
@000019D9 FD
@000019DA F4
@000019DB 02
@000019DC FA
@000019DD FB
@000019DE FF
@000019DF 03
@000019E0 F5
@000019E1 F1
@000019E2 ED
@000019E3 F8
@000019E4 FB
@000019E5 00
@000019E6 0F
@000019E7 EC
@000019E8 F2
@000019E9 F4
@000019EA FE
@000019EB F1
@000019EC FE
@000019ED 0B
@000019EE F7
@000019EF FB
@000019F0 0F
@000019F1 F6
@000019F2 FE
@000019F3 FC
@000019F4 0A
@000019F5 10
@000019F6 0C
@000019F7 05
@000019F8 FB
@000019F9 07
@000019FA 02
@000019FB 09
@000019FC 01
@000019FD F7
@000019FE F9
@000019FF FE
@00001A00 FA
@00001A01 FF
@00001A02 05
@00001A03 09
@00001A04 06
@00001A05 0C
@00001A06 10
@00001A07 02
@00001A08 03
@00001A09 00
@00001A0A 0E
@00001A0B F8
@00001A0C 01
@00001A0D FB
@00001A0E 09
@00001A0F E9
@00001A10 0C
@00001A11 FD
@00001A12 F2
@00001A13 02
@00001A14 F0
@00001A15 E9
@00001A16 10
@00001A17 F8
@00001A18 FA
@00001A19 F4
@00001A1A 01
@00001A1B F6
@00001A1C F9
@00001A1D 0E
@00001A1E FC
@00001A1F 00
@00001A20 F9
@00001A21 15
@00001A22 FB
@00001A23 FE
@00001A24 F7
@00001A25 16
@00001A26 00
@00001A27 13
@00001A28 02
@00001A29 F6
@00001A2A 03
@00001A2B FF
@00001A2C FD
@00001A2D FE
@00001A2E 06
@00001A2F ED
@00001A30 01
@00001A31 FD
@00001A32 FF
@00001A33 01
@00001A34 FA
@00001A35 FE
@00001A36 FD
@00001A37 FF
@00001A38 F8
@00001A39 FB
@00001A3A F8
@00001A3B F7
@00001A3C 05
@00001A3D F7
@00001A3E F7
@00001A3F 0E
@00001A40 03
@00001A41 13
@00001A42 01
@00001A43 0B
@00001A44 1C
@00001A45 F7
@00001A46 06
@00001A47 0B
@00001A48 F0
@00001A49 F4
@00001A4A 12
@00001A4B FE
@00001A4C 02
@00001A4D 00
@00001A4E FA
@00001A4F 01
@00001A50 F9
@00001A51 F6
@00001A52 07
@00001A53 17
@00001A54 F0
@00001A55 EA
@00001A56 06
@00001A57 F4
@00001A58 FE
@00001A59 F3
@00001A5A FB
@00001A5B 08
@00001A5C 28
@00001A5D 0B
@00001A5E 05
@00001A5F 01
@00001A60 F6
@00001A61 FB
@00001A62 03
@00001A63 02
@00001A64 0A
@00001A65 00
@00001A66 02
@00001A67 FF
@00001A68 EE
@00001A69 FC
@00001A6A F7
@00001A6B 09
@00001A6C 02
@00001A6D F7
@00001A6E EB
@00001A6F F9
@00001A70 E5
@00001A71 06
@00001A72 EF
@00001A73 F9
@00001A74 0C
@00001A75 09
@00001A76 F6
@00001A77 00
@00001A78 FD
@00001A79 05
@00001A7A FD
@00001A7B 06
@00001A7C 07
@00001A7D 1A
@00001A7E 02
@00001A7F F5
@00001A80 03
@00001A81 EB
@00001A82 EF
@00001A83 04
@00001A84 00
@00001A85 E5
@00001A86 01
@00001A87 FA
@00001A88 E3
@00001A89 05
@00001A8A FA
@00001A8B FF
@00001A8C EA
@00001A8D F2
@00001A8E FF
@00001A8F F8
@00001A90 F0
@00001A91 02
@00001A92 13
@00001A93 0E
@00001A94 FA
@00001A95 F3
@00001A96 FD
@00001A97 08
@00001A98 EC
@00001A99 F5
@00001A9A 14
@00001A9B FF
@00001A9C F1
@00001A9D FF
@00001A9E 04
@00001A9F 00
@00001AA0 FA
@00001AA1 0B
@00001AA2 14
@00001AA3 F9
@00001AA4 F7
@00001AA5 FC
@00001AA6 01
@00001AA7 0A
@00001AA8 FC
@00001AA9 FE
@00001AAA 11
@00001AAB 03
@00001AAC F4
@00001AAD EE
@00001AAE F3
@00001AAF 0F
@00001AB0 14
@00001AB1 01
@00001AB2 FB
@00001AB3 FF
@00001AB4 F5
@00001AB5 F4
@00001AB6 FF
@00001AB7 FC
@00001AB8 03
@00001AB9 F8
@00001ABA FD
@00001ABB 01
@00001ABC F1
@00001ABD FC
@00001ABE 06
@00001ABF FC
@00001AC0 11
@00001AC1 F7
@00001AC2 E9
@00001AC3 FF
@00001AC4 01
@00001AC5 FE
@00001AC6 10
@00001AC7 EC
@00001AC8 F9
@00001AC9 F8
@00001ACA 08
@00001ACB FA
@00001ACC F0
@00001ACD 07
@00001ACE F6
@00001ACF F5
@00001AD0 FA
@00001AD1 F7
@00001AD2 F9
@00001AD3 FE
@00001AD4 07
@00001AD5 02
@00001AD6 F0
@00001AD7 DD
@00001AD8 F8
@00001AD9 FF
@00001ADA 10
@00001ADB 11
@00001ADC F0
@00001ADD 27
@00001ADE 0A
@00001ADF E9
@00001AE0 13
@00001AE1 F9
@00001AE2 F7
@00001AE3 29
@00001AE4 FA
@00001AE5 09
@00001AE6 05
@00001AE7 FF
@00001AE8 11
@00001AE9 08
@00001AEA F2
@00001AEB F8
@00001AEC 07
@00001AED EE
@00001AEE DF
@00001AEF E3
@00001AF0 F7
@00001AF1 12
@00001AF2 01
@00001AF3 07
@00001AF4 07
@00001AF5 10
@00001AF6 10
@00001AF7 05
@00001AF8 F0
@00001AF9 03
@00001AFA 05
@00001AFB F0
@00001AFC 07
@00001AFD 03
@00001AFE F6
@00001AFF 04
@00001B00 F7
@00001B01 F5
@00001B02 FE
@00001B03 F7
@00001B04 FE
@00001B05 F1
@00001B06 FE
@00001B07 FD
@00001B08 F3
@00001B09 FA
@00001B0A 0B
@00001B0B FC
@00001B0C FE
@00001B0D FC
@00001B0E F3
@00001B0F F8
@00001B10 F8
@00001B11 F7
@00001B12 F5
@00001B13 FE
@00001B14 F7
@00001B15 03
@00001B16 01
@00001B17 00
@00001B18 09
@00001B19 02
@00001B1A 05
@00001B1B FC
@00001B1C FB
@00001B1D 0A
@00001B1E FC
@00001B1F 02
@00001B20 F6
@00001B21 01
@00001B22 02
@00001B23 00
@00001B24 05
@00001B25 FE
@00001B26 FE
@00001B27 04
@00001B28 05
@00001B29 F0
@00001B2A 00
@00001B2B 06
@00001B2C 04
@00001B2D 01
@00001B2E 0A
@00001B2F 04
@00001B30 FB
@00001B31 FC
@00001B32 04
@00001B33 F3
@00001B34 00
@00001B35 FB
@00001B36 0C
@00001B37 03
@00001B38 FC
@00001B39 FE
@00001B3A 00
@00001B3B 09
@00001B3C FE
@00001B3D F6
@00001B3E F9
@00001B3F FF
@00001B40 F8
@00001B41 FA
@00001B42 F6
@00001B43 04
@00001B44 F9
@00001B45 06
@00001B46 FC
@00001B47 06
@00001B48 EA
@00001B49 EC
@00001B4A F7
@00001B4B EE
@00001B4C F9
@00001B4D F6
@00001B4E FA
@00001B4F FE
@00001B50 F5
@00001B51 09
@00001B52 11
@00001B53 05
@00001B54 FA
@00001B55 0A
@00001B56 03
@00001B57 04
@00001B58 FD
@00001B59 FD
@00001B5A 03
@00001B5B 07
@00001B5C 02
@00001B5D 01
@00001B5E 00
@00001B5F 0A
@00001B60 FB
@00001B61 FC
@00001B62 04
@00001B63 F8
@00001B64 FC
@00001B65 FC
@00001B66 F9
@00001B67 03
@00001B68 F8
@00001B69 ED
@00001B6A F8
@00001B6B F2
@00001B6C 04
@00001B6D 08
@00001B6E 04
@00001B6F FD
@00001B70 FD
@00001B71 04
@00001B72 F2
@00001B73 FA
@00001B74 F9
@00001B75 F0
@00001B76 F8
@00001B77 ED
@00001B78 F9
@00001B79 FA
@00001B7A FA
@00001B7B FB
@00001B7C 05
@00001B7D F8
@00001B7E FB
@00001B7F 0F
@00001B80 03
@00001B81 08
@00001B82 FD
@00001B83 08
@00001B84 FD
@00001B85 06
@00001B86 F6
@00001B87 08
@00001B88 FF
@00001B89 FD
@00001B8A FC
@00001B8B FE
@00001B8C 07
@00001B8D 06
@00001B8E FD
@00001B8F 00
@00001B90 05
@00001B91 01
@00001B92 08
@00001B93 FA
@00001B94 F9
@00001B95 06
@00001B96 05
@00001B97 02
@00001B98 FA
@00001B99 09
@00001B9A 05
@00001B9B 03
@00001B9C 05
@00001B9D 0F
@00001B9E 07
@00001B9F FE
@00001BA0 F7
@00001BA1 02
@00001BA2 07
@00001BA3 04
@00001BA4 09
@00001BA5 02
@00001BA6 03
@00001BA7 FE
@00001BA8 02
@00001BA9 F9
@00001BAA FD
@00001BAB F7
@00001BAC F7
@00001BAD 04
@00001BAE 01
@00001BAF FF
@00001BB0 10
@00001BB1 04
@00001BB2 0C
@00001BB3 00
@00001BB4 FC
@00001BB5 F6
@00001BB6 F8
@00001BB7 F9
@00001BB8 FF
@00001BB9 00
@00001BBA 07
@00001BBB 09
@00001BBC FF
@00001BBD 07
@00001BBE 02
@00001BBF 08
@00001BC0 00
@00001BC1 07
@00001BC2 00
@00001BC3 EC
@00001BC4 F2
@00001BC5 F3
@00001BC6 15
@00001BC7 00
@00001BC8 00
@00001BC9 01
@00001BCA 02
@00001BCB 05
@00001BCC FA
@00001BCD ED
@00001BCE FB
@00001BCF 0E
@00001BD0 05
@00001BD1 11
@00001BD2 10
@00001BD3 02
@00001BD4 06
@00001BD5 FE
@00001BD6 FA
@00001BD7 FF
@00001BD8 FB
@00001BD9 EF
@00001BDA 02
@00001BDB 08
@00001BDC 05
@00001BDD 0A
@00001BDE 0A
@00001BDF 01
@00001BE0 FF
@00001BE1 F2
@00001BE2 F8
@00001BE3 F9
@00001BE4 00
@00001BE5 01
@00001BE6 FE
@00001BE7 02
@00001BE8 05
@00001BE9 0A
@00001BEA FB
@00001BEB 0B
@00001BEC 03
@00001BED F8
@00001BEE FA
@00001BEF F8
@00001BF0 FC
@00001BF1 FE
@00001BF2 FA
@00001BF3 F0
@00001BF4 F9
@00001BF5 F5
@00001BF6 FB
@00001BF7 02
@00001BF8 ED
@00001BF9 FF
@00001BFA FD
@00001BFB F8
@00001BFC 05
@00001BFD F8
@00001BFE 01
@00001BFF F1
@00001C00 F9
@00001C01 F8
@00001C02 F0
@00001C03 F3
@00001C04 F2
@00001C05 FB
@00001C06 FF
@00001C07 01
@00001C08 FE
@00001C09 09
@00001C0A 0B
@00001C0B 03
@00001C0C FD
@00001C0D 06
@00001C0E FB
@00001C0F F7
@00001C10 FC
@00001C11 FA
@00001C12 FE
@00001C13 F9
@00001C14 00
@00001C15 00
@00001C16 02
@00001C17 0E
@00001C18 01
@00001C19 00
@00001C1A 06
@00001C1B 04
@00001C1C 06
@00001C1D FA
@00001C1E 0A
@00001C1F FB
@00001C20 0B
@00001C21 FB
@00001C22 01
@00001C23 F8
@00001C24 F6
@00001C25 01
@00001C26 FE
@00001C27 0B
@00001C28 01
@00001C29 FC
@00001C2A 00
@00001C2B F2
@00001C2C FC
@00001C2D F7
@00001C2E E9
@00001C2F ED
@00001C30 FB
@00001C31 F1
@00001C32 0F
@00001C33 07
@00001C34 00
@00001C35 14
@00001C36 F6
@00001C37 0A
@00001C38 F4
@00001C39 06
@00001C3A FE
@00001C3B 13
@00001C3C 03
@00001C3D F8
@00001C3E FB
@00001C3F 13
@00001C40 02
@00001C41 08
@00001C42 FE
@00001C43 07
@00001C44 0B
@00001C45 04
@00001C46 FF
@00001C47 06
@00001C48 FA
@00001C49 11
@00001C4A 02
@00001C4B FD
@00001C4C F6
@00001C4D 01
@00001C4E 01
@00001C4F F7
@00001C50 FC
@00001C51 12
@00001C52 0F
@00001C53 08
@00001C54 04
@00001C55 06
@00001C56 F5
@00001C57 FE
@00001C58 E7
@00001C59 02
@00001C5A FA
@00001C5B FD
@00001C5C 0D
@00001C5D 03
@00001C5E 13
@00001C5F 07
@00001C60 FE
@00001C61 02
@00001C62 F0
@00001C63 EA
@00001C64 E4
@00001C65 08
@00001C66 FD
@00001C67 F4
@00001C68 FF
@00001C69 FA
@00001C6A F4
@00001C6B 01
@00001C6C FA
@00001C6D FA
@00001C6E 06
@00001C6F F6
@00001C70 F6
@00001C71 FE
@00001C72 F9
@00001C73 F8
@00001C74 FE
@00001C75 03
@00001C76 FE
@00001C77 FA
@00001C78 0B
@00001C79 F9
@00001C7A 01
@00001C7B 03
@00001C7C F8
@00001C7D FF
@00001C7E 06
@00001C7F 17
@00001C80 09
@00001C81 09
@00001C82 04
@00001C83 FA
@00001C84 ED
@00001C85 FD
@00001C86 F2
@00001C87 F7
@00001C88 ED
@00001C89 F8
@00001C8A 02
@00001C8B EE
@00001C8C FE
@00001C8D ED
@00001C8E F3
@00001C8F FF
@00001C90 F9
@00001C91 F3
@00001C92 00
@00001C93 E4
@00001C94 E8
@00001C95 FD
@00001C96 F9
@00001C97 F3
@00001C98 F9
@00001C99 ED
@00001C9A EB
@00001C9B 06
@00001C9C FB
@00001C9D F9
@00001C9E 14
@00001C9F 04
@00001CA0 FF
@00001CA1 00
@00001CA2 FB
@00001CA3 03
@00001CA4 FC
@00001CA5 F4
@00001CA6 EE
@00001CA7 09
@00001CA8 F8
@00001CA9 F5
@00001CAA FD
@00001CAB EF
@00001CAC 01
@00001CAD 07
@00001CAE 05
@00001CAF 03
@00001CB0 15
@00001CB1 08
@00001CB2 07
@00001CB3 09
@00001CB4 05
@00001CB5 FB
@00001CB6 15
@00001CB7 02
@00001CB8 07
@00001CB9 FB
@00001CBA 04
@00001CBB 06
@00001CBC 1D
@00001CBD 07
@00001CBE 0C
@00001CBF 03
@00001CC0 0B
@00001CC1 12
@00001CC2 00
@00001CC3 03
@00001CC4 0C
@00001CC5 FF
@00001CC6 F5
@00001CC7 FF
@00001CC8 15
@00001CC9 13
@00001CCA F7
@00001CCB FA
@00001CCC 0F
@00001CCD 01
@00001CCE FA
@00001CCF FE
@00001CD0 FB
@00001CD1 F3
@00001CD2 F8
@00001CD3 EC
@00001CD4 F8
@00001CD5 0E
@00001CD6 F4
@00001CD7 F5
@00001CD8 FA
@00001CD9 EF
@00001CDA 09
@00001CDB 00
@00001CDC FF
@00001CDD 1A
@00001CDE 18
@00001CDF EC
@00001CE0 08
@00001CE1 03
@00001CE2 03
@00001CE3 FC
@00001CE4 07
@00001CE5 FE
@00001CE6 FD
@00001CE7 F3
@00001CE8 FE
@00001CE9 F8
@00001CEA FA
@00001CEB 07
@00001CEC 0B
@00001CED E0
@00001CEE FB
@00001CEF FE
@00001CF0 0B
@00001CF1 FE
@00001CF2 05
@00001CF3 0E
@00001CF4 04
@00001CF5 FC
@00001CF6 1A
@00001CF7 02
@00001CF8 E5
@00001CF9 F2
@00001CFA F2
@00001CFB FE
@00001CFC F5
@00001CFD F4
@00001CFE F3
@00001CFF F6
@00001D00 FB
@00001D01 00
@00001D02 FF
@00001D03 FE
@00001D04 FE
@00001D05 FC
@00001D06 02
@00001D07 0A
@00001D08 F9
@00001D09 0D
@00001D0A FE
@00001D0B 0E
@00001D0C 0E
@00001D0D 03
@00001D0E F8
@00001D0F EC
@00001D10 F9
@00001D11 DD
@00001D12 01
@00001D13 07
@00001D14 F4
@00001D15 00
@00001D16 06
@00001D17 09
@00001D18 F2
@00001D19 01
@00001D1A 0C
@00001D1B 0E
@00001D1C 0B
@00001D1D F1
@00001D1E F1
@00001D1F F0
@00001D20 FA
@00001D21 F3
@00001D22 FB
@00001D23 FB
@00001D24 EF
@00001D25 07
@00001D26 F6
@00001D27 F8
@00001D28 FA
@00001D29 FC
@00001D2A FA
@00001D2B FE
@00001D2C FC
@00001D2D 01
@00001D2E F1
@00001D2F 00
@00001D30 FD
@00001D31 E3
@00001D32 FA
@00001D33 FD
@00001D34 F9
@00001D35 F6
@00001D36 F5
@00001D37 FD
@00001D38 05
@00001D39 07
@00001D3A F4
@00001D3B FE
@00001D3C FB
@00001D3D F5
@00001D3E 05
@00001D3F FF
@00001D40 07
@00001D41 F9
@00001D42 02
@00001D43 11
@00001D44 F9
@00001D45 07
@00001D46 FE
@00001D47 FD
@00001D48 05
@00001D49 FA
@00001D4A 10
@00001D4B F6
@00001D4C FA
@00001D4D 0D
@00001D4E EE
@00001D4F F1
@00001D50 11
@00001D51 F7
@00001D52 0C
@00001D53 05
@00001D54 01
@00001D55 EA
@00001D56 FD
@00001D57 03
@00001D58 F3
@00001D59 FE
@00001D5A FB
@00001D5B FE
@00001D5C 05
@00001D5D F7
@00001D5E 06
@00001D5F FA
@00001D60 14
@00001D61 FF
@00001D62 1D
@00001D63 08
@00001D64 0A
@00001D65 0E
@00001D66 F8
@00001D67 00
@00001D68 04
@00001D69 F7
@00001D6A 09
@00001D6B 05
@00001D6C FD
@00001D6D 02
@00001D6E 01
@00001D6F F8
@00001D70 F4
@00001D71 14
@00001D72 FF
@00001D73 FE
@00001D74 05
@00001D75 FF
@00001D76 02
@00001D77 02
@00001D78 01
@00001D79 FD
@00001D7A EA
@00001D7B 02
@00001D7C 11
@00001D7D F3
@00001D7E F7
@00001D7F 03
@00001D80 EE
@00001D81 0E
@00001D82 0C
@00001D83 E4
@00001D84 0E
@00001D85 11
@00001D86 F9
@00001D87 21
@00001D88 07
@00001D89 E5
@00001D8A 00
@00001D8B 0E
@00001D8C F0
@00001D8D 01
@00001D8E 10
@00001D8F E9
@00001D90 0A
@00001D91 00
@00001D92 07
@00001D93 EB
@00001D94 F3
@00001D95 FB
@00001D96 01
@00001D97 FA
@00001D98 FA
@00001D99 FA
@00001D9A F6
@00001D9B DF
@00001D9C F8
@00001D9D EE
@00001D9E F2
@00001D9F 02
@00001DA0 F8
@00001DA1 F2
@00001DA2 FC
@00001DA3 FE
@00001DA4 03
@00001DA5 04
@00001DA6 F8
@00001DA7 10
@00001DA8 FE
@00001DA9 04
@00001DAA 06
@00001DAB F8
@00001DAC 18
@00001DAD 08
@00001DAE FC
@00001DAF 0A
@00001DB0 03
@00001DB1 02
@00001DB2 07
@00001DB3 FE
@00001DB4 E7
@00001DB5 FF
@00001DB6 0F
@00001DB7 F6
@00001DB8 EB
@00001DB9 05
@00001DBA 0C
@00001DBB 03
@00001DBC 08
@00001DBD ED
@00001DBE FD
@00001DBF F9
@00001DC0 05
@00001DC1 07
@00001DC2 FD
@00001DC3 14
@00001DC4 0E
@00001DC5 FB
@00001DC6 03
@00001DC7 0D
@00001DC8 FC
@00001DC9 F9
@00001DCA FF
@00001DCB F7
@00001DCC 05
@00001DCD F4
@00001DCE E7
@00001DCF 08
@00001DD0 FD
@00001DD1 0C
@00001DD2 01
@00001DD3 EB
@00001DD4 08
@00001DD5 0A
@00001DD6 01
@00001DD7 FC
@00001DD8 FE
@00001DD9 F4
@00001DDA 00
@00001DDB 01
@00001DDC 00
@00001DDD 05
@00001DDE F7
@00001DDF F3
@00001DE0 FA
@00001DE1 FA
@00001DE2 F8
@00001DE3 0A
@00001DE4 F2
@00001DE5 F2
@00001DE6 04
@00001DE7 FC
@00001DE8 F2
@00001DE9 0A
@00001DEA F8
@00001DEB 09
@00001DEC FD
@00001DED 03
@00001DEE 18
@00001DEF FB
@00001DF0 10
@00001DF1 04
@00001DF2 F1
@00001DF3 17
@00001DF4 F6
@00001DF5 03
@00001DF6 FA
@00001DF7 F5
@00001DF8 0D
@00001DF9 07
@00001DFA FA
@00001DFB F8
@00001DFC FA
@00001DFD EA
@00001DFE 05
@00001DFF 07
@00001E00 F0
@00001E01 08
@00001E02 0E
@00001E03 00
@00001E04 0D
@00001E05 08
